{
  "version": "1.0",
  "truncation": null,
  "padding": null,
  "added_tokens": [
    {
      "id": 0,
      "content": "<UNK>",
      "single_word": false,
      "lstrip": false,
      "rstrip": false,
      "normalized": false,
      "special": true
    },
    {
      "id": 1,
      "content": "<PAD>",
      "single_word": false,
      "lstrip": false,
      "rstrip": false,
      "normalized": false,
      "special": true
    },
    {
      "id": 2,
      "content": "<BOS>",
      "single_word": false,
      "lstrip": false,
      "rstrip": false,
      "normalized": false,
      "special": true
    },
    {
      "id": 3,
      "content": "<EOS>",
      "single_word": false,
      "lstrip": false,
      "rstrip": false,
      "normalized": false,
      "special": true
    }
  ],
  "normalizer": {
    "type": "Sequence",
    "normalizers": [
      {
        "type": "NFD"
      },
      {
        "type": "Lowercase"
      }
    ]
  },
  "pre_tokenizer": {
    "type": "Whitespace"
  },
  "post_processor": null,
  "decoder": null,
  "model": {
    "type": "BPE",
    "dropout": null,
    "unk_token": null,
    "continuing_subword_prefix": null,
    "end_of_word_suffix": null,
    "fuse_unk": false,
    "byte_fallback": false,
    "ignore_merges": false,
    "vocab": {
      "<UNK>": 0,
      "<PAD>": 1,
      "<BOS>": 2,
      "<EOS>": 3,
      "!": 4,
      "(": 5,
      ")": 6,
      ",": 7,
      "-": 8,
      ".": 9,
      ":": 10,
      ";": 11,
      "<": 12,
      ">": 13,
      "?": 14,
      "_": 15,
      "a": 16,
      "b": 17,
      "c": 18,
      "d": 19,
      "e": 20,
      "f": 21,
      "g": 22,
      "h": 23,
      "i": 24,
      "j": 25,
      "k": 26,
      "l": 27,
      "m": 28,
      "n": 29,
      "o": 30,
      "p": 31,
      "q": 32,
      "r": 33,
      "s": 34,
      "t": 35,
      "u": 36,
      "v": 37,
      "w": 38,
      "x": 39,
      "y": 40,
      "z": 41,
      "́": 42,
      "̆": 43,
      "̈": 44,
      "а": 45,
      "б": 46,
      "в": 47,
      "г": 48,
      "д": 49,
      "е": 50,
      "ж": 51,
      "з": 52,
      "и": 53,
      "к": 54,
      "л": 55,
      "м": 56,
      "н": 57,
      "о": 58,
      "п": 59,
      "р": 60,
      "с": 61,
      "т": 62,
      "у": 63,
      "ф": 64,
      "х": 65,
      "ц": 66,
      "ч": 67,
      "ш": 68,
      "щ": 69,
      "ъ": 70,
      "ы": 71,
      "ь": 72,
      "э": 73,
      "ю": 74,
      "я": 75,
      "ст": 76,
      "ен": 77,
      "ра": 78,
      "ро": 79,
      "й": 80,
      "но": 81,
      "ко": 82,
      "ре": 83,
      "го": 84,
      "по": 85,
      "ан": 86,
      "то": 87,
      "ал": 88,
      "во": 89,
      "um": 90,
      "num": 91,
      "ер": 92,
      "ны": 93,
      "ет": 94,
      "ел": 95,
      "на": 96,
      "ит": 97,
      "об": 98,
      "ка": 99,
      "ени": 100,
      "ва": 101,
      "ри": 102,
      "ни": 103,
      "за": 104,
      "ла": 105,
      "со": 106,
      "ки": 107,
      "ли": 108,
      "про": 109,
      "да": 110,
      "до": 111,
      "та": 112,
      "ми": 113,
      "ру": 114,
      "ци": 115,
      "не": 116,
      "ло": 117,
      "мо": 118,
      "вы": 119,
      "ви": 120,
      "ани": 121,
      "ти": 122,
      "ся": 123,
      "ско": 124,
      "ди": 125,
      "ма": 126,
      "си": 127,
      "ле": 128,
      "от": 129,
      "ль": 130,
      "пре": 131,
      "сти": 132,
      "ста": 133,
      "ель": 134,
      "фо": 135,
      "ве": 136,
      "при": 137,
      "де": 138,
      "ме": 139,
      "ку": 140,
      "ду": 141,
      "че": 142,
      "ных": 143,
      "ть": 144,
      "ин": 145,
      "ем": 146,
      "ения": 147,
      "ры": 148,
      "бо": 149,
      "ком": 150,
      "ной": 151,
      "пе": 152,
      "сто": 153,
      "су": 154,
      "па": 155,
      "ного": 156,
      "ги": 157,
      "те": 158,
      "аль": 159,
      "из": 160,
      "ча": 161,
      "ски": 162,
      "хо": 163,
      "са": 164,
      "чи": 165,
      "ров": 166,
      "лу": 167,
      "вл": 168,
      "се": 169,
      "фото": 170,
      "мен": 171,
      "ств": 172,
      "га": 173,
      "му": 174,
      "али": 175,
      "ты": 176,
      "сси": 177,
      "ей": 178,
      "ный": 179,
      "ение": 180,
      "раз": 181,
      "спо": 182,
      "ные": 183,
      "ну": 184,
      "щи": 185,
      "ции": 186,
      "ют": 187,
      "пра": 188,
      "года": 189,
      "пред": 190,
      "ря": 191,
      "жи": 192,
      "сть": 193,
      "ек": 194,
      "вер": 195,
      "кон": 196,
      "пу": 197,
      "ту": 198,
      "под": 199,
      "ить": 200,
      "итель": 201,
      "ство": 202,
      "кра": 203,
      "гра": 204,
      "сь": 205,
      "ент": 206,
      "он": 207,
      "пер": 208,
      "стра": 209,
      "росси": 210,
      "сс": 211,
      "ши": 212,
      "ков": 213,
      "ской": 214,
      "пи": 215,
      "кото": 216,
      "же": 217,
      "тов": 218,
      "зо": 219,
      "ке": 220,
      "гу": 221,
      "нов": 222,
      "ще": 223,
      "дел": 224,
      "мер": 225,
      "ется": 226,
      "ным": 227,
      "ства": 228,
      "ствен": 229,
      "ания": 230,
      "лю": 231,
      "ского": 232,
      "бе": 233,
      "ня": 234,
      "фи": 235,
      "зи": 236,
      "бу": 237,
      "руб": 238,
      "ля": 239,
      "ала": 240,
      "тра": 241,
      "сле": 242,
      "комп": 243,
      "тер": 244,
      "ба": 245,
      "каз": 246,
      "ности": 247,
      "мы": 248,
      "тель": 249,
      "ск": 250,
      "гла": 251,
      "вет": 252,
      "вод": 253,
      "жд": 254,
      "ак": 255,
      "ше": 256,
      "слу": 257,
      "ность": 258,
      "ало": 259,
      "стро": 260,
      "воз": 261,
      "ное": 262,
      "это": 263,
      "мл": 264,
      "ном": 265,
      "сан": 266,
      "сооб": 267,
      "тив": 268,
      "ев": 269,
      "яб": 270,
      "пере": 271,
      "ар": 272,
      "том": 273,
      "так": 274,
      "дол": 275,
      "соб": 276,
      "году": 277,
      "став": 278,
      "вать": 279,
      "которы": 280,
      "од": 281,
      "обла": 282,
      "пол": 283,
      "ител": 284,
      "вля": 285,
      "сту": 286,
      "ав": 287,
      "тор": 288,
      "ании": 289,
      "ении": 290,
      "ска": 291,
      "ор": 292,
      "ход": 293,
      "ща": 294,
      "сло": 295,
      "лет": 296,
      "чен": 297,
      "тре": 298,
      "ред": 299,
      "ден": 300,
      "спе": 301,
      "жа": 302,
      "ная": 303,
      "ша": 304,
      "реги": 305,
      "вре": 306,
      "вой": 307,
      "объ": 308,
      "раб": 309,
      "ело": 310,
      "ский": 311,
      ">-": 312,
      "бы": 313,
      "ити": 314,
      "горо": 315,
      "дер": 316,
      "дан": 317,
      "год": 318,
      "фор": 319,
      "фе": 320,
      "тел": 321,
      "нач": 322,
      "ание": 323,
      "работ": 324,
      "би": 325,
      "также": 326,
      "сво": 327,
      "цион": 328,
      "er": 329,
      "ран": 330,
      "ром": 331,
      "ября": 332,
      "пла": 333,
      "це": 334,
      "жен": 335,
      "ция": 336,
      "тыс": 337,
      "ющи": 338,
      "дов": 339,
      "россии": 340,
      "эк": 341,
      "пл": 342,
      "гово": 343,
      "полу": 344,
      "сно": 345,
      "ских": 346,
      "сте": 347,
      "бан": 348,
      "дар": 349,
      "сов": 350,
      "кт": 351,
      "уча": 352,
      "ды": 353,
      "мет": 354,
      "вя": 355,
      "стви": 356,
      "але": 357,
      "россий": 358,
      "сент": 359,
      "бли": 360,
      "области": 361,
      ",-": 362,
      "проек": 363,
      "мини": 364,
      "ную": 365,
      "ответ": 366,
      "рт": 367,
      "клю": 368,
      "вла": 369,
      "ят": 370,
      "дом": 371,
      "сер": 372,
      "ана": 373,
      "млн": 374,
      "ита": 375,
      "дин": 376,
      "цен": 377,
      "рен": 378,
      "чет": 379,
      "ений": 380,
      "ца": 381,
      "re": 382,
      "дет": 383,
      "дей": 384,
      "ели": 385,
      "кры": 386,
      "лов": 387,
      "обще": 388,
      "зы": 389,
      "сентября": 390,
      "расс": 391,
      ").": 392,
      "мя": 393,
      "дни": 394,
      "коммер": 395,
      "ению": 396,
      "произ": 397,
      "вых": 398,
      "кан": 399,
      "госпо": 400,
      "вил": 401,
      "зу": 402,
      "ву": 403,
      "ген": 404,
      "зая": 405,
      "влен": 406,
      "ново": 407,
      "сред": 408,
      "сла": 409,
      "ха": 410,
      "рф": 411,
      "коно": 412,
      "кро": 413,
      "орг": 414,
      "ге": 415,
      "кру": 416,
      "нее": 417,
      "служ": 418,
      "боль": 419,
      "ском": 420,
      "цент": 421,
      "цию": 422,
      "она": 423,
      "прези": 424,
      "тори": 425,
      "ству": 426,
      "вал": 427,
      "реш": 428,
      "зд": 429,
      "рас": 430,
      "вые": 431,
      "суд": 432,
      "ются": 433,
      "зна": 434,
      "ными": 435,
      "рь": 436,
      "раль": 437,
      "сообщи": 438,
      "стоя": 439,
      "сни": 440,
      "грани": 441,
      "пар": 442,
      "an": 443,
      "ос": 444,
      "прав": 445,
      "кой": 446,
      "ис": 447,
      ">.": 448,
      "компании": 449,
      "сант": 450,
      "рабо": 451,
      "держ": 452,
      "вши": 453,
      "коммерсант": 454,
      "коммерсантъ": 455,
      "лен": 456,
      "тру": 457,
      "ится": 458,
      "сы": 459,
      "рд": 460,
      "рек": 461,
      "алек": 462,
      "мар": 463,
      "стан": 464,
      "дж": 465,
      "пло": 466,
      "испо": 467,
      "пера": 468,
      "ника": 469,
      "ников": 470,
      "гру": 471,
      "стру": 472,
      "соста": 473,
      "пресс": 474,
      "кре": 475,
      "пы": 476,
      "ян": 477,
      "ut": 478,
      "ские": 479,
      "время": 480,
      "нес": 481,
      "долж": 482,
      "экс": 483,
      "яти": 484,
      "лек": 485,
      "мест": 486,
      "тех": 487,
      "стре": 488,
      "),": 489,
      "мож": 490,
      "ник": 491,
      "органи": 492,
      "ней": 493,
      "вели": 494,
      "стве": 495,
      "публи": 496,
      "чер": 497,
      "правл": 498,
      "лся": 499,
      "чело": 500,
      ">,": 501,
      "челове": 502,
      "дру": 503,
      "тора": 504,
      "ограни": 505,
      "ar": 506,
      "ением": 507,
      "циаль": 508,
      "которые": 509,
      "кла": 510,
      "ностью": 511,
      "млрд": 512,
      "род": 513,
      "рей": 514,
      "ций": 515,
      "рай": 516,
      "ers": 517,
      "вает": 518,
      "логи": 519,
      "пас": 520,
      "след": 521,
      "ская": 522,
      "ета": 523,
      "свя": 524,
      "производ": 525,
      "дви": 526,
      "форма": 527,
      "опера": 528,
      "ходи": 529,
      "разв": 530,
      "рован": 531,
      "чения": 532,
      "вести": 533,
      "красно": 534,
      "таки": 535,
      "бур": 536,
      "каза": 537,
      "прош": 538,
      "емы": 539,
      "ью": 540,
      "кар": 541,
      "es": 542,
      "спи": 543,
      "фин": 544,
      "лы": 545,
      "куп": 546,
      "аний": 547,
      "reut": 548,
      "reuters": 549,
      "стов": 550,
      "ов": 551,
      "ут": 552,
      "стран": 553,
      "зов": 554,
      "развити": 555,
      "три": 556,
      "согла": 557,
      "дирек": 558,
      "город": 559,
      "вый": 560,
      "зации": 561,
      "ответствен": 562,
      "бер": 563,
      "общество": 564,
      "лож": 565,
      "само": 566,
      "мин": 567,
      "вед": 568,
      "участ": 569,
      "биз": 570,
      "ад": 571,
      "точ": 572,
      "зн": 573,
      "доро": 574,
      "им": 575,
      "обе": 576,
      "ках": 577,
      "рын": 578,
      "возмож": 579,
      "(<": 580,
      "объек": 581,
      "in": 582,
      "строитель": 583,
      "ритори": 584,
      "иту": 585,
      "сколь": 586,
      "бов": 587,
      "дела": 588,
      "казал": 589,
      "вар": 590,
      "ники": 591,
      "обо": 592,
      "ним": 593,
      "данным": 594,
      "доб": 595,
      "ному": 596,
      "предпри": 597,
      "территори": 598,
      "льта": 599,
      "ителей": 600,
      "господин": 601,
      "который": 602,
      "ителя": 603,
      "строй": 604,
      "слова": 605,
      "госу": 606,
      "шения": 607,
      "тран": 608,
      "дент": 609,
      "наль": 610,
      "работа": 611,
      "нет": 612,
      "шен": 613,
      "обра": 614,
      "тро": 615,
      "ях": 616,
      "поз": 617,
      "стано": 618,
      "сем": 619,
      "струк": 620,
      "on": 621,
      "нер": 622,
      "коло": 623,
      "основ": 624,
      "ранее": 625,
      "феде": 626,
      "др": 627,
      "эконо": 628,
      "экономи": 629,
      "уч": 630,
      "государ": 631,
      "дут": 632,
      "ap": 633,
      ">-<": 634,
      "ию": 635,
      "ональ": 636,
      "ил": 637,
      "гражд": 638,
      "которо": 639,
      "вили": 640,
      "отно": 641,
      "тур": 642,
      "гор": 643,
      "рий": 644,
      "al": 645,
      "ться": 646,
      "ску": 647,
      "алексан": 648,
      "грам": 649,
      "кор": 650,
      "исто": 651,
      "гос": 652,
      "пет": 653,
      "сре": 654,
      "получи": 655,
      "зан": 656,
      "образ": 657,
      "того": 658,
      "спор": 659,
      "дель": 660,
      "одна": 661,
      "города": 662,
      "кси": 663,
      "явля": 664,
      "сообща": 665,
      "нару": 666,
      "вого": 667,
      "вали": 668,
      "проку": 669,
      "тери": 670,
      "говор": 671,
      "сет": 672,
      "министра": 673,
      "режи": 674,
      "резу": 675,
      "авто": 676,
      "результа": 677,
      "le": 678,
      "региона": 679,
      "совет": 680,
      "высо": 681,
      "трудни": 682,
      "вая": 683,
      "сотрудни": 684,
      "бю": 685,
      "ье": 686,
      "мента": 687,
      "хи": 688,
      "слав": 689,
      "ук": 690,
      "цы": 691,
      "мон": 692,
      "словам": 693,
      "кол": 694,
      "служба": 695,
      "отмет": 696,
      "информа": 697,
      "ствия": 698,
      "рес": 699,
      "ским": 700,
      "авгу": 701,
      "президент": 702,
      "финан": 703,
      "ены": 704,
      "ена": 705,
      "руко": 706,
      "компания": 707,
      "оби": 708,
      "трам": 709,
      "щения": 710,
      "мость": 711,
      "сч": 712,
      "помо": 713,
      "площа": 714,
      "програм": 715,
      "исполь": 716,
      "лась": 717,
      "кур": 718,
      "проду": 719,
      "пута": 720,
      "поль": 721,
      "правитель": 722,
      "te": 723,
      "тем": 724,
      "ступ": 725,
      "влади": 726,
      "мир": 727,
      "сист": 728,
      "други": 729,
      "лись": 730,
      "управл": 731,
      "филь": 732,
      "смо": 733,
      "ровать": 734,
      "призн": 735,
      "мент": 736,
      "ряд": 737,
      "гро": 738,
      "сша": 739,
      "шта": 740,
      "моск": 741,
      "депута": 742,
      "руковод": 743,
      "прода": 744,
      "вым": 745,
      "нем": 746,
      "приня": 747,
      "прос": 748,
      "рам": 749,
      "воро": 750,
      "туры": 751,
      "-<": 752,
      "оне": 753,
      "датель": 754,
      "тен": 755,
      "укра": 756,
      "тин": 757,
      ".,": 758,
      "лей": 759,
      "полити": 760,
      "обви": 761,
      "проце": 762,
      "кли": 763,
      "вила": 764,
      "региональ": 765,
      "бюдж": 766,
      "меся": 767,
      "or": 768,
      "чение": 769,
      "рав": 770,
      "круп": 771,
      "сообщает": 772,
      "рост": 773,
      "вают": 774,
      "нима": 775,
      "краснодар": 776,
      "увели": 777,
      "дина": 778,
      "президен": 779,
      "ограничен": 780,
      "зем": 781,
      "мости": 782,
      "эле": 783,
      "пис": 784,
      "анд": 785,
      "сторо": 786,
      "представ": 787,
      "ющих": 788,
      "пор": 789,
      "тиче": 790,
      "фа": 791,
      "ведом": 792,
      "казы": 793,
      "плани": 794,
      "минист": 795,
      "поя": 796,
      "дело": 797,
      "иться": 798,
      "экспер": 799,
      "обеспе": 800,
      "уров": 801,
      "вклю": 802,
      "рии": 803,
      "необ": 804,
      "вест": 805,
      "края": 806,
      "ман": 807,
      "бра": 808,
      "жения": 809,
      "продук": 810,
      "цев": 811,
      "требов": 812,
      "проект": 813,
      "доста": 814,
      "больш": 815,
      "оста": 816,
      "щей": 817,
      "шего": 818,
      "еди": 819,
      "ую": 820,
      "несколь": 821,
      "ma": 822,
      "знач": 823,
      "иты": 824,
      "груп": 825,
      "бле": 826,
      "однако": 827,
      "мыш": 828,
      "меж": 829,
      "объя": 830,
      "вз": 831,
      "жда": 832,
      "лось": 833,
      "матери": 834,
      "случа": 835,
      "право": 836,
      "работы": 837,
      "кам": 838,
      "времен": 839,
      "плат": 840,
      "нии": 841,
      "лага": 842,
      "законо": 843,
      "анию": 844,
      "полн": 845,
      "разме": 846,
      "кого": 847,
      "спорт": 848,
      "комплек": 849,
      "позво": 850,
      "эта": 851,
      "жно": 852,
      "сум": 853,
      "пит": 854,
      "част": 855,
      "мит": 856,
      "следу": 857,
      "вляет": 858,
      "ющий": 859,
      "мышлен": 860,
      "все": 861,
      "стал": 862,
      "ализ": 863,
      "инте": 864,
      "купить": 865,
      "сро": 866,
      "шении": 867,
      "народ": 868,
      "лич": 869,
      "инвести": 870,
      "ители": 871,
      "жу": 872,
      "ом": 873,
      "голов": 874,
      "am": 875,
      "человек": 876,
      "бор": 877,
      "числе": 878,
      "откры": 879,
      "ческого": 880,
      "необходи": 881,
      "en": 882,
      "зани": 883,
      "администра": 884,
      "граждан": 885,
      "петер": 886,
      "ске": 887,
      "ници": 888,
      "вление": 889,
      "поддерж": 890,
      "глав": 891,
      "около": 892,
      "дея": 893,
      "глава": 894,
      "сообщил": 895,
      "усло": 896,
      "сообщ": 897,
      "аэ": 898,
      "против": 899,
      "рует": 900,
      "пери": 901,
      "над": 902,
      "заклю": 903,
      "алось": 904,
      "федераль": 905,
      "теля": 906,
      "сел": 907,
      "трен": 908,
      "наход": 909,
      "стои": 910,
      "заявил": 911,
      "энер": 912,
      "берна": 913,
      "нало": 914,
      "ческих": 915,
      "петербур": 916,
      "пример": 917,
      "предприяти": 918,
      "стри": 919,
      "готов": 920,
      "закон": 921,
      "ответственностью": 922,
      "александр": 923,
      "отме": 924,
      "вороне": 925,
      "ограниченной": 926,
      "ох": 927,
      "состоя": 928,
      "доку": 929,
      "губерна": 930,
      "безо": 931,
      "вто": 932,
      "шение": 933,
      "соз": 934,
      "прив": 935,
      "банкро": 936,
      "вра": 937,
      "фак": 938,
      "счита": 939,
      "дву": 940,
      "там": 941,
      "бизнес": 942,
      "прокура": 943,
      "предсе": 944,
      "среди": 945,
      "кв": 946,
      "ять": 947,
      "ческой": 948,
      "безопас": 949,
      "вне": 950,
      "зе": 951,
      "сп": 952,
      "ками": 953,
      "дома": 954,
      "щего": 955,
      "et": 956,
      "жение": 957,
      "рос": 958,
      "предел": 959,
      "прошло": 960,
      "территории": 961,
      "соответ": 962,
      "сков": 963,
      "интер": 964,
      "гут": 965,
      "собствен": 966,
      "организа": 967,
      "площад": 968,
      "лн": 969,
      "офи": 970,
      "обя": 971,
      "директор": 972,
      "инф": 973,
      "элект": 974,
      "пад": 975,
      "которых": 976,
      "ались": 977,
      "будут": 978,
      "евро": 979,
      "данных": 980,
      "скую": 981,
      "бла": 982,
      "спек": 983,
      "ситу": 984,
      "воен": 985,
      "промышлен": 986,
      "лот": 987,
      "томоби": 988,
      "автомоби": 989,
      "ситуа": 990,
      "квар": 991,
      "окт": 992,
      "уд": 993,
      "решение": 994,
      "республи": 995,
      "регу": 996,
      "кварти": 997,
      "ro": 998,
      "встре": 999,
      "особ": 1000,
      "тя": 1001,
      "месте": 1002,
      "цу": 1003,
      "сед": 1004,
      "ступи": 1005,
      "день": 1006,
      "рова": 1007,
      "суще": 1008,
      "ших": 1009,
      "ито": 1010,
      "чу": 1011,
      "специ": 1012,
      "потре": 1013,
      "между": 1014,
      "сса": 1015,
      "уголов": 1016,
      "тура": 1017,
      "международ": 1018,
      "хов": 1019,
      "ступл": 1020,
      "него": 1021,
      "ждения": 1022,
      "шко": 1023,
      "щен": 1024,
      "вом": 1025,
      "наб": 1026,
      "измен": 1027,
      "предста": 1028,
      "тр": 1029,
      "повы": 1030,
      "чество": 1031,
      "свобо": 1032,
      "деятель": 1033,
      "постра": 1034,
      "техно": 1035,
      "стей": 1036,
      "ительно": 1037,
      "ское": 1038,
      "муще": 1039,
      "раж": 1040,
      "является": 1041,
      "ких": 1042,
      "фон": 1043,
      "co": 1044,
      "дмит": 1045,
      "гов": 1046,
      "топ": 1047,
      "напра": 1048,
      "итета": 1049,
      "чает": 1050,
      "гей": 1051,
      "завер": 1052,
      "чить": 1053,
      "поли": 1054,
      "семь": 1055,
      "ния": 1056,
      "ап": 1057,
      "чь": 1058,
      "ний": 1059,
      "защ": 1060,
      "развития": 1061,
      "несколько": 1062,
      "ез": 1063,
      "мени": 1064,
      "участи": 1065,
      "фу": 1066,
      "рак": 1067,
      "тури": 1068,
      "сообщили": 1069,
      "ватель": 1070,
      "станов": 1071,
      "способ": 1072,
      "актив": 1073,
      "ствие": 1074,
      "нк": 1075,
      "меди": 1076,
      "сергей": 1077,
      "услови": 1078,
      "вое": 1079,
      "сты": 1080,
      "вается": 1081,
      "деле": 1082,
      "власти": 1083,
      "анием": 1084,
      "сегод": 1085,
      "рамках": 1086,
      "сегодня": 1087,
      "аны": 1088,
      "место": 1089,
      "альной": 1090,
      "дра": 1091,
      "ссо": 1092,
      "телей": 1093,
      "много": 1094,
      "шел": 1095,
      "ям": 1096,
      "побе": 1097,
      "пара": 1098,
      "начала": 1099,
      "показа": 1100,
      "провер": 1101,
      "рой": 1102,
      "куль": 1103,
      "государствен": 1104,
      "ата": 1105,
      "жиз": 1106,
      "рая": 1107,
      "мене": 1108,
      "чень": 1109,
      "кроме": 1110,
      "ой": 1111,
      "сек": 1112,
      "мери": 1113,
      "шей": 1114,
      "торов": 1115,
      "ссии": 1116,
      "янва": 1117,
      "устано": 1118,
      "технологи": 1119,
      "сня": 1120,
      "часть": 1121,
      "гото": 1122,
      "после": 1123,
      "тии": 1124,
      "засед": 1125,
      "сокра": 1126,
      "дональ": 1127,
      "сей": 1128,
      "президента": 1129,
      "ожи": 1130,
      "контро": 1131,
      "кин": 1132,
      "ющие": 1133,
      "ино": 1134,
      "тон": 1135,
      "лия": 1136,
      "макси": 1137,
      "форми": 1138,
      "свои": 1139,
      "вший": 1140,
      "имуще": 1141,
      "лик": 1142,
      "мов": 1143,
      "ходит": 1144,
      "амери": 1145,
      "ционер": 1146,
      "потреб": 1147,
      "окру": 1148,
      "нова": 1149,
      "украи": 1150,
      "каб": 1151,
      "ального": 1152,
      "пыт": 1153,
      "нению": 1154,
      "фер": 1155,
      "совер": 1156,
      "гам": 1157,
      "движи": 1158,
      "сом": 1159,
      "дости": 1160,
      "хода": 1161,
      "новороссий": 1162,
      "управления": 1163,
      "оп": 1164,
      "пов": 1165,
      "которая": 1166,
      "недвижи": 1167,
      "беспи": 1168,
      "трамп": 1169,
      "бюджет": 1170,
      "беспилот": 1171,
      "продол": 1172,
      "чем": 1173,
      "самы": 1174,
      "персо": 1175,
      "четы": 1176,
      "результате": 1177,
      "стоимость": 1178,
      "дмитрий": 1179,
      "бал": 1180,
      "уди": 1181,
      "боле": 1182,
      "чной": 1183,
      "вопро": 1184,
      "сочи": 1185,
      "проекта": 1186,
      "вших": 1187,
      "бит": 1188,
      "уни": 1189,
      "ался": 1190,
      "сох": 1191,
      "ch": 1192,
      "счет": 1193,
      "ено": 1194,
      "ческий": 1195,
      "компаний": 1196,
      "средств": 1197,
      "каче": 1198,
      "кино": 1199,
      "руют": 1200,
      "могут": 1201,
      "рования": 1202,
      "акционер": 1203,
      "вяче": 1204,
      "is": 1205,
      "it": 1206,
      "мой": 1207,
      "ябре": 1208,
      "иск": 1209,
      "эти": 1210,
      "выше": 1211,
      "извест": 1212,
      "ключе": 1213,
      "един": 1214,
      "егор": 1215,
      "цией": 1216,
      "суде": 1217,
      "этому": 1218,
      "краснодарского": 1219,
      "воронеж": 1220,
      "безопасности": 1221,
      "или": 1222,
      "кие": 1223,
      "ставки": 1224,
      "бизне": 1225,
      "занима": 1226,
      "la": 1227,
      "запре": 1228,
      "преду": 1229,
      "фору": 1230,
      "мед": 1231,
      "конце": 1232,
      "gr": 1233,
      "алась": 1234,
      "использов": 1235,
      "аэро": 1236,
      "аг": 1237,
      "дро": 1238,
      "оцен": 1239,
      "вол": 1240,
      "ние": 1241,
      "ему": 1242,
      "ством": 1243,
      "страны": 1244,
      "рынка": 1245,
      "пробле": 1246,
      "хоз": 1247,
      "писал": 1248,
      "законодатель": 1249,
      "последни": 1250,
      "рия": 1251,
      "циф": 1252,
      "оператив": 1253,
      "городской": 1254,
      "ули": 1255,
      "яро": 1256,
      "той": 1257,
      "вор": 1258,
      "задерж": 1259,
      "социаль": 1260,
      "лег": 1261,
      "прак": 1262,
      "серви": 1263,
      "двух": 1264,
      "жел": 1265,
      "созд": 1266,
      "очень": 1267,
      "услу": 1268,
      "раи": 1269,
      "порт": 1270,
      "мира": 1271,
      "неф": 1272,
      "предлож": 1273,
      "крас": 1274,
      "коли": 1275,
      "наз": 1276,
      "альный": 1277,
      "отметил": 1278,
      "вячеслав": 1279,
      "име": 1280,
      "чно": 1281,
      "гиб": 1282,
      "должен": 1283,
      "ятся": 1284,
      "моло": 1285,
      "фигу": 1286,
      "рынке": 1287,
      "финансо": 1288,
      "оче": 1289,
      "суда": 1290,
      "чина": 1291,
      "акционерное": 1292,
      "снет": 1293,
      "вид": 1294,
      "израи": 1295,
      "снетков": 1296,
      "ростов": 1297,
      "суб": 1298,
      "спорта": 1299,
      "августе": 1300,
      "владимир": 1301,
      "банкрот": 1302,
      "специали": 1303,
      "четыре": 1304,
      "имен": 1305,
      "ья": 1306,
      "итет": 1307,
      "переда": 1308,
      "отношении": 1309,
      "гли": 1310,
      "ческие": 1311,
      "дорож": 1312,
      "доба": 1313,
      "кред": 1314,
      "оон": 1315,
      "эф": 1316,
      "контра": 1317,
      "тели": 1318,
      "лли": 1319,
      "альных": 1320,
      "кова": 1321,
      "выпу": 1322,
      "собра": 1323,
      "рах": 1324,
      "щая": 1325,
      "исполн": 1326,
      "утвер": 1327,
      "совета": 1328,
      "продолжа": 1329,
      "упра": 1330,
      "реали": 1331,
      "вления": 1332,
      "других": 1333,
      "вно": 1334,
      "кну": 1335,
      "фран": 1336,
      "коман": 1337,
      "ственного": 1338,
      "системы": 1339,
      "зам": 1340,
      "думы": 1341,
      "арбит": 1342,
      "банка": 1343,
      "созда": 1344,
      "электро": 1345,
      "твер": 1346,
      "хот": 1347,
      "шли": 1348,
      "ледов": 1349,
      "ровали": 1350,
      "луч": 1351,
      "подчер": 1352,
      "главы": 1353,
      "увеличи": 1354,
      "определ": 1355,
      "лон": 1356,
      "виде": 1357,
      "деся": 1358,
      "организации": 1359,
      "штаб": 1360,
      "голо": 1361,
      "вок": 1362,
      "вос": 1363,
      "кате": 1364,
      "прог": 1365,
      "стой": 1366,
      "вел": 1367,
      "лья": 1368,
      "дели": 1369,
      "гене": 1370,
      "чных": 1371,
      "рации": 1372,
      "замест": 1373,
      "руется": 1374,
      "инфра": 1375,
      "st": 1376,
      "вания": 1377,
      "них": 1378,
      "инфраструк": 1379,
      "мэ": 1380,
      "сказал": 1381,
      "тия": 1382,
      "разработ": 1383,
      "россия": 1384,
      "щее": 1385,
      "бере": 1386,
      "возду": 1387,
      "андрей": 1388,
      "бел": 1389,
      "щение": 1390,
      "бло": 1391,
      "свер": 1392,
      "удо": 1393,
      "матри": 1394,
      "жды": 1395,
      "решения": 1396,
      "ведения": 1397,
      "оборо": 1398,
      "привле": 1399,
      "ека": 1400,
      "ляр": 1401,
      "вшего": 1402,
      "ору": 1403,
      "нок": 1404,
      "кий": 1405,
      "щих": 1406,
      "ваться": 1407,
      "американ": 1408,
      "ави": 1409,
      "пале": 1410,
      "поло": 1411,
      "акти": 1412,
      "арен": 1413,
      "соответству": 1414,
      "срав": 1415,
      "эко": 1416,
      "това": 1417,
      "доступ": 1418,
      "тай": 1419,
      "крае": 1420,
      "gram": 1421,
      "послед": 1422,
      "части": 1423,
      "палести": 1424,
      "новых": 1425,
      "рез": 1426,
      "сут": 1427,
      "полно": 1428,
      "креди": 1429,
      "позволя": 1430,
      "период": 1431,
      "стали": 1432,
      "рус": 1433,
      "согласно": 1434,
      "источ": 1435,
      "включа": 1436,
      "арбитраж": 1437,
      "ru": 1438,
      "пен": 1439,
      "что": 1440,
      "распо": 1441,
      "роб": 1442,
      "назна": 1443,
      "дии": 1444,
      "ально": 1445,
      "ходе": 1446,
      "бира": 1447,
      "произо": 1448,
      "di": 1449,
      "вним": 1450,
      "лит": 1451,
      "пока": 1452,
      "ссы": 1453,
      "ima": 1454,
      "направл": 1455,
      "лиц": 1456,
      "влены": 1457,
      "иску": 1458,
      "анало": 1459,
      "веден": 1460,
      "комму": 1461,
      "треть": 1462,
      "действия": 1463,
      "жителей": 1464,
      "ремон": 1465,
      "например": 1466,
      "муници": 1467,
      "буду": 1468,
      "человека": 1469,
      "связи": 1470,
      "медици": 1471,
      "муницип": 1472,
      "ван": 1473,
      "ями": 1474,
      "пом": 1475,
      "пози": 1476,
      "повре": 1477,
      "ток": 1478,
      "дополн": 1479,
      "мень": 1480,
      "права": 1481,
      "tele": 1482,
      "бен": 1483,
      "миро": 1484,
      "министр": 1485,
      "иностран": 1486,
      "el": 1487,
      "тах": 1488,
      "мат": 1489,
      "веро": 1490,
      "област": 1491,
      "фести": 1492,
      "средства": 1493,
      "официаль": 1494,
      "гри": 1495,
      "фек": 1496,
      "горь": 1497,
      "систе": 1498,
      "декаб": 1499,
      "жили": 1500,
      "городе": 1501,
      "теле": 1502,
      "мно": 1503,
      "ющей": 1504,
      "новые": 1505,
      "верси": 1506,
      "ступа": 1507,
      "российских": 1508,
      "вую": 1509,
      "составляет": 1510,
      "предпринима": 1511,
      "которой": 1512,
      "фильма": 1513,
      "telegram": 1514,
      "жных": 1515,
      "уточ": 1516,
      "устрой": 1517,
      "наи": 1518,
      "провод": 1519,
      "проис": 1520,
      "интере": 1521,
      "деятельности": 1522,
      "зако": 1523,
      "зави": 1524,
      "сай": 1525,
      "районе": 1526,
      "помощ": 1527,
      "требования": 1528,
      "председа": 1529,
      "вну": 1530,
      "шки": 1531,
      "енных": 1532,
      "рил": 1533,
      "сил": 1534,
      "меры": 1535,
      "рассказал": 1536,
      "транспорт": 1537,
      "хозя": 1538,
      "вело": 1539,
      "кита": 1540,
      "осно": 1541,
      "чный": 1542,
      "состав": 1543,
      "выбо": 1544,
      "щий": 1545,
      "считает": 1546,
      "кри": 1547,
      "чин": 1548,
      "лиш": 1549,
      "прибы": 1550,
      "прогно": 1551,
      "нали": 1552,
      "уче": 1553,
      "тар": 1554,
      "меро": 1555,
      "купа": 1556,
      "проектов": 1557,
      "итогам": 1558,
      "нор": 1559,
      "коро": 1560,
      "еры": 1561,
      "сою": 1562,
      "миха": 1563,
      "ложен": 1564,
      "дили": 1565,
      "отрас": 1566,
      "шие": 1567,
      "информации": 1568,
      "максим": 1569,
      "эффек": 1570,
      "пан": 1571,
      "показ": 1572,
      "мас": 1573,
      "предпо": 1574,
      "крылов": 1575,
      "ведомства": 1576,
      "обяза": 1577,
      "управля": 1578,
      "брен": 1579,
      "вов": 1580,
      "елом": 1581,
      ">),": 1582,
      "прово": 1583,
      "прияти": 1584,
      "альные": 1585,
      "обвин": 1586,
      "октября": 1587,
      "республики": 1588,
      "тиров": 1589,
      "предоста": 1590,
      "ждение": 1591,
      "объем": 1592,
      "правительства": 1593,
      "губернатор": 1594,
      "фигуран": 1595,
      "вен": 1596,
      "ите": 1597,
      "менты": 1598,
      "ший": 1599,
      "санкт": 1600,
      "ступления": 1601,
      "персональ": 1602,
      "цифро": 1603,
      "апре": 1604,
      "тором": 1605,
      "простран": 1606,
      "люд": 1607,
      "терин": 1608,
      "господина": 1609,
      "района": 1610,
      "ат": 1611,
      "цени": 1612,
      "ющего": 1613,
      "рор": 1614,
      "кая": 1615,
      "шая": 1616,
      "регио": 1617,
      "объектов": 1618,
      "ане": 1619,
      "ети": 1620,
      "нико": 1621,
      "профе": 1622,
      "тами": 1623,
      "недвижимости": 1624,
      "шу": 1625,
      "анал": 1626,
      "страте": 1627,
      "одно": 1628,
      "централь": 1629,
      "бизнеса": 1630,
      "мероприяти": 1631,
      "исс": 1632,
      "новый": 1633,
      "ниче": 1634,
      "момент": 1635,
      "силь": 1636,
      "евг": 1637,
      "случае": 1638,
      "пострада": 1639,
      "imag": 1640,
      "вание": 1641,
      "вместе": 1642,
      "успе": 1643,
      "коми": 1644,
      "просто": 1645,
      "ходов": 1646,
      "муж": 1647,
      "конкур": 1648,
      "ствий": 1649,
      "такие": 1650,
      "получил": 1651,
      "судеб": 1652,
      "сверд": 1653,
      "поэтому": 1654,
      "национ": 1655,
      "вич": 1656,
      "рынок": 1657,
      "подтвер": 1658,
      "цена": 1659,
      "парла": 1660,
      "коллек": 1661,
      "сель": 1662,
      "угро": 1663,
      "выя": 1664,
      "баты": 1665,
      "возбу": 1666,
      "жур": 1667,
      "администрации": 1668,
      "аэропор": 1669,
      "ti": 1670,
      "игра": 1671,
      "ок": 1672,
      "рами": 1673,
      "реализ": 1674,
      "воль": 1675,
      "ери": 1676,
      "ваются": 1677,
      "конф": 1678,
      "дональд": 1679,
      "вд": 1680,
      "щем": 1681,
      "стало": 1682,
      "мая": 1683,
      "сили": 1684,
      "сур": 1685,
      "верну": 1686,
      "первые": 1687,
      "центре": 1688,
      "сети": 1689,
      "обязатель": 1690,
      "свердлов": 1691,
      "ень": 1692,
      "настоя": 1693,
      "меня": 1694,
      "первый": 1695,
      "экономики": 1696,
      "ol": 1697,
      "нд": 1698,
      "прод": 1699,
      "доход": 1700,
      "дида": 1701,
      "подроб": 1702,
      "графи": 1703,
      "кандида": 1704,
      "квартир": 1705,
      "очеред": 1706,
      "хозяй": 1707,
      "сдел": 1708,
      "штра": 1709,
      "раст": 1710,
      "роста": 1711,
      "парт": 1712,
      "разу": 1713,
      "ительных": 1714,
      "ющим": 1715,
      "правительство": 1716,
      "регионального": 1717,
      "энерго": 1718,
      "заседании": 1719,
      "ярослав": 1720,
      "аре": 1721,
      "даль": 1722,
      "обре": 1723,
      "современ": 1724,
      "бой": 1725,
      "чили": 1726,
      "образов": 1727,
      "цел": 1728,
      "догово": 1729,
      "превы": 1730,
      "банк": 1731,
      "канале": 1732,
      "надзо": 1733,
      "находится": 1734,
      "генераль": 1735,
      "екатерин": 1736,
      "внимание": 1737,
      "ty": 1738,
      "дали": 1739,
      "пять": 1740,
      "шин": 1741,
      "вопрос": 1742,
      "зада": 1743,
      "доля": 1744,
      "чил": 1745,
      "нужно": 1746,
      "комплекс": 1747,
      "количество": 1748,
      "екатеринбур": 1749,
      "тных": 1750,
      "уда": 1751,
      "стала": 1752,
      "гости": 1753,
      "обсу": 1754,
      "гии": 1755,
      "специаль": 1756,
      "службе": 1757,
      "ствует": 1758,
      "благо": 1759,
      "images": 1760,
      "поми": 1761,
      "вин": 1762,
      "скому": 1763,
      "скими": 1764,
      "банков": 1765,
      "алексей": 1766,
      "финанси": 1767,
      "стороны": 1768,
      "ава": 1769,
      "тно": 1770,
      "инве": 1771,
      "без": 1772,
      "группы": 1773,
      "бро": 1774,
      "его": 1775,
      "ост": 1776,
      "оказ": 1777,
      "енно": 1778,
      "обно": 1779,
      "каж": 1780,
      "важ": 1781,
      "перм": 1782,
      "одной": 1783,
      "годы": 1784,
      "составила": 1785,
      "обвиня": 1786,
      "бюджета": 1787,
      "месяцев": 1788,
      "министер": 1789,
      "авиа": 1790,
      "гер": 1791,
      "зад": 1792,
      "мом": 1793,
      "трех": 1794,
      "своем": 1795,
      "ционной": 1796,
      "развитие": 1797,
      "клиен": 1798,
      "жал": 1799,
      "рит": 1800,
      "конструк": 1801,
      "подготов": 1802,
      "шим": 1803,
      "лета": 1804,
      "платы": 1805,
      "влено": 1806,
      "сообщила": 1807,
      "прокуратура": 1808,
      "жизни": 1809,
      "подчеркну": 1810,
      "get": 1811,
      "зел": 1812,
      "сфе": 1813,
      "тю": 1814,
      "оте": 1815,
      "рассмо": 1816,
      "строительство": 1817,
      "ожида": 1818,
      "инвесто": 1819,
      "иници": 1820,
      "спа": 1821,
      "нам": 1822,
      "москов": 1823,
      "места": 1824,
      "комитета": 1825,
      "держи": 1826,
      "своей": 1827,
      "связан": 1828,
      "производства": 1829,
      "строительства": 1830,
      "которого": 1831,
      "заня": 1832,
      "кс": 1833,
      "опубли": 1834,
      "рев": 1835,
      "пора": 1836,
      "демон": 1837,
      "людей": 1838,
      "фикси": 1839,
      "объе": 1840,
      "центр": 1841,
      "обору": 1842,
      "программы": 1843,
      "отмечает": 1844,
      "агент": 1845,
      "именно": 1846,
      "кредит": 1847,
      "аналити": 1848,
      "жной": 1849,
      "зр": 1850,
      "лан": 1851,
      "пря": 1852,
      "чные": 1853,
      "прем": 1854,
      "евра": 1855,
      "размере": 1856,
      "инициа": 1857,
      "атаки": 1858,
      "км": 1859,
      "ура": 1860,
      "закры": 1861,
      "сор": 1862,
      "стар": 1863,
      "чат": 1864,
      "охран": 1865,
      "бело": 1866,
      "ева": 1867,
      "йти": 1868,
      "инди": 1869,
      "течение": 1870,
      "годах": 1871,
      "центра": 1872,
      "клауди": 1873,
      "аналоги": 1874,
      "капит": 1875,
      "татар": 1876,
      "стоит": 1877,
      "служи": 1878,
      "возможно": 1879,
      "уровне": 1880,
      "искус": 1881,
      "getty": 1882,
      "атом": 1883,
      "цер": 1884,
      "инстру": 1885,
      "сам": 1886,
      "град": 1887,
      "фиц": 1888,
      "фили": 1889,
      "арх": 1890,
      "возможность": 1891,
      "москвы": 1892,
      "земель": 1893,
      "сумму": 1894,
      "более": 1895,
      "персональных": 1896,
      "гля": 1897,
      "яр": 1898,
      "поле": 1899,
      "поряд": 1900,
      "выполн": 1901,
      "пригово": 1902,
      "теа": 1903,
      "золо": 1904,
      "дене": 1905,
      "российского": 1906,
      "материале": 1907,
      "частности": 1908,
      "воздуш": 1909,
      "многи": 1910,
      "оборудов": 1911,
      "спро": 1912,
      "эн": 1913,
      "рее": 1914,
      "ментов": 1915,
      "газ": 1916,
      "бир": 1917,
      "тически": 1918,
      "поясни": 1919,
      "регули": 1920,
      "бпла": 1921,
      "пяти": 1922,
      "чного": 1923,
      "ресур": 1924,
      "чей": 1925,
      "секре": 1926,
      "алов": 1927,
      "директора": 1928,
      "июле": 1929,
      "прошлого": 1930,
      "европе": 1931,
      "сохра": 1932,
      ">)": 1933,
      "лени": 1934,
      "ссе": 1935,
      "поста": 1936,
      "ниже": 1937,
      "предлага": 1938,
      "туре": 1939,
      "жден": 1940,
      "ченко": 1941,
      "требу": 1942,
      "топли": 1943,
      ".-": 1944,
      ">).": 1945,
      "ce": 1946,
      "оцени": 1947,
      "член": 1948,
      "запу": 1949,
      "приобре": 1950,
      "истори": 1951,
      "совершен": 1952,
      "ростовской": 1953,
      "эффектив": 1954,
      "професси": 1955,
      "застрой": 1956,
      "выми": 1957,
      "девело": 1958,
      "нового": 1959,
      "службы": 1960,
      "федерации": 1961,
      "благода": 1962,
      "ровано": 1963,
      "полномо": 1964,
      "th": 1965,
      "ган": 1966,
      "нен": 1967,
      "хва": 1968,
      "чное": 1969,
      "подо": 1970,
      "ница": 1971,
      "син": 1972,
      "работу": 1973,
      "емых": 1974,
      "государства": 1975,
      "трампа": 1976,
      "процеду": 1977,
      "сен": 1978,
      "смен": 1979,
      "тря": 1980,
      "ствовать": 1981,
      "началь": 1982,
      "метал": 1983,
      "груз": 1984,
      "ограничения": 1985,
      "другие": 1986,
      "ализи": 1987,
      "нах": 1988,
      "намер": 1989,
      "нил": 1990,
      "лин": 1991,
      "мор": 1992,
      "подряд": 1993,
      "ходят": 1994,
      "регистри": 1995,
      "точно": 1996,
      "признал": 1997,
      "форума": 1998,
      "дня": 1999,
      "ого": 2000,
      "щер": 2001,
      "раза": 2002,
      "попу": 2003,
      "няя": 2004,
      "and": 2005,
      "августа": 2006,
      "отмеча": 2007,
      "менее": 2008,
      "конфлик": 2009,
      "пост": 2010,
      "поме": 2011,
      "заво": 2012,
      "лай": 2013,
      "ственный": 2014,
      "скр": 2015,
      "регионе": 2016,
      "плате": 2017,
      "налого": 2018,
      "января": 2019,
      "включая": 2020,
      "ca": 2021,
      "зон": 2022,
      "клу": 2023,
      "обнару": 2024,
      "число": 2025,
      "зова": 2026,
      "рублей": 2027,
      "кардин": 2028,
      "деньги": 2029,
      "исклю": 2030,
      "израиль": 2031,
      "медицин": 2032,
      "of": 2033,
      "сб": 2034,
      "спрос": 2035,
      "постро": 2036,
      "вик": 2037,
      "стать": 2038,
      "сезо": 2039,
      "щие": 2040,
      "консу": 2041,
      "ственных": 2042,
      "данные": 2043,
      "участников": 2044,
      "председатель": 2045,
      "уголовное": 2046,
      "li": 2047,
      "игорь": 2048,
      "твор": 2049,
      "зарегистри": 2050,
      "теку": 2051,
      "ставро": 2052,
      "роман": 2053,
      "спб": 2054,
      "председателя": 2055,
      "идет": 2056,
      "ню": 2057,
      "уби": 2058,
      "ради": 2059,
      "запад": 2060,
      "дова": 2061,
      "дефиц": 2062,
      "боро": 2063,
      "жилы": 2064,
      "люда": 2065,
      "четвер": 2066,
      "таких": 2067,
      "перио": 2068,
      "участие": 2069,
      "опубликов": 2070,
      "ог": 2071,
      "водо": 2072,
      "мину": 2073,
      "тий": 2074,
      "тина": 2075,
      "прин": 2076,
      "гаран": 2077,
      "живо": 2078,
      "пуга": 2079,
      "ess": 2080,
      "говорит": 2081,
      "предприятия": 2082,
      "ущер": 2083,
      "чел": 2084,
      "чит": 2085,
      "тасс": 2086,
      "руч": 2087,
      "одного": 2088,
      "жителя": 2089,
      "ква": 2090,
      "юри": 2091,
      "пода": 2092,
      "покупа": 2093,
      "мого": 2094,
      "прекра": 2095,
      "музы": 2096,
      "верс": 2097,
      "ственной": 2098,
      "слож": 2099,
      "рассматри": 2100,
      "расши": 2101,
      "должность": 2102,
      "учре": 2103,
      "следует": 2104,
      "свободы": 2105,
      "зависи": 2106,
      "отрасли": 2107,
      "сми": 2108,
      "торы": 2109,
      "зай": 2110,
      "отра": 2111,
      "мур": 2112,
      "бар": 2113,
      "реализации": 2114,
      "наиболее": 2115,
      "осуще": 2116,
      "февра": 2117,
      "обы": 2118,
      "модель": 2119,
      "чены": 2120,
      "владель": 2121,
      "район": 2122,
      "изменения": 2123,
      "функ": 2124,
      "арбитражный": 2125,
      "свердловской": 2126,
      "lo": 2127,
      "po": 2128,
      "кр": 2129,
      "зация": 2130,
      "вило": 2131,
      "мей": 2132,
      "бое": 2133,
      "альян": 2134,
      "гар": 2135,
      "концер": 2136,
      "фици": 2137,
      "совмест": 2138,
      "ствии": 2139,
      "российской": 2140,
      "цены": 2141,
      "детей": 2142,
      "парта": 2143,
      "должны": 2144,
      "систем": 2145,
      "эксперт": 2146,
      "надле": 2147,
      "система": 2148,
      "кардинале": 2149,
      "дже": 2150,
      "мал": 2151,
      "целом": 2152,
      "шений": 2153,
      "нили": 2154,
      "рую": 2155,
      "тива": 2156,
      "тради": 2157,
      "харак": 2158,
      "срок": 2159,
      "no": 2160,
      "всем": 2161,
      "мощ": 2162,
      "июля": 2163,
      "сотрудников": 2164,
      "динами": 2165,
      "качестве": 2166,
      "тить": 2167,
      "ноября": 2168,
      "поступи": 2169,
      "нат": 2170,
      "незакон": 2171,
      "вез": 2172,
      "сег": 2173,
      "ходы": 2174,
      "практи": 2175,
      "версии": 2176,
      "ам": 2177,
      "устой": 2178,
      "полож": 2179,
      "лица": 2180,
      "мии": 2181,
      "дил": 2182,
      "отдел": 2183,
      "призна": 2184,
      "чис": 2185,
      "рование": 2186,
      "жил": 2187,
      "сери": 2188,
      "рассказ": 2189,
      "марш": 2190,
      "украин": 2191,
      "контрак": 2192,
      "пугаче": 2193,
      "спу": 2194,
      "фут": 2195,
      "чс": 2196,
      "соц": 2197,
      "ким": 2198,
      "док": 2199,
      "ительный": 2200,
      "ительные": 2201,
      "жай": 2202,
      "депутаты": 2203,
      "необходимо": 2204,
      "прокуратуры": 2205,
      "универс": 2206,
      "джи": 2207,
      "дней": 2208,
      "ила": 2209,
      "кет": 2210,
      "ул": 2211,
      "делу": 2212,
      "бес": 2213,
      "актри": 2214,
      "полностью": 2215,
      "заявление": 2216,
      "работать": 2217,
      "режисс": 2218,
      "москве": 2219,
      "ссам": 2220,
      "сравнению": 2221,
      "лишь": 2222,
      "исследов": 2223,
      "жей": 2224,
      "окон": 2225,
      "свыше": 2226,
      "разви": 2227,
      "шее": 2228,
      "времени": 2229,
      "рейтин": 2230,
      "говорится": 2231,
      "колле": 2232,
      "продукции": 2233,
      "петербург": 2234,
      "второй": 2235,
      "дал": 2236,
      "съ": 2237,
      "первом": 2238,
      "ственно": 2239,
      "область": 2240,
      "использу": 2241,
      "фильм": 2242,
      "тяж": 2243,
      "назначен": 2244,
      "убий": 2245,
      "for": 2246,
      "ur": 2247,
      "игро": 2248,
      "плу": 2249,
      "тной": 2250,
      "ъек": 2251,
      "роди": 2252,
      "реши": 2253,
      "постав": 2254,
      "итали": 2255,
      "ниц": 2256,
      "виду": 2257,
      "винов": 2258,
      "хоро": 2259,
      "автома": 2260,
      "казывает": 2261,
      "субъек": 2262,
      "китай": 2263,
      "сфере": 2264,
      "популяр": 2265,
      "осущест": 2266,
      "ul": 2267,
      "ассам": 2268,
      "бри": 2269,
      "вала": 2270,
      "влия": 2271,
      "нь": 2272,
      "пок": 2273,
      "итек": 2274,
      "обслужи": 2275,
      "кат": 2276,
      "доров": 2277,
      "выступа": 2278,
      "принадле": 2279,
      "пунк": 2280,
      "тивных": 2281,
      "зыск": 2282,
      "возможности": 2283,
      "получили": 2284,
      "ссыл": 2285,
      "архитек": 2286,
      "ленин": 2287,
      "пала": 2288,
      "щую": 2289,
      "ъя": 2290,
      "ником": 2291,
      "казан": 2292,
      "санк": 2293,
      "перегово": 2294,
      "стоятель": 2295,
      "эксплу": 2296,
      "движения": 2297,
      "крупней": 2298,
      "эксперты": 2299,
      "остается": 2300,
      "губернатора": 2301,
      "маршру": 2302,
      "ассамбле": 2303,
      "иг": 2304,
      "свет": 2305,
      "ститу": 2306,
      "кации": 2307,
      "риен": 2308,
      "зацию": 2309,
      "проти": 2310,
      "допу": 2311,
      "мошен": 2312,
      "сток": 2313,
      "тей": 2314,
      "котором": 2315,
      "возвра": 2316,
      "представитель": 2317,
      "сократи": 2318,
      "катего": 2319,
      "il": 2320,
      "насел": 2321,
      "зак": 2322,
      "выс": 2323,
      "предло": 2324,
      "туру": 2325,
      "край": 2326,
      "нять": 2327,
      "одним": 2328,
      "получа": 2329,
      "культур": 2330,
      "оперативный": 2331,
      "внутрен": 2332,
      "ира": 2333,
      "установ": 2334,
      "шо": 2335,
      "коне": 2336,
      "алкого": 2337,
      "нами": 2338,
      "ниж": 2339,
      "продолж": 2340,
      "милли": 2341,
      "май": 2342,
      "стом": 2343,
      "ителем": 2344,
      "жать": 2345,
      "бывший": 2346,
      "здания": 2347,
      "вшие": 2348,
      "транс": 2349,
      "уровень": 2350,
      "украине": 2351,
      "позволяет": 2352,
      "парламента": 2353,
      "секрета": 2354,
      "аб": 2355,
      "сн": 2356,
      "сол": 2357,
      "выдел": 2358,
      "дия": 2359,
      "силу": 2360,
      "отдель": 2361,
      "обеспечи": 2362,
      "большой": 2363,
      "ситуация": 2364,
      "своих": 2365,
      "последние": 2366,
      "голосов": 2367,
      "оли": 2368,
      "сдела": 2369,
      "чении": 2370,
      "шла": 2371,
      "низ": 2372,
      "лишения": 2373,
      "мотря": 2374,
      "север": 2375,
      "газа": 2376,
      "торго": 2377,
      "серье": 2378,
      "снижение": 2379,
      "ang": 2380,
      "несмотря": 2381,
      "депутат": 2382,
      "бизнесмен": 2383,
      "прошлом": 2384,
      "палестин": 2385,
      "евгений": 2386,
      "европей": 2387,
      "серьез": 2388,
      "лоб": 2389,
      "оль": 2390,
      "домов": 2391,
      "маши": 2392,
      "стаби": 2393,
      "приз": 2394,
      "годам": 2395,
      "ждены": 2396,
      "рабочи": 2397,
      "обрати": 2398,
      "образом": 2399,
      "сумма": 2400,
      "банкротства": 2401,
      "стратеги": 2402,
      "цель": 2403,
      "цов": 2404,
      "кое": 2405,
      "потен": 2406,
      "алла": 2407,
      "риан": 2408,
      "неделе": 2409,
      "жило": 2410,
      "проекты": 2411,
      "влена": 2412,
      "таким": 2413,
      "получила": 2414,
      "сотрудники": 2415,
      "необходимы": 2416,
      "условиях": 2417,
      "беспилотников": 2418,
      "клаудия": 2419,
      "вза": 2420,
      "ес": 2421,
      "мнению": 2422,
      "мвд": 2423,
      "годом": 2424,
      "обл": 2425,
      "лиде": 2426,
      "дой": 2427,
      "мол": 2428,
      "пам": 2429,
      "тера": 2430,
      "изо": 2431,
      "сад": 2432,
      "ровал": 2433,
      "страхов": 2434,
      "помощи": 2435,
      "собрания": 2436,
      "спроса": 2437,
      "ставрополь": 2438,
      "as": 2439,
      "зре": 2440,
      "свой": 2441,
      "щении": 2442,
      "ност": 2443,
      "речь": 2444,
      "находи": 2445,
      "обработ": 2446,
      "выро": 2447,
      "скон": 2448,
      "принима": 2449,
      "кую": 2450,
      "комен": 2451,
      "первую": 2452,
      "начале": 2453,
      "зыва": 2454,
      "следствия": 2455,
      "образо": 2456,
      "организаций": 2457,
      "особенно": 2458,
      "заместитель": 2459,
      "рассмотр": 2460,
      "застройщи": 2461,
      "ссылкой": 2462,
      "тся": 2463,
      "ьер": 2464,
      "реб": 2465,
      "назад": 2466,
      "ницы": 2467,
      "вырос": 2468,
      "преж": 2469,
      "ведет": 2470,
      "бок": 2471,
      "сах": 2472,
      "сами": 2473,
      "ительной": 2474,
      "ственные": 2475,
      "составил": 2476,
      "объекты": 2477,
      "alo": 2478,
      "корпора": 2479,
      "интерв": 2480,
      "защит": 2481,
      "специалистов": 2482,
      "эксплуата": 2483,
      "впервые": 2484,
      "стер": 2485,
      "енные": 2486,
      "начина": 2487,
      "затем": 2488,
      "примен": 2489,
      "тья": 2490,
      "сажи": 2491,
      "возра": 2492,
      "станции": 2493,
      "политики": 2494,
      "услуг": 2495,
      "экологи": 2496,
      "подчеркнул": 2497,
      "благодаря": 2498,
      "противо": 2499,
      "vi": 2500,
      "ера": 2501,
      "еже": 2502,
      "пля": 2503,
      "смер": 2504,
      "стана": 2505,
      "поро": 2506,
      "либо": 2507,
      "вице": 2508,
      "раздел": 2509,
      "возгла": 2510,
      "шает": 2511,
      "ционных": 2512,
      "сентябре": 2513,
      "участники": 2514,
      "руководитель": 2515,
      "интернет": 2516,
      "особо": 2517,
      "этих": 2518,
      "крити": 2519,
      "хани": 2520,
      "потер": 2521,
      "напом": 2522,
      "кад": 2523,
      "лев": 2524,
      "сара": 2525,
      "люди": 2526,
      "действу": 2527,
      "действий": 2528,
      "снизи": 2529,
      "парк": 2530,
      "алексе": 2531,
      "казался": 2532,
      "транспорта": 2533,
      "позже": 2534,
      "сообщал": 2535,
      "чемпи": 2536,
      "сохран": 2537,
      "улице": 2538,
      "подробнее": 2539,
      "надзор": 2540,
      "конфликта": 2541,
      "устойчи": 2542,
      "две": 2543,
      "физ": 2544,
      "шло": 2545,
      "восемь": 2546,
      "кину": 2547,
      "отпра": 2548,
      "влет": 2549,
      "спон": 2550,
      "верх": 2551,
      "черно": 2552,
      "признан": 2553,
      "платфор": 2554,
      "имущества": 2555,
      "украины": 2556,
      "предложения": 2557,
      "михаил": 2558,
      "предполага": 2559,
      "спаса": 2560,
      "образователь": 2561,
      "интервью": 2562,
      "mar": 2563,
      "ph": 2564,
      "мпи": 2565,
      "мало": 2566,
      "нала": 2567,
      "освобо": 2568,
      "рко": 2569,
      "сит": 2570,
      "снаб": 2571,
      "рекомен": 2572,
      "гом": 2573,
      "погиб": 2574,
      "замет": 2575,
      "альная": 2576,
      "чинов": 2577,
      "жилья": 2578,
      "конца": 2579,
      "план": 2580,
      "метро": 2581,
      "ближай": 2582,
      "которое": 2583,
      "месяц": 2584,
      "самых": 2585,
      "инфраструктуры": 2586,
      "удовлет": 2587,
      "апреле": 2588,
      "очередь": 2589,
      "здоров": 2590,
      "эки": 2591,
      "посколь": 2592,
      "анти": 2593,
      "рина": 2594,
      "ницу": 2595,
      "зар": 2596,
      "лок": 2597,
      "видет": 2598,
      "куб": 2599,
      "арте": 2600,
      "больше": 2601,
      "пассажи": 2602,
      "самолет": 2603,
      "ведение": 2604,
      "достаточно": 2605,
      "площадью": 2606,
      "воронежской": 2607,
      "имеет": 2608,
      "выпуск": 2609,
      "полови": 2610,
      "направления": 2611,
      "сайте": 2612,
      "прибыль": 2613,
      "регионов": 2614,
      "поскольку": 2615,
      "ure": 2616,
      "внес": 2617,
      "чном": 2618,
      "новой": 2619,
      "пож": 2620,
      "дума": 2621,
      "чески": 2622,
      "чества": 2623,
      "коммен": 2624,
      "час": 2625,
      "перспек": 2626,
      "ционный": 2627,
      "получить": 2628,
      "операции": 2629,
      "представители": 2630,
      "планируется": 2631,
      "петербурга": 2632,
      "удалось": 2633,
      "наблюда": 2634,
      "известно": 2635,
      "урал": 2636,
      "полномочи": 2637,
      "дне": 2638,
      "иска": 2639,
      "ление": 2640,
      "увер": 2641,
      "чным": 2642,
      "ремен": 2643,
      "поте": 2644,
      "заказ": 2645,
      "приор": 2646,
      "девя": 2647,
      "инжен": 2648,
      "тепло": 2649,
      "скры": 2650,
      "шев": 2651,
      "ябрь": 2652,
      "летний": 2653,
      "бывшего": 2654,
      "работе": 2655,
      "экспо": 2656,
      "расследов": 2657,
      "круг": 2658,
      "рованных": 2659,
      "карто": 2660,
      "большин": 2661,
      "интерес": 2662,
      "ситуации": 2663,
      "пострадали": 2664,
      "расположен": 2665,
      "фестив": 2666,
      "бренда": 2667,
      "пугачева": 2668,
      "иде": 2669,
      "нью": 2670,
      "опас": 2671,
      "еле": 2672,
      "набере": 2673,
      "нин": 2674,
      "деж": 2675,
      "департа": 2676,
      "пари": 2677,
      "менте": 2678,
      "первым": 2679,
      "ann": 2680,
      "техни": 2681,
      "техники": 2682,
      "производство": 2683,
      "работает": 2684,
      "работают": 2685,
      "истории": 2686,
      "режима": 2687,
      "обязан": 2688,
      "этим": 2689,
      "профессиональ": 2690,
      "экипа": 2691,
      "аген": 2692,
      "зма": 2693,
      "поги": 2694,
      "итальян": 2695,
      "запа": 2696,
      "тировать": 2697,
      "курор": 2698,
      "рыв": 2699,
      "судов": 2700,
      "сессии": 2701,
      "первого": 2702,
      "пиш": 2703,
      "которую": 2704,
      "шесть": 2705,
      "госпожа": 2706,
      "здание": 2707,
      "стоян": 2708,
      "труда": 2709,
      "следствие": 2710,
      "ent": 2711,
      "документа": 2712,
      "аппара": 2713,
      "контроль": 2714,
      "тонн": 2715,
      "хотя": 2716,
      "декабря": 2717,
      "пострадавших": 2718,
      "успеш": 2719,
      "демонстри": 2720,
      "премьер": 2721,
      "индивиду": 2722,
      "подрядчи": 2723,
      "de": 2724,
      "вшей": 2725,
      "гети": 2726,
      "зин": 2727,
      "ления": 2728,
      "восто": 2729,
      "ете": 2730,
      "риа": 2731,
      "лом": 2732,
      "види": 2733,
      "различ": 2734,
      "дентов": 2735,
      "телем": 2736,
      "ционного": 2737,
      "никам": 2738,
      "рованы": 2739,
      "александра": 2740,
      "режим": 2741,
      "поддержки": 2742,
      "предусмо": 2743,
      "меньше": 2744,
      "партнер": 2745,
      "ra": 2746,
      "ri": 2747,
      "бран": 2748,
      "сразу": 2749,
      "ющая": 2750,
      "покуп": 2751,
      "стати": 2752,
      "влял": 2753,
      "российские": 2754,
      "серге": 2755,
      "валя": 2756,
      "краснода": 2757,
      "отметили": 2758,
      "обеспечения": 2759,
      "ждает": 2760,
      "побед": 2761,
      "ферен": 2762,
      "ии": 2763,
      "пру": 2764,
      "ностей": 2765,
      "кажды": 2766,
      "содерж": 2767,
      "пром": 2768,
      "отсут": 2769,
      "конку": 2770,
      "дороги": 2771,
      "нарушения": 2772,
      "руководителя": 2773,
      "процесс": 2774,
      "желез": 2775,
      "помимо": 2776,
      "многие": 2777,
      "вс": 2778,
      "опыт": 2779,
      "йдет": 2780,
      "татья": 2781,
      "модер": 2782,
      "тили": 2783,
      "отказ": 2784,
      "отды": 2785,
      "ческим": 2786,
      "предвар": 2787,
      "жиль": 2788,
      "подоб": 2789,
      "плана": 2790,
      "заяв": 2791,
      "новости": 2792,
      "турни": 2793,
      "удмур": 2794,
      "январе": 2795,
      "округа": 2796,
      "услуги": 2797,
      "помощь": 2798,
      "зелен": 2799,
      "житель": 2800,
      "рабаты": 2801,
      "зафикси": 2802,
      "лав": 2803,
      "мино": 2804,
      "вино": 2805,
      "отчет": 2806,
      "бори": 2807,
      "страхо": 2808,
      "тории": 2809,
      "ответственности": 2810,
      "пользу": 2811,
      "энергети": 2812,
      "охра": 2813,
      "автомобилей": 2814,
      "защиты": 2815,
      "новороссийске": 2816,
      "дальней": 2817,
      "пояснил": 2818,
      "жилых": 2819,
      "ic": 2820,
      "дени": 2821,
      "мчс": 2822,
      "пр": 2823,
      "массо": 2824,
      "привод": 2825,
      "путин": 2826,
      "первой": 2827,
      "бай": 2828,
      "шед": 2829,
      "своего": 2830,
      "органа": 2831,
      "связ": 2832,
      "продаж": 2833,
      "крупных": 2834,
      "требований": 2835,
      "федерального": 2836,
      "второ": 2837,
      "промышленности": 2838,
      "видео": 2839,
      "восстано": 2840,
      "ндс": 2841,
      "отече": 2842,
      "театра": 2843,
      "the": 2844,
      "ee": 2845,
      "наш": 2846,
      "общей": 2847,
      "вариан": 2848,
      "рили": 2849,
      "сим": 2850,
      "часов": 2851,
      "тыся": 2852,
      "пути": 2853,
      "тивной": 2854,
      "объедин": 2855,
      "действ": 2856,
      "общего": 2857,
      "генассамбле": 2858,
      "пыта": 2859,
      "объект": 2860,
      "июне": 2861,
      "отношения": 2862,
      "инвестиций": 2863,
      "спектак": 2864,
      "имущество": 2865,
      "декабре": 2866,
      "составит": 2867,
      "погибли": 2868,
      "ассо": 2869,
      "гал": 2870,
      "юж": 2871,
      "реа": 2872,
      "обу": 2873,
      "моря": 2874,
      "выруч": 2875,
      "вида": 2876,
      "стату": 2877,
      "веду": 2878,
      "бол": 2879,
      "чаще": 2880,
      "ябин": 2881,
      "клад": 2882,
      "сообщении": 2883,
      "примерно": 2884,
      "военно": 2885,
      "ступил": 2886,
      "активно": 2887,
      "добавил": 2888,
      "фестиваля": 2889,
      "растет": 2890,
      "челябин": 2891,
      "режиссер": 2892,
      "нал": 2893,
      "тки": 2894,
      "уне": 2895,
      "чки": 2896,
      "яко": 2897,
      "стя": 2898,
      "постоян": 2899,
      "анных": 2900,
      "завод": 2901,
      "вину": 2902,
      "тие": 2903,
      "сила": 2904,
      "льго": 2905,
      "пада": 2906,
      "ительного": 2907,
      "стране": 2908,
      "россию": 2909,
      "летнего": 2910,
      "станет": 2911,
      "составе": 2912,
      "добро": 2913,
      "учиты": 2914,
      "высоко": 2915,
      "использо": 2916,
      "владимира": 2917,
      "продажи": 2918,
      "ведомство": 2919,
      "находятся": 2920,
      "предприятий": 2921,
      "состоянии": 2922,
      "промышленного": 2923,
      "итоге": 2924,
      "новороссийск": 2925,
      "вопросы": 2926,
      "предупре": 2927,
      "привлека": 2928,
      "учетом": 2929,
      "бороны": 2930,
      "секретарь": 2931,
      "ii": 2932,
      "to": 2933,
      "езд": 2934,
      "зен": 2935,
      "праз": 2936,
      "тные": 2937,
      "щин": 2938,
      "ясь": 2939,
      "рубе": 2940,
      "матов": 2941,
      "лем": 2942,
      "предо": 2943,
      "кубан": 2944,
      "бора": 2945,
      "тый": 2946,
      "фир": 2947,
      "слева": 2948,
      "тивного": 2949,
      "торгов": 2950,
      "плен": 2951,
      "двига": 2952,
      "программа": 2953,
      "управление": 2954,
      "президентом": 2955,
      "уровня": 2956,
      "позволит": 2957,
      "создан": 2958,
      "организация": 2959,
      "иностранных": 2960,
      "журнали": 2961,
      "ярославской": 2962,
      "образования": 2963,
      "отмечают": 2964,
      "памят": 2965,
      "минобороны": 2966,
      "da": 2967,
      "ste": 2968,
      "un": 2969,
      "ации": 2970,
      "вместо": 2971,
      "дт": 2972,
      "кх": 2973,
      "тан": 2974,
      "хе": 2975,
      "назнач": 2976,
      "сок": 2977,
      "довер": 2978,
      "нему": 2979,
      "вес": 2980,
      "верхов": 2981,
      "путе": 2982,
      "чета": 2983,
      "решений": 2984,
      "имени": 2985,
      "месяца": 2986,
      "школы": 2987,
      "заверши": 2988,
      "уничто": 2989,
      "францу": 2990,
      "татарстан": 2991,
      "градской": 2992,
      "дефицит": 2993,
      "предусмотрен": 2994,
      "конкурен": 2995,
      "gh": 2996,
      "глу": 2997,
      "лана": 2998,
      "пал": 2999,
      "сена": 3000,
      "цем": 3001,
      "роз": 3002,
      "роль": 3003,
      "йор": 3004,
      "горе": 3005,
      "попыт": 3006,
      "наказ": 3007,
      "цио": 3008,
      "фоне": 3009,
      "дем": 3010,
      "механи": 3011,
      "газо": 3012,
      "федо": 3013,
      "цере": 3014,
      "валери": 3015,
      "режиссе": 3016,
      "депутатов": 3017,
      "октябре": 3018,
      "школь": 3019,
      "показе": 3020,
      "олимпи": 3021,
      "стабиль": 3022,
      "пожар": 3023,
      "экспози": 3024,
      "ипоте": 3025,
      "пя": 3026,
      "см": 3027,
      "ср": 3028,
      "цб": 3029,
      "ресто": 3030,
      "постано": 3031,
      "еля": 3032,
      "каса": 3033,
      "выступ": 3034,
      "скоро": 3035,
      "мага": 3036,
      "сибир": 3037,
      "преступления": 3038,
      "инци": 3039,
      "комфор": 3040,
      "комитет": 3041,
      "альным": 3042,
      "влении": 3043,
      "семей": 3044,
      "начал": 3045,
      "рекла": 3046,
      "стандар": 3047,
      "импор": 3048,
      "законопроект": 3049,
      "практически": 3050,
      "сервис": 3051,
      "происше": 3052,
      "ака": 3053,
      "офор": 3054,
      "сбор": 3055,
      "справа": 3056,
      "ющее": 3057,
      "посет": 3058,
      "замед": 3059,
      "маг": 3060,
      "сило": 3061,
      "ческая": 3062,
      "избра": 3063,
      "тых": 3064,
      "щиков": 3065,
      "конферен": 3066,
      "гран": 3067,
      "мых": 3068,
      "орга": 3069,
      "быстро": 3070,
      "ard": 3071,
      "ответственно": 3072,
      "колонии": 3073,
      "взя": 3074,
      "правоохран": 3075,
      "комплекса": 3076,
      "банкротом": 3077,
      "показатель": 3078,
      "дональда": 3079,
      "создание": 3080,
      "алексея": 3081,
      ">:": 3082,
      "per": 3083,
      "зм": 3084,
      "оле": 3085,
      "цо": 3086,
      "эль": 3087,
      "накан": 3088,
      "какие": 3089,
      "скор": 3090,
      "причи": 3091,
      "деми": 3092,
      "борь": 3093,
      "часто": 3094,
      "музе": 3095,
      "архи": 3096,
      "российский": 3097,
      "геро": 3098,
      "организов": 3099,
      "развитию": 3100,
      "согласи": 3101,
      "госдумы": 3102,
      "среду": 3103,
      "площади": 3104,
      "ведомстве": 3105,
      "нескольких": 3106,
      "всей": 3107,
      "культуры": 3108,
      "балан": 3109,
      "коллекции": 3110,
      "расшир": 3111,
      "ассоци": 3112,
      "накануне": 3113,
      "пании": 3114,
      "эва": 3115,
      "стр": 3116,
      "годо": 3117,
      "тому": 3118,
      "насле": 3119,
      "назы": 3120,
      "итар": 3121,
      "соответственно": 3122,
      "вей": 3123,
      "ческую": 3124,
      "инду": 3125,
      "певи": 3126,
      "семи": 3127,
      "подпи": 3128,
      "няется": 3129,
      "вляют": 3130,
      "ходя": 3131,
      "шать": 3132,
      "регистра": 3133,
      "женщи": 3134,
      "вшим": 3135,
      "никами": 3136,
      "емый": 3137,
      "объекта": 3138,
      "прокурор": 3139,
      "сторон": 3140,
      "соответствии": 3141,
      "повышение": 3142,
      "фонда": 3143,
      "ключевой": 3144,
      "устройства": 3145,
      "гляд": 3146,
      "порядка": 3147,
      "феврале": 3148,
      "актриса": 3149,
      "сделать": 3150,
      "заказчи": 3151,
      "пишет": 3152,
      "француз": 3153,
      "церемо": 3154,
      "ta": 3155,
      "ус": 3156,
      "ураль": 3157,
      "чная": 3158,
      "респон": 3159,
      "попро": 3160,
      "алы": 3161,
      "еты": 3162,
      "кадр": 3163,
      "сопрово": 3164,
      "лидер": 3165,
      "недел": 3166,
      "хол": 3167,
      "щим": 3168,
      "базо": 3169,
      "воды": 3170,
      "арт": 3171,
      "ставку": 3172,
      "участок": 3173,
      "экономического": 3174,
      "владими": 3175,
      "систему": 3176,
      "продуктов": 3177,
      "петербурге": 3178,
      "автомобиль": 3179,
      "уголовного": 3180,
      "задержали": 3181,
      "закона": 3182,
      "екатеринбурга": 3183,
      "физи": 3184,
      "bo": 3185,
      "gre": 3186,
      "ne": 3187,
      "вало": 3188,
      "сфер": 3189,
      "хан": 3190,
      "худо": 3191,
      "посвя": 3192,
      "нато": 3193,
      "науч": 3194,
      "рин": 3195,
      "замен": 3196,
      "лад": 3197,
      "доме": 3198,
      "природ": 3199,
      "супру": 3200,
      "сезон": 3201,
      "зии": 3202,
      "ждении": 3203,
      "которым": 3204,
      "женщин": 3205,
      "новосибир": 3206,
      "являются": 3207,
      "трлн": 3208,
      "достиг": 3209,
      "назвал": 3210,
      "агентства": 3211,
      "модерни": 3212,
      "удмуртии": 3213,
      "ben": 3214,
      "sa": 3215,
      "ауди": 3216,
      "днем": 3217,
      "зало": 3218,
      "мел": 3219,
      "сли": 3220,
      "спра": 3221,
      "чением": 3222,
      "ых": 3223,
      "стен": 3224,
      "посел": 3225,
      "торе": 3226,
      "прием": 3227,
      "ческое": 3228,
      "институ": 3229,
      "стол": 3230,
      "изд": 3231,
      "гах": 3232,
      "поддержи": 3233,
      "возник": 3234,
      "долгос": 3235,
      "ционные": 3236,
      "знаком": 3237,
      "значи": 3238,
      "правки": 3239,
      "испол": 3240,
      "карти": 3241,
      "one": 3242,
      "стоимости": 3243,
      "международного": 3244,
      "езда": 3245,
      "туристи": 3246,
      "установлен": 3247,
      "проблемы": 3248,
      "нефте": 3249,
      "контракт": 3250,
      "приоритет": 3251,
      "каждый": 3252,
      "эваку": 3253,
      "долгосро": 3254,
      "ci": 3255,
      "астра": 3256,
      "дрей": 3257,
      "имо": 3258,
      "моби": 3259,
      "нане": 3260,
      "сказ": 3261,
      "уро": 3262,
      "умер": 3263,
      "убе": 3264,
      "урегули": 3265,
      "гон": 3266,
      "посе": 3267,
      "покину": 3268,
      "запро": 3269,
      "давно": 3270,
      "выз": 3271,
      "выпол": 3272,
      "вече": 3273,
      "ческом": 3274,
      "избира": 3275,
      "мую": 3276,
      "рядом": 3277,
      "ительным": 3278,
      "компен": 3279,
      "тивные": 3280,
      "заявили": 3281,
      "обещ": 3282,
      "регионах": 3283,
      "москва": 3284,
      "считают": 3285,
      "опти": 3286,
      "воронежского": 3287,
      "mer": 3288,
      "боб": 3289,
      "жители": 3290,
      "зер": 3291,
      "зву": 3292,
      "сцена": 3293,
      "чению": 3294,
      "енный": 3295,
      "карь": 3296,
      "важно": 3297,
      "затра": 3298,
      "мире": 3299,
      "приговор": 3300,
      "интел": 3301,
      "бом": 3302,
      "влению": 3303,
      "сере": 3304,
      "трав": 3305,
      "башки": 3306,
      "ждений": 3307,
      "собой": 3308,
      "вился": 3309,
      "партии": 3310,
      "испан": 3311,
      "черного": 3312,
      "август": 3313,
      "этаж": 3314,
      "инфля": 3315,
      "ситуацию": 3316,
      "встречи": 3317,
      "четырех": 3318,
      "штраф": 3319,
      "тюрь": 3320,
      "топлива": 3321,
      "взаимо": 3322,
      "pro": 3323,
      "взыск": 3324,
      "их": 3325,
      "квали": 3326,
      "воду": 3327,
      "независи": 3328,
      "моды": 3329,
      "выда": 3330,
      "отве": 3331,
      "призы": 3332,
      "песков": 3333,
      "чать": 3334,
      "седни": 3335,
      "гео": 3336,
      "согласов": 3337,
      "единой": 3338,
      "ремонт": 3339,
      "вероят": 3340,
      "основатель": 3341,
      "учеб": 3342,
      "оборудования": 3343,
      "лайн": 3344,
      "консуль": 3345,
      "gar": 3346,
      "ie": 3347,
      "два": 3348,
      "зло": 3349,
      "чт": 3350,
      "шить": 3351,
      "понима": 3352,
      "вось": 3353,
      "воору": 3354,
      "написал": 3355,
      "зано": 3356,
      "тари": 3357,
      "выну": 3358,
      "дизай": 3359,
      "отмен": 3360,
      "чай": 3361,
      "северо": 3362,
      "ссия": 3363,
      "рят": 3364,
      "констан": 3365,
      "пись": 3366,
      "руби": 3367,
      "долго": 3368,
      "ходить": 3369,
      "должна": 3370,
      "может": 3371,
      "клады": 3372,
      "адво": 3373,
      "сколько": 3374,
      "июня": 3375,
      "приняли": 3376,
      "платить": 3377,
      "заним": 3378,
      "документы": 3379,
      "площадь": 3380,
      "направлен": 3381,
      "краснов": 3382,
      "специалисты": 3383,
      "команды": 3384,
      "andro": 3385,
      "принци": 3386,
      "съем": 3387,
      "вт": 3388,
      "вш": 3389,
      "введен": 3390,
      "кп": 3391,
      "ориен": 3392,
      "ссов": 3393,
      "свидет": 3394,
      "цей": 3395,
      "эп": 3396,
      "роли": 3397,
      "пожа": 3398,
      "нагруз": 3399,
      "ними": 3400,
      "провести": 3401,
      "доволь": 3402,
      "отли": 3403,
      "акции": 3404,
      "арм": 3405,
      "ставка": 3406,
      "рассч": 3407,
      "среднем": 3408,
      "основной": 3409,
      "андре": 3410,
      "многоквартир": 3411,
      "молоды": 3412,
      "мэр": 3413,
      "dia": 3414,
      "масштаб": 3415,
      "животных": 3416,
      "кварт": 3417,
      "ier": 3418,
      "дале": 3419,
      "жан": 3420,
      "жит": 3421,
      "кали": 3422,
      "остан": 3423,
      "сить": 3424,
      "улуч": 3425,
      "юр": 3426,
      "тое": 3427,
      "тору": 3428,
      "вае": 3429,
      "закуп": 3430,
      "могли": 3431,
      "избран": 3432,
      "перми": 3433,
      "перевоз": 3434,
      "авли": 3435,
      "спец": 3436,
      "вался": 3437,
      "труд": 3438,
      "маркет": 3439,
      "директоров": 3440,
      "aless": 3441,
      "прокуро": 3442,
      "информация": 3443,
      "остаются": 3444,
      "факту": 3445,
      "деятельность": 3446,
      "недвижимость": 3447,
      "волго": 3448,
      "субси": 3449,
      "десяти": 3450,
      "кредитов": 3451,
      "областной": 3452,
      "интересов": 3453,
      "союз": 3454,
      "реализу": 3455,
      "ущерб": 3456,
      "рассказали": 3457,
      "ольга": 3458,
      "валерий": 3459,
      "ter": 3460,
      "брит": 3461,
      "всу": 3462,
      "гин": 3463,
      "жер": 3464,
      "жении": 3465,
      "остано": 3466,
      "уф": 3467,
      "удоб": 3468,
      "чений": 3469,
      "ыду": 3470,
      "полага": 3471,
      "анто": 3472,
      "воло": 3473,
      "мина": 3474,
      "руп": 3475,
      "выра": 3476,
      "тивы": 3477,
      "преми": 3478,
      "пресе": 3479,
      "декс": 3480,
      "альное": 3481,
      "хок": 3482,
      "предыду": 3483,
      "перво": 3484,
      "няет": 3485,
      "одном": 3486,
      "облада": 3487,
      "марте": 3488,
      "казах": 3489,
      "ing": 3490,
      "обрабаты": 3491,
      "корруп": 3492,
      "депутата": 3493,
      "группа": 3494,
      "взят": 3495,
      "домаш": 3496,
      "аренды": 3497,
      "произошел": 3498,
      "коммуналь": 3499,
      "позиции": 3500,
      "помощью": 3501,
      "девелопер": 3502,
      "нюю": 3503,
      "якобы": 3504,
      "fi": 3505,
      "ада": 3506,
      "внов": 3507,
      "пси": 3508,
      "све": 3509,
      "сматри": 3510,
      "тка": 3511,
      "язы": 3512,
      "ноч": 3513,
      "гора": 3514,
      "позд": 3515,
      "дав": 3516,
      "мид": 3517,
      "дипло": 3518,
      "стам": 3519,
      "числа": 3520,
      "гами": 3521,
      "первых": 3522,
      "новремен": 3523,
      "аква": 3524,
      "собы": 3525,
      "своим": 3526,
      "расходы": 3527,
      "рованный": 3528,
      "курской": 3529,
      "квартиры": 3530,
      "встреча": 3531,
      "фонд": 3532,
      "занимает": 3533,
      "последний": 3534,
      "франции": 3535,
      "электрон": 3536,
      "союза": 3537,
      "инвесторов": 3538,
      "филип": 3539,
      "ofalo": 3540,
      "зарегистрировано": 3541,
      "виновным": 3542,
      "алкоголь": 3543,
      "отдыха": 3544,
      "garofalo": 3545,
      "alessandro": 3546,
      "ex": 3547,
      "бин": 3548,
      "входит": 3549,
      "жо": 3550,
      "жской": 3551,
      "кер": 3552,
      "пли": 3553,
      "анной": 3554,
      "заплани": 3555,
      "заболе": 3556,
      "проходит": 3557,
      "провел": 3558,
      "дон": 3559,
      "приро": 3560,
      "альном": 3561,
      "подраздел": 3562,
      "сообще": 3563,
      "ранения": 3564,
      "местного": 3565,
      "список": 3566,
      "относ": 3567,
      "госпит": 3568,
      "помога": 3569,
      "программ": 3570,
      "едино": 3571,
      "размещения": 3572,
      "офис": 3573,
      "туристов": 3574,
      "условия": 3575,
      "концеп": 3576,
      "катеров": 3577,
      "заместителя": 3578,
      "активов": 3579,
      "предприниматель": 3580,
      "чернозем": 3581,
      "курорта": 3582,
      "путеше": 3583,
      "органов": 3584,
      "вновь": 3585,
      "na": 3586,
      "pa": 3587,
      "остав": 3588,
      "убы": 3589,
      "юрий": 3590,
      "ребен": 3591,
      "поч": 3592,
      "поня": 3593,
      "поля": 3594,
      "англи": 3595,
      "обстоятель": 3596,
      "стили": 3597,
      "суди": 3598,
      "ствовали": 3599,
      "ственным": 3600,
      "шести": 3601,
      "цене": 3602,
      "цам": 3603,
      "парка": 3604,
      "трудо": 3605,
      "соглашения": 3606,
      "ложения": 3607,
      "информацию": 3608,
      "пользова": 3609,
      "внеш": 3610,
      "республике": 3611,
      "государственных": 3612,
      "законодательства": 3613,
      "обороны": 3614,
      "конкурс": 3615,
      "каждо": 3616,
      "аналитики": 3617,
      "приговорен": 3618,
      "завода": 3619,
      "радио": 3620,
      "учреждения": 3621,
      "характер": 3622,
      "ежегод": 3623,
      "тысяч": 3624,
      ">:<": 3625,
      "fa": 3626,
      "op": 3627,
      "ss": 3628,
      "ано": 3629,
      "лер": 3630,
      "сме": 3631,
      "сбер": 3632,
      "тного": 3633,
      "ум": 3634,
      "ур": 3635,
      "щению": 3636,
      "эм": 3637,
      "рестав": 3638,
      "горя": 3639,
      "ныне": 3640,
      "задолжен": 3641,
      "лаг": 3642,
      "дат": 3643,
      "матиче": 3644,
      "пец": 3645,
      "мум": 3646,
      "спокой": 3647,
      "стью": 3648,
      "следов": 3649,
      "артем": 3650,
      "близ": 3651,
      "ответчи": 3652,
      "публичное": 3653,
      "ara": 3654,
      "автобу": 3655,
      "смогут": 3656,
      "планирует": 3657,
      "спортсмен": 3658,
      "главный": 3659,
      "контроля": 3660,
      "нефть": 3661,
      "белгородской": 3662,
      "блоки": 3663,
      "произошло": 3664,
      "прогнози": 3665,
      "мероприятий": 3666,
      "комиссии": 3667,
      "партне": 3668,
      "безэкипа": 3669,
      "автомати": 3670,
      "начинается": 3671,
      "департамента": 3672,
      "рестора": 3673,
      "конференции": 3674,
      "рассчиты": 3675,
      "cla": 3676,
      "гк": 3677,
      "ех": 3678,
      "сформи": 3679,
      "цита": 3680,
      "гого": 3681,
      "вода": 3682,
      "заме": 3683,
      "такая": 3684,
      "некоторые": 3685,
      "мае": 3686,
      "сиг": 3687,
      "чек": 3688,
      "влением": 3689,
      "ительное": 3690,
      "онлайн": 3691,
      "первое": 3692,
      "влять": 3693,
      "держа": 3694,
      "цах": 3695,
      "оператор": 3696,
      "соглашение": 3697,
      "принято": 3698,
      "внедр": 3699,
      "участия": 3700,
      "сектора": 3701,
      "портф": 3702,
      "предложение": 3703,
      "десять": 3704,
      "бензи": 3705,
      "наличи": 3706,
      "настоящее": 3707,
      "хозяйства": 3708,
      "аварий": 3709,
      "денег": 3710,
      "совместно": 3711,
      "чемпиона": 3712,
      "сергея": 3713,
      "up": 3714,
      "us": 3715,
      "впро": 3716,
      "ие": 3717,
      "иван": 3718,
      "опла": 3719,
      "сда": 3720,
      "умень": 3721,
      "рели": 3722,
      "анна": 3723,
      "общая": 3724,
      "кими": 3725,
      "пройдет": 3726,
      "тил": 3727,
      "присут": 3728,
      "причин": 3729,
      "избе": 3730,
      "чар": 3731,
      "сама": 3732,
      "ровала": 3733,
      "конкре": 3734,
      "широ": 3735,
      "собира": 3736,
      "ставке": 3737,
      "ционно": 3738,
      "рань": 3739,
      "циях": 3740,
      "степен": 3741,
      "гендиректор": 3742,
      "органы": 3743,
      "большая": 3744,
      "краснояр": 3745,
      "обращения": 3746,
      "высокой": 3747,
      "поддержку": 3748,
      "документ": 3749,
      "военной": 3750,
      "секторе": 3751,
      "контроли": 3752,
      "потребитель": 3753,
      "проблема": 3754,
      "оружи": 3755,
      "устройство": 3756,
      "пространства": 3757,
      "порядке": 3758,
      "районный": 3759,
      "спустя": 3760,
      "татьяна": 3761,
      "использовать": 3762,
      "впрочем": 3763,
      "ton": 3764,
      "гда": 3765,
      "дво": 3766,
      "олег": 3767,
      "сведения": 3768,
      "цвет": 3769,
      "ющем": 3770,
      "йте": 3771,
      "ноябре": 3772,
      "кораб": 3773,
      "посред": 3774,
      "востре": 3775,
      "такого": 3776,
      "выбор": 3777,
      "весь": 3778,
      "мето": 3779,
      "ровании": 3780,
      "ждено": 3781,
      "акций": 3782,
      "долга": 3783,
      "щает": 3784,
      "бил": 3785,
      "жены": 3786,
      "экспорт": 3787,
      "получен": 3788,
      "российском": 3789,
      "миним": 3790,
      "зданий": 3791,
      "грузо": 3792,
      "должности": 3793,
      "логисти": 3794,
      "движение": 3795,
      "емые": 3796,
      "которому": 3797,
      "корпу": 3798,
      "принял": 3799,
      "представителей": 3800,
      "аэс": 3801,
      "регуляр": 3802,
      "чув": 3803,
      "проверку": 3804,
      "новороссийска": 3805,
      "подчерки": 3806,
      "управляющий": 3807,
      "апреля": 3808,
      "аэропорту": 3809,
      "ресурсов": 3810,
      "помещения": 3811,
      "консульта": 3812,
      "населения": 3813,
      "аи": 3814,
      "ас": 3815,
      "двое": 3816,
      "иско": 3817,
      "остро": 3818,
      "ый": 3819,
      "пой": 3820,
      "елен": 3821,
      "недели": 3822,
      "стин": 3823,
      "павел": 3824,
      "садо": 3825,
      "предъя": 3826,
      "водитель": 3827,
      "тивный": 3828,
      "скать": 3829,
      "войны": 3830,
      "здра": 3831,
      "марта": 3832,
      "крем": 3833,
      "техниче": 3834,
      "транспор": 3835,
      "программе": 3836,
      "случаев": 3837,
      "документов": 3838,
      "активы": 3839,
      "официальный": 3840,
      "обвинения": 3841,
      "вернуть": 3842,
      "пермского": 3843,
      "министерство": 3844,
      "подозре": 3845,
      "музык": 3846,
      "выросла": 3847,
      "жилье": 3848,
      "праздни": 3849,
      "дтп": 3850,
      "цитата": 3851,
      "ba": 3852,
      "втори": 3853,
      "дить": 3854,
      "ун": 3855,
      "устран": 3856,
      "экра": 3857,
      "обуч": 3858,
      "проведен": 3859,
      "микро": 3860,
      "вынес": 3861,
      "сят": 3862,
      "маск": 3863,
      "мария": 3864,
      "ледо": 3865,
      "летом": 3866,
      "столь": 3867,
      "ровки": 3868,
      "рованию": 3869,
      "ментом": 3870,
      "жев": 3871,
      "следова": 3872,
      "базе": 3873,
      "акту": 3874,
      "ходится": 3875,
      "женных": 3876,
      "вален": 3877,
      "вшись": 3878,
      "класси": 3879,
      "сетях": 3880,
      "обеспечить": 3881,
      "ждать": 3882,
      "инвестиции": 3883,
      "заключения": 3884,
      "воронеже": 3885,
      "автомобиля": 3886,
      "становится": 3887,
      "делец": 3888,
      "проверки": 3889,
      "технологий": 3890,
      "использованием": 3891,
      "дронов": 3892,
      "задержан": 3893,
      "финансирования": 3894,
      "авак": 3895,
      "клиентов": 3896,
      "зрения": 3897,
      "требует": 3898,
      "огром": 3899,
      "ущерба": 3900,
      "исследования": 3901,
      "эксплуатацию": 3902,
      "удовлетво": 3903,
      "кубань": 3904,
      "адап": 3905,
      "раньше": 3906,
      "востребов": 3907,
      "ами": 3908,
      "вшая": 3909,
      "глоб": 3910,
      "кей": 3911,
      "мск": 3912,
      "нх": 3913,
      "оказы": 3914,
      "шем": 3915,
      "коль": 3916,
      "корд": 3917,
      "реконструк": 3918,
      "поправки": 3919,
      "елля": 3920,
      "напад": 3921,
      "кара": 3922,
      "липец": 3923,
      "лод": 3924,
      "дила": 3925,
      "мари": 3926,
      "отказа": 3927,
      "боли": 3928,
      "столи": 3929,
      "альтер": 3930,
      "правила": 3931,
      "россиян": 3932,
      "тельных": 3933,
      "служа": 3934,
      "одоб": 3935,
      "одновремен": 3936,
      "жает": 3937,
      "данный": 3938,
      "полуго": 3939,
      "утром": 3940,
      "участков": 3941,
      "участке": 3942,
      "ino": 3943,
      "сеть": 3944,
      "сетей": 3945,
      "режиме": 3946,
      "тенден": 3947,
      "процесса": 3948,
      "равно": 3949,
      "готовности": 3950,
      "автомобили": 3951,
      "регуля": 3952,
      "наблюд": 3953,
      "апелля": 3954,
      "ожид": 3955,
      "вопросам": 3956,
      "сервиса": 3957,
      "имеют": 3958,
      "мужчина": 3959,
      "ожидается": 3960,
      "виктор": 3961,
      "юриди": 3962,
      "наталь": 3963,
      "железно": 3964,
      "пресечения": 3965,
      "mo": 3966,
      "sh": 3967,
      "wang": 3968,
      "жением": 3969,
      "жкх": 3970,
      "оказался": 3971,
      "удел": 3972,
      "укре": 3973,
      "чков": 3974,
      "шан": 3975,
      "енной": 3976,
      "рорт": 3977,
      "рекорд": 3978,
      "кав": 3979,
      "профиль": 3980,
      "доходов": 3981,
      "мое": 3982,
      "мони": 3983,
      "вии": 3984,
      "скорее": 3985,
      "макро": 3986,
      "машин": 3987,
      "стил": 3988,
      "ведут": 3989,
      "курорт": 3990,
      "кратно": 3991,
      "зоне": 3992,
      "собе": 3993,
      "начали": 3994,
      "средней": 3995,
      "участка": 3996,
      "значительно": 3997,
      "ждают": 3998,
      "изменений": 3999,
      "повышения": 4000,
      "готовы": 4001,
      "предусматри": 4002,
      "форуме": 4003,
      "оценки": 4004,
      "продолжает": 4005,
      "муниципал": 4006,
      "мероприятия": 4007,
      "угроза": 4008,
      "tion": 4009,
      "объема": 4010,
      "нижегородской": 4011,
      "жителям": 4012,
      "поступило": 4013,
      "игры": 4014,
      "потенциаль": 4015,
      "мобиль": 4016,
      "жерт": 4017,
      "tr": 4018,
      "vo": 4019,
      "иль": 4020,
      "нэнерго": 4021,
      "оно": 4022,
      "рю": 4023,
      "ссу": 4024,
      "ху": 4025,
      "чал": 4026,
      "чную": 4027,
      "ядер": 4028,
      "гостей": 4029,
      "последу": 4030,
      "ваем": 4031,
      "вающих": 4032,
      "летов": 4033,
      "чему": 4034,
      "разных": 4035,
      "пун": 4036,
      "подал": 4037,
      "подгото": 4038,
      "кевич": 4039,
      "арти": 4040,
      "было": 4041,
      "сниз": 4042,
      "оператора": 4043,
      "прошли": 4044,
      "нарушение": 4045,
      "результаты": 4046,
      "планируют": 4047,
      "объявлен": 4048,
      "заключен": 4049,
      "предприятие": 4050,
      "собственности": 4051,
      "социальных": 4052,
      "банкротстве": 4053,
      "происходит": 4054,
      "атомной": 4055,
      "числен": 4056,
      "архив": 4057,
      "компенса": 4058,
      "интеллек": 4059,
      "альтерна": 4060,
      "железнодорож": 4061,
      "lu": 4062,
      "udia": 4063,
      "гре": 4064,
      "дд": 4065,
      "джа": 4066,
      "чка": 4067,
      "роса": 4068,
      "повест": 4069,
      "поставки": 4070,
      "оба": 4071,
      "заку": 4072,
      "лий": 4073,
      "прокоммен": 4074,
      "дам": 4075,
      "вив": 4076,
      "дий": 4077,
      "преступ": 4078,
      "альную": 4079,
      "нут": 4080,
      "телек": 4081,
      "говорят": 4082,
      "степ": 4083,
      "действие": 4084,
      "расходов": 4085,
      "судь": 4086,
      "связано": 4087,
      "прошел": 4088,
      "городского": 4089,
      "точки": 4090,
      "делает": 4091,
      "автоном": 4092,
      "продажу": 4093,
      "краснодарском": 4094,
      "представителя": 4095,
      "объясня": 4096,
      "сроки": 4097,
      "семьи": 4098,
      "фун": 4099,
      "победы": 4100,
      "жизнь": 4101,
      "округе": 4102,
      "источник": 4103,
      "коммунэнерго": 4104,
      "грип": 4105,
      "основе": 4106,
      "совершенно": 4107,
      "сезона": 4108,
      "санкций": 4109,
      "крупнейших": 4110,
      "облкоммунэнерго": 4111,
      "напомним": 4112,
      "саратов": 4113,
      "днев": 4114,
      "картоф": 4115,
      "большинство": 4116,
      "greco": 4117,
      "вечером": 4118,
      "злоу": 4119,
      "рубио": 4120,
      "claudia": 4121,
      "пункт": 4122,
      "ber": 4123,
      "me": 4124,
      "бель": 4125,
      "жные": 4126,
      "ирина": 4127,
      "кров": 4128,
      "лд": 4129,
      "онов": 4130,
      "сдело": 4131,
      "коле": 4132,
      "покры": 4133,
      "ела": 4134,
      "надеж": 4135,
      "нику": 4136,
      "кина": 4137,
      "линии": 4138,
      "проспек": 4139,
      "договор": 4140,
      "тая": 4141,
      "руются": 4142,
      "неодно": 4143,
      "момо": 4144,
      "диа": 4145,
      "силы": 4146,
      "премии": 4147,
      "мере": 4148,
      "тьев": 4149,
      "патри": 4150,
      "разбира": 4151,
      "контак": 4152,
      "зом": 4153,
      "терро": 4154,
      "долгов": 4155,
      "циям": 4156,
      "получения": 4157,
      "анато": 4158,
      "распредел": 4159,
      "снижения": 4160,
      "стреми": 4161,
      "самого": 4162,
      "основан": 4163,
      "основном": 4164,
      "граждани": 4165,
      "вились": 4166,
      "приняла": 4167,
      "земли": 4168,
      "материалов": 4169,
      "частных": 4170,
      "администрация": 4171,
      "привлек": 4172,
      "специализи": 4173,
      "технологии": 4174,
      "иноаген": 4175,
      "волж": 4176,
      "команда": 4177,
      "коммуника": 4178,
      "арестов": 4179,
      "контракта": 4180,
      "университета": 4181,
      "набережной": 4182,
      "краснодара": 4183,
      "действительно": 4184,
      "неделю": 4185,
      "холдин": 4186,
      "кпрф": 4187,
      "сделок": 4188,
      "be": 4189,
      "ck": 4190,
      "se": 4191,
      "бре": 4192,
      "вп": 4193,
      "вред": 4194,
      "нения": 4195,
      "плю": 4196,
      "щена": 4197,
      "ые": 4198,
      "ющую": 4199,
      "стю": 4200,
      "нау": 4201,
      "напря": 4202,
      "риски": 4203,
      "нию": 4204,
      "зарубе": 4205,
      "процент": 4206,
      "проведения": 4207,
      "доказа": 4208,
      "тамо": 4209,
      "нега": 4210,
      "мос": 4211,
      "модели": 4212,
      "виль": 4213,
      "вицы": 4214,
      "тиве": 4215,
      "силия": 4216,
      "приходится": 4217,
      "судей": 4218,
      "тером": 4219,
      "измени": 4220,
      "самар": 4221,
      "пур": 4222,
      "долги": 4223,
      "вляла": 4224,
      "регион": 4225,
      "ющими": 4226,
      "средняя": 4227,
      "осен": 4228,
      "маргар": 4229,
      "станавли": 4230,
      "ardi": 4231,
      "рованные": 4232,
      "материала": 4233,
      "позволи": 4234,
      "состояние": 4235,
      "использования": 4236,
      "израиля": 4237,
      "источники": 4238,
      "выборы": 4239,
      "норма": 4240,
      "арест": 4241,
      "татарстана": 4242,
      "конечно": 4243,
      "миллиар": 4244,
      "рабочих": 4245,
      "фестивале": 4246,
      "различных": 4247,
      "розни": 4248,
      "певица": 4249,
      "нынеш": 4250,
      ".).": 4251,
      "bru": 4252,
      "вся": 4253,
      "емого": 4254,
      "жем": 4255,
      "ото": 4256,
      "сначала": 4257,
      "шению": 4258,
      "эл": 4259,
      "вак": 4260,
      "соли": 4261,
      "лига": 4262,
      "мог": 4263,
      "выступл": 4264,
      "превра": 4265,
      "прикам": 4266,
      "причем": 4267,
      "деву": 4268,
      "размер": 4269,
      "ряда": 4270,
      "зоны": 4271,
      "фика": 4272,
      "трак": 4273,
      "актер": 4274,
      "соблюд": 4275,
      "свое": 4276,
      "среднего": 4277,
      "ствуют": 4278,
      "джо": 4279,
      "лично": 4280,
      "полицей": 4281,
      "использование": 4282,
      "законодательного": 4283,
      "замглавы": 4284,
      "товаров": 4285,
      "мировой": 4286,
      "жилищ": 4287,
      "генеральный": 4288,
      "помина": 4289,
      "премье": 4290,
      "приобрет": 4291,
      "намерен": 4292,
      "обнаружили": 4293,
      "периода": 4294,
      "переговоров": 4295,
      "заксобрания": 4296,
      "культурного": 4297,
      "обработки": 4298,
      "девять": 4299,
      "инженер": 4300,
      "циони": 4301,
      "магази": 4302,
      "собеседни": 4303,
      "маргарита": 4304,
      "ik": 4305,
      "yo": 4306,
      "агро": 4307,
      "кса": 4308,
      "кана": 4309,
      "оши": 4310,
      "ологи": 4311,
      "пво": 4312,
      "пин": 4313,
      "сз": 4314,
      "тал": 4315,
      "уз": 4316,
      "утра": 4317,
      "фло": 4318,
      "цели": 4319,
      "эр": 4320,
      "рок": 4321,
      "гой": 4322,
      "вакан": 4323,
      "запас": 4324,
      "сове": 4325,
      "прось": 4326,
      "такое": 4327,
      "моно": 4328,
      "море": 4329,
      "анией": 4330,
      "мато": 4331,
      "причина": 4332,
      "иннова": 4333,
      "мут": 4334,
      "подклю": 4335,
      "подрост": 4336,
      "безу": 4337,
      "термин": 4338,
      "автор": 4339,
      "работал": 4340,
      "пления": 4341,
      "говорил": 4342,
      "метров": 4343,
      "генпрокуратуры": 4344,
      "ограничений": 4345,
      "признали": 4346,
      "сторону": 4347,
      "продукты": 4348,
      "объясни": 4349,
      "суммы": 4350,
      "школа": 4351,
      "государственной": 4352,
      "частью": 4353,
      "повтор": 4354,
      "самым": 4355,
      "самый": 4356,
      "запрет": 4357,
      "социальной": 4358,
      "нефти": 4359,
      "молоде": 4360,
      "пенси": 4361,
      "выборах": 4362,
      "екатеринбурге": 4363,
      "инициатив": 4364,
      "золотой": 4365,
      "оборудование": 4366,
      "синкевич": 4367,
      "бесплат": 4368,
      "осуществля": 4369,
      "потенци": 4370,
      "возрасте": 4371,
      "лавров": 4372,
      "привлекатель": 4373,
      "олимпий": 4374,
      "происшествия": 4375,
      "втб": 4376,
      "безэкипажных": 4377,
      "одновременно": 4378,
      "террори": 4379,
      "ах": 4380,
      "вдо": 4381,
      "жало": 4382,
      "звез": 4383,
      "ижев": 4384,
      "кни": 4385,
      "устро": 4386,
      "улья": 4387,
      "фей": 4388,
      "чита": 4389,
      "стить": 4390,
      "расту": 4391,
      "поря": 4392,
      "анг": 4393,
      "антон": 4394,
      "васили": 4395,
      "зать": 4396,
      "достроитель": 4397,
      "дохода": 4398,
      "выход": 4399,
      "маги": 4400,
      "сий": 4401,
      "отдела": 4402,
      "претен": 4403,
      "мера": 4404,
      "думу": 4405,
      "тек": 4406,
      "изъя": 4407,
      "часа": 4408,
      "влений": 4409,
      "разру": 4410,
      "коню": 4411,
      "подвер": 4412,
      "крат": 4413,
      "жест": 4414,
      "ставить": 4415,
      "аван": 4416,
      "щается": 4417,
      "сложно": 4418,
      "начало": 4419,
      "ствием": 4420,
      "анам": 4421,
      "работо": 4422,
      "сыгра": 4423,
      "марко": 4424,
      "торами": 4425,
      "ходил": 4426,
      "прошлы": 4427,
      "трибу": 4428,
      "самостоятель": 4429,
      "городах": 4430,
      "политике": 4431,
      "экспертов": 4432,
      "единиц": 4433,
      "ждается": 4434,
      "проверка": 4435,
      "занимается": 4436,
      "проблем": 4437,
      "оперативно": 4438,
      "возбуждено": 4439,
      "обязательств": 4440,
      "министерства": 4441,
      "реестр": 4442,
      "сегменте": 4443,
      "решил": 4444,
      "наблюдается": 4445,
      "расследование": 4446,
      "наследия": 4447,
      "середи": 4448,
      "квалифици": 4449,
      "ребенка": 4450,
      "лдпр": 4451,
      "cq": 4452,
      "su": 4453,
      "зал": 4454,
      "мс": 4455,
      "стэн": 4456,
      "енного": 4457,
      "новая": 4458,
      "коор": 4459,
      "похо": 4460,
      "наши": 4461,
      "нина": 4462,
      "лар": 4463,
      "прожи": 4464,
      "дата": 4465,
      "доли": 4466,
      "дону": 4467,
      "тации": 4468,
      "вылет": 4469,
      "мать": 4470,
      "бон": 4471,
      "пав": 4472,
      "пару": 4473,
      "альмо": 4474,
      "подвод": 4475,
      "подход": 4476,
      "ствовал": 4477,
      "перен": 4478,
      "компанию": 4479,
      "мыс": 4480,
      "перево": 4481,
      "ционную": 4482,
      "снова": 4483,
      "владелец": 4484,
      "действовать": 4485,
      "мяг": 4486,
      "генпрокурор": 4487,
      "заявила": 4488,
      "больницу": 4489,
      "джер": 4490,
      "производителей": 4491,
      "ведении": 4492,
      "добы": 4493,
      "вались": 4494,
      "высокий": 4495,
      "этап": 4496,
      "поддержке": 4497,
      "менедже": 4498,
      "стоимостью": 4499,
      "качества": 4500,
      "яровицы": 4501,
      "финансовой": 4502,
      "повреждены": 4503,
      "корот": 4504,
      "аэропорта": 4505,
      "реализов": 4506,
      "генерального": 4507,
      "подготовки": 4508,
      "поставок": 4509,
      "мошенниче": 4510,
      "кадров": 4511,
      "статисти": 4512,
      "отсутствие": 4513,
      "военнослужа": 4514,
      "наказание": 4515,
      "ассоциации": 4516,
      "эвакуи": 4517,
      "константин": 4518,
      "обстоятельства": 4519,
      "вакци": 4520,
      "яровицын": 4521,
      "go": 4522,
      "аук": 4523,
      "гелен": 4524,
      "двер": 4525,
      "ид": 4526,
      "ир": 4527,
      "ива": 4528,
      "нр": 4529,
      "нется": 4530,
      "уник": 4531,
      "устанавли": 4532,
      "чку": 4533,
      "вообще": 4534,
      "соедин": 4535,
      "созыва": 4536,
      "проз": 4537,
      "дать": 4538,
      "недавно": 4539,
      "отправ": 4540,
      "альными": 4541,
      "тые": 4542,
      "нуть": 4543,
      "путь": 4544,
      "подъ": 4545,
      "подписал": 4546,
      "крав": 4547,
      "бук": 4548,
      "казани": 4549,
      "начально": 4550,
      "проекте": 4551,
      "властей": 4552,
      "деть": 4553,
      "решением": 4554,
      "экономика": 4555,
      "говорить": 4556,
      "отметила": 4557,
      "взрыв": 4558,
      "главного": 4559,
      "энергии": 4560,
      "интерфак": 4561,
      "октябрь": 4562,
      "встрече": 4563,
      "условий": 4564,
      "показатели": 4565,
      "исполнения": 4566,
      "кредиторов": 4567,
      "распоря": 4568,
      "внутри": 4569,
      "журнала": 4570,
      "обязательства": 4571,
      "штрафо": 4572,
      "аналогичный": 4573,
      "клуб": 4574,
      "февраля": 4575,
      "субъектов": 4576,
      "переговоры": 4577,
      "предложил": 4578,
      "абсол": 4579,
      "жилой": 4580,
      "пожара": 4581,
      "геленджи": 4582,
      "абсолют": 4583,
      "nardi": 4584,
      "so": 4585,
      "war": 4586,
      "аф": 4587,
      "араб": 4588,
      "дли": 4589,
      "жению": 4590,
      "зво": 4591,
      "кала": 4592,
      "мк": 4593,
      "пят": 4594,
      "сал": 4595,
      "школ": 4596,
      "щу": 4597,
      "рем": 4598,
      "товой": 4599,
      "ален": 4600,
      "вокруг": 4601,
      "най": 4602,
      "нашего": 4603,
      "напада": 4604,
      "ката": 4605,
      "ничество": 4606,
      "некоторых": 4607,
      "невозможно": 4608,
      "тию": 4609,
      "пресли": 4610,
      "века": 4611,
      "ведо": 4612,
      "приш": 4613,
      "ческими": 4614,
      "ализации": 4615,
      "конфи": 4616,
      "жесто": 4617,
      "меру": 4618,
      "ственное": 4619,
      "ственная": 4620,
      "берегу": 4621,
      "будем": 4622,
      "тельно": 4623,
      "акку": 4624,
      "случи": 4625,
      "возобно": 4626,
      "шается": 4627,
      "цами": 4628,
      "действует": 4629,
      "распростран": 4630,
      "следственного": 4631,
      "бург": 4632,
      "территорию": 4633,
      "территорий": 4634,
      "останов": 4635,
      "тамбов": 4636,
      "электри": 4637,
      "сектор": 4638,
      "последствия": 4639,
      "палестины": 4640,
      "реализо": 4641,
      "объеме": 4642,
      "членов": 4643,
      "дефицита": 4644,
      "минут": 4645,
      "гарантии": 4646,
      "сериала": 4647,
      "принадлежит": 4648,
      "прежде": 4649,
      "обязанности": 4650,
      "заявки": 4651,
      "спектакль": 4652,
      "статус": 4653,
      "пленар": 4654,
      "steph": 4655,
      "сферы": 4656,
      "астрахан": 4657,
      "оптими": 4658,
      "чарль": 4659,
      "gro": 4660,
      "ha": 4661,
      "ve": 4662,
      "ай": 4663,
      "аза": 4664,
      "вско": 4665,
      "ввести": 4666,
      "емой": 4667,
      "ия": 4668,
      "кле": 4669,
      "опро": 4670,
      "указ": 4671,
      "щему": 4672,
      "стани": 4673,
      "рация": 4674,
      "росто": 4675,
      "вошли": 4676,
      "наших": 4677,
      "кафе": 4678,
      "вай": 4679,
      "сон": 4680,
      "сорев": 4681,
      "провели": 4682,
      "дает": 4683,
      "дочер": 4684,
      "выста": 4685,
      "выраз": 4686,
      "дино": 4687,
      "сии": 4688,
      "предложен": 4689,
      "ительная": 4690,
      "ительную": 4691,
      "орен": 4692,
      "щать": 4693,
      "городов": 4694,
      "распро": 4695,
      "должност": 4696,
      "правления": 4697,
      "развитии": 4698,
      "счит": 4699,
      "увеличение": 4700,
      "брать": 4701,
      "телям": 4702,
      "полиции": 4703,
      "легко": 4704,
      "создания": 4705,
      "создать": 4706,
      "увеличился": 4707,
      "аренду": 4708,
      "дополнительные": 4709,
      "михаила": 4710,
      "тировал": 4711,
      "национальной": 4712,
      "надзора": 4713,
      "агентство": 4714,
      "покупателей": 4715,
      "зависимости": 4716,
      "рассказала": 4717,
      "шоу": 4718,
      "обеспечивает": 4719,
      "уверен": 4720,
      "выручка": 4721,
      "олега": 4722,
      "взятки": 4723,
      "ночью": 4724,
      "василий": 4725,
      "стэнли": 4726,
      "кравченко": 4727,
      "вскоре": 4728,
      "соревнов": 4729,
      "yara": 4730,
      "ввод": 4731,
      "втор": 4732,
      "ванием": 4733,
      "ец": 4734,
      "жений": 4735,
      "опрош": 4736,
      "пали": 4737,
      "село": 4738,
      "сби": 4739,
      "фрак": 4740,
      "щений": 4741,
      "раскры": 4742,
      "новым": 4743,
      "пото": 4744,
      "похи": 4745,
      "покол": 4746,
      "пообещ": 4747,
      "награ": 4748,
      "награжд": 4749,
      "найти": 4750,
      "ридо": 4751,
      "защи": 4752,
      "проходят": 4753,
      "мий": 4754,
      "момента": 4755,
      "мотива": 4756,
      "выпла": 4757,
      "виз": 4758,
      "отказался": 4759,
      "льп": 4760,
      "приостано": 4761,
      "дере": 4762,
      "инспек": 4763,
      "альфа": 4764,
      "разно": 4765,
      "странах": 4766,
      "шил": 4767,
      "скла": 4768,
      "возгора": 4769,
      "телю": 4770,
      "экстреми": 4771,
      "заявления": 4772,
      "хамас": 4773,
      "должно": 4774,
      "стрем": 4775,
      "ведли": 4776,
      "ini": 4777,
      "нарушений": 4778,
      "совете": 4779,
      "программу": 4780,
      "пользов": 4781,
      "региональном": 4782,
      "крупные": 4783,
      "случай": 4784,
      "кампании": 4785,
      "необходимость": 4786,
      "федеральной": 4787,
      "федеральном": 4788,
      "налога": 4789,
      "щено": 4790,
      "направлены": 4791,
      "туризма": 4792,
      "заседания": 4793,
      "заседание": 4794,
      "ключевых": 4795,
      "социально": 4796,
      "увеличилось": 4797,
      "транспортной": 4798,
      "прогноз": 4799,
      "фигурант": 4800,
      "никола": 4801,
      "сильно": 4802,
      "национального": 4803,
      "превышает": 4804,
      "белору": 4805,
      "процедуру": 4806,
      "начальника": 4807,
      "боевых": 4808,
      "целью": 4809,
      "выросло": 4810,
      "предполагает": 4811,
      "пассажиров": 4812,
      "приводит": 4813,
      "ght": 4814,
      "оформл": 4815,
      "степени": 4816,
      "неоднократно": 4817,
      "плюс": 4818,
      "ульянов": 4819,
      "порядок": 4820,
      "ad": 4821,
      "hul": 4822,
      "атак": 4823,
      "дании": 4824,
      "кг": 4825,
      "лл": 4826,
      "сбо": 4827,
      "ума": 4828,
      "чными": 4829,
      "шь": 4830,
      "розыск": 4831,
      "реки": 4832,
      "анный": 4833,
      "воохран": 4834,
      "нашей": 4835,
      "нарко": 4836,
      "качество": 4837,
      "запи": 4838,
      "состо": 4839,
      "нё": 4840,
      "нести": 4841,
      "могу": 4842,
      "выдви": 4843,
      "диску": 4844,
      "мастер": 4845,
      "дерев": 4846,
      "комна": 4847,
      "пакет": 4848,
      "подсуди": 4849,
      "страи": 4850,
      "любы": 4851,
      "словно": 4852,
      "форм": 4853,
      "гендиректора": 4854,
      "марки": 4855,
      "должника": 4856,
      "самое": 4857,
      "дорог": 4858,
      "скульп": 4859,
      "хими": 4860,
      "информационной": 4861,
      "правительстве": 4862,
      "темпера": 4863,
      "крупном": 4864,
      "эксперти": 4865,
      "единая": 4866,
      "международный": 4867,
      "атаке": 4868,
      "сейчас": 4869,
      "оценке": 4870,
      "добавляет": 4871,
      "кредита": 4872,
      "выпуска": 4873,
      "хотят": 4874,
      "мэра": 4875,
      "резер": 4876,
      "полноцен": 4877,
      "ремонта": 4878,
      "сайт": 4879,
      "выборов": 4880,
      "кризи": 4881,
      "выясни": 4882,
      "продю": 4883,
      "подробности": 4884,
      "оказались": 4885,
      "капитал": 4886,
      "сезоне": 4887,
      "принадлежа": 4888,
      "выросли": 4889,
      "академи": 4890,
      "причиной": 4891,
      "башкирии": 4892,
      "позднее": 4893,
      "англий": 4894,
      "здравоохран": 4895,
      "анатолий": 4896,
      "работода": 4897,
      "ah": 4898,
      "con": 4899,
      "man": 4900,
      "ue": 4901,
      "win": 4902,
      "ввели": 4903,
      "дется": 4904,
      "зале": 4905,
      "сче": 4906,
      "титься": 4907,
      "цкий": 4908,
      "шер": 4909,
      "шением": 4910,
      "ьет": 4911,
      "стры": 4912,
      "рон": 4913,
      "кос": 4914,
      "годов": 4915,
      "пору": 4916,
      "воли": 4917,
      "наша": 4918,
      "итин": 4919,
      "общий": 4920,
      "кадро": 4921,
      "кине": 4922,
      "пропу": 4923,
      "лова": 4924,
      "тирует": 4925,
      "применя": 4926,
      "куз": 4927,
      "хождения": 4928,
      "чиков": 4929,
      "гастро": 4930,
      "тым": 4931,
      "нуж": 4932,
      "подпис": 4933,
      "краю": 4934,
      "ссср": 4935,
      "бас": 4936,
      "актером": 4937,
      "сказать": 4938,
      "чено": 4939,
      "циями": 4940,
      "ктк": 4941,
      "минимум": 4942,
      "общества": 4943,
      "новое": 4944,
      "служб": 4945,
      "anie": 4946,
      "яндекс": 4947,
      "ходили": 4948,
      "рованной": 4949,
      "прошла": 4950,
      "основных": 4951,
      "другими": 4952,
      "москву": 4953,
      "появи": 4954,
      "поясня": 4955,
      "питания": 4956,
      "сообщение": 4957,
      "селе": 4958,
      "двумя": 4959,
      "площадки": 4960,
      "площадке": 4961,
      "участием": 4962,
      "сегодняш": 4963,
      "январь": 4964,
      "ликвида": 4965,
      "беспилотных": 4966,
      "аэропорт": 4967,
      "утверждает": 4968,
      "продолжается": 4969,
      "оборот": 4970,
      "американский": 4971,
      "предпринимателей": 4972,
      "продли": 4973,
      "целе": 4974,
      "искусства": 4975,
      "процедуры": 4976,
      "отмечается": 4977,
      "отрасле": 4978,
      "динамика": 4979,
      "футболь": 4980,
      "категории": 4981,
      "обратился": 4982,
      "применения": 4983,
      "платформы": 4984,
      "успешно": 4985,
      "верховный": 4986,
      "татарстане": 4987,
      "индустри": 4988,
      "адвокат": 4989,
      "молодых": 4990,
      "черноземье": 4991,
      "каждого": 4992,
      "ежегодно": 4993,
      "обучение": 4994,
      "group": 4995,
      "io": 4996,
      "ir": 4997,
      "kino": 4998,
      "oit": 4999,
      "ture": 5000,
      "бк": 5001,
      "дри": 5002,
      "ини": 5003,
      "осу": 5004,
      "сбе": 5005,
      "чрез": 5006,
      "стрен": 5007,
      "нос": 5008,
      "ночь": 5009,
      "пове": 5010,
      "поку": 5011,
      "общую": 5012,
      "заем": 5013,
      "сот": 5014,
      "лицен": 5015,
      "вышел": 5016,
      "выбира": 5017,
      "выигра": 5018,
      "выплаты": 5019,
      "вина": 5020,
      "диз": 5021,
      "дис": 5022,
      "мара": 5023,
      "ставок": 5024,
      "меров": 5025,
      "думе": 5026,
      "честве": 5027,
      "кому": 5028,
      "тести": 5029,
      "ходу": 5030,
      "мули": 5031,
      "турой": 5032,
      "ительности": 5033,
      "зону": 5034,
      "ителю": 5035,
      "шают": 5036,
      "рассказывает": 5037,
      "господи": 5038,
      "публикации": 5039,
      "класса": 5040,
      "рованного": 5041,
      "самолета": 5042,
      "минэкономики": 5043,
      "импорт": 5044,
      "основные": 5045,
      "финансов": 5046,
      "значения": 5047,
      "случаях": 5048,
      "всего": 5049,
      "втором": 5050,
      "ступили": 5051,
      "активности": 5052,
      "государственного": 5053,
      "chop": 5054,
      "улицы": 5055,
      "генера": 5056,
      "оборон": 5057,
      "областного": 5058,
      "задачи": 5059,
      "благотвор": 5060,
      "клуба": 5061,
      "концерт": 5062,
      "родился": 5063,
      "высказы": 5064,
      "трансформа": 5065,
      "призвал": 5066,
      "смерти": 5067,
      "потеря": 5068,
      "устойчиво": 5069,
      "полномочия": 5070,
      "виногра": 5071,
      "второго": 5072,
      "реаги": 5073,
      "йорке": 5074,
      "свидетель": 5075,
      "бондар": 5076,
      "прозра": 5077,
      "чарльз": 5078,
      "hulu": 5079,
      "chopard": 5080,
      "tess": 5081,
      "аз": 5082,
      "вании": 5083,
      "ввп": 5084,
      "гле": 5085,
      "дл": 5086,
      "оке": 5087,
      "тэ": 5088,
      "указан": 5089,
      "ьев": 5090,
      "говой": 5091,
      "пошли": 5092,
      "постепен": 5093,
      "нар": 5094,
      "наро": 5095,
      "наде": 5096,
      "напомина": 5097,
      "обсуд": 5098,
      "кирил": 5099,
      "лизин": 5100,
      "долю": 5101,
      "несовершенно": 5102,
      "масси": 5103,
      "отр": 5104,
      "стаи": 5105,
      "комби": 5106,
      "пеше": 5107,
      "печат": 5108,
      "паци": 5109,
      "фотоархив": 5110,
      "ссию": 5111,
      "консал": 5112,
      "пик": 5113,
      "зор": 5114,
      "компет": 5115,
      "ждали": 5116,
      "форме": 5117,
      "библи": 5118,
      "ционная": 5119,
      "женные": 5120,
      "банки": 5121,
      "совла": 5122,
      "сентябрь": 5123,
      "рассказы": 5124,
      "службу": 5125,
      "решению": 5126,
      "uth": 5127,
      "родствен": 5128,
      "ответственность": 5129,
      "самой": 5130,
      "минфин": 5131,
      "история": 5132,
      "продукт": 5133,
      "политика": 5134,
      "региональных": 5135,
      "объявил": 5136,
      "материалы": 5137,
      "сообщалось": 5138,
      "заключение": 5139,
      "падение": 5140,
      "защиту": 5141,
      "ракет": 5142,
      "кабин": 5143,
      "достижения": 5144,
      "кинофестивале": 5145,
      "isk": 5146,
      "медве": 5147,
      "позицию": 5148,
      "уточнил": 5149,
      "китая": 5150,
      "обвинение": 5151,
      "цифровых": 5152,
      "районах": 5153,
      "шуматов": 5154,
      "сельского": 5155,
      "доходы": 5156,
      "местах": 5157,
      "металли": 5158,
      "огонё": 5159,
      "периодом": 5160,
      "poisk": 5161,
      "убийства": 5162,
      "решили": 5163,
      "пунктов": 5164,
      "машины": 5165,
      "необходимые": 5166,
      "удовлетвор": 5167,
      "артемий": 5168,
      "полномочий": 5169,
      "борис": 5170,
      "денис": 5171,
      "режиссера": 5172,
      "касается": 5173,
      "музея": 5174,
      "церемонии": 5175,
      "владимиром": 5176,
      "new": 5177,
      "benoit": 5178,
      "боброва": 5179,
      "тюрьмы": 5180,
      "ориенти": 5181,
      "прокурора": 5182,
      "авакян": 5183,
      "кавказ": 5184,
      "luca": 5185,
      "саратовской": 5186,
      "bruno": 5187,
      "kinopoisk": 5188,
      "tessier": 5189,
      "огонёк": 5190,
      ".)": 5191,
      "cur": 5192,
      "der": 5193,
      "gen": 5194,
      "hon": 5195,
      "бот": 5196,
      "вени": 5197,
      "вана": 5198,
      "дря": 5199,
      "опи": 5200,
      "озна": 5201,
      "указа": 5202,
      "учены": 5203,
      "яна": 5204,
      "стек": 5205,
      "росре": 5206,
      "поним": 5207,
      "анные": 5208,
      "товар": 5209,
      "волю": 5210,
      "елей": 5211,
      "елена": 5212,
      "ваемых": 5213,
      "нице": 5214,
      "запрос": 5215,
      "таган": 5216,
      "неболь": 5217,
      "выступления": 5218,
      "диаг": 5219,
      "сив": 5220,
      "сия": 5221,
      "отказы": 5222,
      "отходов": 5223,
      "препара": 5224,
      "стая": 5225,
      "вера": 5226,
      "изъ": 5227,
      "изгото": 5228,
      "ходом": 5229,
      "садов": 5230,
      "сарко": 5231,
      "жила": 5232,
      "подня": 5233,
      "первая": 5234,
      "ковали": 5235,
      "зировать": 5236,
      "компанией": 5237,
      "баш": 5238,
      "тельства": 5239,
      "главой": 5240,
      "возме": 5241,
      "переработ": 5242,
      "собак": 5243,
      "полный": 5244,
      "полном": 5245,
      "экстрен": 5246,
      "гового": 5247,
      "общественного": 5248,
      "коммерческой": 5249,
      "среды": 5250,
      "хать": 5251,
      "торин": 5252,
      "здании": 5253,
      "сообщило": 5254,
      "ителям": 5255,
      "стройки": 5256,
      "корреспон": 5257,
      "нарушении": 5258,
      "политик": 5259,
      "следующий": 5260,
      "поддержка": 5261,
      "главное": 5262,
      "военных": 5263,
      "существу": 5264,
      "международном": 5265,
      "представлен": 5266,
      "полиция": 5267,
      "установили": 5268,
      "бюджетных": 5269,
      "концесси": 5270,
      "передает": 5271,
      "мэрии": 5272,
      "активи": 5273,
      "источника": 5274,
      "источников": 5275,
      "григорь": 5276,
      "системе": 5277,
      "пространство": 5278,
      "николай": 5279,
      "стратегии": 5280,
      "сельхоз": 5281,
      "угрозы": 5282,
      "настоящий": 5283,
      "договора": 5284,
      "инструменты": 5285,
      "начальник": 5286,
      "forma": 5287,
      "поставщи": 5288,
      "северной": 5289,
      "находился": 5290,
      "застройщик": 5291,
      "погибших": 5292,
      "фестиваль": 5293,
      "eek": 5294,
      "генассамблее": 5295,
      "федор": 5296,
      "экспозиция": 5297,
      "инциден": 5298,
      "performa": 5299,
      "художе": 5300,
      "посвящен": 5301,
      "столкну": 5302,
      "восьми": 5303,
      "армении": 5304,
      "андрея": 5305,
      "далее": 5306,
      "госпитализи": 5307,
      "задолженности": 5308,
      "мониторин": 5309,
      "закупок": 5310,
      "момотов": 5311,
      "гражданина": 5312,
      "самарской": 5313,
      "наркоти": 5314,
      "состоится": 5315,
      "росрее": 5316,
      "саркози": 5317,
      ".),": 5318,
      "pic": 5319,
      "бя": 5320,
      "валось": 5321,
      "гром": 5322,
      "рги": 5323,
      "сх": 5324,
      "сможет": 5325,
      "удар": 5326,
      "ускор": 5327,
      "ужесто": 5328,
      "яет": 5329,
      "ростом": 5330,
      "космо": 5331,
      "коап": 5332,
      "пога": 5333,
      "подорож": 5334,
      "сово": 5335,
      "прото": 5336,
      "руем": 5337,
      "локо": 5338,
      "вискон": 5339,
      "сиби": 5340,
      "лес": 5341,
      "чего": 5342,
      "инвест": 5343,
      "супер": 5344,
      "изначально": 5345,
      "муль": 5346,
      "правил": 5347,
      "предстоит": 5348,
      "верит": 5349,
      "кондра": 5350,
      "краси": 5351,
      "страна": 5352,
      "стражу": 5353,
      "фикации": 5354,
      "тельной": 5355,
      "одну": 5356,
      "держать": 5357,
      "говори": 5358,
      "получении": 5359,
      "российская": 5360,
      "канал": 5361,
      "креа": 5362,
      "стрель": 5363,
      "трое": 5364,
      "государств": 5365,
      "сообщается": 5366,
      "ora": 5367,
      "земле": 5368,
      "ману": 5369,
      "телями": 5370,
      "свобод": 5371,
      "ходатай": 5372,
      "щихся": 5373,
      "транспортных": 5374,
      "проводи": 5375,
      "цифровой": 5376,
      "договоров": 5377,
      "задача": 5378,
      "сохранять": 5379,
      "сложности": 5380,
      "функцион": 5381,
      "оконч": 5382,
      "игроков": 5383,
      "ленинградской": 5384,
      "ill": 5385,
      "конец": 5386,
      "снабжения": 5387,
      "охраны": 5388,
      "реклам": 5389,
      "новосибирской": 5390,
      "исполня": 5391,
      "калинин": 5392,
      "акватории": 5393,
      "самостоятельно": 5394,
      "des": 5395,
      "fr": 5396,
      "nt": 5397,
      "ация": 5398,
      "вво": 5399,
      "исте": 5400,
      "мн": 5401,
      "мали": 5402,
      "рбк": 5403,
      "тный": 5404,
      "усп": 5405,
      "хра": 5406,
      "хин": 5407,
      "чность": 5408,
      "чук": 5409,
      "расти": 5410,
      "голь": 5411,
      "показы": 5412,
      "поезд": 5413,
      "нако": 5414,
      "нашли": 5415,
      "насколько": 5416,
      "настаи": 5417,
      "облига": 5418,
      "каспи": 5419,
      "вати": 5420,
      "никова": 5421,
      "доне": 5422,
      "выгод": 5423,
      "стами": 5424,
      "прилож": 5425,
      "дев": 5426,
      "демо": 5427,
      "разные": 5428,
      "ковал": 5429,
      "пил": 5430,
      "керов": 5431,
      "лях": 5432,
      "главе": 5433,
      "сана": 5434,
      "редко": 5435,
      "жается": 5436,
      "жена": 5437,
      "получат": 5438,
      "российское": 5439,
      "детских": 5440,
      "новом": 5441,
      "черных": 5442,
      "отношений": 5443,
      "коррек": 5444,
      "результат": 5445,
      "пользо": 5446,
      "большо": 5447,
      "большую": 5448,
      "открытия": 5449,
      "охва": 5450,
      "фактически": 5451,
      "европы": 5452,
      "существенно": 5453,
      "деятельностью": 5454,
      "завершен": 5455,
      "способности": 5456,
      "сокращение": 5457,
      "ital": 5458,
      "форум": 5459,
      "очевид": 5460,
      "продолжают": 5461,
      "реализацию": 5462,
      "официально": 5463,
      "уточнили": 5464,
      "закону": 5465,
      "масшта": 5466,
      "атмо": 5467,
      "региону": 5468,
      "евгения": 5469,
      "сделки": 5470,
      "целях": 5471,
      "капитала": 5472,
      "газета": 5473,
      "предлагают": 5474,
      "light": 5475,
      "соцсети": 5476,
      "тяжело": 5477,
      "нижнем": 5478,
      "эксплуатации": 5479,
      "малого": 5480,
      "самолеты": 5481,
      "документации": 5482,
      "генассамблеи": 5483,
      "обучения": 5484,
      "челябинской": 5485,
      "справедли": 5486,
      "гонкон": 5487,
      "затрат": 5488,
      "эпизо": 5489,
      "маркетин": 5490,
      "британ": 5491,
      "хокке": 5492,
      "казахстан": 5493,
      "относительно": 5494,
      "наталья": 5495,
      "снизить": 5496,
      "пациен": 5497,
      "таганро": 5498,
      "росреестра": 5499,
      "висконти": 5500,
      "bes": 5501,
      "gon": 5502,
      "ври": 5503,
      "взы": 5504,
      "вступил": 5505,
      "гря": 5506,
      "дь": 5507,
      "дя": 5508,
      "жную": 5509,
      "зь": 5510,
      "зве": 5511,
      "крт": 5512,
      "нс": 5513,
      "пить": 5514,
      "тков": 5515,
      "укры": 5516,
      "усили": 5517,
      "уплаты": 5518,
      "фф": 5519,
      "эд": 5520,
      "юсь": 5521,
      "росту": 5522,
      "ково": 5523,
      "костю": 5524,
      "потребов": 5525,
      "поток": 5526,
      "рисков": 5527,
      "нила": 5528,
      "соль": 5529,
      "лого": 5530,
      "типа": 5531,
      "сирен": 5532,
      "лева": 5533,
      "лежа": 5534,
      "вечер": 5535,
      "привы": 5536,
      "коммента": 5537,
      "издели": 5538,
      "сада": 5539,
      "гай": 5540,
      "муля": 5541,
      "концу": 5542,
      "путем": 5543,
      "перечень": 5544,
      "щают": 5545,
      "фё": 5546,
      "получение": 5547,
      "получит": 5548,
      "российским": 5549,
      "коммерческий": 5550,
      "тория": 5551,
      "сырь": 5552,
      "местные": 5553,
      "рейсов": 5554,
      "райсуд": 5555,
      "самом": 5556,
      "int": 5557,
      "ителями": 5558,
      "app": 5559,
      "leco": 5560,
      "управлением": 5561,
      "смотреть": 5562,
      "краснодарский": 5563,
      "увеличить": 5564,
      "фас": 5565,
      "групп": 5566,
      "временного": 5567,
      "занимал": 5568,
      "федеральный": 5569,
      "собственность": 5570,
      "участии": 5571,
      "оценкам": 5572,
      "законодательство": 5573,
      "гибдд": 5574,
      "банкротство": 5575,
      "реализация": 5576,
      "определен": 5577,
      "американского": 5578,
      "соответствует": 5579,
      "товары": 5580,
      "третьем": 5581,
      "телефо": 5582,
      "председателем": 5583,
      "основа": 5584,
      "отрасль": 5585,
      "тировки": 5586,
      "предоставлено": 5587,
      "мужчин": 5588,
      "судебного": 5589,
      "дальше": 5590,
      "специальной": 5591,
      "многих": 5592,
      "историю": 5593,
      "хват": 5594,
      "огонь": 5595,
      "исключ": 5596,
      "соцсетях": 5597,
      "выступает": 5598,
      "европейских": 5599,
      "ближайшие": 5600,
      "кубани": 5601,
      "демонстрирует": 5602,
      "видим": 5603,
      "краснодаре": 5604,
      "органах": 5605,
      "постоянно": 5606,
      "худож": 5607,
      "mercur": 5608,
      "травмы": 5609,
      "съемках": 5610,
      "уфсб": 5611,
      "пользователей": 5612,
      "бензина": 5613,
      "столько": 5614,
      "ожидания": 5615,
      "элви": 5616,
      "девуш": 5617,
      "stephanie": 5618,
      "экстремист": 5619,
      "здравоохранения": 5620,
      "picture": 5621,
      "lecocq": 5622,
      "car": 5623,
      "do": 5624,
      "fm": 5625,
      "ion": 5626,
      "jo": 5627,
      "va": 5628,
      "xi": 5629,
      "бл": 5630,
      "входят": 5631,
      "еги": 5632,
      "есте": 5633,
      "ехать": 5634,
      "ими": 5635,
      "илья": 5636,
      "уполномо": 5637,
      "усилия": 5638,
      "фт": 5639,
      "хран": 5640,
      "рад": 5641,
      "показывает": 5642,
      "поводу": 5643,
      "почему": 5644,
      "тости": 5645,
      "нац": 5646,
      "риев": 5647,
      "завет": 5648,
      "кило": 5649,
      "проф": 5650,
      "проя": 5651,
      "нев": 5652,
      "вызо": 5653,
      "выставки": 5654,
      "стадии": 5655,
      "честь": 5656,
      "рыва": 5657,
      "судом": 5658,
      "хова": 5659,
      "фотографи": 5660,
      "ализа": 5661,
      "разреш": 5662,
      "верто": 5663,
      "жести": 5664,
      "гуман": 5665,
      "люб": 5666,
      "бума": 5667,
      "алом": 5668,
      "переход": 5669,
      "шай": 5670,
      "ционным": 5671,
      "участвовать": 5672,
      "проекту": 5673,
      "цену": 5674,
      "ренко": 5675,
      "крым": 5676,
      "канала": 5677,
      "вуза": 5678,
      "парков": 5679,
      "парке": 5680,
      "осна": 5681,
      "местных": 5682,
      "можем": 5683,
      "никто": 5684,
      "производству": 5685,
      "городскую": 5686,
      "сотрудника": 5687,
      "считали": 5688,
      "руководством": 5689,
      "процессов": 5690,
      "включает": 5691,
      "оставаться": 5692,
      "сталки": 5693,
      "срока": 5694,
      "налог": 5695,
      "повышен": 5696,
      "паралл": 5697,
      "потребления": 5698,
      "последних": 5699,
      "финансового": 5700,
      "произошед": 5701,
      "будущего": 5702,
      "муниципального": 5703,
      "шкина": 5704,
      "прибыли": 5705,
      "комиссия": 5706,
      "вдвое": 5707,
      "остальные": 5708,
      "московской": 5709,
      "кредитной": 5710,
      "театр": 5711,
      "динамику": 5712,
      "убийстве": 5713,
      "палаты": 5714,
      "мошенничество": 5715,
      "сократилось": 5716,
      "рабочие": 5717,
      "молда": 5718,
      "рассмотрение": 5719,
      "особое": 5720,
      "расследования": 5721,
      "назначения": 5722,
      "индуст": 5723,
      "покинуть": 5724,
      "выполня": 5725,
      "довольно": 5726,
      "полагает": 5727,
      "муниципалитета": 5728,
      "талан": 5729,
      "молодежи": 5730,
      "подверг": 5731,
      "середине": 5732,
      "распростра": 5733,
      "уполномочен": 5734,
      "параллель": 5735,
      "fu": 5736,
      "ho": 5737,
      "pi": 5738,
      "wor": 5739,
      "впере": 5740,
      "двор": 5741,
      "кто": 5742,
      "млад": 5743,
      "оре": 5744,
      "очи": 5745,
      "опу": 5746,
      "оказа": 5747,
      "сбора": 5748,
      "титу": 5749,
      "упа": 5750,
      "уфи": 5751,
      "худ": 5752,
      "щением": 5753,
      "юг": 5754,
      "стит": 5755,
      "резо": 5756,
      "сопер": 5757,
      "соору": 5758,
      "линей": 5759,
      "пропа": 5760,
      "ционе": 5761,
      "моз": 5762,
      "вызы": 5763,
      "вычай": 5764,
      "видов": 5765,
      "мах": 5766,
      "сизо": 5767,
      "лекар": 5768,
      "отск": 5769,
      "преимуще": 5770,
      "веще": 5771,
      "привести": 5772,
      "пришел": 5773,
      "придется": 5774,
      "деше": 5775,
      "педа": 5776,
      "самая": 5777,
      "чие": 5778,
      "рована": 5779,
      "разрабаты": 5780,
      "писа": 5781,
      "люби": 5782,
      "ветера": 5783,
      "ждена": 5784,
      "строя": 5785,
      "студии": 5786,
      "третий": 5787,
      "работников": 5788,
      "ранены": 5789,
      "рассчит": 5790,
      "орган": 5791,
      "парфё": 5792,
      "испыт": 5793,
      "никах": 5794,
      "выйти": 5795,
      "ведется": 5796,
      "ведений": 5797,
      "александ": 5798,
      "сотрудничества": 5799,
      "компаниям": 5800,
      "другим": 5801,
      "региональный": 5802,
      "большого": 5803,
      "группе": 5804,
      "этапе": 5805,
      "интегра": 5806,
      "необходимости": 5807,
      "граждане": 5808,
      "федеральных": 5809,
      "представля": 5810,
      "жизнен": 5811,
      "готова": 5812,
      "ликвиди": 5813,
      "окружа": 5814,
      "вопросов": 5815,
      "жела": 5816,
      "воздуха": 5817,
      "соответствующее": 5818,
      "повреждения": 5819,
      "матч": 5820,
      "зависит": 5821,
      "требованиям": 5822,
      "показали": 5823,
      "центрального": 5824,
      "центральном": 5825,
      "задач": 5826,
      "гостиницы": 5827,
      "финансирование": 5828,
      "воздушных": 5829,
      "воздушного": 5830,
      "турец": 5831,
      "требуется": 5832,
      "платежей": 5833,
      "текущего": 5834,
      "опубликован": 5835,
      "квадра": 5836,
      "университет": 5837,
      "forbes": 5838,
      "светлана": 5839,
      "получают": 5840,
      "потерпе": 5841,
      "чиновник": 5842,
      "кубка": 5843,
      "артема": 5844,
      "половиной": 5845,
      "отчетности": 5846,
      "энергетики": 5847,
      "добросо": 5848,
      "весной": 5849,
      "сказала": 5850,
      "субсиди": 5851,
      "подразделения": 5852,
      "росави": 5853,
      "гриппа": 5854,
      "прикамье": 5855,
      "конюхов": 5856,
      "абсолютно": 5857,
      "белоруссии": 5858,
      "чрезвычай": 5859,
      "hong": 5860,
      "каспий": 5861,
      "mercury": 5862,
      "парфёнов": 5863,
      "(-<": 5864,
      ".<": 5865,
      "ab": 5866,
      "mor": 5867,
      "pol": 5868,
      "xv": 5869,
      "вкла": 5870,
      "гали": 5871,
      "емо": 5872,
      "жин": 5873,
      "жить": 5874,
      "мана": 5875,
      "одол": 5876,
      "оплаты": 5877,
      "пта": 5878,
      "тном": 5879,
      "устав": 5880,
      "убор": 5881,
      "фз": 5882,
      "штей": 5883,
      "ьян": 5884,
      "эс": 5885,
      "яется": 5886,
      "ента": 5887,
      "енная": 5888,
      "вому": 5889,
      "напит": 5890,
      "начать": 5891,
      "каких": 5892,
      "нист": 5893,
      "запоро": 5894,
      "пройти": 5895,
      "доле": 5896,
      "долей": 5897,
      "таж": 5898,
      "моду": 5899,
      "вывод": 5900,
      "вир": 5901,
      "дик": 5902,
      "маска": 5903,
      "март": 5904,
      "стиле": 5905,
      "дево": 5906,
      "кубок": 5907,
      "рых": 5908,
      "бога": 5909,
      "сути": 5910,
      "теров": 5911,
      "чается": 5912,
      "путина": 5913,
      "красо": 5914,
      "россией": 5915,
      "шили": 5916,
      "новения": 5917,
      "новую": 5918,
      "новгороде": 5919,
      "базы": 5920,
      "мым": 5921,
      "мый": 5922,
      "строгого": 5923,
      "сообщения": 5924,
      "передан": 5925,
      "студентов": 5926,
      "объеди": 5927,
      "генпрокуратура": 5928,
      "ant": 5929,
      "трубо": 5930,
      "сын": 5931,
      "плохо": 5932,
      "друга": 5933,
      "картина": 5934,
      "соглашений": 5935,
      "строительству": 5936,
      "строительстве": 5937,
      "основная": 5938,
      "учред": 5939,
      "турции": 5940,
      "корпо": 5941,
      "руководителей": 5942,
      "продаже": 5943,
      "ющихся": 5944,
      "главным": 5945,
      "встреч": 5946,
      "тяжести": 5947,
      "завершения": 5948,
      "установил": 5949,
      "достигла": 5950,
      "самые": 5951,
      "ключевым": 5952,
      "портале": 5953,
      "название": 5954,
      "гибели": 5955,
      "исполнении": 5956,
      "последнее": 5957,
      "сутки": 5958,
      "цифрови": 5959,
      "конкурса": 5960,
      "продл": 5961,
      "филиала": 5962,
      "предлагает": 5963,
      "режиссеры": 5964,
      "автоматиче": 5965,
      "крайне": 5966,
      "ирана": 5967,
      "лидера": 5968,
      "рекоменду": 5969,
      "рекомендов": 5970,
      "зарпла": 5971,
      "зарплат": 5972,
      "картоте": 5973,
      "подрядчик": 5974,
      "связь": 5975,
      "реабил": 5976,
      "фирмы": 5977,
      "оформ": 5978,
      "дрейк": 5979,
      "вероятно": 5980,
      "вшую": 5981,
      "волгоградской": 5982,
      "портфель": 5983,
      "злоумышлен": 5984,
      "потенциал": 5985,
      "кинемато": 5986,
      "дизель": 5987,
      "диагности": 5988,
      "совокуп": 5989,
      "большое": 5990,
      "добросовест": 5991,
      "cor": 5992,
      "fo": 5993,
      "mi": 5994,
      "ot": 5995,
      "pr": 5996,
      "tes": 5997,
      "бэк": 5998,
      "жов": 5999,
      "зей": 6000,
      "идут": 6001,
      "илон": 6002,
      "нского": 6003,
      "опер": 6004,
      "пти": 6005,
      "сцене": 6006,
      "упро": 6007,
      "чко": 6008,
      "щены": 6009,
      "эфи": 6010,
      "юго": 6011,
      "стями": 6012,
      "енным": 6013,
      "росс": 6014,
      "тол": 6015,
      "обмен": 6016,
      "камер": 6017,
      "заработ": 6018,
      "лиги": 6019,
      "продемонстри": 6020,
      "мили": 6021,
      "лор": 6022,
      "выхода": 6023,
      "дера": 6024,
      "кут": 6025,
      "бого": 6026,
      "команд": 6027,
      "комнат": 6028,
      "альности": 6029,
      "альность": 6030,
      "правило": 6031,
      "ссен": 6032,
      "шими": 6033,
      "кера": 6034,
      "гуп": 6035,
      "гуц": 6036,
      "фина": 6037,
      "лять": 6038,
      "слезам": 6039,
      "бакла": 6040,
      "этого": 6041,
      "тивным": 6042,
      "стую": 6043,
      "шах": 6044,
      "формы": 6045,
      "пласти": 6046,
      "жено": 6047,
      "меть": 6048,
      "елизавет": 6049,
      "крыжов": 6050,
      "кроссо": 6051,
      "иске": 6052,
      "марченко": 6053,
      "друг": 6054,
      "рейс": 6055,
      "оператором": 6056,
      "строительной": 6057,
      "тенни": 6058,
      "клини": 6059,
      "клиент": 6060,
      "продукцию": 6061,
      "большом": 6062,
      "значение": 6063,
      "объявлена": 6064,
      "главных": 6065,
      "факт": 6066,
      "электром": 6067,
      "промышленной": 6068,
      "республикан": 6069,
      "международной": 6070,
      "повысить": 6071,
      "завершить": 6072,
      "атаку": 6073,
      "беспилотники": 6074,
      "балета": 6075,
      "бизнесом": 6076,
      "сервисов": 6077,
      "созданию": 6078,
      "предложений": 6079,
      "красные": 6080,
      "финансовых": 6081,
      "передачи": 6082,
      "утвержден": 6083,
      "десятки": 6084,
      "разработки": 6085,
      "авито": 6086,
      "последствий": 6087,
      "резю": 6088,
      "интересы": 6089,
      "регионы": 6090,
      "кандидат": 6091,
      "штрафа": 6092,
      "гостини": 6093,
      "связанных": 6094,
      "занял": 6095,
      "сохраня": 6096,
      "гарантий": 6097,
      "владельцев": 6098,
      "отделения": 6099,
      "рейтинг": 6100,
      "италии": 6101,
      "влияние": 6102,
      "архитектур": 6103,
      "архитектуры": 6104,
      "страхование": 6105,
      "возраста": 6106,
      "надзорного": 6107,
      "ближайшее": 6108,
      "здоровья": 6109,
      "турнир": 6110,
      "верховного": 6111,
      "женщина": 6112,
      "респондентов": 6113,
      "института": 6114,
      "картины": 6115,
      "избиратель": 6116,
      "взыскании": 6117,
      "тариф": 6118,
      "сбербанка": 6119,
      "ехал": 6120,
      "асв": 6121,
      "следователи": 6122,
      "проспекте": 6123,
      "магистра": 6124,
      "звон": 6125,
      "аккумуля": 6126,
      "постепенно": 6127,
      "вениа": 6128,
      "педаго": 6129,
      "реабилита": 6130,
      "крыжовников": 6131,
      "du": 6132,
      "ge": 6133,
      "pre": 6134,
      "вме": 6135,
      "ванию": 6136,
      "ваны": 6137,
      "где": 6138,
      "ило": 6139,
      "иметь": 6140,
      "кал": 6141,
      "пле": 6142,
      "сала": 6143,
      "фаль": 6144,
      "чала": 6145,
      "чности": 6146,
      "енко": 6147,
      "рези": 6148,
      "понен": 6149,
      "воспо": 6150,
      "настро": 6151,
      "набра": 6152,
      "карт": 6153,
      "казов": 6154,
      "рию": 6155,
      "риска": 6156,
      "зами": 6157,
      "заслу": 6158,
      "заинтересов": 6159,
      "лабора": 6160,
      "созы": 6161,
      "прогу": 6162,
      "даге": 6163,
      "досто": 6164,
      "тает": 6165,
      "неизвест": 6166,
      "моти": 6167,
      "выгляд": 6168,
      "визи": 6169,
      "вирус": 6170,
      "мак": 6171,
      "лечения": 6172,
      "отпу": 6173,
      "отмени": 6174,
      "преступл": 6175,
      "привет": 6176,
      "куда": 6177,
      "чев": 6178,
      "честву": 6179,
      "бовал": 6180,
      "пев": 6181,
      "хочет": 6182,
      "менту": 6183,
      "гает": 6184,
      "нул": 6185,
      "консор": 6186,
      "туап": 6187,
      "пино": 6188,
      "ственную": 6189,
      "бак": 6190,
      "мые": 6191,
      "тивное": 6192,
      "долла": 6193,
      "ционное": 6194,
      "новому": 6195,
      "решет": 6196,
      "выез": 6197,
      "ленобласти": 6198,
      "составили": 6199,
      "никита": 6200,
      "публика": 6201,
      "операций": 6202,
      "адре": 6203,
      "объектах": 6204,
      "территория": 6205,
      "тропи": 6206,
      "структури": 6207,
      "гражданам": 6208,
      "высоте": 6209,
      "сторож": 6210,
      "объявили": 6211,
      "временно": 6212,
      "инвестиционной": 6213,
      "поддержали": 6214,
      "безопасность": 6215,
      "существует": 6216,
      "международных": 6217,
      "школе": 6218,
      "щенных": 6219,
      "потребителей": 6220,
      "увеличилась": 6221,
      "блока": 6222,
      "американской": 6223,
      "назначили": 6224,
      "направлений": 6225,
      "будущее": 6226,
      "будущем": 6227,
      "дополнительно": 6228,
      "дополнительных": 6229,
      "правам": 6230,
      "наиболь": 6231,
      "фигурантом": 6232,
      "конкурент": 6233,
      "tim": 6234,
      "современного": 6235,
      "гостиница": 6236,
      "обсуждения": 6237,
      "важным": 6238,
      "инициатива": 6239,
      "белого": 6240,
      "земельных": 6241,
      "традиционно": 6242,
      "контрактов": 6243,
      "рейтинга": 6244,
      "петербургского": 6245,
      "тяжелом": 6246,
      "ницей": 6247,
      "обслуживание": 6248,
      "получать": 6249,
      "установить": 6250,
      "angel": 6251,
      "прежнему": 6252,
      "смерть": 6253,
      "снизилась": 6254,
      "чемпион": 6255,
      "учитывая": 6256,
      "доверие": 6257,
      "правоохранительных": 6258,
      "многоквартирных": 6259,
      "сообщества": 6260,
      "сигнал": 6261,
      "чемпионата": 6262,
      "регулярно": 6263,
      "нхл": 6264,
      "напрямую": 6265,
      "премьера": 6266,
      "ошиб": 6267,
      "безусловно": 6268,
      "павлов": 6269,
      "менеджеров": 6270,
      "букме": 6271,
      "пришлось": 6272,
      "пообещал": 6273,
      "осужден": 6274,
      "концессион": 6275,
      "гуманитар": 6276,
      "уфим": 6277,
      "консорци": 6278,
      "fon": 6279,
      "gan": 6280,
      "pla": 6281,
      "qi": 6282,
      "zalo": 6283,
      "витали": 6284,
      "впечат": 6285,
      "гале": 6286,
      "драй": 6287,
      "евой": 6288,
      "жного": 6289,
      "отоп": 6290,
      "указы": 6291,
      "усил": 6292,
      "учета": 6293,
      "чали": 6294,
      "шали": 6295,
      "юла": 6296,
      "рово": 6297,
      "кот": 6298,
      "револю": 6299,
      "попал": 6300,
      "тозаме": 6301,
      "нара": 6302,
      "направ": 6303,
      "обжало": 6304,
      "зав": 6305,
      "заряд": 6306,
      "сожал": 6307,
      "содержа": 6308,
      "кибер": 6309,
      "проте": 6310,
      "домо": 6311,
      "небольшой": 6312,
      "мори": 6313,
      "выраж": 6314,
      "выставке": 6315,
      "тихо": 6316,
      "тировали": 6317,
      "дие": 6318,
      "дини": 6319,
      "лечение": 6320,
      "стимули": 6321,
      "прирост": 6322,
      "демии": 6323,
      "меч": 6324,
      "чест": 6325,
      "емся": 6326,
      "изу": 6327,
      "изобра": 6328,
      "чистая": 6329,
      "сева": 6330,
      "себе": 6331,
      "зоо": 6332,
      "буты": 6333,
      "тельные": 6334,
      "гласно": 6335,
      "перебо": 6336,
      "одному": 6337,
      "областей": 6338,
      "слов": 6339,
      "спеди": 6340,
      "начался": 6341,
      "био": 6342,
      "экспеди": 6343,
      "банком": 6344,
      "госпожи": 6345,
      "заявлял": 6346,
      "слава": 6347,
      "крон": 6348,
      "рейсы": 6349,
      "логии": 6350,
      "следствием": 6351,
      "спикер": 6352,
      "дорого": 6353,
      "доби": 6354,
      "добиться": 6355,
      "гордумы": 6356,
      "однажды": 6357,
      "результатам": 6358,
      "управлению": 6359,
      "фильме": 6360,
      "гроз": 6361,
      "крупного": 6362,
      "взгляд": 6363,
      "временем": 6364,
      "личных": 6365,
      "личные": 6366,
      "открытое": 6367,
      "гражданство": 6368,
      "аэрод": 6369,
      "заключил": 6370,
      "организацией": 6371,
      "удал": 6372,
      "ступила": 6373,
      "ющиеся": 6374,
      "заниматься": 6375,
      "laure": 6376,
      "практиче": 6377,
      "создает": 6378,
      "краевой": 6379,
      "позиция": 6380,
      "множе": 6381,
      "мероприятие": 6382,
      "парламент": 6383,
      "возбудили": 6384,
      "ярославль": 6385,
      "образование": 6386,
      "ударов": 6387,
      "пермь": 6388,
      "подготовке": 6389,
      "связаны": 6390,
      "кмч": 6391,
      "искусственного": 6392,
      "полетов": 6393,
      "приговорил": 6394,
      "приговорили": 6395,
      "девелоп": 6396,
      "практики": 6397,
      "коллеги": 6398,
      "пункта": 6399,
      "алкоголя": 6400,
      "отдельных": 6401,
      "голосования": 6402,
      "страхования": 6403,
      "ash": 6404,
      "защитник": 6405,
      "возглавил": 6406,
      "левитин": 6407,
      "образовательных": 6408,
      "снабжа": 6409,
      "перспективе": 6410,
      "entes": 6411,
      "бориса": 6412,
      "постановление": 6413,
      "скорость": 6414,
      "инцидент": 6415,
      "импортозаме": 6416,
      "сборной": 6417,
      "расширение": 6418,
      "женщины": 6419,
      "saint": 6420,
      "карьер": 6421,
      "инфляции": 6422,
      "отвеча": 6423,
      "вынуждены": 6424,
      "останется": 6425,
      "хоккей": 6426,
      "коррупции": 6427,
      "жора": 6428,
      "единогласно": 6429,
      "спокойствие": 6430,
      "избежать": 6431,
      "оружия": 6432,
      "подчеркивает": 6433,
      "полугодии": 6434,
      "прокомментировал": 6435,
      "диапа": 6436,
      "иноагентом": 6437,
      "мосфильм": 6438,
      "азаров": 6439,
      "ростове": 6440,
      "господину": 6441,
      "виноградни": 6442,
      "азс": 6443,
      "кирилл": 6444,
      "консалтин": 6445,
      "gonzalo": 6446,
      "взыскать": 6447,
      "исключительно": 6448,
      "fuentes": 6449,
      "hongqi": 6450,
      "вирту": 6451,
      "корпорации": 6452,
      "электромоби": 6453,
      "laurent": 6454,
      "ады": 6455,
      "впол": 6456,
      "гвар": 6457,
      "длин": 6458,
      "жным": 6459,
      "зали": 6460,
      "зала": 6461,
      "истре": 6462,
      "кнр": 6463,
      "оде": 6464,
      "оправ": 6465,
      "ощу": 6466,
      "смы": 6467,
      "спас": 6468,
      "тное": 6469,
      "темы": 6470,
      "хро": 6471,
      "шк": 6472,
      "шту": 6473,
      "шников": 6474,
      "яз": 6475,
      "гол": 6476,
      "почет": 6477,
      "поступления": 6478,
      "тона": 6479,
      "алтай": 6480,
      "вошел": 6481,
      "ump": 6482,
      "вающей": 6483,
      "рид": 6484,
      "зап": 6485,
      "лагер": 6486,
      "прошед": 6487,
      "мигра": 6488,
      "мишу": 6489,
      "цик": 6490,
      "недель": 6491,
      "дило": 6492,
      "диало": 6493,
      "отца": 6494,
      "прибли": 6495,
      "приведет": 6496,
      "мессен": 6497,
      "инстанции": 6498,
      "лукино": 6499,
      "ссий": 6500,
      "разрешения": 6501,
      "ряду": 6502,
      "ительному": 6503,
      "база": 6504,
      "этом": 6505,
      "тивно": 6506,
      "долматов": 6507,
      "торже": 6508,
      "сложи": 6509,
      "летних": 6510,
      "ченные": 6511,
      "средний": 6512,
      "больницы": 6513,
      "партию": 6514,
      "следственный": 6515,
      "производитель": 6516,
      "производители": 6517,
      "списка": 6518,
      "имму": 6519,
      "структур": 6520,
      "экономической": 6521,
      "июль": 6522,
      "отношение": 6523,
      "tech": 6524,
      "процессу": 6525,
      "поясн": 6526,
      "тренд": 6527,
      "находя": 6528,
      "воронежа": 6529,
      "охла": 6530,
      "прошлой": 6531,
      "падения": 6532,
      "военный": 6533,
      "активность": 6534,
      "многочислен": 6535,
      "вшихся": 6536,
      "социальные": 6537,
      "финансовый": 6538,
      "дорожного": 6539,
      "лучших": 6540,
      "восстанов": 6541,
      "инфраструктура": 6542,
      "вшегося": 6543,
      "аренда": 6544,
      "соответствующий": 6545,
      "соответствующие": 6546,
      "сравн": 6547,
      "доступны": 6548,
      "будучи": 6549,
      "муниципальных": 6550,
      "бензин": 6551,
      "проводится": 6552,
      "требованиями": 6553,
      "норм": 6554,
      "итетов": 6555,
      "центральный": 6556,
      "подтвердил": 6557,
      "играл": 6558,
      "разум": 6559,
      "екатеринбург": 6560,
      "удары": 6561,
      "обсужд": 6562,
      "банковских": 6563,
      "обновление": 6564,
      "обвиняется": 6565,
      "обвиняемый": 6566,
      "зелены": 6567,
      "московского": 6568,
      "денежно": 6569,
      "пояснили": 6570,
      "cedes": 6571,
      "запуск": 6572,
      "металлу": 6573,
      "статье": 6574,
      "характера": 6575,
      "всему": 6576,
      "категорий": 6577,
      "предложили": 6578,
      "ставропольского": 6579,
      "находились": 6580,
      "рассмотрения": 6581,
      "зарплаты": 6582,
      "девяти": 6583,
      "париже": 6584,
      "тироваться": 6585,
      "содержание": 6586,
      "дениса": 6587,
      "доброволь": 6588,
      "памятник": 6589,
      "борьбе": 6590,
      "значимых": 6591,
      "дрейка": 6592,
      "mercedes": 6593,
      "чтении": 6594,
      "квартале": 6595,
      "природы": 6596,
      "путешествен": 6597,
      "trump": 6598,
      "пенсион": 6599,
      "ридонов": 6600,
      "поясняет": 6601,
      "иниции": 6602,
      "сотни": 6603,
      "совладель": 6604,
      "сибирь": 6605,
      "мульти": 6606,
      "звезд": 6607,
      "параллельно": 6608,
      "times": 6609,
      "сожалению": 6610,
      "вполне": 6611,
      "at": 6612,
      "br": 6613,
      "den": 6614,
      "ja": 6615,
      "lin": 6616,
      "ner": 6617,
      "vol": 6618,
      "асси": 6619,
      "агра": 6620,
      "апарта": 6621,
      "браз": 6622,
      "дала": 6623,
      "жом": 6624,
      "оны": 6625,
      "опере": 6626,
      "оска": 6627,
      "псб": 6628,
      "сало": 6629,
      "твра": 6630,
      "усад": 6631,
      "шов": 6632,
      "шему": 6633,
      "эй": 6634,
      "рождения": 6635,
      "йдут": 6636,
      "кома": 6637,
      "рева": 6638,
      "потра": 6639,
      "посту": 6640,
      "кас": 6641,
      "какой": 6642,
      "вами": 6643,
      "зача": 6644,
      "ликт": 6645,
      "прохо": 6646,
      "протя": 6647,
      "проез": 6648,
      "локации": 6649,
      "виков": 6650,
      "скова": 6651,
      "скохозяй": 6652,
      "прино": 6653,
      "приволж": 6654,
      "сухо": 6655,
      "пано": 6656,
      "изы": 6657,
      "сады": 6658,
      "чила": 6659,
      "ссив": 6660,
      "разверну": 6661,
      "предели": 6662,
      "пира": 6663,
      "бег": 6664,
      "зим": 6665,
      "возника": 6666,
      "пересмо": 6667,
      "арма": 6668,
      "армии": 6669,
      "такси": 6670,
      "чена": 6671,
      "вреда": 6672,
      "войну": 6673,
      "экспорта": 6674,
      "плане": 6675,
      "проектом": 6676,
      "проектиров": 6677,
      "серва": 6678,
      "центром": 6679,
      "велико": 6680,
      "связы": 6681,
      "спис": 6682,
      "соглас": 6683,
      "самоуправления": 6684,
      "обога": 6685,
      "петро": 6686,
      "высоким": 6687,
      "tel": 6688,
      "темпы": 6689,
      "мирных": 6690,
      "руководители": 6691,
      "продажа": 6692,
      "принять": 6693,
      "принятия": 6694,
      "требованием": 6695,
      "большей": 6696,
      "временные": 6697,
      "этапа": 6698,
      "следующем": 6699,
      "всеми": 6700,
      "петербургу": 6701,
      "прокуратуре": 6702,
      "собственных": 6703,
      "собственного": 6704,
      "промышленных": 6705,
      "уголовному": 6706,
      "школу": 6707,
      "трени": 6708,
      "com": 6709,
      "защита": 6710,
      "условиям": 6711,
      "показателя": 6712,
      "сократить": 6713,
      "украина": 6714,
      "проектах": 6715,
      "ключевые": 6716,
      "запрете": 6717,
      "медвед": 6718,
      "цифры": 6719,
      "количества": 6720,
      "назвали": 6721,
      "финансовые": 6722,
      "передаче": 6723,
      "инфраструктуру": 6724,
      "располага": 6725,
      "назначил": 6726,
      "внимания": 6727,
      "медицины": 6728,
      "нормы": 6729,
      "вене": 6730,
      "центральной": 6731,
      "конкурсе": 6732,
      "сельскохозяй": 6733,
      "конфликт": 6734,
      "кандидатов": 6735,
      "разуме": 6736,
      "оказалась": 6737,
      "связанные": 6738,
      "объемов": 6739,
      "инструмент": 6740,
      "золотая": 6741,
      "воздушной": 6742,
      "ресурсы": 6743,
      "сохраняется": 6744,
      "оценивается": 6745,
      "девелопера": 6746,
      "западной": 6747,
      "сегмента": 6748,
      "положение": 6749,
      "футболи": 6750,
      "развивается": 6751,
      "допуска": 6752,
      "лидером": 6753,
      "ребя": 6754,
      "экологии": 6755,
      "кадры": 6756,
      "пассажир": 6757,
      "зеленский": 6758,
      "второе": 6759,
      "льгот": 6760,
      "предотвра": 6761,
      "сенатора": 6762,
      "механиз": 6763,
      "экспозиции": 6764,
      "регистраций": 6765,
      "модернизации": 6766,
      "долгосрочной": 6767,
      "карьеры": 6768,
      "нагрузки": 6769,
      "психо": 6770,
      "столицы": 6771,
      "наблюдения": 6772,
      "укрепл": 6773,
      "инициативу": 6774,
      "террористи": 6775,
      "мошенничестве": 6776,
      "идти": 6777,
      "интерфакс": 6778,
      "тамбовской": 6779,
      "поколения": 6780,
      "возгорания": 6781,
      "выяснилось": 6782,
      "ликвидации": 6783,
      "компетен": 6784,
      "указано": 6785,
      "pictures": 6786,
      "трубопровод": 6787,
      "салава": 6788,
      "кроншта": 6789,
      "долматовская": 6790,
      "усадь": 6791,
      "ct": 6792,
      "jet": 6793,
      "om": 6794,
      "ара": 6795,
      "вро": 6796,
      "вани": 6797,
      "ваний": 6798,
      "влож": 6799,
      "ввел": 6800,
      "емость": 6801,
      "игоря": 6802,
      "ланд": 6803,
      "мю": 6804,
      "очков": 6805,
      "пз": 6806,
      "пс": 6807,
      "сбы": 6808,
      "уста": 6809,
      "фрон": 6810,
      "шкин": 6811,
      "эсто": 6812,
      "эпи": 6813,
      "юлия": 6814,
      "яют": 6815,
      "стям": 6816,
      "поиско": 6817,
      "анализи": 6818,
      "навер": 6819,
      "обстанов": 6820,
      "облом": 6821,
      "протяж": 6822,
      "дор": 6823,
      "довать": 6824,
      "руя": 6825,
      "рука": 6826,
      "циона": 6827,
      "выступил": 6828,
      "тием": 6829,
      "дип": 6830,
      "диверси": 6831,
      "марина": 6832,
      "симон": 6833,
      "оты": 6834,
      "отремон": 6835,
      "преда": 6836,
      "стара": 6837,
      "прину": 6838,
      "сувер": 6839,
      "чик": 6840,
      "сев": 6841,
      "себя": 6842,
      "щики": 6843,
      "конститу": 6844,
      "пуль": 6845,
      "туда": 6846,
      "подмосков": 6847,
      "градостроитель": 6848,
      "аниях": 6849,
      "будет": 6850,
      "тельного": 6851,
      "водителя": 6852,
      "жденных": 6853,
      "тивную": 6854,
      "жая": 6855,
      "шари": 6856,
      "вят": 6857,
      "дети": 6858,
      "действо": 6859,
      "крыму": 6860,
      "генплана": 6861,
      "вленных": 6862,
      "вленные": 6863,
      "знак": 6864,
      "испании": 6865,
      "формат": 6866,
      "лых": 6867,
      "участки": 6868,
      "основу": 6869,
      "экономике": 6870,
      "бюро": 6871,
      "считы": 6872,
      "признании": 6873,
      "руководство": 6874,
      "политику": 6875,
      "политических": 6876,
      "региональное": 6877,
      "обеспечение": 6878,
      "мандата": 6879,
      "налогов": 6880,
      "состоялась": 6881,
      "организацию": 6882,
      "существо": 6883,
      "государственный": 6884,
      "менедж": 6885,
      "установлено": 6886,
      "вшийся": 6887,
      "потребление": 6888,
      "унин": 6889,
      "енок": 6890,
      "единственный": 6891,
      "сервисы": 6892,
      "желание": 6893,
      "создании": 6894,
      "привлечения": 6895,
      "екатери": 6896,
      "частично": 6897,
      "матче": 6898,
      "матча": 6899,
      "норве": 6900,
      "николя": 6901,
      "коллекция": 6902,
      "современные": 6903,
      "шинг": 6904,
      "кажется": 6905,
      "герм": 6906,
      "ожидают": 6907,
      "инвесторы": 6908,
      "кредитных": 6909,
      "аналогичным": 6910,
      "инструмента": 6911,
      "инструментов": 6912,
      "газпром": 6913,
      "эффективность": 6914,
      "подозр": 6915,
      "линг": 6916,
      "морской": 6917,
      "морского": 6918,
      "завоев": 6919,
      "виктора": 6920,
      "опубликовал": 6921,
      "принц": 6922,
      "функциони": 6923,
      "числ": 6924,
      "казань": 6925,
      "торговых": 6926,
      "бизнесмена": 6927,
      "сконч": 6928,
      "принимать": 6929,
      "сохранить": 6930,
      "отказались": 6931,
      "предварительным": 6932,
      "зафиксировано": 6933,
      "вариант": 6934,
      "торговли": 6935,
      "stel": 6936,
      "грантов": 6937,
      "баланси": 6938,
      "научно": 6939,
      "автоматизации": 6940,
      "помещениях": 6941,
      "валентина": 6942,
      "удовлетворил": 6943,
      "интеллекта": 6944,
      "ika": 6945,
      "просьбой": 6946,
      "координи": 6947,
      "геленджика": 6948,
      "астрахань": 6949,
      "выразил": 6950,
      "опрошенных": 6951,
      "высказывания": 6952,
      "бондарчук": 6953,
      "пешеход": 6954,
      "корреспондент": 6955,
      "кондратьев": 6956,
      "ститут": 6957,
      "выглядит": 6958,
      "выражении": 6959,
      "девелопмент": 6960,
      "истреб": 6961,
      "bor": 6962,
      "cal": 6963,
      "ipo": 6964,
      "par": 6965,
      "sch": 6966,
      "ube": 6967,
      "yah": 6968,
      "валась": 6969,
      "еров": 6970,
      "ина": 6971,
      "идея": 6972,
      "неле": 6973,
      "осторож": 6974,
      "рг": 6975,
      "смяг": 6976,
      "ухуд": 6977,
      "эт": 6978,
      "рал": 6979,
      "рома": 6980,
      "коп": 6981,
      "косми": 6982,
      "понять": 6983,
      "пожизнен": 6984,
      "каком": 6985,
      "вашинг": 6986,
      "зао": 6987,
      "сора": 6988,
      "сова": 6989,
      "профи": 6990,
      "давление": 6991,
      "доно": 6992,
      "циан": 6993,
      "недоста": 6994,
      "мод": 6995,
      "модел": 6996,
      "выбра": 6997,
      "дим": 6998,
      "лео": 6999,
      "лека": 7000,
      "отелей": 7001,
      "преследов": 7002,
      "вец": 7003,
      "пригла": 7004,
      "депоз": 7005,
      "купи": 7006,
      "чера": 7007,
      "информи": 7008,
      "институт": 7009,
      "суды": 7010,
      "тема": 7011,
      "чика": 7012,
      "чики": 7013,
      "лука": 7014,
      "разы": 7015,
      "разрешение": 7016,
      "щими": 7017,
      "правиль": 7018,
      "града": 7019,
      "глад": 7020,
      "долг": 7021,
      "соблюда": 7022,
      "которыми": 7023,
      "треб": 7024,
      "трели": 7025,
      "шат": 7026,
      "войска": 7027,
      "горожан": 7028,
      "данными": 7029,
      "начнется": 7030,
      "влад": 7031,
      "владе": 7032,
      "заявлений": 7033,
      "средне": 7034,
      "хама": 7035,
      "ana": 7036,
      "составило": 7037,
      "составляла": 7038,
      "друго": 7039,
      "списке": 7040,
      "возможных": 7041,
      "экономических": 7042,
      "высокая": 7043,
      "высокую": 7044,
      "сотрудничество": 7045,
      "тему": 7046,
      "смогли": 7047,
      "руководителем": 7048,
      "клима": 7049,
      "региональной": 7050,
      "региональные": 7051,
      "равен": 7052,
      "значит": 7053,
      "группу": 7054,
      "группой": 7055,
      "правок": 7056,
      "инвестиционных": 7057,
      "административной": 7058,
      "гражданской": 7059,
      "энерги": 7060,
      "привело": 7061,
      "факторов": 7062,
      "фактором": 7063,
      "домах": 7064,
      "военные": 7065,
      "особен": 7066,
      "щенной": 7067,
      "представил": 7068,
      "представила": 7069,
      "мущества": 7070,
      "направля": 7071,
      "направили": 7072,
      "началась": 7073,
      "контроле": 7074,
      "кинг": 7075,
      "америки": 7076,
      "проблему": 7077,
      "улицах": 7078,
      "видят": 7079,
      "ллина": 7080,
      "sta": 7081,
      "разработка": 7082,
      "иссле": 7083,
      "исследо": 7084,
      "кандидатуру": 7085,
      "авиакомпании": 7086,
      "конструкции": 7087,
      "прямо": 7088,
      "инициативы": 7089,
      "полез": 7090,
      "предлагается": 7091,
      "члены": 7092,
      "эффективности": 7093,
      "налоговых": 7094,
      "медицинских": 7095,
      "построить": 7096,
      "жилые": 7097,
      "огня": 7098,
      "рассматривает": 7099,
      "обычно": 7100,
      "владельцем": 7101,
      "сегмент": 7102,
      "практика": 7103,
      "признать": 7104,
      "серии": 7105,
      "серий": 7106,
      "украинского": 7107,
      "футбол": 7108,
      "убийство": 7109,
      "популярность": 7110,
      "выступая": 7111,
      "ленинский": 7112,
      "маршрут": 7113,
      "заксобра": 7114,
      "внутреннего": 7115,
      "продолжит": 7116,
      "голосовали": 7117,
      "жилого": 7118,
      "лидеров": 7119,
      "напомнил": 7120,
      "снизился": 7121,
      "phone": 7122,
      "здоровью": 7123,
      "половины": 7124,
      "парижской": 7125,
      "индивидуальный": 7126,
      "подрядчика": 7127,
      "байден": 7128,
      "предоставить": 7129,
      "торговле": 7130,
      "предусмотрено": 7131,
      "режиссером": 7132,
      "замедление": 7133,
      "согласился": 7134,
      "издание": 7135,
      "нанес": 7136,
      "урегулирования": 7137,
      "закупки": 7138,
      "реставра": 7139,
      "наличие": 7140,
      "консультации": 7141,
      "предусматривает": 7142,
      "voyah": 7143,
      "доказатель": 7144,
      "таможен": 7145,
      "осенью": 7146,
      "соблюдение": 7147,
      "вакансий": 7148,
      "изъяли": 7149,
      "фракции": 7150,
      "wink": 7151,
      "появилась": 7152,
      "сегодняшний": 7153,
      "элвис": 7154,
      "запорожской": 7155,
      "бакланова": 7156,
      "направить": 7157,
      "великобрит": 7158,
      "протяжении": 7159,
      "исследователь": 7160,
      ".:": 7161,
      "by": 7162,
      "gu": 7163,
      "ld": 7164,
      "sp": 7165,
      "wi": 7166,
      "вменя": 7167,
      "вчера": 7168,
      "гала": 7169,
      "гтя": 7170,
      "есть": 7171,
      "иран": 7172,
      "имя": 7173,
      "игру": 7174,
      "крит": 7175,
      "мани": 7176,
      "нена": 7177,
      "оз": 7178,
      "опы": 7179,
      "пк": 7180,
      "рс": 7181,
      "труб": 7182,
      "упо": 7183,
      "учет": 7184,
      "учили": 7185,
      "уведо": 7186,
      "хер": 7187,
      "чному": 7188,
      "шую": 7189,
      "ым": 7190,
      "эск": 7191,
      "стс": 7192,
      "раскр": 7193,
      "роспо": 7194,
      "росте": 7195,
      "ковой": 7196,
      "ковым": 7197,
      "реда": 7198,
      "рель": 7199,
      "реструктури": 7200,
      "поту": 7201,
      "анное": 7202,
      "напротив": 7203,
      "называ": 7204,
      "обстре": 7205,
      "вав": 7206,
      "запис": 7207,
      "захва": 7208,
      "лив": 7209,
      "процен": 7210,
      "провин": 7211,
      "дочь": 7212,
      "дователь": 7213,
      "достой": 7214,
      "таком": 7215,
      "мил": 7216,
      "лока": 7217,
      "выплат": 7218,
      "вышли": 7219,
      "вырастет": 7220,
      "визо": 7221,
      "отк": 7222,
      "отри": 7223,
      "преодол": 7224,
      "фов": 7225,
      "прие": 7226,
      "присво": 7227,
      "приним": 7228,
      "мега": 7229,
      "ческому": 7230,
      "рыно": 7231,
      "тези": 7232,
      "ровского": 7233,
      "щика": 7234,
      "предмет": 7235,
      "консоли": 7236,
      "онко": 7237,
      "нову": 7238,
      "склад": 7239,
      "санитар": 7240,
      "арной": 7241,
      "щаться": 7242,
      "бывает": 7243,
      "бывших": 7244,
      "платель": 7245,
      "участвовали": 7246,
      "ствиях": 7247,
      "российскими": 7248,
      "проекти": 7249,
      "серти": 7250,
      "цено": 7251,
      "крыма": 7252,
      "общественных": 7253,
      "центро": 7254,
      "распис": 7255,
      "знамени": 7256,
      "границы": 7257,
      "ятия": 7258,
      "организо": 7259,
      "рейса": 7260,
      "следственные": 7261,
      "производственных": 7262,
      "директором": 7263,
      "городских": 7264,
      "участниками": 7265,
      "адрес": 7266,
      "знания": 7267,
      "обращении": 7268,
      "государство": 7269,
      "хиру": 7270,
      "компаниях": 7271,
      "помочь": 7272,
      "руководства": 7273,
      "процессе": 7274,
      "появились": 7275,
      "продукта": 7276,
      "объявила": 7277,
      "камп": 7278,
      "комплексы": 7279,
      "борту": 7280,
      "открыли": 7281,
      "главной": 7282,
      "главная": 7283,
      "условно": 7284,
      "состоялся": 7285,
      "внедря": 7286,
      "евросоюза": 7287,
      "ros": 7288,
      "уголовных": 7289,
      "представляет": 7290,
      "направлено": 7291,
      "становятся": 7292,
      "способность": 7293,
      "медиа": 7294,
      "показателей": 7295,
      "оценку": 7296,
      "волга": 7297,
      "количеству": 7298,
      "израилем": 7299,
      "добавили": 7300,
      "исполнение": 7301,
      "команду": 7302,
      "прогре": 7303,
      "эконом": 7304,
      "краевого": 7305,
      "арбитражных": 7306,
      "муниципальной": 7307,
      "мирового": 7308,
      "иностранным": 7309,
      "уточняется": 7310,
      "проводит": 7311,
      "союзов": 7312,
      "обвинен": 7313,
      "итетом": 7314,
      "мужчи": 7315,
      "выясня": 7316,
      "доходность": 7317,
      "кандидата": 7318,
      "генеральной": 7319,
      "остались": 7320,
      "оказалось": 7321,
      "министерстве": 7322,
      "подготовку": 7323,
      "инвестор": 7324,
      "стартов": 7325,
      "выполнение": 7326,
      "процедура": 7327,
      "израильских": 7328,
      "учреждение": 7329,
      "традиций": 7330,
      "исследований": 7331,
      "развивать": 7332,
      "осуществляет": 7333,
      "влияния": 7334,
      "допусти": 7335,
      "сократился": 7336,
      "установка": 7337,
      "ностями": 7338,
      "устойчивого": 7339,
      "рекоменда": 7340,
      "комментирует": 7341,
      "покупки": 7342,
      "покупке": 7343,
      "подобные": 7344,
      "зеленского": 7345,
      "восстановление": 7346,
      "кхл": 7347,
      "механизм": 7348,
      "баланс": 7349,
      "называют": 7350,
      "французский": 7351,
      "супруги": 7352,
      "призыв": 7353,
      "кредитования": 7354,
      "казахстана": 7355,
      "ресторана": 7356,
      "нападения": 7357,
      "компенсации": 7358,
      "фунда": 7359,
      "картофеля": 7360,
      "холдинга": 7361,
      "пурпур": 7362,
      "позволило": 7363,
      "выступление": 7364,
      "прошлым": 7365,
      "иркут": 7366,
      "оренбург": 7367,
      "награду": 7368,
      "инспекции": 7369,
      "разнообраз": 7370,
      "счетом": 7371,
      "лицензи": 7372,
      "fran": 7373,
      "хранили": 7374,
      "демокра": 7375,
      "экстремистской": 7376,
      "египта": 7377,
      "молдавии": 7378,
      "титул": 7379,
      "tesla": 7380,
      "резюми": 7381,
      "зачастую": 7382,
      "нелег": 7383,
      "раскрити": 7384,
      "роспотреб": 7385,
      "gi": 7386,
      "hr": 7387,
      "бру": 7388,
      "гло": 7389,
      "ггер": 7390,
      "двой": 7391,
      "дца": 7392,
      "жк": 7393,
      "зев": 7394,
      "ищ": 7395,
      "итого": 7396,
      "кти": 7397,
      "нский": 7398,
      "оро": 7399,
      "ово": 7400,
      "опровер": 7401,
      "пна": 7402,
      "пьет": 7403,
      "слы": 7404,
      "уви": 7405,
      "удержи": 7406,
      "фсб": 7407,
      "шек": 7408,
      "щел": 7409,
      "эмо": 7410,
      "яль": 7411,
      "стка": 7412,
      "растрате": 7413,
      "рого": 7414,
      "робо": 7415,
      "номина": 7416,
      "ковых": 7417,
      "рец": 7418,
      "речи": 7419,
      "реак": 7420,
      "гори": 7421,
      "появля": 7422,
      "вовсе": 7423,
      "восп": 7424,
      "еть": 7425,
      "нации": 7426,
      "кац": 7427,
      "ваши": 7428,
      "вающие": 7429,
      "замо": 7430,
      "лау": 7431,
      "кимер": 7432,
      "лини": 7433,
      "просят": 7434,
      "дами": 7435,
      "миридонов": 7436,
      "непри": 7437,
      "непосред": 7438,
      "вывать": 7439,
      "вики": 7440,
      "тился": 7441,
      "сян": 7442,
      "льной": 7443,
      "презен": 7444,
      "привели": 7445,
      "декла": 7446,
      "дегтя": 7447,
      "меду": 7448,
      "индекс": 7449,
      "паро": 7450,
      "ровский": 7451,
      "рованием": 7452,
      "праве": 7453,
      "предназначен": 7454,
      "ряков": 7455,
      "консерва": 7456,
      "граде": 7457,
      "перена": 7458,
      "любов": 7459,
      "акционе": 7460,
      "строить": 7461,
      "евремен": 7462,
      "пережи": 7463,
      "перешел": 7464,
      "полгода": 7465,
      "леты": 7466,
      "летней": 7467,
      "летия": 7468,
      "быть": 7469,
      "городу": 7470,
      "форму": 7471,
      "своевремен": 7472,
      "экстра": 7473,
      "общее": 7474,
      "общественной": 7475,
      "каннах": 7476,
      "центры": 7477,
      "решить": 7478,
      "знамен": 7479,
      "правда": 7480,
      "исче": 7481,
      "никаких": 7482,
      "креп": 7483,
      "нейтра": 7484,
      "класс": 7485,
      "производстве": 7486,
      "прошунин": 7487,
      "территорией": 7488,
      "основании": 7489,
      "учени": 7490,
      "госдума": 7491,
      "теристи": 7492,
      "компаниями": 7493,
      "площадок": 7494,
      "владислав": 7495,
      "управлении": 7496,
      "депутатом": 7497,
      "продавать": 7498,
      "обвинению": 7499,
      "увеличения": 7500,
      "фат": 7501,
      "министров": 7502,
      "появ": 7503,
      "оставил": 7504,
      "взять": 7505,
      "личного": 7506,
      "заключили": 7507,
      "находиться": 7508,
      "готовность": 7509,
      "квт": 7510,
      "росприрод": 7511,
      "итоги": 7512,
      "семья": 7513,
      "атаковали": 7514,
      "ликвид": 7515,
      "совершил": 7516,
      "ходами": 7517,
      "повлия": 7518,
      "бюджете": 7519,
      "счета": 7520,
      "кинофестиваля": 7521,
      "iss": 7522,
      "ity": 7523,
      "оперативных": 7524,
      "молодеж": 7525,
      "лливу": 7526,
      "лучшим": 7527,
      "инфраструктур": 7528,
      "разработке": 7529,
      "тайфун": 7530,
      "направлении": 7531,
      "телефон": 7532,
      "уточня": 7533,
      "уточняет": 7534,
      "проводить": 7535,
      "законом": 7536,
      "фигурантов": 7537,
      "судебных": 7538,
      "судебном": 7539,
      "выявили": 7540,
      "сделали": 7541,
      "современных": 7542,
      "целей": 7543,
      "благоустройство": 7544,
      "клиенты": 7545,
      "подготовка": 7546,
      "тюмен": 7547,
      "инструментом": 7548,
      "земельного": 7549,
      "бирже": 7550,
      "требуют": 7551,
      "топливо": 7552,
      "застройки": 7553,
      "металло": 7554,
      "намерены": 7555,
      "музыкан": 7556,
      "рассматривают": 7557,
      "характеристи": 7558,
      "мощностей": 7559,
      "оконча": 7560,
      "выступают": 7561,
      "санкции": 7562,
      "стабили": 7563,
      "изоля": 7564,
      "ставрополье": 7565,
      "обработку": 7566,
      "vid": 7567,
      "думаю": 7568,
      "искать": 7569,
      "опасность": 7570,
      "технику": 7571,
      "западе": 7572,
      "восстановления": 7573,
      "eed": 7574,
      "учитывать": 7575,
      "школьников": 7576,
      "постановления": 7577,
      "попросил": 7578,
      "поселке": 7579,
      "затраты": 7580,
      "дважды": 7581,
      "события": 7582,
      "помогает": 7583,
      "помогают": 7584,
      "убытки": 7585,
      "анон": 7586,
      "внедрение": 7587,
      "вторичном": 7588,
      "интеллекту": 7589,
      "контакте": 7590,
      "материалам": 7591,
      "звезды": 7592,
      "нападающий": 7593,
      "вторник": 7594,
      "кузне": 7595,
      "глеб": 7596,
      "означает": 7597,
      "ходатайство": 7598,
      "окончания": 7599,
      "изделий": 7600,
      "росавиации": 7601,
      "штейн": 7602,
      "play": 7603,
      "севасто": 7604,
      "иммун": 7605,
      "критери": 7606,
      "кимерлинг": 7607,
      "blo": 7608,
      "del": 7609,
      "hh": 7610,
      "iphone": 7611,
      "spa": 7612,
      "ver": 7613,
      "wa": 7614,
      "введение": 7615,
      "вложения": 7616,
      "жье": 7617,
      "зму": 7618,
      "ив": 7619,
      "мм": 7620,
      "оф": 7621,
      "определи": 7622,
      "пита": 7623,
      "плей": 7624,
      "сне": 7625,
      "тит": 7626,
      "тело": 7627,
      "ув": 7628,
      "узна": 7629,
      "хар": 7630,
      "хим": 7631,
      "чится": 7632,
      "расто": 7633,
      "нолан": 7634,
      "рега": 7635,
      "госа": 7636,
      "голливу": 7637,
      "попа": 7638,
      "погода": 7639,
      "поез": 7640,
      "постанов": 7641,
      "анализ": 7642,
      "обследов": 7643,
      "камеры": 7644,
      "вано": 7645,
      "вающий": 7646,
      "нике": 7647,
      "замы": 7648,
      "заха": 7649,
      "загород": 7650,
      "забро": 7651,
      "сос": 7652,
      "кир": 7653,
      "проми": 7654,
      "проведет": 7655,
      "нева": 7656,
      "недо": 7657,
      "неме": 7658,
      "неров": 7659,
      "лоша": 7660,
      "лояль": 7661,
      "мои": 7662,
      "мост": 7663,
      "вызова": 7664,
      "вышла": 7665,
      "виру": 7666,
      "видом": 7667,
      "отстран": 7668,
      "откуда": 7669,
      "стата": 7670,
      "фоку": 7671,
      "век": 7672,
      "вещения": 7673,
      "приступ": 7674,
      "деб": 7675,
      "куй": 7676,
      "дум": 7677,
      "четов": 7678,
      "ениях": 7679,
      "пак": 7680,
      "альпи": 7681,
      "ровую": 7682,
      "менять": 7683,
      "гавани": 7684,
      "мусор": 7685,
      "предстоя": 7686,
      "страну": 7687,
      "гун": 7688,
      "любой": 7689,
      "сканд": 7690,
      "стром": 7691,
      "передо": 7692,
      "полной": 7693,
      "объемы": 7694,
      "быто": 7695,
      "цева": 7696,
      "женный": 7697,
      "планы": 7698,
      "вятся": 7699,
      "анаста": 7700,
      "детской": 7701,
      "детские": 7702,
      "господ": 7703,
      "генна": 7704,
      "большие": 7705,
      "валют": 7706,
      "решении": 7707,
      "вшими": 7708,
      "станций": 7709,
      "станут": 7710,
      "стрее": 7711,
      "торам": 7712,
      "ограничи": 7713,
      "паслер": 7714,
      "рованную": 7715,
      "емым": 7716,
      "карта": 7717,
      "карты": 7718,
      "самолетов": 7719,
      "дороге": 7720,
      "делают": 7721,
      "шенко": 7722,
      "структуры": 7723,
      "структура": 7724,
      "госсекретарь": 7725,
      "спортивные": 7726,
      "сообщают": 7727,
      "уклон": 7728,
      "признана": 7729,
      "продать": 7730,
      "равто": 7731,
      "включил": 7732,
      "интегри": 7733,
      "сроком": 7734,
      "тренер": 7735,
      "привел": 7736,
      "встречу": 7737,
      "защите": 7738,
      "победу": 7739,
      "сокращения": 7740,
      "счету": 7741,
      "этими": 7742,
      "медлен": 7743,
      "замминистра": 7744,
      "создавать": 7745,
      "хотел": 7746,
      "блок": 7747,
      "тайфу": 7748,
      "арбитражного": 7749,
      "предприниматели": 7750,
      "проводят": 7751,
      "китае": 7752,
      "кристи": 7753,
      "бренд": 7754,
      "фигуранта": 7755,
      "ющегося": 7756,
      "пострадавшим": 7757,
      "очередной": 7758,
      "договору": 7759,
      "обсудили": 7760,
      "занятости": 7761,
      "выполнения": 7762,
      "совершенство": 7763,
      "хватает": 7764,
      "начальная": 7765,
      "помещений": 7766,
      "налоговые": 7767,
      "текущем": 7768,
      "спбгуп": 7769,
      "западном": 7770,
      "учреждений": 7771,
      "малень": 7772,
      "амми": 7773,
      "коллегии": 7774,
      "используют": 7775,
      "брига": 7776,
      "обслуживания": 7777,
      "установки": 7778,
      "принимает": 7779,
      "корпорация": 7780,
      "платформе": 7781,
      "спасатели": 7782,
      "опасности": 7783,
      "вшейся": 7784,
      "подобных": 7785,
      "планах": 7786,
      "зафиксирован": 7787,
      "варианты": 7788,
      "ведущих": 7789,
      "льготы": 7790,
      "падают": 7791,
      "йорк": 7792,
      "наказания": 7793,
      "согласия": 7794,
      "регистрации": 7795,
      "benz": 7796,
      "столк": 7797,
      "тюрьме": 7798,
      "занимался": 7799,
      "отличие": 7800,
      "file": 7801,
      "дипломат": 7802,
      "событий": 7803,
      "exeed": 7804,
      "задолженность": 7805,
      "потребительского": 7806,
      "корпус": 7807,
      "кремля": 7808,
      "востребован": 7809,
      "вшаяся": 7810,
      "реконструкцию": 7811,
      "липецкой": 7812,
      "отказаться": 7813,
      "юридических": 7814,
      "зарубежных": 7815,
      "объяснил": 7816,
      "читайте": 7817,
      "иванов": 7818,
      "выдвину": 7819,
      "продюсер": 7820,
      "бассей": 7821,
      "дисци": 7822,
      "обсудить": 7823,
      "истец": 7824,
      "хоккеи": 7825,
      "эфире": 7826,
      "восполь": 7827,
      "дагестан": 7828,
      "мотиви": 7829,
      "разумный": 7830,
      "вроде": 7831,
      "госавто": 7832,
      "лошади": 7833,
      "muth": 7834,
      "ts": 7835,
      "аде": 7836,
      "вных": 7837,
      "вступ": 7838,
      "дит": 7839,
      "жени": 7840,
      "здоро": 7841,
      "ип": 7842,
      "исла": 7843,
      "пья": 7844,
      "прит": 7845,
      "слиш": 7846,
      "схе": 7847,
      "сцену": 7848,
      "сбаланси": 7849,
      "тент": 7850,
      "тности": 7851,
      "уте": 7852,
      "фан": 7853,
      "швей": 7854,
      "щал": 7855,
      "южу": 7856,
      "сталь": 7857,
      "розы": 7858,
      "нори": 7859,
      "кола": 7860,
      "колу": 7861,
      "пово": 7862,
      "пова": 7863,
      "анного": 7864,
      "анализа": 7865,
      "волон": 7866,
      "навы": 7867,
      "нашим": 7868,
      "нился": 7869,
      "загоре": 7870,
      "задейство": 7871,
      "сочин": 7872,
      "лиять": 7873,
      "проезд": 7874,
      "пройдут": 7875,
      "проголосовали": 7876,
      "дают": 7877,
      "такую": 7878,
      "мила": 7879,
      "миря": 7880,
      "мова": 7881,
      "моей": 7882,
      "выгу": 7883,
      "тика": 7884,
      "тимиря": 7885,
      "леген": 7886,
      "отклю": 7887,
      "фона": 7888,
      "принес": 7889,
      "примут": 7890,
      "декса": 7891,
      "душ": 7892,
      "чере": 7893,
      "чева": 7894,
      "инг": 7895,
      "ениями": 7896,
      "перов": 7897,
      "судостроитель": 7898,
      "изуч": 7899,
      "разво": 7900,
      "размест": 7901,
      "развед": 7902,
      "верши": 7903,
      "констати": 7904,
      "ительном": 7905,
      "пило": 7906,
      "жеб": 7907,
      "рубля": 7908,
      "бата": 7909,
      "базу": 7910,
      "ждению": 7911,
      "служеб": 7912,
      "возле": 7913,
      "пересе": 7914,
      "перемен": 7915,
      "полеты": 7916,
      "орден": 7917,
      "летним": 7918,
      "жают": 7919,
      "шаг": 7920,
      "быстрее": 7921,
      "eri": 7922,
      "стера": 7923,
      "участвует": 7924,
      "участвовал": 7925,
      "ближ": 7926,
      "детского": 7927,
      "обществен": 7928,
      "коммерческих": 7929,
      "произведен": 7930,
      "хай": 7931,
      "центров": 7932,
      "границе": 7933,
      "держки": 7934,
      "креггер": 7935,
      "великой": 7936,
      ">,<": 7937,
      "производителя": 7938,
      "ходила": 7939,
      "минпром": 7940,
      "рынки": 7941,
      "ine": 7942,
      "обозре": 7943,
      "обратиться": 7944,
      "трой": 7945,
      "семье": 7946,
      "относя": 7947,
      "all": 7948,
      "александру": 7949,
      "авторы": 7950,
      "ley": 7951,
      "хищения": 7952,
      "роваться": 7953,
      "краснодарскому": 7954,
      "президенты": 7955,
      "элементы": 7956,
      "группи": 7957,
      "платформа": 7958,
      "ющийся": 7959,
      "личной": 7960,
      "примеру": 7961,
      "представили": 7962,
      "заверил": 7963,
      "активной": 7964,
      "делега": 7965,
      "сексу": 7966,
      "формируется": 7967,
      "вопросу": 7968,
      "оценить": 7969,
      "нефтя": 7970,
      "фигури": 7971,
      "управлен": 7972,
      "франко": 7973,
      "stone": 7974,
      "орудия": 7975,
      "сравни": 7976,
      "позволяют": 7977,
      "матчей": 7978,
      "интереса": 7979,
      "кримин": 7980,
      "людям": 7981,
      "успеха": 7982,
      "окна": 7983,
      "сделал": 7984,
      "клиентам": 7985,
      "жалу": 7986,
      "подчеркнула": 7987,
      "аналитиков": 7988,
      "искусство": 7989,
      "земельный": 7990,
      "выполнить": 7991,
      "запуска": 7992,
      "платежи": 7993,
      "медицинского": 7994,
      "водоснабжения": 7995,
      "подачи": 7996,
      "барс": 7997,
      "боевые": 7998,
      "поступил": 7999,
      "возглавлял": 8000,
      "заметно": 8001,
      "антимоно": 8002,
      "видеть": 8003,
      "anni": 8004,
      "аппарата": 8005,
      "покупку": 8006,
      "отдых": 8007,
      "страховых": 8008,
      "охране": 8009,
      "отечественного": 8010,
      "глубо": 8011,
      "скорости": 8012,
      "комфорт": 8013,
      "героя": 8014,
      "расширения": 8015,
      "физических": 8016,
      "башкиравто": 8017,
      "штрафы": 8018,
      "вшему": 8019,
      "нагрузку": 8020,
      "далеко": 8021,
      "предъявили": 8022,
      "столице": 8023,
      "макрон": 8024,
      "компенсацию": 8025,
      "полицейские": 8026,
      "совещ": 8027,
      "вдоль": 8028,
      "аукцион": 8029,
      "детьми": 8030,
      "warmuth": 8031,
      "найден": 8032,
      "любых": 8033,
      "температура": 8034,
      "напоминает": 8035,
      "news": 8036,
      "григорьева": 8037,
      "веществ": 8038,
      "испытания": 8039,
      "окружающей": 8040,
      "вениамин": 8041,
      "туапсе": 8042,
      "angelika": 8043,
      "консорциума": 8044,
      "мишустин": 8045,
      "пояснительной": 8046,
      "приволжье": 8047,
      "медведь": 8048,
      "психологи": 8049,
      "рукава": 8050,
      "германии": 8051,
      "равенство": 8052,
      "исследова": 8053,
      "пурпурные": 8054,
      "оренбургской": 8055,
      "исчез": 8056,
      "space": 8057,
      "дисципли": 8058,
      "слишком": 8059,
      "южурал": 8060,
      "антимонополь": 8061,
      "ft": 8062,
      "ga": 8063,
      "gital": 8064,
      "id": 8065,
      "lam": 8066,
      "za": 8067,
      "абра": 8068,
      "вный": 8069,
      "вспо": 8070,
      "ввода": 8071,
      "дзо": 8072,
      "жников": 8073,
      "керы": 8074,
      "кстати": 8075,
      "нской": 8076,
      "опа": 8077,
      "ооп": 8078,
      "пана": 8079,
      "ргии": 8080,
      "сгоре": 8081,
      "утили": 8082,
      "хма": 8083,
      "юге": 8084,
      "южной": 8085,
      "яков": 8086,
      "радо": 8087,
      "раке": 8088,
      "ровок": 8089,
      "нович": 8090,
      "регла": 8091,
      "решать": 8092,
      "тогда": 8093,
      "обру": 8094,
      "общем": 8095,
      "када": 8096,
      "ваш": 8097,
      "замуж": 8098,
      "киев": 8099,
      "линия": 8100,
      "проходил": 8101,
      "дона": 8102,
      "довар": 8103,
      "мило": 8104,
      "могла": 8105,
      "мотор": 8106,
      "вызов": 8107,
      "виды": 8108,
      "маме": 8109,
      "сири": 8110,
      "леги": 8111,
      "лебе": 8112,
      "лект": 8113,
      "отходы": 8114,
      "отставку": 8115,
      "лью": 8116,
      "приви": 8117,
      "приста": 8118,
      "индии": 8119,
      "холод": 8120,
      "ровка": 8121,
      "споко": 8122,
      "контей": 8123,
      "ствовала": 8124,
      "первич": 8125,
      "странами": 8126,
      "пива": 8127,
      "бесе": 8128,
      "буль": 8129,
      "слежи": 8130,
      "тельным": 8131,
      "ветер": 8132,
      "водителей": 8133,
      "перерабаты": 8134,
      "торгово": 8135,
      "орке": 8136,
      "летнюю": 8137,
      "бывшей": 8138,
      "данной": 8139,
      "тела": 8140,
      "начнут": 8141,
      "получает": 8142,
      "банку": 8143,
      "совме": 8144,
      "миними": 8145,
      "детям": 8146,
      "генпрокурора": 8147,
      "слаб": 8148,
      "хари": 8149,
      "гера": 8150,
      "больших": 8151,
      "большим": 8152,
      "осмо": 8153,
      "исма": 8154,
      "станция": 8155,
      "джор": 8156,
      "районов": 8157,
      "следить": 8158,
      "формате": 8159,
      "рованным": 8160,
      "рованное": 8161,
      "краснова": 8162,
      "такими": 8163,
      "зовского": 8164,
      "развитием": 8165,
      "дорогу": 8166,
      "дорогах": 8167,
      "возможным": 8168,
      "объектам": 8169,
      "ina": 8170,
      "делать": 8171,
      "шены": 8172,
      "основания": 8173,
      "отношению": 8174,
      "горно": 8175,
      "получив": 8176,
      "советского": 8177,
      "высокого": 8178,
      "высоких": 8179,
      "высокие": 8180,
      "сотрудниками": 8181,
      "монтаж": 8182,
      "обвинил": 8183,
      "тических": 8184,
      "тические": 8185,
      "фабри": 8186,
      "деловой": 8187,
      "включены": 8188,
      "продукция": 8189,
      "доставили": 8190,
      "стался": 8191,
      "инвестиционный": 8192,
      "открыл": 8193,
      "федеральными": 8194,
      "квартире": 8195,
      "потребу": 8196,
      "международные": 8197,
      "изменение": 8198,
      "представлены": 8199,
      "пострадал": 8200,
      "полиго": 8201,
      "стые": 8202,
      "снял": 8203,
      "формирования": 8204,
      "потребности": 8205,
      "пытался": 8206,
      "персонала": 8207,
      "последним": 8208,
      "красных": 8209,
      "красная": 8210,
      "очере": 8211,
      "четырем": 8212,
      "именов": 8213,
      "добавила": 8214,
      "исполнительный": 8215,
      "stri": 8216,
      "разработку": 8217,
      "доступность": 8218,
      "произошла": 8219,
      "digital": 8220,
      "лицо": 8221,
      "бене": 8222,
      "устройств": 8223,
      "кристо": 8224,
      "королев": 8225,
      "королева": 8226,
      "максимальная": 8227,
      "эффект": 8228,
      "управляющего": 8229,
      "брендов": 8230,
      "профессии": 8231,
      "успех": 8232,
      "подтверждает": 8233,
      "брони": 8234,
      "возможностей": 8235,
      "выполнены": 8236,
      "приобрести": 8237,
      "медицинские": 8238,
      "гаранти": 8239,
      "функции": 8240,
      "мощность": 8241,
      "признает": 8242,
      "пугачевой": 8243,
      "спут": 8244,
      "рейтинге": 8245,
      "поставщиков": 8246,
      "популярных": 8247,
      "сократилась": 8248,
      "внутренних": 8249,
      "палестинского": 8250,
      "машина": 8251,
      "молдав": 8252,
      "ребенок": 8253,
      "интернете": 8254,
      "метрострой": 8255,
      "перспективы": 8256,
      "теплоснабжа": 8257,
      "шевченко": 8258,
      "идею": 8259,
      "аппаратов": 8260,
      "восточной": 8261,
      "различные": 8262,
      "победителем": 8263,
      "содержания": 8264,
      "пользуются": 8265,
      "южного": 8266,
      "зенит": 8267,
      "замедл": 8268,
      "годовых": 8269,
      "природных": 8270,
      "cial": 8271,
      "покинул": 8272,
      "запросы": 8273,
      "взаимодействия": 8274,
      "вооруженных": 8275,
      "дизайн": 8276,
      "адвока": 8277,
      "маркетплей": 8278,
      "дипломатиче": 8279,
      "внешне": 8280,
      "спортсменов": 8281,
      "наличии": 8282,
      "оплату": 8283,
      "острова": 8284,
      "ядерной": 8285,
      "повестки": 8286,
      "арестован": 8287,
      "собеседник": 8288,
      "yota": 8289,
      "флота": 8290,
      "причинам": 8291,
      "терминал": 8292,
      "трибуны": 8293,
      "координа": 8294,
      "альмодовар": 8295,
      "перенес": 8296,
      "отраслей": 8297,
      "библиот": 8298,
      "схемы": 8299,
      "пользоваться": 8300,
      "масштаби": 8301,
      "подвергся": 8302,
      "world": 8303,
      "картотеке": 8304,
      "комнатные": 8305,
      "бутылок": 8306,
      "грозит": 8307,
      "гвардии": 8308,
      "ребята": 8309,
      "принуд": 8310,
      "соблюдать": 8311,
      "реструктуризации": 8312,
      "госавтоинспекции": 8313,
      "минпромтор": 8314,
      ">;": 8315,
      "bi": 8316,
      "bu": 8317,
      "gl": 8318,
      "ment": 8319,
      "pill": 8320,
      "week": 8321,
      "вного": 8322,
      "вклад": 8323,
      "вклады": 8324,
      "дю": 8325,
      "дре": 8326,
      "жор": 8327,
      "иски": 8328,
      "кля": 8329,
      "мсп": 8330,
      "оэ": 8331,
      "ори": 8332,
      "оси": 8333,
      "оформи": 8334,
      "охарактер": 8335,
      "опове": 8336,
      "пры": 8337,
      "сцени": 8338,
      "смарт": 8339,
      "тными": 8340,
      "указывает": 8341,
      "устраи": 8342,
      "фра": 8343,
      "хранения": 8344,
      "цве": 8345,
      "цом": 8346,
      "чан": 8347,
      "ьют": 8348,
      "эстра": 8349,
      "юга": 8350,
      "ющему": 8351,
      "яс": 8352,
      "япо": 8353,
      "рага": 8354,
      "рода": 8355,
      "номин": 8356,
      "кок": 8357,
      "потери": 8358,
      "поступл": 8359,
      "поможет": 8360,
      "поправок": 8361,
      "тока": 8362,
      "толь": 8363,
      "тове": 8364,
      "алма": 8365,
      "наме": 8366,
      "напис": 8367,
      "насчиты": 8368,
      "камен": 8369,
      "зацией": 8370,
      "загря": 8371,
      "совой": 8372,
      "сочет": 8373,
      "соседни": 8374,
      "лице": 8375,
      "досро": 8376,
      "табель": 8377,
      "рук": 8378,
      "непро": 8379,
      "несостоя": 8380,
      "неустой": 8381,
      "недейств": 8382,
      "лос": 8383,
      "мораль": 8384,
      "тила": 8385,
      "скони": 8386,
      "мака": 8387,
      "сих": 8388,
      "леров": 8389,
      "лега": 8390,
      "отмы": 8391,
      "отлич": 8392,
      "препят": 8393,
      "стади": 8394,
      "вещи": 8395,
      "прият": 8396,
      "приложения": 8397,
      "привати": 8398,
      "кунов": 8399,
      "дуба": 8400,
      "рым": 8401,
      "пами": 8402,
      "альному": 8403,
      "хоре": 8404,
      "хозна": 8405,
      "ровались": 8406,
      "лускони": 8407,
      "мура": 8408,
      "музей": 8409,
      "разгово": 8410,
      "предвыбор": 8411,
      "ряде": 8412,
      "подходит": 8413,
      "филар": 8414,
      "бух": 8415,
      "ляет": 8416,
      "главу": 8417,
      "водки": 8418,
      "слуш": 8419,
      "тивными": 8420,
      "полет": 8421,
      "торги": 8422,
      "скаж": 8423,
      "скажем": 8424,
      "летняя": 8425,
      "денко": 8426,
      "война": 8427,
      "данному": 8428,
      "началось": 8429,
      "женой": 8430,
      "вяз": 8431,
      "российско": 8432,
      "близи": 8433,
      "ответил": 8434,
      "анапы": 8435,
      "четверо": 8436,
      "anton": 8437,
      "рабочей": 8438,
      "джон": 8439,
      "грузов": 8440,
      "состава": 8441,
      "местному": 8442,
      "организу": 8443,
      "черке": 8444,
      "другого": 8445,
      "arch": 8446,
      "городские": 8447,
      "берлускони": 8448,
      "участникам": 8449,
      "возможны": 8450,
      "indu": 8451,
      "обращение": 8452,
      "позити": 8453,
      "основным": 8454,
      "результатов": 8455,
      "результатах": 8456,
      "регионами": 8457,
      "смотр": 8458,
      "ворот": 8459,
      "онеров": 8460,
      "тендер": 8461,
      "обвинили": 8462,
      "процессы": 8463,
      "крупный": 8464,
      "земля": 8465,
      "появился": 8466,
      "экспери": 8467,
      "уровнем": 8468,
      "маню": 8469,
      "доставлены": 8470,
      "значительный": 8471,
      "частного": 8472,
      "надпись": 8473,
      "состояния": 8474,
      "врача": 8475,
      "врачей": 8476,
      "военного": 8477,
      "ситуацией": 8478,
      "тяжел": 8479,
      "седь": 8480,
      "направила": 8481,
      "направлена": 8482,
      "способствует": 8483,
      "побере": 8484,
      "победа": 8485,
      "установлены": 8486,
      "максимум": 8487,
      "формирует": 8488,
      "единственным": 8489,
      "использовали": 8490,
      "дроны": 8491,
      "создал": 8492,
      "субтропи": 8493,
      "специалист": 8494,
      "продолжаются": 8495,
      "команди": 8496,
      "зампред": 8497,
      "электроэнергии": 8498,
      "определя": 8499,
      "определить": 8500,
      "str": 8501,
      "удосто": 8502,
      "американская": 8503,
      "аренд": 8504,
      "доступна": 8505,
      "тайван": 8506,
      "палестине": 8507,
      "кредиторами": 8508,
      "направление": 8509,
      "аналом": 8510,
      "официальном": 8511,
      "системой": 8512,
      "ступает": 8513,
      "михаи": 8514,
      "максимально": 8515,
      "предоставля": 8516,
      "фигурантка": 8517,
      "етии": 8518,
      "парламенте": 8519,
      "возбуждении": 8520,
      "окн": 8521,
      "отец": 8522,
      "спасти": 8523,
      "заняла": 8524,
      "урала": 8525,
      "белорус": 8526,
      "театре": 8527,
      "пояснила": 8528,
      "ганской": 8529,
      "cater": 8530,
      "покупать": 8531,
      "расширя": 8532,
      "pool": 8533,
      "мощности": 8534,
      "украинских": 8535,
      "использует": 8536,
      "используется": 8537,
      "назначено": 8538,
      "субъекта": 8539,
      "влияет": 8540,
      "возвращения": 8541,
      "ily": 8542,
      "шоло": 8543,
      "призвали": 8544,
      "застройщика": 8545,
      "пляжей": 8546,
      "заметил": 8547,
      "департамент": 8548,
      "технической": 8549,
      "аппарате": 8550,
      "индивидуальных": 8551,
      "дальнейшем": 8552,
      "связана": 8553,
      "символи": 8554,
      "путиным": 8555,
      "объединенная": 8556,
      "южный": 8557,
      "выручки": 8558,
      "празд": 8559,
      "журналистам": 8560,
      "ghini": 8561,
      "сенатор": 8562,
      "цемента": 8563,
      "попытки": 8564,
      "пятер": 8565,
      "магатэ": 8566,
      "импорта": 8567,
      "организована": 8568,
      "называет": 8569,
      "заказчика": 8570,
      "церемония": 8571,
      "аудитории": 8572,
      "издания": 8573,
      "туристического": 8574,
      "нефтегазо": 8575,
      "оптим": 8576,
      "звучит": 8577,
      "восьмого": 8578,
      "тарифов": 8579,
      "отмены": 8580,
      "трудности": 8581,
      "вологод": 8582,
      "свето": 8583,
      "акватори": 8584,
      "концепцию": 8585,
      "эмманю": 8586,
      "кремле": 8587,
      "подозрева": 8588,
      "телеканал": 8589,
      "телеканалом": 8590,
      "эрдо": 8591,
      "осуществляется": 8592,
      "warner": 8593,
      "конфиска": 8594,
      "случившегося": 8595,
      "оренбур": 8596,
      "считал": 8597,
      "кризиса": 8598,
      "продлил": 8599,
      "инцидента": 8600,
      "наркотиков": 8601,
      "пациентов": 8602,
      "врио": 8603,
      "сирены": 8604,
      "сырья": 8605,
      "профсоюзов": 8606,
      "индустрии": 8607,
      "упаков": 8608,
      "лекарства": 8609,
      "каспийского": 8610,
      "россель": 8611,
      "бактери": 8612,
      "виталий": 8613,
      "множество": 8614,
      "карьеру": 8615,
      "протяжен": 8616,
      "вложений": 8617,
      "суверен": 8618,
      "borghini": 8619,
      "calanni": 8620,
      "уведомл": 8621,
      "мужчины": 8622,
      "кацав": 8623,
      "экстради": 8624,
      "анонси": 8625,
      "тимирязев": 8626,
      "обозреватель": 8627,
      "lamborghini": 8628,
      "pillar": 8629,
      "охарактеризо": 8630,
      "фраг": 8631,
      "загрязн": 8632,
      "antonio": 8633,
      "industri": 8634,
      "caterpillar": 8635,
      "aut": 8636,
      "air": 8637,
      "bet": 8638,
      "bri": 8639,
      "dr": 8640,
      "ris": 8641,
      "ау": 8642,
      "або": 8643,
      "бей": 8644,
      "вру": 8645,
      "входя": 8646,
      "зя": 8647,
      "ико": 8648,
      "иском": 8649,
      "кани": 8650,
      "нра": 8651,
      "нение": 8652,
      "нство": 8653,
      "опо": 8654,
      "озе": 8655,
      "одино": 8656,
      "сва": 8657,
      "смир": 8658,
      "сбере": 8659,
      "сцены": 8660,
      "спарк": 8661,
      "тс": 8662,
      "тко": 8663,
      "тян": 8664,
      "ужа": 8665,
      "угля": 8666,
      "уголь": 8667,
      "фк": 8668,
      "фла": 8669,
      "цкая": 8670,
      "штор": 8671,
      "эст": 8672,
      "эду": 8673,
      "южно": 8674,
      "стена": 8675,
      "рачи": 8676,
      "корен": 8677,
      "реального": 8678,
      "решает": 8679,
      "госте": 8680,
      "поно": 8681,
      "поступ": 8682,
      "посад": 8683,
      "анная": 8684,
      "нав": 8685,
      "нача": 8686,
      "наби": 8687,
      "насы": 8688,
      "наук": 8689,
      "направо": 8690,
      "кает": 8691,
      "касса": 8692,
      "затро": 8693,
      "сона": 8694,
      "соеди": 8695,
      "сочета": 8696,
      "доступа": 8697,
      "рующий": 8698,
      "нера": 8699,
      "недостаточно": 8700,
      "лома": 8701,
      "моста": 8702,
      "выгля": 8703,
      "выходят": 8704,
      "выступили": 8705,
      "вика": 8706,
      "тиль": 8707,
      "отходами": 8708,
      "прибре": 8709,
      "кури": 8710,
      "тьева": 8711,
      "интен": 8712,
      "комсо": 8713,
      "судо": 8714,
      "хочу": 8715,
      "муп": 8716,
      "нули": 8717,
      "предель": 8718,
      "контур": 8719,
      "подхода": 8720,
      "граду": 8721,
      "шина": 8722,
      "шило": 8723,
      "пилот": 8724,
      "зок": 8725,
      "зона": 8726,
      "терм": 8727,
      "теры": 8728,
      "скфо": 8729,
      "тивном": 8730,
      "тивная": 8731,
      "евской": 8732,
      "передали": 8733,
      "армей": 8734,
      "полит": 8735,
      "торгах": 8736,
      "быстры": 8737,
      "начальной": 8738,
      "работали": 8739,
      "биологи": 8740,
      "своему": 8741,
      "рено": 8742,
      "детал": 8743,
      "произой": 8744,
      "заявок": 8745,
      "расчета": 8746,
      "судья": 8747,
      "границах": 8748,
      "работой": 8749,
      "марк": 8750,
      "джей": 8751,
      "составля": 8752,
      "крест": 8753,
      "другу": 8754,
      "классов": 8755,
      "операторы": 8756,
      "спирт": 8757,
      "минцифры": 8758,
      "рынку": 8759,
      "рынках": 8760,
      "обратить": 8761,
      "семена": 8762,
      "основного": 8763,
      "госдуму": 8764,
      "хина": 8765,
      "коллег": 8766,
      "отметить": 8767,
      "площадей": 8768,
      "смог": 8769,
      "признала": 8770,
      "штам": 8771,
      "политической": 8772,
      "клин": 8773,
      "элементов": 8774,
      "тической": 8775,
      "включен": 8776,
      "включить": 8777,
      "единого": 8778,
      "max": 8779,
      "камчат": 8780,
      "этаже": 8781,
      "поддержал": 8782,
      "заключить": 8783,
      "села": 8784,
      "врачи": 8785,
      "росэнерго": 8786,
      "собственно": 8787,
      "площадка": 8788,
      "квартиру": 8789,
      "свобода": 8790,
      "полицию": 8791,
      "туристы": 8792,
      "способствовать": 8793,
      "стый": 8794,
      "проверить": 8795,
      "установило": 8796,
      "бюджету": 8797,
      "занимать": 8798,
      "запретить": 8799,
      "проблемой": 8800,
      "задержания": 8801,
      "красной": 8802,
      "назвала": 8803,
      "дорожной": 8804,
      "команде": 8805,
      "создано": 8806,
      "создают": 8807,
      "тверды": 8808,
      "лондоне": 8809,
      "вела": 8810,
      "заместителем": 8811,
      "мэрия": 8812,
      "доступности": 8813,
      "литр": 8814,
      "поврежден": 8815,
      "мировых": 8816,
      "областях": 8817,
      "григо": 8818,
      "предпринимателя": 8819,
      "фильмах": 8820,
      "проводятся": 8821,
      "транспортного": 8822,
      "предоставления": 8823,
      "атлан": 8824,
      "комиссию": 8825,
      "судебной": 8826,
      "вернулся": 8827,
      "обязательно": 8828,
      "ареста": 8829,
      "комплексного": 8830,
      "благоустройства": 8831,
      "финансировании": 8832,
      "обновлен": 8833,
      "каждом": 8834,
      "жалобу": 8835,
      "инициативе": 8836,
      "арханг": 8837,
      "золота": 8838,
      "ленина": 8839,
      "благодар": 8840,
      "ther": 8841,
      "off": 8842,
      "сезону": 8843,
      "четверг": 8844,
      "четвертый": 8845,
      "прекратить": 8846,
      "сложные": 8847,
      "альянса": 8848,
      "мощностью": 8849,
      "незаконно": 8850,
      "лицам": 8851,
      "футбо": 8852,
      "используются": 8853,
      "влияют": 8854,
      "маршруты": 8855,
      "маршруту": 8856,
      "игр": 8857,
      "категори": 8858,
      "миллион": 8859,
      "взамен": 8860,
      "застройщики": 8861,
      "vigo": 8862,
      "ежемеся": 8863,
      "пляжи": 8864,
      "пляжа": 8865,
      "саратова": 8866,
      "marton": 8867,
      "освобождение": 8868,
      "здоровье": 8869,
      "агентом": 8870,
      "зеленским": 8871,
      "дальнейшего": 8872,
      "отечественной": 8873,
      "театраль": 8874,
      "пытается": 8875,
      "статуса": 8876,
      "памятников": 8877,
      "конкуренции": 8878,
      "преступлениях": 8879,
      "происшествий": 8880,
      "взял": 8881,
      "взяток": 8882,
      "борьбы": 8883,
      "музее": 8884,
      "ассоциация": 8885,
      "сопровождение": 8886,
      "достигну": 8887,
      "модернизацию": 8888,
      "поддерживает": 8889,
      "урегулированию": 8890,
      "инфляция": 8891,
      "географи": 8892,
      "отменить": 8893,
      "занималась": 8894,
      "юрлиц": 8895,
      "антона": 8896,
      "антони": 8897,
      "вырасти": 8898,
      "коммунальных": 8899,
      "девелоперы": 8900,
      "психи": 8901,
      "электронной": 8902,
      "относится": 8903,
      "концепция": 8904,
      "прогнозируют": 8905,
      "автоматизи": 8906,
      "сведениям": 8907,
      "корабль": 8908,
      "асфаль": 8909,
      "полугодие": 8910,
      "тенденции": 8911,
      "регулятор": 8912,
      "регулятора": 8913,
      "ведутся": 8914,
      "потенциальных": 8915,
      "заключенных": 8916,
      "автономного": 8917,
      "картофель": 8918,
      "berg": 8919,
      "миллиардер": 8920,
      "книги": 8921,
      "квалифицированных": 8922,
      "остановки": 8923,
      "пленарном": 8924,
      "сбивать": 8925,
      "дискуссии": 8926,
      "скульптуры": 8927,
      "кредитам": 8928,
      "продюсе": 8929,
      "uefa": 8930,
      "нужны": 8931,
      "устойчивость": 8932,
      "несовершеннолетних": 8933,
      "библиоте": 8934,
      "кабинет": 8935,
      "ученые": 8936,
      "мониторинга": 8937,
      "красивых": 8938,
      "apple": 8939,
      "вперед": 8940,
      "младший": 8941,
      "оказать": 8942,
      "цифровизации": 8943,
      "завтра": 8944,
      "одежды": 8945,
      "сравнении": 8946,
      "подмосковье": 8947,
      "иначе": 8948,
      "моделей": 8949,
      "гладков": 8950,
      "владеет": 8951,
      "записке": 8952,
      "хранилища": 8953,
      "горизон": 8954,
      "нейтраль": 8955,
      "появится": 8956,
      "немец": 8957,
      "куйбы": 8958,
      "аммиака": 8959,
      "исмаи": 8960,
      "тольят": 8961,
      "филармо": 8962,
      "эдуар": 8963,
      "архангель": 8964,
      "vigoz": 8965,
      "bros": 8966,
      "cci": 8967,
      "ks": 8968,
      "net": 8969,
      "pe": 8970,
      "qu": 8971,
      "zeek": 8972,
      "вло": 8973,
      "вряд": 8974,
      "внима": 8975,
      "вступления": 8976,
      "вконтакте": 8977,
      "вблизи": 8978,
      "гр": 8979,
      "гель": 8980,
      "греб": 8981,
      "ере": 8982,
      "ево": 8983,
      "емости": 8984,
      "жали": 8985,
      "жав": 8986,
      "ждут": 8987,
      "зв": 8988,
      "каль": 8989,
      "маль": 8990,
      "оско": 8991,
      "осво": 8992,
      "остался": 8993,
      "пел": 8994,
      "пью": 8995,
      "сю": 8996,
      "смени": 8997,
      "усть": 8998,
      "уше": 8999,
      "уша": 9000,
      "узн": 9001,
      "хал": 9002,
      "шал": 9003,
      "шков": 9004,
      "шмы": 9005,
      "штур": 9006,
      "ювели": 9007,
      "рано": 9008,
      "ноги": 9009,
      "копи": 9010,
      "козь": 9011,
      "реальности": 9012,
      "говые": 9013,
      "горах": 9014,
      "госкон": 9015,
      "пох": 9016,
      "пони": 9017,
      "пота": 9018,
      "пособ": 9019,
      "повсе": 9020,
      "поруч": 9021,
      "попали": 9022,
      "пошников": 9023,
      "наса": 9024,
      "нату": 9025,
      "наше": 9026,
      "общения": 9027,
      "обоснован": 9028,
      "енисей": 9029,
      "варь": 9030,
      "рище": 9031,
      "заста": 9032,
      "забо": 9033,
      "запе": 9034,
      "заранее": 9035,
      "заведения": 9036,
      "сой": 9037,
      "совать": 9038,
      "сосед": 9039,
      "состоит": 9040,
      "сопоста": 9041,
      "соавтор": 9042,
      "проще": 9043,
      "проведение": 9044,
      "даты": 9045,
      "допол": 9046,
      "домини": 9047,
      "доклад": 9048,
      "миру": 9049,
      "милан": 9050,
      "михе": 9051,
      "непре": 9052,
      "недобросовест": 9053,
      "выплатить": 9054,
      "выставка": 9055,
      "вим": 9056,
      "вича": 9057,
      "вига": 9058,
      "тик": 9059,
      "тим": 9060,
      "тируют": 9061,
      "скорост": 9062,
      "дились": 9063,
      "мадри": 9064,
      "сид": 9065,
      "сировать": 9066,
      "лест": 9067,
      "прести": 9068,
      "пребы": 9069,
      "вере": 9070,
      "приме": 9071,
      "прилега": 9072,
      "бова": 9073,
      "компонен": 9074,
      "стого": 9075,
      "суток": 9076,
      "хождение": 9077,
      "чих": 9078,
      "секу": 9079,
      "сестри": 9080,
      "разли": 9081,
      "праши": 9082,
      "предше": 9083,
      "пусть": 9084,
      "пушкина": 9085,
      "подста": 9086,
      "подала": 9087,
      "подели": 9088,
      "подходы": 9089,
      "подсчитали": 9090,
      "подразуме": 9091,
      "стражей": 9092,
      "гусев": 9093,
      "новский": 9094,
      "букв": 9095,
      "трассы": 9096,
      "компьют": 9097,
      "тельный": 9098,
      "тельство": 9099,
      "водства": 9100,
      "ждением": 9101,
      "вознагражд": 9102,
      "евский": 9103,
      "перейти": 9104,
      "студен": 9105,
      "австра": 9106,
      "щаются": 9107,
      "спект": 9108,
      "жаться": 9109,
      "шапошников": 9110,
      "билетов": 9111,
      "ery": 9112,
      "стеров": 9113,
      "ствию": 9114,
      "анапе": 9115,
      "рентабель": 9116,
      "детская": 9117,
      "заявлении": 9118,
      "центри": 9119,
      "расчет": 9120,
      "знает": 9121,
      "снижению": 9122,
      "партий": 9123,
      "ректор": 9124,
      "джет": 9125,
      "грун": 9126,
      "человечки": 9127,
      "ary": 9128,
      "операцию": 9129,
      "утся": 9130,
      "городская": 9131,
      "ложить": 9132,
      "самозаня": 9133,
      "миню": 9134,
      "возможной": 9135,
      "объектами": 9136,
[...]
