<unk>	0
<s>	0
</s>	0
ст	-0
▁п	-1
ен	-2
▁с	-3
ра	-4
ро	-5
но	-6
ко	-7
ре	-8
▁о	-9
го	-10
ни	-11
на	-12
um	-13
num	-14
▁в	-15
ли	-16
▁<	-17
ва	-18
те	-19
то	-20
ль	-21
ны	-22
▁м	-23
▁д	-24
▁по	-25
ла	-26
та	-27
ри	-28
за	-29
ени	-30
ка	-31
ет	-32
во	-33
ло	-34
да	-35
ер	-36
▁у	-37
ки	-38
ле	-39
▁а	-40
▁со	-41
ру	-42
▁и	-43
ци	-44
▁го	-45
не	-46
▁про	-47
▁ко	-48
ви	-49
▁за	-50
▁б	-51
ти	-52
▁об	-53
ди	-54
▁ра	-55
сс	-56
ста	-57
ми	-58
ско	-59
ся	-60
▁на	-61
сти	-62
▁к	-63
ть	-64
▁пре	-65
по	-66
▁ре	-67
ве	-68
об	-69
▁т	-70
чи	-71
до	-72
че	-73
ма	-74
▁г	-75
ения	-76
мо	-77
де	-78
▁до	-79
▁ф	-80
ных	-81
ду	-82
ча	-83
тель	-84
▁ро	-85
па	-86
бо	-87
▁во	-88
ной	-89
▁от	-90
ля	-91
▁при	-92
ного	-93
лу	-94
ги	-95
ем	-96
ски	-97
ку	-98
сто	-99
▁э	-100
жи	-101
ры	-102
сси	-103
хо	-104
щи	-105
ан	-106
ент	-107
▁вы	-108
▁де	-109
га	-110
вы	-111
▁-	-112
ств	-113
зо	-114
ение	-115
ря	-116
ну	-117
ме	-118
▁не	-119
▁та	-120
▁ру	-121
же	-122
ции	-123
сп	-124
стра	-125
▁сооб	-126
ный	-127
▁(	-128
ные	-129
ту	-130
▁ме	-131
▁росси	-132
▁ка	-133
зи	-134
ской	-135
си	-136
спо	-137
ство	-138
ши	-139
▁ма	-140
▁пред	-141
ют	-142
сть	-143
са	-144
▁су	-145
▁те	-146
со	-147
▁года	-148
▁ин	-149
ще	-150
вл	-151
▁под	-152
ня	-153
▁но	-154
ты	-155
му	-156
▁мо	-157
ше	-158
▁пе	-159
ния	-160
▁руб	-161
мен	-162
сь	-163
рова	-164
▁ми	-165
се	-166
жа	-167
ского	-168
ства	-169
тов	-170
вер	-171
ке	-172
ща	-173
▁ком	-174
ров	-175
ек	-176
ным	-177
ков	-178
пе	-179
яб	-180
▁ста	-181
ствен	-182
▁кон	-183
▁раз	-184
он	-185
сно	-186
ется	-187
лю	-188
пи	-189
▁обла	-190
су	-191
гу	-192
гра	-193
ении	-194
це	-195
▁мл	-196
▁из	-197
▁то	-198
про	-199
пра	-200
би	-201
▁кра	-202
она	-203
каза	-204
▁кото	-205
▁з	-206
ное	-207
нии	-208
ября	-209
ном	-210
пу	-211
▁воз	-212
▁па	-213
▁са	-214
▁си	-215
▁бе	-216
▁се	-217
ор	-218
ба	-219
ыс	-220
▁е	-221
▁так	-222
лек	-223
▁рабо	-224
▁ли	-225
ность	-226
мы	-227
▁ст	-228
▁реги	-229
ности	-230
бу	-231
слу	-232
▁сент	-233
нов	-234
▁жи	-235
ние	-236
▁пере	-237
▁также	-238
▁россии	-239
ский	-240
тив	-241
чен	-242
лет	-243
ден	-244
▁сообщи	-245
лей	-246
ск	-247
▁тыс	-248
▁сентября	-249
ды	-250
ска	-251
вет	-252
▁ав	-253
лен	-254
▁ве	-255
том	-256
▁ч	-257
▁области	-258
ран	-259
▁я	-260
стви	-261
▁ш	-262
дер	-263
▁фо	-264
▁пер	-265
▁ц	-266
▁ку	-267
сте	-268
▁объ	-269
сту	-270
рга	-271
бе	-272
ная	-273
фи	-274
▁сре	-275
▁пра	-276
▁прои	-277
вля	-278
▁р	-279
▁компа	-280
стави	-281
>-	-282
аль	-283
▁ак	-284
бли	-285
род	-286
лов	-287
▁году	-288
▁сообща	-289
▁пресс	-290
ских	-291
кра	-292
).	-293
нее	-294
жен	-295
▁млн	-296
▁фи	-297
▁полу	-298
ша	-299
лся	-300
ходи	-301
ге	-302
▁госпо	-303
▁ви	-304
▁гла	-305
▁фото	-306
▁которы	-307
▁вла	-308
дар	-309
дом	-310
▁бо	-311
тся	-312
ция	-313
ющи	-314
▁ъ	-315
рен	-316
▁обще	-317
,-	-318
служ	-319
дни	-320
▁ди	-321
зна	-322
фор	-323
зу	-324
дин	-325
▁рф	-326
▁че	-327
▁региона	-328
теля	-329
▁зая	-330
тер	-331
нима	-332
▁сле	-333
▁ново	-334
гла	-335
ети	-336
▁стра	-337
>.	-338
вать	-339
▁дан	-340
▁вре	-341
ха	-342
▁расс	-343
▁сво	-344
цион	-345
бы	-346
при	-347
тор	-348
▁ба	-349
сле	-350
▁уча	-351
▁орга	-352
ную	-353
▁пу	-354
▁пла	-355
ца	-356
правл	-357
тра	-358
▁это	-359
зво	-360
▁ча	-361
ром	-362
▁дол	-363
мер	-364
ву	-365
▁од	-366
ском	-367
пре	-368
ений	-369
вя	-370
▁чи	-371
зы	-372
рта	-373
ению	-374
раль	-375
▁прези	-376
▁сто	-377
пла	-378
телей	-379
кт	-380
ству	-381
вил	-382
вой	-383
▁тре	-384
▁россий	-385
тери	-386
стро	-387
тори	-388
ний	-389
цию	-390
рд	-391
▁рай	-392
▁ар	-393
лова	-394
зова	-395
жд	-396
ена	-397
грани	-398
вши	-399
клю	-400
ком	-401
кон	-402
▁эк	-403
▁бу	-404
дова	-405
▁хо	-406
▁ту	-407
лы	-408
▁сообщает	-409
▁га	-410
мя	-411
▁суд	-412
▁тра	-413
рт	-414
▁горо	-415
коно	-416
▁слу	-417
ников	-418
▁ограни	-419
лись	-420
▁фе	-421
чения	-422
▁сред	-423
▁ни	-424
води	-425
▁ю	-426
▁гу	-427
▁красно	-428
▁тер	-429
▁млрд	-430
вых	-431
ными	-432
▁нача	-433
▁обра	-434
руп	-435
▁ранее	-436
три	-437
яти	-438
служба	-439
седа	-440
ться	-441
кой	-442
сы	-443
стоя	-444
▁сер	-445
жда	-446
логи	-447
ские	-448
дов	-449
▁му	-450
стано	-451
▁органи	-452
рь	-453
спи	-454
ются	-455
шение	-456
>,	-457
te	-458
▁господин	-459
стов	-460
рти	-461
▁испо	-462
ника	-463
▁алек	-464
▁проек	-465
сан	-466
▁би	-467
сла	-468
лось	-469
▁мини	-470
▁ва	-471
форма	-472
▁слова	-473
кры	-474
▁пи	-475
вели	-476
гово	-477
пера	-478
ене	-479
тро	-480
▁цент	-481
▁(<	-482
▁ан	-483
шения	-484
тру	-485
▁ответ	-486
стве	-487
▁данным	-488
ей	-489
ход	-490
ностью	-491
),	-492
▁бан	-493
ят	-494
▁общество	-495
дент	-496
▁произво	-497
ствия	-498
соб	-499
циаль	-500
ены	-501
ская	-502
трудни	-503
▁гра	-504
▁ад	-505
мини	-506
стре	-507
ью	-508
льного	-509
вед	-510
сов	-511
спе	-512
▁сотрудни	-513
▁информа	-514
ций	-515
лове	-516
тели	-517
ением	-518
ней	-519
лась	-520
льта	-521
▁ки	-522
▁само	-523
оби	-524
ропо	-525
▁отм	-526
▁сообщил	-527
ритори	-528
▁получи	-529
▁прош	-530
▁время	-531
ев	-532
▁ле	-533
▁челове	-534
▁словам	-535
▁территори	-536
▁долж	-537
циа	-538
▁поли	-539
▁предпри	-540
вые	-541
▁вер	-542
▁лет	-543
▁стро	-544
тельства	-545
вали	-546
▁согла	-547
▁компании	-548
▁х	-549
▁дей	-550
▁состави	-551
▁боль	-552
▁ведом	-553
▁пол	-554
▁спе	-555
▁спо	-556
ления	-557
от	-558
бер	-559
пол	-560
тора	-561
жения	-562
вал	-563
ску	-564
▁ата	-565
▁свя	-566
▁ук	-567
ники	-568
▁соста	-569
-<	-570
зда	-571
нер	-572
казал	-573
▁организа	-574
▁аэ	-575
ске	-576
краи	-577
мент	-578
пута	-579
шен	-580
ному	-581
реди	-582
дут	-583
зульта	-584
▁управл	-585
▁ры	-586
ступ	-587
▁депута	-588
нес	-589
▁результа	-590
le	-591
емы	-592
▁бы	-593
▁ответствен	-594
ник	-595
▁след	-596
▁отмети	-597
министра	-598
▁сообщили	-599
▁пло	-600
держа	-601
▁соб	-602
▁прави	-603
▁работа	-604
рек	-605
ссий	-606
▁матери	-607
▁украи	-608
▁ев	-609
сло	-610
сса	-611
рату	-612
▁дру	-613
▁феде	-614
▁участ	-615
▁города	-616
оне	-617
чение	-618
вод	-619
▁ана	-620
страда	-621
▁пострада	-622
▁заявил	-623
▁н	-624
▁обе	-625
▁авто	-626
▁оста	-627
бур	-628
▁тех	-629
am	-630
фе	-631
▁объек	-632
▁сша	-633
рован	-634
▁авгу	-635
▁госу	-636
▁минист	-637
курату	-638
щения	-639
ено	-640
мож	-641
ниц	-642
▁вз	-643
▁да	-644
▁разви	-645
▁представи	-646
яс	-647
▁ок	-648
▁разме	-649
▁президент	-650
лого	-651
▁опера	-652
▁бю	-653
▁краснодар	-654
.,	-655
зе	-656
ень	-657
кси	-658
вания	-659
стран	-660
▁трам	-661
▁приня	-662
▁ию	-663
▁мар	-664
▁обо	-665
россий	-666
▁влади	-667
▁материа	-668
▁администра	-669
дол	-670
▁руко	-671
лот	-672
рио	-673
наль	-674
▁глава	-675
спу	-676
став	-677
▁государ	-678
лом	-679
хра	-680
вори	-681
жден	-682
тиче	-683
санд	-684
▁коми	-685
▁производ	-686
тре	-687
▁уго	-688
шении	-689
▁осно	-690
▁площа	-691
▁которые	-692
мента	-693
▁меся	-694
стру	-695
спубли	-696
▁республи	-697
▁отно	-698
▁александ	-699
вый	-700
точ	-701
▁зна	-702
▁бюд	-703
жение	-704
ман	-705
вили	-706
▁соот	-707
an	-708
кана	-709
берна	-710
пасно	-711
▁тран	-712
кту	-713
пы	-714
вести	-715
▁элек	-716
▁строи	-717
▁увели	-718
строй	-719
▁комп	-720
▁перио	-721
▁развити	-722
▁компания	-723
▁год	-724
▁город	-725
▁созда	-726
▁владими	-727
▁президен	-728
емь	-729
нию	-730
юще	-731
▁фа	-732
рабо	-733
▁края	-734
▁призна	-735
дук	-736
вого	-737
▁после	-738
▁уголов	-739
тельство	-740
▁соответ	-741
нитель	-742
▁прода	-743
год	-744
мон	-745
вает	-746
ниру	-747
шего	-748
тин	-749
коло	-750
нан	-751
▁помо	-752
кономи	-753
спилот	-754
▁беспилот	-755
дей	-756
рии	-757
чер	-758
▁обви	-759
er	-760
gr	-761
▁работы	-762
твер	-763
▁вклю	-764
▁исполь	-765
▁который	-766
тар	-767
▁te	-768
▁чет	-769
▁вопро	-770
▁губерна	-771
▁ограничен	-772
▁мест	-773
▁обеспе	-774
ках	-775
ступи	-776
ющих	-777
▁дву	-778
▁аэропо	-779
дет	-780
▁ск	-781
дель	-782
держ	-783
▁сан	-784
становл	-785
грам	-786
▁зда	-787
▁кор	-788
▁пов	-789
▁дома	-790
▁сист	-791
сал	-792
хи	-793
гро	-794
▁це	-795
тета	-796
▁дирек	-797
лем	-798
кова	-799
роны	-800
▁безо	-801
томоби	-802
▁автомоби	-803
▁председа	-804
▁нару	-805
▁около	-806
▁которо	-807
имо	-808
ским	-809
▁m	-810
▁сни	-811
▁други	-812
▁занима	-813
▁прокурату	-814
▁новороссий	-815
▁кро	-816
▁сум	-817
ледова	-818
▁подро	-819
▁возмож	-820
▁предло	-821
еры	-822
кан	-823
▁дело	-824
▁россия	-825
ях	-826
>-<	-827
ряд	-828
▁серге	-829
▁ян	-830
него	-831
▁сочи	-832
▁финан	-833
▁предприяти	-834
▁окру	-835
▁став	-836
▁законо	-837
ез	-838
▁мин	-839
▁показа	-840
▁руководи	-841
жу	-842
рей	-843
стан	-844
▁рей	-845
▁топ	-846
▁заме	-847
▁встре	-848
▁находи	-849
▁провер	-850
виа	-851
▁доку	-852
▁ограниченной	-853
ниче	-854
▁круп	-855
▁продол	-856
вым	-857
▁кв	-858
gram	-859
▁ростов	-860
▁территории	-861
цев	-862
▁ито	-863
▁tele	-864
▁моск	-865
▁планиру	-866
▁транспо	-867
▁ше	-868
▁окт	-869
▁исто	-870
▁необ	-871
▁эксп	-872
▁числе	-873
▁говори	-874
▁гражда	-875
пасности	-876
▁telegram	-877
▁s	-878
мот	-879
мени	-880
▁доб	-881
▁интер	-882
▁ла	-883
▁среди	-884
▁федераль	-885
зан	-886
▁назна	-887
▁против	-888
▁решение	-889
▁еди	-890
▁рас	-891
▁следу	-892
▁площад	-893
▁произо	-894
▁направл	-895
▁человек	-896
стри	-897
▁президента	-898
▁пар	-899
вляет	-900
▁того	-901
ждения	-902
▁креди	-903
▁власти	-904
▁продук	-905
лага	-906
▁биз	-907
▁воен	-908
▁доро	-909
▁режи	-910
▁явля	-911
▁будут	-912
▁дональ	-913
вест	-914
▁дела	-915
▁заседа	-916
▁экономи	-917
чет	-918
▁переда	-919
ссо	-920
тей	-921
▁зо	-922
ссии	-923
вом	-924
еме	-925
чита	-926
▁кур	-927
варти	-928
▁увеличи	-929
вета	-930
▁электро	-931
▁оц	-932
вших	-933
▁меж	-934
▁страны	-935
вле	-936
кта	-937
нем	-938
▁лю	-939
▁реа	-940
▁тру	-941
▁одна	-942
▁необходи	-943
▁ду	-944
жных	-945
ющий	-946
▁рын	-947
▁служ	-948
▁ос	-949
сков	-950
▁сро	-951
город	-952
вают	-953
▁ули	-954
льных	-955
ствие	-956
on	-957
тай	-958
туа	-959
дели	-960
муще	-961
льной	-962
▁двух	-963
▁заклю	-964
▁стоимо	-965
▁програм	-966
▁результате	-967
вра	-968
дзо	-969
рий	-970
▁евро	-971
▁уров	-972
тербур	-973
▁александр	-974
▁управления	-975
▁обя	-976
сколь	-977
ционер	-978
▁завер	-979
▁требо	-980
мыш	-981
скую	-982
▁конф	-983
▁поль	-984
▁состоя	-985
▁a	-986
бан	-987
дина	-988
годня	-989
щении	-990
▁груп	-991
▁тури	-992
ческого	-993
▁отметил	-994
▁сегодня	-995
▁ведомства	-996
▁безопасности	-997
лья	-998
стей	-999
▁анд	-1000
нения	-1001
мышлен	-1002
нил	-1003
▁отра	-1004
▁фигу	-1005
▁запре	-1006
▁сказал	-1007
▁r	-1008
шел	-1009
▁дми	-1010
▁публи	-1011
▁сокра	-1012
▁дмитри	-1013
▁вос	-1014
▁дея	-1015
▁уда	-1016
▁коммер	-1017
▁комплек	-1018
▁акционер	-1019
фа	-1020
▁c	-1021
▁кли	-1022
▁высо	-1023
▁объя	-1024
▁стан	-1025
▁янва	-1026
ван	-1027
вое	-1028
▁татар	-1029
▁поги	-1030
▁испол	-1031
▁позво	-1032
▁право	-1033
▁ситуа	-1034
▁трамп	-1035
▁подроб	-1036
▁согласно	-1037
бле	-1038
гам	-1039
▁ха	-1040
тных	-1041
▁фон	-1042
▁пожа	-1043
▁возду	-1044
▁деятель	-1045
▁жителей	-1046
▁сообщила	-1047
▁материале	-1048
лиза	-1049
тельно	-1050
▁проце	-1051
циали	-1052
▁акционерное	-1053
▁зам	-1054
росла	-1055
▁авиа	-1056
▁таки	-1057
▁проект	-1058
фо	-1059
вая	-1060
сты	-1061
личе	-1062
ципа	-1063
▁ген	-1064
▁фор	-1065
▁суда	-1066
▁энер	-1067
▁откры	-1068
▁районе	-1069
▁замести	-1070
рал	-1071
ставл	-1072
щение	-1073
▁однако	-1074
гут	-1075
жет	-1076
▁сра	-1077
канале	-1078
нского	-1079
бор	-1080
дел	-1081
там	-1082
нием	-1083
чных	-1084
▁уни	-1085
▁уточ	-1086
▁района	-1087
▁республики	-1088
рон	-1089
▁же	-1090
▁сов	-1091
ровали	-1092
ровать	-1093
▁атаки	-1094
ское	-1095
стана	-1096
▁возбу	-1097
▁оказа	-1098
▁сергей	-1099
▁задержа	-1100
▁фигуран	-1101
▁мэ	-1102
▁ри	-1103
▁день	-1104
ческих	-1105
▁случа	-1106
▁период	-1107
▁специали	-1108
▁отношении	-1109
▁соответству	-1110
емо	-1111
чно	-1112
▁уч	-1113
▁ино	-1114
▁крае	-1115
▁кроме	-1116
▁своем	-1117
▁пя	-1118
▁вме	-1119
ниципа	-1120
▁основ	-1121
▁област	-1122
▁гос	-1123
▁оон	-1124
▁опу	-1125
нению	-1126
▁угро	-1127
▁включа	-1128
▁августе	-1129
▁социаль	-1130
ственного	-1131
▁является	-1132
▁губернатор	-1133
кла	-1134
льту	-1135
вшего	-1136
льный	-1137
▁прибы	-1138
▁времен	-1139
▁дмитрий	-1140
▁муниципа	-1141
пер	-1142
дуна	-1143
▁защи	-1144
▁кате	-1145
▁поло	-1146
▁предо	-1147
дународ	-1148
▁международ	-1149
▁ростовской	-1150
дра	-1151
▁неф	-1152
▁офи	-1153
▁шта	-1154
▁виде	-1155
▁несколь	-1156
▁оператив	-1157
▁продолжа	-1158
▁собствен	-1159
шли	-1160
нами	-1161
нова	-1162
чной	-1163
▁тор	-1164
▁чер	-1165
▁потре	-1166
▁работ	-1167
▁участи	-1168
▁экспер	-1169
▁стоимость	-1170
▁информации	-1171
▁организации	-1172
▁краснодарского	-1173
in	-1174
пло	-1175
щен	-1176
нару	-1177
реги	-1178
телем	-1179
▁топли	-1180
тельных	-1181
▁алексе	-1182
ям	-1183
▁ло	-1184
бира	-1185
▁подо	-1186
▁дости	-1187
ин	-1188
дви	-1189
кну	-1190
мов	-1191
▁вто	-1192
▁шко	-1193
▁доба	-1194
▁отме	-1195
▁теле	-1196
вается	-1197
▁контро	-1198
▁образова	-1199
▁использова	-1200
зов	-1201
ших	-1202
▁рост	-1203
▁имуще	-1204
▁много	-1205
▁преду	-1206
▁уголовное	-1207
ов	-1208
ую	-1209
чь	-1210
▁лу	-1211
ками	-1212
▁повы	-1213
▁семь	-1214
▁догово	-1215
▁составляет	-1216
▁администрации	-1217
цы	-1218
сили	-1219
▁бла	-1220
▁ека	-1221
▁наз	-1222
▁спа	-1223
▁бпла	-1224
▁глав	-1225
▁запа	-1226
▁пода	-1227
▁четы	-1228
▁место	-1229
▁санкт	-1230
▁счита	-1231
▁послед	-1232
вший	-1233
номо	-1234
бурга	-1235
рного	-1236
▁выпол	-1237
▁главы	-1238
▁повре	-1239
▁централь	-1240
бин	-1241
нут	-1242
рак	-1243
рой	-1244
тен	-1245
тки	-1246
▁арте	-1247
▁инте	-1248
▁побе	-1249
▁проис	-1250
▁количе	-1251
▁культу	-1252
▁ограничения	-1253
кс	-1254
ья	-1255
шки	-1256
▁ссы	-1257
проек	-1258
ством	-1259
▁меди	-1260
▁особ	-1261
службе	-1262
▁причи	-1263
▁распо	-1264
▁утвер	-1265
▁опубли	-1266
▁четыре	-1267
▁граждан	-1268
▁разрабо	-1269
▁владимир	-1270
or	-1271
▁л	-1272
сии	-1273
▁фу	-1274
▁ци	-1275
дела	-1276
дили	-1277
▁дви	-1278
▁дет	-1279
ступа	-1280
▁неза	-1281
▁услу	-1282
▁част	-1283
▁бюдже	-1284
▁регио	-1285
рования	-1286
▁воздуш	-1287
▁екатери	-1288
▁октября	-1289
▁средств	-1290
es	-1291
кро	-1292
боле	-1293
елен	-1294
жный	-1295
▁свои	-1296
▁стал	-1297
▁конку	-1298
▁подпи	-1299
сследова	-1300
▁дональд	-1301
▁правительства	-1302
▁аг	-1303
▁ша	-1304
казы	-1305
▁ини	-1306
▁инф	-1307
▁лиц	-1308
▁спи	-1309
▁инвести	-1310
▁министр	-1311
▁поддерж	-1312
▁компаний	-1313
▁господина	-1314
рая	-1315
шей	-1316
кого	-1317
▁коман	-1318
▁связи	-1319
▁итогам	-1320
▁конфли	-1321
▁отмеча	-1322
бра	-1323
▁ава	-1324
веден	-1325
▁обвиня	-1326
ему	-1327
жно	-1328
▁ги	-1329
чный	-1330
▁вне	-1331
▁гор	-1332
ление	-1333
слови	-1334
▁выпу	-1335
▁суде	-1336
▁закон	-1337
▁источ	-1338
▁часть	-1339
▁андрей	-1340
▁контра	-1341
▁заседании	-1342
лан	-1343
рту	-1344
щих	-1345
▁гру	-1346
ходит	-1347
▁арен	-1348
▁бюджет	-1349
▁начала	-1350
▁регионального	-1351
▁f	-1352
▁v	-1353
вок	-1354
рия	-1355
тах	-1356
тия	-1357
мери	-1358
спек	-1359
▁иск	-1360
▁эта	-1361
скому	-1362
ствий	-1363
▁каза	-1364
▁обсу	-1365
▁ссыл	-1366
▁макси	-1367
▁жителя	-1368
▁подчер	-1369
▁услови	-1370
▁b	-1371
▁t	-1372
щая	-1373
ница	-1374
▁рам	-1375
▁том	-1376
циона	-1377
чного	-1378
ваться	-1379
▁аналоги	-1380
▁человека	-1381
en	-1382
▁жен	-1383
вание	-1384
▁заня	-1385
▁срав	-1386
ждение	-1387
правля	-1388
▁писал	-1389
▁получа	-1390
▁министер	-1391
▁p	-1392
кам	-1393
чные	-1394
ющие	-1395
▁пос	-1396
▁пун	-1397
рации	-1398
торов	-1399
▁акти	-1400
▁свер	-1401
ровано	-1402
▁благо	-1403
▁техно	-1404
▁которая	-1405
▁которых	-1406
▁законода	-1407
▁средства	-1408
▁исследова	-1409
▁прокуратура	-1410
зя	-1411
шо	-1412
рах	-1413
тить	-1414
торы	-1415
цией	-1416
▁муж	-1417
▁пояс	-1418
▁ходе	-1419
▁амери	-1420
▁могут	-1421
▁обнару	-1422
▁системы	-1423
нь	-1424
жили	-1425
рета	-1426
▁вол	-1427
▁ско	-1428
▁скр	-1429
матри	-1430
прияти	-1431
▁допол	-1432
▁зареги	-1433
▁постав	-1434
▁ссылкой	-1435
▁екатерин	-1436
▁зарегистри	-1437
▁предпринима	-1438
▁n	-1439
куп	-1440
мет	-1441
наб	-1442
ябре	-1443
▁кры	-1444
▁сай	-1445
▁тем	-1446
▁выра	-1447
▁гене	-1448
дитель	-1449
▁полити	-1450
▁рамках	-1451
▁способ	-1452
▁объектов	-1453
▁развития	-1454
▁говорится	-1455
▁российских	-1456
▁w	-1457
ких	-1458
вила	-1459
нили	-1460
▁атом	-1461
▁сохра	-1462
▁других	-1463
▁совета	-1464
городской	-1465
▁обеспечи	-1466
>),	-1467
>).	-1468
тал	-1469
длов	-1470
ходя	-1471
▁кри	-1472
▁мат	-1473
▁арби	-1474
▁измен	-1475
▁новых	-1476
ведения	-1477
▁привле	-1478
▁месяцев	-1479
▁деятельности	-1480
ar	-1481
ol	-1482
▁i	-1483
▁перм	-1484
вартир	-1485
вление	-1486
▁мужчи	-1487
▁обяза	-1488
тельной	-1489
▁промышлен	-1490
▁сотрудники	-1491
ган	-1492
спб	-1493
▁он	-1494
мина	-1495
пара	-1496
▁бел	-1497
▁каче	-1498
▁меро	-1499
▁моло	-1500
▁прог	-1501
▁помощ	-1502
▁район	-1503
▁ремон	-1504
▁инициа	-1505
тельного	-1506
▁арбитра	-1507
▁размере	-1508
▁действия	-1509
▁мероприяти	-1510
▁беспилотников	-1511
▁ж	-1512
дии	-1513
ток	-1514
▁ну	-1515
▁сп	-1516
ртии	-1517
рует	-1518
▁кар	-1519
▁кол	-1520
▁тасс	-1521
ческой	-1522
▁совер	-1523
▁прошлого	-1524
▁транспорт	-1525
▁h	-1526
ями	-1527
тали	-1528
▁клю	-1529
▁тур	-1530
шений	-1531
▁прио	-1532
▁спро	-1533
▁серви	-1534
▁части	-1535
▁сообщал	-1536
▁иностран	-1537
▁следствия	-1538
▁составила	-1539
кий	-1540
сли	-1541
ензи	-1542
▁каж	-1543
▁наи	-1544
рания	-1545
▁меры	-1546
▁неде	-1547
▁проводи	-1548
▁рассказал	-1549
▁государствен	-1550
вд	-1551
вую	-1552
кви	-1553
нди	-1554
ред	-1555
щер	-1556
роне	-1557
▁все	-1558
▁рос	-1559
▁сек	-1560
▁выбо	-1561
▁опре	-1562
▁сезо	-1563
▁учре	-1564
станов	-1565
ческий	-1566
▁ключе	-1567
▁места	-1568
▁сумму	-1569
▁медици	-1570
▁бюджета	-1571
▁заверши	-1572
▁установл	-1573
▁несколько	-1574
▁подробнее	-1575
мар	-1576
мпи	-1577
шин	-1578
▁оп	-1579
энер	-1580
▁аре	-1581
▁ожи	-1582
▁уче	-1583
▁эти	-1584
мости	-1585
▁дохо	-1586
▁месте	-1587
▁превы	-1588
▁бизнес	-1589
▁течение	-1590
▁финансо	-1591
▁американ	-1592
▁депутаты	-1593
▁дополнитель	-1594
чс	-1595
лез	-1596
вить	-1597
жной	-1598
ницы	-1599
▁име	-1600
▁сель	-1601
▁ущер	-1602
вления	-1603
▁рублей	-1604
▁яросла	-1605
▁получил	-1606
▁следует	-1607
▁директор	-1608
▁комитета	-1609
лых	-1610
пом	-1611
▁вой	-1612
льные	-1613
ндида	-1614
ремен	-1615
▁агент	-1616
▁закры	-1617
▁значи	-1618
▁конце	-1619
▁отпра	-1620
▁парла	-1621
▁банков	-1622
▁устано	-1623
▁кандида	-1624
ступления	-1625
▁свердлов	-1626
▁специаль	-1627
▁технологи	-1628
ъя	-1629
▁d	-1630
каз	-1631
ляр	-1632
сант	-1633
смот	-1634
менты	-1635
платы	-1636
ссажи	-1637
▁счет	-1638
▁госду	-1639
▁свобо	-1640
▁улице	-1641
▁извест	-1642
▁подтвер	-1643
▁находится	-1644
▁подчеркну	-1645
▁сообщении	-1646
тя	-1647
воз	-1648
тет	-1649
чил	-1650
▁ап	-1651
това	-1652
чень	-1653
▁бли	-1654
▁подго	-1655
▁версии	-1656
▁службы	-1657
▁пригово	-1658
гли	-1659
жей	-1660
нах	-1661
▁тя	-1662
мбле	-1663
▁оче	-1664
▁сло	-1665
ложен	-1666
сантъ	-1667
▁куро	-1668
▁объе	-1669
▁гости	-1670
▁вопрос	-1671
▁работу	-1672
▁опубликова	-1673
▁коммерсантъ	-1674
▁уд	-1675
льно	-1676
чное	-1677
ыска	-1678
▁осу	-1679
▁смо	-1680
енных	-1681
ченко	-1682
▁пять	-1683
▁регу	-1684
▁готов	-1685
▁детей	-1686
▁погиб	-1687
▁стало	-1688
▁конкур	-1689
▁предпо	-1690
▁ставропо	-1691
▁должность	-1692
>)	-1693
ter	-1694
ева	-1695
кин	-1696
мой	-1697
ним	-1698
щем	-1699
доро	-1700
ющей	-1701
▁мчс	-1702
летов	-1703
нение	-1704
пусти	-1705
▁живо	-1706
▁напа	-1707
▁поме	-1708
▁расп	-1709
▁женщи	-1710
▁округа	-1711
▁пассажи	-1712
▁украине	-1713
▁пострадали	-1714
▁сотрудников	-1715
▁пострадавших	-1716
мь	-1717
над	-1718
▁сы	-1719
нных	-1720
тной	-1721
фици	-1722
▁удо	-1723
дения	-1724
жении	-1725
струк	-1726
▁миха	-1727
▁фору	-1728
ствует	-1729
▁судов	-1730
▁число	-1731
ссамбле	-1732
▁доступ	-1733
▁момент	-1734
▁незакон	-1735
▁происше	-1736
▁количество	-1737
гов	-1738
лли	-1739
ору	-1740
сом	-1741
тно	-1742
хов	-1743
▁ау	-1744
▁ти	-1745
выше	-1746
ента	-1747
чены	-1748
▁кре	-1749
ющего	-1750
▁ниже	-1751
▁оцен	-1752
▁прой	-1753
▁това	-1754
▁фран	-1755
▁банка	-1756
▁снизи	-1757
▁городе	-1758
▁началь	-1759
петербур	-1760
▁область	-1761
▁проекта	-1762
▁законопроек	-1763
▁председатель	-1764
бир	-1765
▁ор	-1766
▁нау	-1767
▁реб	-1768
льном	-1769
ровал	-1770
чении	-1771
▁посе	-1772
▁прод	-1773
▁ради	-1774
▁штра	-1775
ментов	-1776
▁объем	-1777
▁ожида	-1778
▁свыше	-1779
▁систе	-1780
▁стран	-1781
▁треть	-1782
▁должен	-1783
блю	-1784
вки	-1785
▁re	-1786
кипа	-1787
ницу	-1788
руют	-1789
▁евг	-1790
▁сем	-1791
рения	-1792
строи	-1793
▁мене	-1794
▁мино	-1795
▁бизне	-1796
▁стали	-1797
▁первый	-1798
▁генераль	-1799
вов	-1800
лия	-1801
сро	-1802
▁км	-1803
бере	-1804
снаб	-1805
ющим	-1806
тором	-1807
▁выро	-1808
▁опро	-1809
▁напра	-1810
▁профе	-1811
▁совет	-1812
летнего	-1813
структу	-1814
▁прекра	-1815
▁включая	-1816
▁рассмот	-1817
▁украины	-1818
нет	-1819
рев	-1820
сут	-1821
▁чу	-1822
леты	-1823
▁бло	-1824
▁жиз	-1825
ваний	-1826
▁напи	-1827
▁насе	-1828
▁домов	-1829
▁сайте	-1830
▁прогно	-1831
▁полномо	-1832
▁официаль	-1833
▁государства	-1834
▁российского	-1835
▁новороссийске	-1836
ur	-1837
цу	-1838
зяй	-1839
мых	-1840
нам	-1841
вала	-1842
дить	-1843
нуть	-1844
рами	-1845
чили	-1846
верси	-1847
держи	-1848
▁инди	-1849
▁пока	-1850
▁пост	-1851
ставля	-1852
▁ликви	-1853
▁оцени	-1854
▁подоз	-1855
▁петербур	-1856
▁получили	-1857
▁расследова	-1858
▁строительство	-1859
гру	-1860
шет	-1861
шру	-1862
вари	-1863
лена	-1864
нять	-1865
стой	-1866
читы	-1867
жного	-1868
скими	-1869
▁доля	-1870
бороны	-1871
ступил	-1872
ческие	-1873
▁зелен	-1874
▁стать	-1875
▁судеб	-1876
ственно	-1877
▁трампа	-1878
▁января	-1879
▁национа	-1880
▁свободы	-1881
▁простран	-1882
▁городской	-1883
▁минобороны	-1884
▁свердловской	-1885
зер	-1886
няя	-1887
раз	-1888
регу	-1889
цент	-1890
щего	-1891
▁без	-1892
▁деся	-1893
▁дней	-1894
▁зако	-1895
▁сара	-1896
ретарь	-1897
▁видео	-1898
▁внима	-1899
▁прове	-1900
▁европе	-1901
▁маршру	-1902
▁объявл	-1903
▁одного	-1904
▁конфликта	-1905
▁сравнению	-1906
▁председателя	-1907
чка	-1908
▁поз	-1909
▁суб	-1910
▁сфе	-1911
▁июле	-1912
▁приз	-1913
▁теку	-1914
▁успе	-1915
▁бензи	-1916
▁интере	-1917
▁алексей	-1918
▁предвари	-1919
▁необходимо	-1920
гии	-1921
лай	-1922
тие	-1923
ыта	-1924
▁ал	-1925
вшие	-1926
град	-1927
ерен	-1928
хран	-1929
▁цен	-1930
форми	-1931
▁земе	-1932
▁капи	-1933
▁раза	-1934
▁трех	-1935
▁китай	-1936
▁надзо	-1937
▁новые	-1938
▁обору	-1939
▁тепло	-1940
▁августа	-1941
▁регионе	-1942
▁участие	-1943
раструкту	-1944
▁задержали	-1945
▁рассматри	-1946
▁российской	-1947
▁планируется	-1948
▁административ	-1949
▁правительство	-1950
al	-1951
сб	-1952
бой	-1953
каб	-1954
нен	-1955
тка	-1956
чей	-1957
щий	-1958
▁вс	-1959
влет	-1960
куро	-1961
мьер	-1962
▁mer	-1963
▁бал	-1964
▁мет	-1965
▁экс	-1966
служи	-1967
фикси	-1968
▁внес	-1969
▁гена	-1970
▁зада	-1971
▁июля	-1972
▁нака	-1973
▁нало	-1974
▁окон	-1975
▁пози	-1976
▁реко	-1977
▁срок	-1978
▁центр	-1979
▁здания	-1980
▁песков	-1981
▁четвер	-1982
▁зафикси	-1983
▁позволя	-1984
▁процесс	-1985
▁сократи	-1986
▁полномочи	-1987
▁производства	-1988
сур	-1989
хва	-1990
ters	-1991
гети	-1992
нице	-1993
рева	-1994
тные	-1995
▁бор	-1996
▁бра	-1997
▁мвд	-1998
▁тон	-1999
льное	-2000
▁водо	-2001
▁пяти	-2002
▁декаб	-2003
▁новый	-2004
▁пожар	-2005
▁расхо	-2006
тельные	-2007
▁настоя	-2008
▁выступа	-2009
▁произош	-2010
▁решения	-2011
▁управля	-2012
▁составил	-2013
▁федерации	-2014
▁генассамбле	-2015
▁предприятия	-2016
▁инфраструкту	-2017
▁представитель	-2018
ап	-2019
кет	-2020
▁хи	-2021
▁ши	-2022
▁нет	-2023
▁уби	-2024
ждены	-2025
▁merc	-2026
▁иску	-2027
▁нико	-2028
▁тяже	-2029
▁челя	-2030
▁актив	-2031
▁нефте	-2032
▁поряд	-2033
▁рынке	-2034
▁аппара	-2035
▁данные	-2036
▁задерж	-2037
▁отказа	-2038
ствовать	-2039
▁признал	-2040
▁финанси	-2041
▁перегово	-2042
▁оборудова	-2043
▁информацион	-2044
ил	-2045
чу	-2046
ье	-2047
кие	-2048
рил	-2049
сек	-2050
тан	-2051
▁им	-2052
▁ты	-2053
нуне	-2054
охра	-2055
тром	-2056
▁reu	-2057
▁зар	-2058
▁сби	-2059
▁дене	-2060
▁лени	-2061
▁пути	-2062
▁суще	-2063
▁должны	-2064
▁здание	-2065
▁налого	-2066
▁примен	-2067
▁reuters	-2068
▁накануне	-2069
▁отметили	-2070
▁следствен	-2071
>:	-2072
ee	-2073
вор	-2074
▁ря	-2075
▁ул	-2076
баты	-2077
боль	-2078
нали	-2079
нача	-2080
▁кла	-2081
▁пля	-2082
движи	-2083
кации	-2084
▁делу	-2085
▁днем	-2086
▁попа	-2087
матиче	-2088
▁консу	-2089
▁напом	-2090
▁режим	-2091
▁рынка	-2092
▁связа	-2093
▁север	-2094
▁большо	-2095
▁деньги	-2096
▁первом	-2097
▁катеров	-2098
▁назначен	-2099
▁рассказа	-2100
▁парламента	-2101
▁e	-2102
жил	-2103
▁ль	-2104
нить	-2105
чным	-2106
ябрь	-2107
▁пен	-2108
▁тро	-2109
компа	-2110
надзо	-2111
▁голо	-2112
▁поки	-2113
▁порта	-2114
▁сдела	-2115
▁житель	-2116
▁реализа	-2117
▁челябин	-2118
▁предлага	-2119
▁составит	-2120
▁аэропорта	-2121
▁полностью	-2122
ro	-2123
ti	-2124
ню	-2125
бов	-2126
езд	-2127
нин	-2128
тем	-2129
ума	-2130
ност	-2131
тата	-2132
чить	-2133
чном	-2134
▁выя	-2135
▁мед	-2136
▁обл	-2137
▁там	-2138
▁эко	-2139
ществ	-2140
▁буду	-2141
▁думы	-2142
▁инци	-2143
▁плат	-2144
цитата	-2145
▁права	-2146
▁вместе	-2147
▁генпро	-2148
▁москве	-2149
▁подряд	-2150
▁устрой	-2151
▁европей	-2152
▁недвижи	-2153
▁позволи	-2154
▁прибыль	-2155
▁стороны	-2156
▁топлива	-2157
▁ярослав	-2158
▁универси	-2159
пр	-2160
нев	-2161
▁зак	-2162
▁мер	-2163
▁циф	-2164
ходят	-2165
▁апре	-2166
▁санк	-2167
▁сети	-2168
рованы	-2169
▁выпла	-2170
▁годом	-2171
▁наблю	-2172
▁намер	-2173
▁очень	-2174
▁сфере	-2175
▁возгла	-2176
▁восемь	-2177
▁данных	-2178
▁владель	-2179
▁лишения	-2180
▁удовлет	-2181
▁правоохра	-2182
▁подчеркнул	-2183
▁требования	-2184
▁заместитель	-2185
▁прокуратуры	-2186
фф	-2187
ген	-2188
щие	-2189
зыва	-2190
▁дел	-2191
▁дро	-2192
делен	-2193
ститу	-2194
▁запу	-2195
▁маши	-2196
▁стар	-2197
летний	-2198
▁объяс	-2199
▁выпуск	-2200
▁обрати	-2201
▁очеред	-2202
▁добавил	-2203
▁которой	-2204
▁максима	-2205
▁следова	-2206
▁считает	-2207
▁которого	-2208
▁аэропорту	-2209
▁ведомстве	-2210
▁продукции	-2211
▁производи	-2212
▁произошел	-2213
▁российские	-2214
ом	-2215
ян	-2216
нок	-2217
так	-2218
▁жу	-2219
вода	-2220
мест	-2221
▁бри	-2222
▁дом	-2223
▁лав	-2224
▁мск	-2225
▁обу	-2226
▁ото	-2227
▁соц	-2228
▁теа	-2229
нский	-2230
стане	-2231
▁анти	-2232
▁бело	-2233
▁девя	-2234
▁моря	-2235
▁тыся	-2236
▁желез	-2237
▁колле	-2238
▁пишет	-2239
▁разли	-2240
▁требу	-2241
▁находя	-2242
▁нового	-2243
▁распро	-2244
▁рейтин	-2245
▁случае	-2246
▁бывшего	-2247
▁обслужи	-2248
▁погибли	-2249
▁поступи	-2250
▁краснода	-2251
▁ведомство	-2252
▁участников	-2253
▁руководителя	-2254
▁.	-2255
▁g	-2256
дже	-2257
них	-2258
сою	-2259
▁an	-2260
веро	-2261
деля	-2262
спон	-2263
тиво	-2264
▁мол	-2265
▁мощ	-2266
▁даль	-2267
▁поку	-2268
ваются	-2269
регули	-2270
▁возра	-2271
▁доход	-2272
▁менее	-2273
▁роста	-2274
▁указа	-2275
▁факту	-2276
▁набере	-2277
▁ноября	-2278
▁уровне	-2279
ственных	-2280
▁депутат	-2281
▁премьер	-2282
▁противо	-2283
▁возможность	-2284
▁законопроект	-2285
▁l	-2286
зма	-2287
пар	-2288
сет	-2289
что	-2290
шие	-2291
ший	-2292
щее	-2293
▁газ	-2294
▁поя	-2295
▁роз	-2296
▁упа	-2297
более	-2298
парта	-2299
рение	-2300
ствии	-2301
▁аква	-2302
▁брен	-2303
▁идет	-2304
▁неко	-2305
▁попу	-2306
▁член	-2307
▁штаб	-2308
няется	-2309
▁анали	-2310
▁путин	-2311
▁ребен	-2312
▁вороне	-2313
▁москвы	-2314
▁москов	-2315
▁новоси	-2316
▁бизнеса	-2317
▁прошлом	-2318
▁известно	-2319
▁организова	-2320
▁губернатора	-2321
ит	-2322
>:<	-2323
зом	-2324
йти	-2325
лой	-2326
мии	-2327
сам	-2328
сил	-2329
тий	-2330
▁всу	-2331
▁две	-2332
▁мир	-2333
▁нор	-2334
▁сти	-2335
дение	-2336
надле	-2337
экипа	-2338
▁коло	-2339
▁удму	-2340
▁фили	-2341
▁долго	-2342
▁конца	-2343
▁корпо	-2344
▁среду	-2345
▁февра	-2346
тельным	-2347
тербурга	-2348
▁принима	-2349
▁качестве	-2350
▁проверку	-2351
▁районный	-2352
▁регионов	-2353
▁регистра	-2354
▁состоянии	-2355
▁предполага	-2356
▁генпрокурату	-2357
дс	-2358
нк	-2359
пов	-2360
шая	-2361
шее	-2362
шта	-2363
▁ог	-2364
лега	-2365
обра	-2366
ющая	-2367
▁дня	-2368
▁зем	-2369
▁нео	-2370
▁опы	-2371
▁сми	-2372
жской	-2373
льным	-2374
менти	-2375
▁доме	-2376
▁спец	-2377
▁цена	-2378
дентов	-2379
чением	-2380
энерго	-2381
▁госпи	-2382
▁казан	-2383
▁месяц	-2384
▁стала	-2385
▁такие	-2386
деления	-2387
шенниче	-2388
▁взыска	-2389
▁группы	-2390
▁многок	-2391
▁начале	-2392
▁сессии	-2393
▁уничто	-2394
▁энерго	-2395
▁урегули	-2396
▁безэкипа	-2397
▁внимание	-2398
▁интернет	-2399
▁энергети	-2400
▁новосибир	-2401
▁белгородской	-2402
▁новороссийск	-2403
нг	-2404
стр	-2405
шим	-2406
▁аи	-2407
▁ом	-2408
▁тю	-2409
▁уф	-2410
вело	-2411
сной	-2412
тами	-2413
▁мэр	-2414
ктиче	-2415
▁банк	-2416
▁выше	-2417
▁выяс	-2418
ванием	-2419
▁разре	-2420
▁форми	-2421
тельный	-2422
▁другие	-2423
▁страте	-2424
▁центра	-2425
ственной	-2426
▁крупней	-2427
▁курской	-2428
▁площадь	-2429
▁система	-2430
▁действий	-2431
▁наиболее	-2432
▁поддержа	-2433
▁проверки	-2434
▁професси	-2435
▁развитие	-2436
▁ставрополь	-2437
▁управление	-2438
▁арбитражный	-2439
▁организаций	-2440
вли	-2441
▁тр	-2442
виси	-2443
▁кам	-2444
▁мид	-2445
ждено	-2446
▁вось	-2447
▁парт	-2448
▁убий	-2449
▁общей	-2450
▁приоб	-2451
▁расши	-2452
▁ущерб	-2453
▁возвра	-2454
▁работе	-2455
▁комплекс	-2456
▁осуществ	-2457
▁нарушения	-2458
▁информацию	-2459
▁информация	-2460
▁татарстана	-2461
▁обеспечения	-2462
▁представители	-2463
▁строительства	-2464
ot	-2465
ссе	-2466
той	-2467
тон	-2468
чью	-2469
щую	-2470
▁ге	-2471
▁жа	-2472
бань	-2473
бран	-2474
ваку	-2475
виду	-2476
слав	-2477
того	-2478
▁вра	-2479
▁нач	-2480
▁обы	-2481
▁пет	-2482
▁сту	-2483
нении	-2484
▁архи	-2485
▁вече	-2486
▁кана	-2487
▁мира	-2488
▁миро	-2489
▁моби	-2490
▁охра	-2491
▁реши	-2492
▁цены	-2493
руется	-2494
▁винов	-2495
▁одной	-2496
▁отдел	-2497
▁эваку	-2498
▁катего	-2499
▁связан	-2500
тельстве	-2501
▁медицин	-2502
▁совмест	-2503
▁водитель	-2504
▁животных	-2505
▁некоторы	-2506
▁работает	-2507
▁работают	-2508
▁депутатов	-2509
▁директора	-2510
▁имущества	-2511
▁частности	-2512
▁сотрудниче	-2513
▁иностранных	-2514
et	-2515
яр	-2516
вят	-2517
джи	-2518
жит	-2519
рыв	-2520
яче	-2521
бора	-2522
выми	-2523
дний	-2524
езда	-2525
емый	-2526
жные	-2527
сток	-2528
ффек	-2529
▁диа	-2530
▁исп	-2531
▁ква	-2532
▁клу	-2533
▁ору	-2534
▁юри	-2535
шению	-2536
▁вяче	-2537
▁газа	-2538
▁одно	-2539
вченко	-2540
ждении	-2541
телями	-2542
▁демон	-2543
▁особо	-2544
▁радио	-2545
▁чемпи	-2546
видуаль	-2547
еренции	-2548
▁бывший	-2549
▁заксоб	-2550
▁обязан	-2551
▁пример	-2552
▁режима	-2553
▁северо	-2554
▁новости	-2555
▁объедин	-2556
▁задержан	-2557
▁министра	-2558
▁принадле	-2559
▁авиакомпа	-2560
▁следствие	-2561
▁екатеринбур	-2562
▁индивидуаль	-2563
▁происшествия	-2564
эк	-2565
бри	-2566
дия	-2567
кая	-2568
луа	-2569
пец	-2570
цов	-2571
чик	-2572
яна	-2573
▁ис	-2574
ктов	-2575
тный	-2576
форм	-2577
хода	-2578
ющее	-2579
▁кру	-2580
▁лег	-2581
▁сет	-2582
▁тай	-2583
доров	-2584
комму	-2585
нском	-2586
ровки	-2587
▁выру	-2588
▁изъя	-2589
▁край	-2590
▁нато	-2591
▁недо	-2592
▁опла	-2593
▁стол	-2594
▁стре	-2595
зовать	-2596
▁воору	-2597
▁жилых	-2598
▁комму	-2599
▁людей	-2600
▁метал	-2601
▁прием	-2602
▁реали	-2603
▁рынок	-2604
▁труда	-2605
▁тысяч	-2606
▁чинов	-2607
▁шесть	-2608
▁эффек	-2609
▁автобу	-2610
▁кварти	-2611
▁месяца	-2612
▁провед	-2613
▁продли	-2614
▁прокуро	-2615
секретарь	-2616
▁акватори	-2617
▁дональда	-2618
▁площадью	-2619
▁предупре	-2620
▁ситуация	-2621
▁утвержда	-2622
▁владимира	-2623
▁обнаружили	-2624
▁показатель	-2625
▁расположен	-2626
▁республике	-2627
▁предложения	-2628
▁екатеринбурга	-2629
из	-2630
шу	-2631
one	-2632
гна	-2633
жал	-2634
кое	-2635
лях	-2636
мом	-2637
рее	-2638
сад	-2639
чки	-2640
шед	-2641
▁цб	-2642
декс	-2643
лета	-2644
нной	-2645
ссия	-2646
телю	-2647
тики	-2648
▁бое	-2649
▁оте	-2650
▁риа	-2651
льная	-2652
ником	-2653
▁внут	-2654
▁выда	-2655
▁годы	-2656
▁мень	-2657
▁поми	-2658
▁прав	-2659
▁тонн	-2660
▁волго	-2661
▁жизни	-2662
▁завод	-2663
▁липец	-2664
▁нужно	-2665
▁столи	-2666
▁торго	-2667
▁харак	-2668
▁часов	-2669
▁штраф	-2670
рование	-2671
▁компен	-2672
▁продаж	-2673
▁рабочи	-2674
▁внутрен	-2675
▁госпожа	-2676
▁курорта	-2677
▁мужчина	-2678
▁приобре	-2679
▁техники	-2680
петербург	-2681
▁документа	-2682
▁муниципали	-2683
▁автомобилей	-2684
▁оперативный	-2685
ang	-2686
деж	-2687
кса	-2688
мым	-2689
тил	-2690
тку	-2691
цен	-2692
дним	-2693
емых	-2694
енно	-2695
лайн	-2696
тера	-2697
урал	-2698
▁арм	-2699
▁боб	-2700
▁вза	-2701
▁жур	-2702
▁нем	-2703
▁ниж	-2704
▁сви	-2705
▁фут	-2706
▁бесп	-2707
▁изда	-2708
▁лиде	-2709
▁несо	-2710
▁обно	-2711
▁спор	-2712
▁домаш	-2713
▁жилья	-2714
▁казах	-2715
▁сказа	-2716
▁турни	-2717
▁хозяй	-2718
▁дороги	-2719
▁избира	-2720
▁партии	-2721
▁помощь	-2722
▁пробле	-2723
▁атомной	-2724
▁жителям	-2725
▁популяр	-2726
▁преступ	-2727
▁рекомен	-2728
▁содержа	-2729
▁установ	-2730
▁эксплуа	-2731
▁местного	-2732
▁подготов	-2733
▁ситуации	-2734
▁изменения	-2735
▁планируют	-2736
▁возбуждено	-2737
▁учреждения	-2738
▁безэкипажных	-2739
▁производство	-2740
oy	-2741
ru	-2742
тп	-2743
жай	-2744
лок	-2745
мые	-2746
▁шо	-2747
влен	-2748
вшей	-2749
▁май	-2750
▁воло	-2751
▁гото	-2752
▁лица	-2753
▁орен	-2754
▁ночью	-2755
▁отмен	-2756
▁соблю	-2757
▁спрос	-2758
▁стаби	-2759
▁услуг	-2760
▁цифро	-2761
▁артеми	-2762
▁гостей	-2763
▁заболе	-2764
▁михаил	-2765
▁назвал	-2766
▁обстоя	-2767
▁пожара	-2768
▁станет	-2769
тельству	-2770
▁времени	-2771
▁госдумы	-2772
▁первого	-2773
▁ребенка	-2774
▁туристи	-2775
▁инициати	-2776
▁использу	-2777
▁получить	-2778
▁туристов	-2779
▁удмуртии	-2780
▁произошло	-2781
▁восстановл	-2782
▁требований	-2783
▁уголовного	-2784
.-	-2785
he	-2786
вш	-2787
вар	-2788
вно	-2789
дно	-2790
рот	-2791
тый	-2792
▁ху	-2793
няет	-2794
▁взя	-2795
▁кос	-2796
▁лиш	-2797
▁ман	-2798
▁пво	-2799
▁ран	-2800
главы	-2801
▁взят	-2802
▁роса	-2803
▁силу	-2804
▁стру	-2805
▁ядер	-2806
женных	-2807
▁возго	-2808
▁отсут	-2809
▁плате	-2810
▁стату	-2811
▁форма	-2812
▁введен	-2813
▁второй	-2814
▁зарпла	-2815
▁лавров	-2816
▁органы	-2817
▁отдель	-2818
▁помощи	-2819
▁потреб	-2820
▁систем	-2821
▁встречи	-2822
▁заявили	-2823
▁квартир	-2824
▁написал	-2825
▁пояснил	-2826
▁пройдет	-2827
▁руковод	-2828
▁конструк	-2829
▁проектов	-2830
▁комплекса	-2831
▁областной	-2832
▁представл	-2833
▁программы	-2834
▁специалисты	-2835
дил	-2836
лев	-2837
эта	-2838
▁ву	-2839
▁иг	-2840
стом	-2841
▁бар	-2842
▁нью	-2843
дирек	-2844
канал	-2845
нется	-2846
▁дени	-2847
▁льго	-2848
▁наза	-2849
▁речь	-2850
▁тать	-2851
▁шума	-2852
йского	-2853
▁исклю	-2854
▁молда	-2855
▁пресе	-2856
▁спаса	-2857
▁белору	-2858
▁больше	-2859
▁динами	-2860
▁единиц	-2861
▁истори	-2862
▁приори	-2863
▁тамбов	-2864
▁угроза	-2865
▁услуги	-2866
ствовали	-2867
▁алексея	-2868
▁площади	-2869
▁черного	-2870
▁движения	-2871
▁позволит	-2872
▁получила	-2873
▁пользова	-2874
▁имущество	-2875
▁планирует	-2876
▁готовности	-2877
▁ответственности	-2878
ad	-2879
нд	-2880
тр	-2881
бро	-2882
док	-2883
лье	-2884
рам	-2885
тых	-2886
▁ес	-2887
влял	-2888
горо	-2889
нику	-2890
пред	-2891
стью	-2892
треб	-2893
ятся	-2894
▁кад	-2895
▁сте	-2896
лении	-2897
▁верх	-2898
▁вину	-2899
▁води	-2900
▁июне	-2901
▁мину	-2902
▁спра	-2903
жением	-2904
тивных	-2905
▁запла	-2906
▁затем	-2907
▁оружи	-2908
▁приро	-2909
▁самар	-2910
▁своих	-2911
▁сигна	-2912
▁случи	-2913
▁сумма	-2914
▁футбо	-2915
▁целом	-2916
▁экспо	-2917
▁аварий	-2918
▁общего	-2919
▁стране	-2920
▁страхо	-2921
станавли	-2922
▁артемий	-2923
▁вечером	-2924
▁журнали	-2925
▁приняли	-2926
▁принято	-2927
▁самолет	-2928
▁структу	-2929
▁четырех	-2930
▁шуматов	-2931
▁культуры	-2932
▁политики	-2933
▁фигурант	-2934
▁эксперты	-2935
▁мошенниче	-2936
▁подозрева	-2937
▁постановл	-2938
▁александра	-2939
▁документов	-2940
▁рассказали	-2941
▁татарстане	-2942
▁транспорта	-2943
▁федерального	-2944
as	-2945
ио	-2946
лн	-2947
сф	-2948
гом	-2949
йор	-2950
пли	-2951
сок	-2952
чат	-2953
▁жк	-2954
вило	-2955
енко	-2956
жать	-2957
мена	-2958
риан	-2959
рить	-2960
▁гри	-2961
▁дтп	-2962
графи	-2963
тания	-2964
▁ауди	-2965
▁двое	-2966
▁краю	-2967
▁осво	-2968
▁раск	-2969
▁серь	-2970
▁сове	-2971
никами	-2972
нодоро	-2973
рабаты	-2974
▁кажды	-2975
▁профи	-2976
▁рубио	-2977
зирован	-2978
ционной	-2979
▁вместо	-2980
▁жители	-2981
▁здоров	-2982
▁избран	-2983
▁капита	-2984
▁онлайн	-2985
▁размер	-2986
▁ставки	-2987
▁украин	-2988
▁аэропорт	-2989
▁компенса	-2990
▁агентства	-2991
▁инициатив	-2992
▁экономики	-2993
▁эксплуата	-2994
▁размещения	-2995
▁заместителя	-2996
▁предприятий	-2997
▁исследования	-2998
▁недвижимости	-2999
▁нижегородской	-3000
▁новороссийска	-3001
ig	-3002
фу	-3003
зки	-3004
лад	-3005
рко	-3006
ктор	-3007
новь	-3008
рили	-3009
сить	-3010
▁ann	-3011
▁неу	-3012
▁тен	-3013
жений	-3014
ковал	-3015
чений	-3016
▁влия	-3017
▁впер	-3018
▁сбор	-3019
▁свое	-3020
▁семи	-3021
▁спек	-3022
▁трав	-3023
▁функ	-3024
продук	-3025
статоч	-3026
▁вновь	-3027
▁вошли	-3028
▁закуп	-3029
▁реаль	-3030
▁ресур	-3031
▁таким	-3032
▁утром	-3033
рованию	-3034
смотрен	-3035
тельное	-3036
тельств	-3037
▁ближай	-3038
▁инстру	-3039
▁наказа	-3040
▁пользу	-3041
▁ремонт	-3042
▁экстре	-3043
градской	-3044
▁вопросы	-3045
▁впервые	-3046
▁евгений	-3047
▁институ	-3048
▁которое	-3049
▁обороны	-3050
▁процеду	-3051
▁техниче	-3052
▁удалось	-3053
▁уровень	-3054
▁экологи	-3055
▁больницу	-3056
▁операции	-3057
▁приговор	-3058
▁регионах	-3059
▁госпитали	-3060
▁документы	-3061
▁пермского	-3062
▁позволяет	-3063
▁предоставл	-3064
▁железнодоро	-3065
▁министерства	-3066
▁предусмотрен	-3067
▁специалистов	-3068
▁университета	-3069
▁расследование	-3070
▁правоохранитель	-3071
os	-3072
ph	-3073
us	-3074
вез	-3075
вел	-3076
дой	-3077
пок	-3078
раи	-3079
рую	-3080
тое	-3081
дыха	-3082
личи	-3083
пром	-3084
шает	-3085
▁аль	-3086
▁еже	-3087
▁зло	-3088
▁мор	-3089
нитар	-3090
чению	-3091
▁вице	-3092
▁крем	-3093
▁роди	-3094
▁башки	-3095
▁израи	-3096
▁инжен	-3097
▁искус	-3098
▁назад	-3099
экономи	-3100
▁благоу	-3101
▁защиты	-3102
▁помимо	-3103
▁проком	-3104
▁серьез	-3105
▁состав	-3106
▁спокой	-3107
▁колонии	-3108
▁ликвида	-3109
▁составе	-3110
▁участок	-3111
▁франции	-3112
▁контракт	-3113
▁остается	-3114
▁проверка	-3115
▁снижение	-3116
▁должности	-3117
▁находятся	-3118
▁публичное	-3119
▁пресечения	-3120
▁социальных	-3121
▁направления	-3122
▁прокомменти	-3123
▁многоквартир	-3124
it	-3125
рю	-3126
вью	-3127
еха	-3128
кер	-3129
лка	-3130
сор	-3131
суд	-3132
щим	-3133
▁su	-3134
года	-3135
даря	-3136
мень	-3137
пере	-3138
рной	-3139
слов	-3140
▁сил	-3141
▁сче	-3142
▁что	-3143
гской	-3144
прово	-3145
телям	-3146
щений	-3147
▁wang	-3148
▁всем	-3149
▁газе	-3150
▁госс	-3151
▁сама	-3152
▁сдел	-3153
▁сена	-3154
▁трен	-3155
ждений	-3156
жности	-3157
перату	-3158
▁арест	-3159
▁атаке	-3160
▁избра	-3161
▁имени	-3162
▁массо	-3163
▁призы	-3164
▁собра	-3165
▁успеш	-3166
▁фонда	-3167
ровании	-3168
ционных	-3169
▁mercur	-3170
▁август	-3171
▁достиг	-3172
▁зданий	-3173
▁казани	-3174
▁неделе	-3175
▁театра	-3176
▁центре	-3177
▁январе	-3178
ционного	-3179
▁встреча	-3180
▁департа	-3181
▁корпора	-3182
▁наблюда	-3183
▁продажи	-3184
▁проспек	-3185
▁россиян	-3186
▁согласо	-3187
▁интервью	-3188
▁краснояр	-3189
▁стратеги	-3190
▁помещения	-3191
▁сохранять	-3192
▁сообщалось	-3193
▁организация	-3194
▁профессиона	-3195
▁промышленности	-3196
ed	-3197
is	-3198
жо	-3199
оте	-3200
ъек	-3201
ыду	-3202
дной	-3203
нина	-3204
обла	-3205
обно	-3206
рина	-3207
рово	-3208
рори	-3209
спри	-3210
стет	-3211
▁гро	-3212
▁лен	-3213
▁мно	-3214
▁пои	-3215
емого	-3216
енные	-3217
охран	-3218
▁веду	-3219
▁жела	-3220
▁лета	-3221
▁начи	-3222
▁одоб	-3223
▁трлн	-3224
▁хода	-3225
должен	-3226
шенных	-3227
▁запро	-3228
▁насле	-3229
▁пенси	-3230
▁перво	-3231
▁попро	-3232
▁семей	-3233
▁шести	-3234
▁школы	-3235
▁аренды	-3236
▁военно	-3237
▁голосо	-3238
▁дефици	-3239
▁закона	-3240
▁армении	-3241
▁военной	-3242
▁декабря	-3243
▁заплани	-3244
▁комитет	-3245
▁полиции	-3246
▁предыду	-3247
▁ранения	-3248
▁задолжен	-3249
▁замглавы	-3250
▁занимает	-3251
▁комиссии	-3252
▁напомним	-3253
▁привлека	-3254
▁работать	-3255
▁чемпиона	-3256
▁эффектив	-3257
▁благодаря	-3258
▁заявление	-3259
▁кравченко	-3260
▁температу	-3261
▁пассажиров	-3262
▁аналогичный	-3263
▁подробности	-3264
▁руководитель	-3265
▁инфраструктуры	-3266
ll	-3267
ху	-3268
щу	-3269
бло	-3270
лам	-3271
мый	-3272
нул	-3273
сят	-3274
▁съ	-3275
коми	-3276
ложи	-3277
нила	-3278
сные	-3279
тому	-3280
▁выс	-3281
▁дра	-3282
▁жкх	-3283
▁зву	-3284
▁луч	-3285
▁убе	-3286
льную	-3287
мотре	-3288
▁запи	-3289
▁злоу	-3290
▁имен	-3291
▁иска	-3292
▁либо	-3293
▁пору	-3294
▁смер	-3295
▁урал	-3296
▁фонд	-3297
▁чаще	-3298
▁этим	-3299
дствен	-3300
коммун	-3301
ностей	-3302
смотря	-3303
▁восто	-3304
▁гелен	-3305
▁отече	-3306
▁подоб	-3307
▁рядом	-3308
▁субси	-3309
надзора	-3310
тельная	-3311
▁банкро	-3312
▁беспла	-3313
▁дронов	-3314
▁испыта	-3315
▁меньше	-3316
▁мнению	-3317
▁округе	-3318
▁победи	-3319
▁покупа	-3320
▁россию	-3321
▁mercury	-3322
▁действу	-3323
▁консуль	-3324
▁оренбур	-3325
▁отрасли	-3326
▁подписа	-3327
▁подрост	-3328
▁потреби	-3329
▁саратов	-3330
▁среднем	-3331
▁вячеслав	-3332
▁геленджи	-3333
▁гендирек	-3334
▁несмотря	-3335
▁проходит	-3336
▁сентябре	-3337
▁современ	-3338
▁экстреми	-3339
петербурга	-3340
▁источники	-3341
▁облкоммун	-3342
▁краснодара	-3343
▁осуществля	-3344
▁повреждены	-3345
▁представля	-3346
▁публикации	-3347
▁образования	-3348
▁министерство	-3349
▁муниципалитета	-3350
▁облкоммунэнерго	-3351
at	-3352
co	-3353
ou	-3354
дж	-3355
вол	-3356
кто	-3357
нец	-3358
ноз	-3359
син	-3360
фим	-3361
цио	-3362
▁кг	-3363
вшим	-3364
горь	-3365
гото	-3366
деле	-3367
мого	-3368
чено	-3369
▁выз	-3370
▁дво	-3371
▁ндс	-3372
▁оле	-3373
▁сда	-3374
▁сег	-3375
▁сня	-3376
весто	-3377
зации	-3378
▁авак	-3379
▁бере	-3380
▁газо	-3381
▁золо	-3382
▁импо	-3383
▁коап	-3384
▁логи	-3385
▁экст	-3386
▁этих	-3387
льными	-3388
работа	-3389
шением	-3390
▁ввели	-3391
▁вводи	-3392
▁годах	-3393
▁одним	-3394
▁оформ	-3395
▁персо	-3396
▁поста	-3397
▁потен	-3398
▁своей	-3399
ставили	-3400
ционный	-3401
▁архите	-3402
▁взятки	-3403
▁неделю	-3404
▁уровня	-3405
▁учетом	-3406
▁эвакуи	-3407
▁допусти	-3408
▁инвесто	-3409
▁котором	-3410
▁полиция	-3411
▁призвал	-3412
▁распоря	-3413
▁региону	-3414
▁участке	-3415
▁депутата	-3416
▁документ	-3417
▁долгосро	-3418
▁должност	-3419
▁контроль	-3420
▁основной	-3421
▁передает	-3422
▁подписал	-3423
▁создание	-3424
▁воздушных	-3425
▁настоящее	-3426
▁госпитализи	-3427
▁исполнитель	-3428
▁предложение	-3429
▁международного	-3430
▁обстоятельства	-3431
еди	-3432
обе	-3433
под	-3434
спа	-3435
тии	-3436
фин	-3437
цей	-3438
▁ат	-3439
верг	-3440
гого	-3441
емой	-3442
запа	-3443
пове	-3444
рана	-3445
рный	-3446
част	-3447
▁дли	-3448
▁ого	-3449
▁оль	-3450
▁поэ	-3451
банка	-3452
менте	-3453
тного	-3454
щению	-3455
▁един	-3456
▁коор	-3457
▁утра	-3458
▁физи	-3459
▁хоро	-3460
▁андре	-3461
▁дипло	-3462
▁заявл	-3463
▁имеет	-3464
▁карто	-3465
▁клиен	-3466
▁метро	-3467
▁покуп	-3468
▁сирен	-3469
▁сторо	-3470
▁таких	-3471
▁трудо	-3472
▁усили	-3473
▁числа	-3474
станции	-3475
▁аресто	-3476
▁девело	-3477
▁единой	-3478
▁объект	-3479
▁освобо	-3480
▁постро	-3481
▁принял	-3482
▁провод	-3483
▁просто	-3484
▁угрозы	-3485
▁ущерба	-3486
ственный	-3487
▁дальней	-3488
▁заявила	-3489
▁интерне	-3490
▁объекта	-3491
▁получен	-3492
▁порядка	-3493
▁работал	-3494
▁станции	-3495
▁террори	-3496
▁феврале	-3497
▁экстрен	-3498
▁вопросам	-3499
▁остаются	-3500
▁покинуть	-3501
▁поставки	-3502
▁поставщи	-3503
▁поступило	-3504
▁сообщение	-3505
▁беспилотных	-3506
▁благоустрой	-3507
▁конференции	-3508
▁мероприятий	-3509
▁челябинской	-3510
▁краснодарском	-3511
ie	-3512
бк	-3513
вто	-3514
дем	-3515
лью	-3516
мум	-3517
сах	-3518
горе	-3519
жную	-3520
прав	-3521
стры	-3522
тная	-3523
чная	-3524
щено	-3525
▁the	-3526
▁сою	-3527
нской	-3528
шенно	-3529
▁ассо	-3530
▁атак	-3531
▁бори	-3532
▁вели	-3533
▁дизе	-3534
▁иноа	-3535
▁коро	-3536
▁лишь	-3537
▁попы	-3538
▁пыта	-3539
▁селе	-3540
▁уфсб	-3541
▁учеб	-3542
▁лидер	-3543
▁марко	-3544
▁марте	-3545
▁резер	-3546
▁свиде	-3547
▁состо	-3548
▁активы	-3549
▁вариан	-3550
▁именно	-3551
▁отдыха	-3552
▁первой	-3553
▁подраз	-3554
▁режиме	-3555
▁созыва	-3556
▁устран	-3557
ктически	-3558
▁констан	-3559
▁крупных	-3560
▁октябре	-3561
▁подгото	-3562
▁позиции	-3563
▁приводи	-3564
▁росавиа	-3565
▁систему	-3566
▁считают	-3567
▁уточнил	-3568
▁виновным	-3569
▁отмечает	-3570
▁прогнози	-3571
▁действует	-3572
▁кандидату	-3573
▁контракта	-3574
▁поддержку	-3575
▁последний	-3576
▁самарской	-3577
▁автомобиля	-3578
▁материалов	-3579
▁надзорного	-3580
▁проведения	-3581
▁российский	-3582
▁сообщается	-3583
▁ограничений	-3584
▁предприятие	-3585
▁удовлетвори	-3586
▁генассамблеи	-3587
▁оборудования	-3588
▁пространства	-3589
ат	-3590
▁y	-3591
вии	-3592
дий	-3593
ким	-3594
кре	-3595
лер	-3596
мин	-3597
нюю	-3598
пру	-3599
тех	-3600
▁ии	-3601
▁уг	-3602
▁чт	-3603
ваны	-3604
деми	-3605
мене	-3606
нный	-3607
опар	-3608
стин	-3609
тика	-3610
тном	-3611
цкий	-3612
▁вок	-3613
▁ива	-3614
▁рбк	-3615
▁све	-3616
▁эфи	-3617
дерни	-3618
креди	-3619
никам	-3620
ологи	-3621
опера	-3622
▁адре	-3623
▁годо	-3624
▁жало	-3625
▁жили	-3626
▁здра	-3627
▁крым	-3628
▁памя	-3629
▁сала	-3630
▁степ	-3631
▁укры	-3632
▁юрий	-3633
блиоте	-3634
вающих	-3635
▁взрыв	-3636
▁огонь	-3637
▁посвя	-3638
▁фести	-3639
тельную	-3640
▁дохода	-3641
▁запрет	-3642
▁заявки	-3643
▁каждый	-3644
▁минима	-3645
▁неболь	-3646
▁отдела	-3647
▁полови	-3648
▁понима	-3649
▁предъя	-3650
▁рейсов	-3651
▁спорта	-3652
▁аэропор	-3653
▁большин	-3654
▁клиниче	-3655
▁платфор	-3656
▁помощью	-3657
▁поэтому	-3658
▁районах	-3659
▁расходы	-3660
▁спектак	-3661
▁стандар	-3662
▁участка	-3663
▁библиоте	-3664
▁инцидент	-3665
▁отмечают	-3666
▁примерно	-3667
▁самолеты	-3668
▁составля	-3669
▁условиях	-3670
▁агентство	-3671
▁находился	-3672
▁устанавли	-3673
▁заключения	-3674
▁крупнейших	-3675
▁нескольких	-3676
▁увеличился	-3677
▁возможности	-3678
▁заксобрания	-3679
▁культурного	-3680
▁обязанности	-3681
▁президентом	-3682
▁генассамблее	-3683
▁использовать	-3684
▁соответственно	-3685
▁экономического	-3686
ав	-3687
вен	-3688
лах	-3689
мут	-3690
сво	-3691
сер	-3692
щал	-3693
щей	-3694
грал	-3695
зили	-3696
тили	-3697
▁(-<	-3698
▁вен	-3699
▁зай	-3700
▁сбе	-3701
▁ска	-3702
ктора	-3703
рению	-3704
рский	-3705
тиков	-3706
туаль	-3707
▁дове	-3708
▁заку	-3709
▁игро	-3710
▁кали	-3711
▁мето	-3712
▁мэра	-3713
▁путе	-3714
▁свой	-3715
кубань	-3716
ноземь	-3717
правки	-3718
ровала	-3719
ческая	-3720
▁грузо	-3721
▁дерев	-3722
▁корпу	-3723
▁корре	-3724
▁ленин	-3725
▁нанес	-3726
▁нефти	-3727
▁новой	-3728
▁позже	-3729
▁прило	-3730
▁прошу	-3731
▁пункт	-3732
▁рекон	-3733
▁служб	-3734
▁супру	-3735
▁тради	-3736
▁филиа	-3737
воохран	-3738
спекции	-3739
▁верхов	-3740
▁выборы	-3741
▁главой	-3742
▁девять	-3743
▁зависи	-3744
▁завода	-3745
▁клиент	-3746
▁основа	-3747
▁первым	-3748
▁полуго	-3749
▁постоя	-3750
▁природ	-3751
▁прошел	-3752
▁регион	-3753
▁регуля	-3754
▁сергея	-3755
▁список	-3756
▁спроса	-3757
▁январь	-3758
казывает	-3759
новремен	-3760
▁активов	-3761
▁ассоциа	-3762
▁выручка	-3763
▁исполня	-3764
▁которую	-3765
▁крупном	-3766
▁ликвиди	-3767
▁образом	-3768
▁органов	-3769
▁перевоз	-3770
▁получат	-3771
▁потребо	-3772
▁провели	-3773
▁проекты	-3774
▁согласи	-3775
▁средней	-3776
▁временно	-3777
▁наследия	-3778
▁периодом	-3779
▁проведен	-3780
▁рассчиты	-3781
▁сведения	-3782
▁сообщило	-3783
▁нарушение	-3784
▁объединен	-3785
▁повышение	-3786
▁поддержки	-3787
▁стоимости	-3788
▁теплоснаб	-3789
▁городского	-3790
▁обеспечить	-3791
▁распростра	-3792
▁реализации	-3793
▁результаты	-3794
▁стоимостью	-3795
▁устройства	-3796
▁здравоохран	-3797
▁региональном	-3798
▁екатеринбурге	-3799
▁генпрокуратуры	-3800
▁представителей	-3801
▁предприниматель	-3802
ma	-3803
om	-3804
дь	-3805
нр	-3806
хл	-3807
зии	-3808
чис	-3809
авгу	-3810
мати	-3811
нные	-3812
поте	-3813
рных	-3814
сила	-3815
сных	-3816
циям	-3817
шать	-3818
▁вну	-3819
▁мае	-3820
▁поч	-3821
драть	-3822
лений	-3823
может	-3824
пуска	-3825
сного	-3826
▁борь	-3827
▁пала	-3828
▁пеше	-3829
▁поте	-3830
▁силы	-3831
▁увер	-3832
ковали	-3833
пления	-3834
службы	-3835
стойчи	-3836
тивные	-3837
▁акций	-3838
▁аэрод	-3839
▁второ	-3840
▁вынес	-3841
▁госсо	-3842
▁двига	-3843
▁жилищ	-3844
▁инфля	-3845
▁общая	-3846
▁парти	-3847
▁патри	-3848
▁перми	-3849
▁плани	-3850
▁появи	-3851
▁скоро	-3852
▁суммы	-3853
▁школь	-3854
тельном	-3855
▁ввести	-3856
▁взаимо	-3857
▁высоко	-3858
▁ежегод	-3859
▁зоопар	-3860
▁отмени	-3861
▁посети	-3862
▁прошли	-3863
▁салава	-3864
▁стражу	-3865
▁форуме	-3866
зоваться	-3867
▁встрети	-3868
▁говорил	-3869
▁доходов	-3870
▁ленобла	-3871
▁модерни	-3872
▁обсужда	-3873
▁объекты	-3874
▁отправи	-3875
▁полетов	-3876
▁порядке	-3877
▁приняла	-3878
▁случаев	-3879
▁устойчи	-3880
▁башкирии	-3881
▁достаточ	-3882
▁возбудили	-3883
▁населения	-3884
▁отношения	-3885
▁татарстан	-3886
▁участники	-3887
▁автомобили	-3888
▁направлены	-3889
▁начальника	-3890
▁отмечается	-3891
▁полномочий	-3892
▁мероприятия	-3893
▁последствия	-3894
▁регистраций	-3895
▁следователи	-3896
▁спокойствие	-3897
▁увеличилось	-3898
▁преступления	-3899
▁соответствии	-3900
▁новосибирской	-3901
▁правительстве	-3902
▁следственного	-3903
тб	-3904
ых	-3905
эс	-3906
зай	-3907
лля	-3908
лые	-3909
сит	-3910
тая	-3911
хан	-3912
цам	-3913
шев	-3914
шла	-3915
эль	-3916
▁сф	-3917
банк	-3918
днее	-3919
дону	-3920
лете	-3921
стам	-3922
торе	-3923
фсою	-3924
чную	-3925
шили	-3926
▁ste	-3927
▁аук	-3928
▁бро	-3929
▁гло	-3930
▁най	-3931
▁пав	-3932
▁спб	-3933
▁ура	-3934
▁эпи	-3935
ванию	-3936
седни	-3937
▁внед	-3938
▁июня	-3939
▁преж	-3940
▁сбер	-3941
▁туап	-3942
сматри	-3943
ходить	-3944
▁акции	-3945
▁вакан	-3946
▁вылет	-3947
▁вырос	-3948
▁ипоте	-3949
▁манда	-3950
▁могли	-3951
▁произ	-3952
▁прось	-3953
▁расти	-3954
▁росто	-3955
▁юриди	-3956
министр	-3957
▁надзор	-3958
▁объеме	-3959
▁положи	-3960
▁помога	-3961
▁правам	-3962
▁пункта	-3963
▁сообще	-3964
▁соцсет	-3965
▁субъек	-3966
▁торгов	-3967
▁францу	-3968
▁яндекс	-3969
вершенно	-3970
ственные	-3971
▁возобно	-3972
▁выросла	-3973
▁городов	-3974
▁евросою	-3975
▁занимал	-3976
▁интерфа	-3977
▁последу	-3978
▁профсою	-3979
▁пунктов	-3980
▁регуляр	-3981
▁санкций	-3982
▁сервиса	-3983
▁средняя	-3984
▁татьяна	-3985
▁фестива	-3986
▁отметила	-3987
▁программ	-3988
▁ситуацию	-3989
▁временные	-3990
▁заседания	-3991
▁корреспон	-3992
▁материалы	-3993
▁последние	-3994
▁автомобиль	-3995
▁директоров	-3996
▁полномочия	-3997
▁работников	-3998
▁экстремист	-3999
▁повреждения	-4000
▁несовершенно	-4001
▁рассмотрение	-4002
▁использование	-4003
▁председателем	-4004
ac	-4005
ah	-4006
ii	-4007
их	-4008
кар	-4009
кую	-4010
луч	-4011
прф	-4012
тур	-4013
фон	-4014
▁st	-4015
▁вд	-4016
edes	-4017
вало	-4018
днев	-4019
жены	-4020
жном	-4021
кобы	-4022
лети	-4023
фика	-4024
хани	-4025
щена	-4026
▁бой	-4027
▁куб	-4028
▁нам	-4029
▁пан	-4030
▁рее	-4031
▁сим	-4032
▁фир	-4033
▁эле	-4034
дного	-4035
енный	-4036
йорке	-4037
ходил	-4038
ходов	-4039
▁базе	-4040
▁круг	-4041
▁матч	-4042
▁неиз	-4043
▁опыт	-4044
▁отве	-4045
▁отка	-4046
▁свет	-4047
▁сило	-4048
▁тамо	-4049
▁улуч	-4050
▁умер	-4051
▁фрак	-4052
▁артем	-4053
▁горду	-4054
▁едино	-4055
▁замед	-4056
▁занял	-4057
▁итоге	-4058
▁комна	-4059
▁конфи	-4060
▁нашли	-4061
▁преми	-4062
▁рейсы	-4063
▁спорт	-4064
▁сразу	-4065
▁судей	-4066
▁ураль	-4067
лизации	-4068
строить	-4069
тивного	-4070
▁восьми	-4071
▁госсек	-4072
▁изгото	-4073
▁кварта	-4074
▁максим	-4075
▁первые	-4076
▁перебо	-4077
▁прошла	-4078
▁респон	-4079
▁смогут	-4080
ственным	-4081
▁боброва	-4082
▁вступил	-4083
▁инциден	-4084
▁картоте	-4085
▁команда	-4086
▁очередь	-4087
▁портале	-4088
▁прибыли	-4089
▁решению	-4090
▁связано	-4091
▁участия	-4092
▁mercedes	-4093
▁кондрать	-4094
▁которому	-4095
▁поддержи	-4096
▁провести	-4097
▁развитию	-4098
▁северной	-4099
▁совершен	-4100
▁соцсетях	-4101
▁среднего	-4102
▁назначили	-4103
▁нарушении	-4104
▁объявлена	-4105
▁оказались	-4106
▁превышает	-4107
▁произошед	-4108
▁совместно	-4109
▁возгорания	-4110
▁воздушного	-4111
▁злоумышлен	-4112
▁ленобласти	-4113
▁набережной	-4114
▁областного	-4115
▁продолжают	-4116
▁установили	-4117
▁последствий	-4118
▁деятельность	-4119
▁территориаль	-4120
▁соответствующее	-4121
▁ставропольского	-4122
зм	-4123
ум	-4124
дых	-4125
жев	-4126
тят	-4127
чай	-4128
▁ур	-4129
▁эр	-4130
oyah	-4131
вказ	-4132
влек	-4133
воль	-4134
дать	-4135
един	-4136
жным	-4137
лдин	-4138
лены	-4139
меня	-4140
няют	-4141
сочи	-4142
ссен	-4143
тона	-4144
ходе	-4145
чика	-4146
▁апе	-4147
▁дер	-4148
▁мая	-4149
▁оли	-4150
▁упо	-4151
жению	-4152
ковых	-4153
рание	-4154
служа	-4155
стить	-4156
хозяй	-4157
чески	-4158
чными	-4159
▁анна	-4160
▁воды	-4161
▁ночь	-4162
▁олег	-4163
▁подъ	-4164
▁посо	-4165
▁похи	-4166
▁скон	-4167
▁скры	-4168
▁тари	-4169
▁упол	-4170
▁фоне	-4171
ленных	-4172
руются	-4173
ческое	-4174
чность	-4175
▁voyah	-4176
▁возме	-4177
▁гаран	-4178
▁глоба	-4179
▁годам	-4180
▁елена	-4181
▁каждо	-4182
▁линии	-4183
▁многи	-4184
▁нагру	-4185
▁нарко	-4186
▁одном	-4187
▁памят	-4188
▁самых	-4189
▁семьи	-4190
▁улицы	-4191
▁услов	-4192
▁учены	-4193
▁якобы	-4194
вшегося	-4195
номочен	-4196
▁апелля	-4197
▁возник	-4198
▁втором	-4199
▁доказа	-4200
▁должна	-4201
▁мессен	-4202
▁молоде	-4203
▁москва	-4204
▁напада	-4205
▁отстав	-4206
▁оформи	-4207
▁первую	-4208
▁премии	-4209
▁росрее	-4210
▁сервис	-4211
▁сохран	-4212
▁банкрот	-4213
▁бензина	-4214
▁властей	-4215
▁встрече	-4216
▁договор	-4217
▁октябрь	-4218
▁периода	-4219
▁питания	-4220
▁позднее	-4221
▁товаров	-4222
▁туризма	-4223
▁условия	-4224
▁француз	-4225
▁договора	-4226
▁определи	-4227
▁погибших	-4228
▁сентябрь	-4229
▁уточнили	-4230
▁участков	-4231
▁бизнесмен	-4232
▁консульта	-4233
▁некоторые	-4234
▁ожидается	-4235
▁определен	-4236
▁хозяйства	-4237
▁ликвидации	-4238
▁оперативно	-4239
▁помещениях	-4240
▁реконструк	-4241
▁военнослужа	-4242
▁уполномочен	-4243
▁федеральной	-4244
▁федеральном	-4245
▁авиакомпании	-4246
▁продолжается	-4247
.<	-4248
ca	-4249
им	-4250
▁u	-4251
ini	-4252
бар	-4253
гуп	-4254
дам	-4255
дим	-4256
дро	-4257
жем	-4258
кли	-4259
кор	-4260
рте	-4261
сий	-4262
стя	-4263
шем	-4264
▁le	-4265
▁no	-4266
▁ам	-4267
▁юр	-4268
били	-4269
вока	-4270
жает	-4271
льян	-4272
ремо	-4273
суди	-4274
тным	-4275
чать	-4276
штей	-4277
▁pro	-4278
▁vol	-4279
▁втб	-4280
▁ори	-4281
▁убы	-4282
▁уви	-4283
ведли	-4284
сказы	-4285
щихся	-4286
▁веро	-4287
▁выну	-4288
▁даге	-4289
▁дево	-4290
▁доби	-4291
▁запо	-4292
▁исте	-4293
▁люди	-4294
▁ники	-4295
▁опти	-4296
▁порт	-4297
▁райо	-4298
▁связ	-4299
▁сеть	-4300
▁собы	-4301
▁уско	-4302
▁часа	-4303
пример	-4304
ческим	-4305
▁будем	-4306
▁дании	-4307
▁дизай	-4308
▁затра	-4309
▁каспи	-4310
▁летом	-4311
▁новая	-4312
▁отрас	-4313
▁покры	-4314
ведение	-4315
▁апреля	-4316
▁внутри	-4317
▁газета	-4318
▁готова	-4319
▁группа	-4320
▁десять	-4321
▁измени	-4322
▁изъяли	-4323
▁казань	-4324
▁машины	-4325
▁начали	-4326
▁начина	-4327
▁облада	-4328
▁оборон	-4329
▁оплаты	-4330
▁первое	-4331
▁полага	-4332
▁работо	-4333
▁сезона	-4334
▁форума	-4335
действия	-4336
рованных	-4337
тических	-4338
▁автоном	-4339
▁вернуть	-4340
▁выросло	-4341
▁городах	-4342
▁декабре	-4343
▁команды	-4344
▁полицей	-4345
▁препара	-4346
▁продажу	-4347
▁сказала	-4348
▁сопрово	-4349
▁термина	-4350
▁ходатай	-4351
▁контроли	-4352
▁оказался	-4353
▁основных	-4354
▁особенно	-4355
▁политике	-4356
▁причиной	-4357
▁расходов	-4358
▁самостоя	-4359
▁собрания	-4360
▁текущего	-4361
▁акватории	-4362
▁изменений	-4363
▁наказание	-4364
▁поддержке	-4365
▁инвестиций	-4366
▁переговоры	-4367
▁принадлежа	-4368
▁росреестра	-4369
▁тамбовской	-4370
▁территорию	-4371
▁уточняется	-4372
▁энергетики	-4373
▁действовать	-4374
▁переговоров	-4375
▁саратовской	-4376
▁центральный	-4377
▁администрация	-4378
▁краснодарский	-4379
▁муниципального	-4380
▁здравоохранения	-4381
re	-4382
бай	-4383
гах	-4384
неф	-4385
нта	-4386
рай	-4387
рез	-4388
рят	-4389
чку	-4390
▁сх	-4391
бина	-4392
дила	-4393
емые	-4394
ениа	-4395
жено	-4396
ллек	-4397
нему	-4398
нули	-4399
стая	-4400
стер	-4401
тива	-4402
тран	-4403
▁ано	-4404
▁бир	-4405
▁выи	-4406
▁мак	-4407
▁ней	-4408
вшись	-4409
делец	-4410
редни	-4411
тайте	-4412
товой	-4413
ураль	-4414
▁арти	-4415
▁вуза	-4416
▁зону	-4417
▁мире	-4418
▁непо	-4419
▁номе	-4420
▁пара	-4421
▁план	-4422
▁подс	-4423
▁праз	-4424
▁приш	-4425
▁сизо	-4426
▁соба	-4427
▁трое	-4428
▁федо	-4429
▁чере	-4430
городе	-4431
▁антон	-4432
▁астра	-4433
▁вениа	-4434
▁двумя	-4435
▁знако	-4436
▁машин	-4437
▁медве	-4438
▁общую	-4439
▁отопи	-4440
▁приви	-4441
▁роман	-4442
▁самоу	-4443
▁сроки	-4444
▁сутки	-4445
▁такое	-4446
▁умень	-4447
ставить	-4448
▁апреле	-4449
▁данный	-4450
▁десяти	-4451
▁комфор	-4452
▁недели	-4453
▁оконча	-4454
▁охраны	-4455
▁повтор	-4456
▁своего	-4457
▁собира	-4458
▁статье	-4459
▁высказы	-4460
▁краевой	-4461
▁момента	-4462
▁органах	-4463
▁персона	-4464
▁подверг	-4465
▁приходи	-4466
▁публика	-4467
▁ремонта	-4468
▁столкну	-4469
▁читайте	-4470
▁электри	-4471
▁источник	-4472
▁конкурса	-4473
▁например	-4474
▁поставок	-4475
▁приводит	-4476
▁развитии	-4477
▁гостиница	-4478
▁петербург	-4479
▁предложил	-4480
▁программа	-4481
▁программе	-4482
▁продукцию	-4483
▁рекоменду	-4484
▁сообщения	-4485
▁автоматиче	-4486
▁белоруссии	-4487
▁геленджика	-4488
▁инициативу	-4489
▁оставаться	-4490
▁росавиации	-4491
▁территорий	-4492
▁гендиректор	-4493
▁опубликован	-4494
▁республикан	-4495
▁генерального	-4496
▁производству	-4497
▁респондентов	-4498
▁транспортной	-4499
▁удовлетворил	-4500
▁собственности	-4501
▁сотрудничества	-4502
fi	-4503
ар	-4504
нс	-4505
рк	-4506
тк	-4507
цо	-4508
ben	-4509
bor	-4510
ent	-4511
вич	-4512
еру	-4513
кло	-4514
мая	-4515
мую	-4516
рги	-4517
рец	-4518
рус	-4519
ссы	-4520
тке	-4521
тым	-4522
хоз	-4523
чем	-4524
▁ai	-4525
▁co	-4526
▁ma	-4527
▁гк	-4528
▁зи	-4529
▁ир	-4530
▁сц	-4531
▁эм	-4532
дных	-4533
ится	-4534
кина	-4535
пить	-4536
пози	-4537
смен	-4538
штаб	-4539
▁аэс	-4540
▁бол	-4541
▁гай	-4542
▁мен	-4543
▁нас	-4544
▁оно	-4545
▁пси	-4546
▁рез	-4547
▁сбо	-4548
▁сла	-4549
▁спу	-4550
имуще	-4551
клады	-4552
назна	-4553
спаса	-4554
списа	-4555
сторо	-4556
чиком	-4557
▁внеш	-4558
▁всей	-4559
▁деле	-4560
▁кара	-4561
▁каса	-4562
▁назы	-4563
▁нега	-4564
▁нена	-4565
▁пово	-4566
▁цели	-4567
кавказ	-4568
провод	-4569
ставки	-4570
стребо	-4571
▁гибри	-4572
▁защит	-4573
▁игорь	-4574
▁кампа	-4575
▁отчет	-4576
▁пообе	-4577
▁прото	-4578
▁рейса	-4579
▁роспо	-4580
▁улица	-4581
▁учиты	-4582
▁форум	-4583
▁этому	-4584
ноземье	-4585
▁артема	-4586
▁готовы	-4587
▁модель	-4588
▁москву	-4589
▁основе	-4590
▁оценки	-4591
▁партне	-4592
▁подклю	-4593
▁присут	-4594
▁просят	-4595
▁сконча	-4596
▁холдин	-4597
▁церемо	-4598
▁чистая	-4599
ставлены	-4600
▁аэродро	-4601
▁большой	-4602
▁выплаты	-4603
▁выпуска	-4604
▁гордумы	-4605
▁запрете	-4606
▁инженер	-4607
▁иноаген	-4608
▁капитал	-4609
▁логисти	-4610
▁падение	-4611
▁партнер	-4612
▁пенсион	-4613
▁привлек	-4614
▁применя	-4615
▁рабочих	-4616
▁расписа	-4617
▁решений	-4618
▁требует	-4619
▁третьем	-4620
правления	-4621
продуктов	-4622
▁восстано	-4623
▁движение	-4624
▁интеллек	-4625
▁комиссия	-4626
▁объявлен	-4627
▁преимуще	-4628
▁процесса	-4629
▁прошунин	-4630
▁работода	-4631
▁родствен	-4632
▁эксперти	-4633
петербурге	-4634
▁безопасно	-4635
▁гостиницы	-4636
▁завершить	-4637
▁заседание	-4638
▁обвинение	-4639
▁отношений	-4640
▁получении	-4641
▁роспотреб	-4642
▁владимиром	-4643
▁временного	-4644
▁опрошенных	-4645
▁показателя	-4646
▁продолжает	-4647
▁соглашение	-4648
▁сокращение	-4649
▁социальной	-4650
▁установлен	-4651
▁чемпионата	-4652
▁кандидатуру	-4653
▁предусматри	-4654
▁сократилось	-4655
▁электроэнер	-4656
▁беспилотники	-4657
▁задолженности	-4658
▁зафиксировано	-4659
▁использования	-4660
▁международном	-4661
▁расследования	-4662
▁использованием	-4663
▁краснодарскому	-4664
▁соответствующий	-4665
gh	-4666
ус	-4667
▁,	-4668
вей	-4669
гор	-4670
дит	-4671
лый	-4672
нга	-4673
нте	-4674
ссу	-4675
чек	-4676
щик	-4677
вани	-4678
волж	-4679
голо	-4680
дило	-4681
золя	-4682
кими	-4683
поли	-4684
рели	-4685
рыва	-4686
сист	-4687
ссов	-4688
тина	-4689
циях	-4690
щать	-4691
▁mar	-4692
▁бай	-4693
▁вид	-4694
▁вся	-4695
▁гон	-4696
▁ени	-4697
▁куп	-4698
▁нов	-4699
▁пря	-4700
▁ряд	-4701
▁сли	-4702
▁хра	-4703
вался	-4704
вании	-4705
влено	-4706
втоин	-4707
дется	-4708
зация	-4709
нений	-4710
нного	-4711
рация	-4712
стами	-4713
щиков	-4714
▁аэро	-4715
▁барс	-4716
▁бума	-4717
▁вале	-4718
▁горя	-4719
▁госа	-4720
▁демо	-4721
▁зоны	-4722
▁игра	-4723
▁кафе	-4724
▁наде	-4725
▁обжа	-4726
▁одну	-4727
▁оско	-4728
▁снаб	-4729
▁типа	-4730
▁укре	-4731
▁филь	-4732
▁чува	-4733
женные	-4734
нилось	-4735
способ	-4736
▁блоки	-4737
▁енисе	-4738
▁заказ	-4739
▁ирана	-4740
▁матче	-4741
▁мэрии	-4742
▁невоз	-4743
▁новым	-4744
▁поезд	-4745
▁протя	-4746
▁срока	-4747
▁фикси	-4748
сприрод	-4749
стройки	-4750
▁авакян	-4751
▁бензин	-4752
▁вступи	-4753
▁входит	-4754
▁группо	-4755
▁издели	-4756
▁олимпи	-4757
▁перево	-4758
▁подоро	-4759
▁потеря	-4760
▁раскры	-4761
▁регули	-4762
▁сформи	-4763
▁членов	-4764
▁чтении	-4765
▁военных	-4766
▁выделен	-4767
▁выступи	-4768
▁выявили	-4769
▁газпром	-4770
▁женщины	-4771
▁израиль	-4772
▁которым	-4773
▁кредито	-4774
▁минимум	-4775
▁наиболь	-4776
▁столицы	-4777
▁тяжелом	-4778
▁тяжести	-4779
▁условий	-4780
▁больницы	-4781
▁возрасте	-4782
▁востребо	-4783
▁достигла	-4784
▁ключевой	-4785
▁ключевым	-4786
▁коммента	-4787
▁конкурен	-4788
▁назначил	-4789
▁поправки	-4790
▁посредни	-4791
▁проблемы	-4792
▁существу	-4793
▁выступает	-4794
▁госавтоин	-4795
▁обратился	-4796
▁поврежден	-4797
▁получения	-4798
▁предназна	-4799
▁росприрод	-4800
▁самолетов	-4801
▁составили	-4802
▁состоится	-4803
▁кандидатов	-4804
▁кондратьев	-4805
▁одновремен	-4806
▁российском	-4807
▁соглашения	-4808
▁финансовой	-4809
▁аналогичным	-4810
▁вооруженных	-4811
▁компенсации	-4812
▁распростран	-4813
▁температура	-4814
▁увеличилась	-4815
▁ярославской	-4816
▁оборудование	-4817
▁оренбургской	-4818
▁следственные	-4819
▁следственный	-4820
▁корреспондент	-4821
▁соответствует	-4822
▁государственной	-4823
▁ответственность	-4824
ch	-4825
lo	-4826
эф	-4827
ota	-4828
вку	-4829
вль	-4830
дпр	-4831
зил	-4832
йте	-4833
кты	-4834
лий	-4835
рию	-4836
шко	-4837
▁ch	-4838
▁gr	-4839
▁мм	-4840
▁оч	-4841
бирь	-4842
енов	-4843
кета	-4844
чего	-4845
чета	-4846
шены	-4847
▁for	-4848
▁iph	-4849
▁lam	-4850
▁vig	-4851
▁бук	-4852
▁изу	-4853
▁кни	-4854
▁низ	-4855
▁оба	-4856
▁ост	-4857
▁пор	-4858
▁фсб	-4859
▁юла	-4860
borgh	-4861
ведом	-4862
вится	-4863
йский	-4864
ковой	-4865
мость	-4866
никах	-4867
ресур	-4868
циями	-4869
▁базо	-4870
▁венг	-4871
▁гибе	-4872
▁добы	-4873
▁дума	-4874
▁заве	-4875
▁заво	-4876
▁запе	-4877
▁зени	-4878
▁ижев	-4879
▁избе	-4880
▁инду	-4881
▁карь	-4882
▁клуб	-4883
▁мага	-4884
▁маги	-4885
▁музы	-4886
▁обли	-4887
▁осен	-4888
▁осна	-4889
▁отли	-4890
▁отре	-4891
▁писа	-4892
▁собе	-4893
▁созы	-4894
▁твер	-4895
▁улья	-4896
нитори	-4897
рована	-4898
ставил	-4899
ческую	-4900
щением	-4901
яросла	-4902
▁анапы	-4903
▁анато	-4904
▁всеми	-4905
▁выход	-4906
▁главе	-4907
▁налог	-4908
▁никто	-4909
▁пакет	-4910
▁петро	-4911
▁полно	-4912
▁посел	-4913
▁потер	-4914
▁рекла	-4915
▁самым	-4916
▁сезон	-4917
▁собой	-4918
▁тюмен	-4919
▁устав	-4920
▁экипа	-4921
скольку	-4922
тромоби	-4923
▁iphone	-4924
▁боевых	-4925
▁быстро	-4926
▁доходы	-4927
▁конкре	-4928
▁концеп	-4929
▁кремля	-4930
▁курорт	-4931
▁наличи	-4932
▁налога	-4933
▁оружия	-4934
▁остано	-4935
▁перена	-4936
▁повест	-4937
▁полном	-4938
▁провел	-4939
▁путеше	-4940
▁разных	-4941
▁райсуд	-4942
▁резерв	-4943
▁светла	-4944
▁сигнал	-4945
▁служба	-4946
▁ставка	-4947
▁упаков	-4948
borghini	-4949
скохозяй	-4950
тической	-4951
▁выборов	-4952
▁выросли	-4953
▁евгения	-4954
▁женщина	-4955
▁местные	-4956
▁местных	-4957
▁подсуди	-4958
▁разгово	-4959
▁топливо	-4960
▁успешно	-4961
ярославль	-4962
▁выступил	-4963
▁молдавии	-4964
▁неизвест	-4965
▁основные	-4966
▁приобрет	-4967
▁проводят	-4968
▁продолжи	-4969
▁размести	-4970
▁самолета	-4971
▁являются	-4972
▁взыскании	-4973
▁выражении	-4974
▁депутатом	-4975
▁казахстан	-4976
▁коммуналь	-4977
▁подрядчик	-4978
▁поскольку	-4979
▁произошла	-4980
▁различных	-4981
▁собеседни	-4982
▁составило	-4983
▁спасатели	-4984
▁спортсмен	-4985
▁достаточно	-4986
▁занимается	-4987
▁константин	-4988
▁петербурге	-4989
▁подтвержда	-4990
▁применения	-4991
▁проводится	-4992
▁рассказала	-4993
▁технологий	-4994
▁фигурантка	-4995
▁lamborghini	-4996
▁значительно	-4997
▁предоставля	-4998
▁специальной	-4999
▁участвовали	-5000
▁электромоби	-5001
▁зафиксирован	-5002
▁предполагает	-5003
▁сельскохозяй	-5004
▁случившегося	-5005
▁эксплуатацию	-5006
▁муниципальных	-5007
▁общественного	-5008
▁постановление	-5009
▁производитель	-5010
▁собственность	-5011
▁дополнительные	-5012
▁самостоятельно	-5013
▁финансирования	-5014
▁государственных	-5015
el	-5016
ew	-5017
im	-5018
зс	-5019
тс	-5020
вит	-5021
гда	-5022
джа	-5023
жды	-5024
зем	-5025
лют	-5026
рин	-5027
рья	-5028
тые	-5029
цер	-5030
чит	-5031
ыск	-5032
ясь	-5033
▁ac	-5034
▁it	-5035
▁сз	-5036
ваем	-5037
гами	-5038
гель	-5039
гози	-5040
гран	-5041
дино	-5042
дный	-5043
енок	-5044
енти	-5045
ехал	-5046
заня	-5047
конф	-5048
ныне	-5049
сети	-5050
сная	-5051
стаи	-5052
щает	-5053
▁hon	-5054
▁азс	-5055
▁али	-5056
▁гео	-5057
▁жда	-5058
▁иде	-5059
▁квт	-5060
▁куз	-5061
▁мас	-5062
▁ред	-5063
▁три	-5064
▁эль	-5065
ведет	-5066
комна	-5067
лению	-5068
скова	-5069
слава	-5070
сорци	-5071
тетов	-5072
чиков	-5073
штейн	-5074
▁vigo	-5075
▁близ	-5076
▁зара	-5077
▁игры	-5078
▁карт	-5079
▁коль	-5080
▁лока	-5081
▁мишу	-5082
▁неда	-5083
▁ника	-5084
▁похо	-5085
▁прак	-5086
▁реша	-5087
▁русс	-5088
▁сосе	-5089
▁твор	-5090
▁узна	-5091
▁широ	-5092
валось	-5093
начала	-5094
ростов	-5095
ствием	-5096
сторон	-5097
щается	-5098
▁голов	-5099
▁госза	-5100
▁денис	-5101
▁домах	-5102
▁жилой	-5103
▁замет	-5104
▁земли	-5105
▁квали	-5106
▁макро	-5107
▁марта	-5108
▁микро	-5109
▁награ	-5110
▁непри	-5111
▁оказы	-5112
▁опове	-5113
▁пляжи	-5114
▁попал	-5115
▁пошли	-5116
▁пропа	-5117
▁разру	-5118
▁ракет	-5119
▁транс	-5120
▁трубо	-5121
▁этого	-5122
ложения	-5123
ционные	-5124
▁адвока	-5125
▁активи	-5126
▁алкого	-5127
▁вероят	-5128
▁выполн	-5129
▁запоро	-5130
▁зарабо	-5131
▁затрат	-5132
▁кубань	-5133
▁местах	-5134
▁минфин	-5135
▁никола	-5136
▁ноябре	-5137
▁объема	-5138
▁органа	-5139
▁отказы	-5140
▁павлов	-5141
▁победы	-5142
▁полеты	-5143
▁правил	-5144
▁пройти	-5145
▁путина	-5146
▁растет	-5147
▁рогози	-5148
▁середи	-5149
▁создан	-5150
▁статус	-5151
▁счетом	-5152
▁ударов	-5153
▁черных	-5154
зировать	-5155
хождения	-5156
▁активно	-5157
▁воронеж	-5158
▁выполня	-5159
▁застрой	-5160
▁комбина	-5161
▁повышен	-5162
▁россией	-5163
▁ростове	-5164
▁сначала	-5165
▁степени	-5166
▁указано	-5167
▁ульянов	-5168
▁февраля	-5169
▁экспорт	-5170
▁добавили	-5171
▁здоровью	-5172
▁консорци	-5173
▁липецкой	-5174
▁независи	-5175
▁перечень	-5176
▁платежей	-5177
▁получать	-5178
▁потенциа	-5179
▁предложи	-5180
▁признали	-5181
▁проводит	-5182
▁прокурор	-5183
▁рассчита	-5184
▁самозаня	-5185
▁сообщают	-5186
▁финансов	-5187
▁чиновник	-5188
▁демонстри	-5189
▁договоров	-5190
▁доставили	-5191
▁интернете	-5192
▁кредитных	-5193
▁нарушений	-5194
▁начальник	-5195
▁отделения	-5196
▁продуктов	-5197
▁разработа	-5198
▁сельского	-5199
▁следующий	-5200
▁снизилась	-5201
▁социально	-5202
▁справедли	-5203
▁возглавлял	-5204
▁краснодаре	-5205
▁направлено	-5206
▁обвинитель	-5207
▁обвиняемый	-5208
▁обвиняется	-5209
▁отсутствие	-5210
▁поддержали	-5211
▁воронежской	-5212
▁выступления	-5213
▁европейских	-5214
▁зависимости	-5215
▁мероприятие	-5216
▁необходимые	-5217
▁полицейские	-5218
▁правоохрани	-5219
▁прокуратуре	-5220
▁американский	-5221
▁департамента	-5222
▁кредитования	-5223
▁одновременно	-5224
▁пространство	-5225
▁региональный	-5226
▁центрального	-5227
▁волгоградской	-5228
▁предварительным	-5229
ia	-5230
id	-5231
ob	-5232
oe	-5233
.).	-5234
tis	-5235
гой	-5236
дан	-5237
дев	-5238
зит	-5239
кте	-5240
лин	-5241
лым	-5242
обо	-5243
пен	-5244
пии	-5245
хим	-5246
хма	-5247
ьев	-5248
▁аб	-5249
▁ум	-5250
llan	-5251
брал	-5252
вито	-5253
жали	-5254
комо	-5255
лами	-5256
лежа	-5257
льхо	-5258
нист	-5259
ньше	-5260
раев	-5261
рити	-5262
сный	-5263
тков	-5264
чает	-5265
чики	-5266
шить	-5267
щены	-5268
ющем	-5269
▁ака	-5270
▁ктк	-5271
▁кхл	-5272
▁мос	-5273
▁нац	-5274
▁наш	-5275
▁сам	-5276
▁стс	-5277
ровая	-5278
стоит	-5279
▁hong	-5280
▁бата	-5281
▁боли	-5282
▁глад	-5283
▁двер	-5284
▁зару	-5285
▁заха	-5286
▁зоне	-5287
▁иске	-5288
▁кино	-5289
▁коле	-5290
▁коне	-5291
▁кпрф	-5292
▁лдпр	-5293
▁лука	-5294
▁любо	-5295
▁мало	-5296
▁меня	-5297
▁момо	-5298
▁море	-5299
▁пись	-5300
▁проб	-5301
▁рейс	-5302
▁реки	-5303
▁тера	-5304
▁удар	-5305
▁холо	-5306
▁хран	-5307
▁эсто	-5308
гласно	-5309
голосо	-5310
знадзо	-5311
кратно	-5312
лением	-5313
надзор	-5314
совета	-5315
▁авито	-5316
▁алтай	-5317
▁балан	-5318
▁вмеша	-5319
▁возле	-5320
▁задей	-5321
▁ирина	-5322
▁итоги	-5323
▁карта	-5324
▁марки	-5325
▁милли	-5326
▁надеж	-5327
▁наших	-5328
▁номер	-5329
▁оборо	-5330
▁отклю	-5331
▁проез	-5332
▁прожи	-5333
▁росте	-5334
▁совла	-5335
▁сферы	-5336
▁талан	-5337
▁эпизо	-5338
▁эфире	-5339
ведении	-5340
ведений	-5341
ствовал	-5342
ческими	-5343
▁виктор	-5344
▁входят	-5345
▁гонкон	-5346
▁изнача	-5347
▁коорди	-5348
▁макрон	-5349
▁модели	-5350
▁опасно	-5351
▁первая	-5352
▁перене	-5353
▁пляжей	-5354
▁прогре	-5355
▁продви	-5356
▁раньше	-5357
▁рекорд	-5358
▁сезоне	-5359
▁товары	-5360
▁третье	-5361
▁туапсе	-5362
рованный	-5363
роваться	-5364
тельному	-5365
▁актуаль	-5366
▁билетов	-5367
▁выборах	-5368
▁высокий	-5369
▁госдума	-5370
▁госпожи	-5371
▁группой	-5372
▁дефицит	-5373
▁диплома	-5374
▁другими	-5375
▁каждого	-5376
▁лицензи	-5377
▁маршрут	-5378
▁поступа	-5379
▁праздни	-5380
▁прошлой	-5381
▁рабочие	-5382
▁разбира	-5383
▁реализу	-5384
▁секторе	-5385
▁сельхоз	-5386
▁таможен	-5387
▁украина	-5388
▁условно	-5389
▁эксперт	-5390
▁энергии	-5391
рованного	-5392
▁вениамин	-5393
▁владелец	-5394
▁возможно	-5395
▁заключил	-5396
▁зарплаты	-5397
▁контроле	-5398
▁конфликт	-5399
▁магистра	-5400
▁невозмож	-5401
▁обсудили	-5402
▁обсудить	-5403
▁передаче	-5404
▁подчерки	-5405
▁посвящен	-5406
▁приорите	-5407
▁строгого	-5408
▁убийство	-5409
▁аналитики	-5410
▁владельца	-5411
▁заявления	-5412
▁категории	-5413
▁направить	-5414
▁построить	-5415
▁предстоит	-5416
▁российско	-5417
▁сложности	-5418
▁состояние	-5419
▁удовлетво	-5420
▁фигуранта	-5421
▁характера	-5422
▁заключение	-5423
▁зеленского	-5424
▁инвестиции	-5425
▁источников	-5426
▁оповещения	-5427
▁петербурга	-5428
▁показатели	-5429
▁профсоюзов	-5430
▁разработка	-5431
▁социальные	-5432
▁технологии	-5433
▁управлении	-5434
▁утверждает	-5435
▁арбитражных	-5436
▁генеральный	-5437
▁единогласно	-5438
▁обеспечение	-5439
▁практически	-5440
▁результатам	-5441
▁установлено	-5442
▁центральном	-5443
▁высказывания	-5444
▁пользоваться	-5445
▁рассмотрения	-5446
▁подразделения	-5447
▁руководителей	-5448
▁информационной	-5449
ci	-5450
hi	-5451
ic	-5452
la	-5453
vo	-5454
мс	-5455
тэ	-5456
ber	-5457
ing	-5458
oup	-5459
вин	-5460
дах	-5461
душ	-5462
ерт	-5463
кке	-5464
кут	-5465
лле	-5466
нит	-5467
рат	-5468
рит	-5469
сен	-5470
теа	-5471
цем	-5472
▁au	-5473
▁аф	-5474
▁вв	-5475
▁мя	-5476
▁уз	-5477
▁чс	-5478
вшая	-5479
дали	-5480
деть	-5481
дних	-5482
дукт	-5483
жная	-5484
изво	-5485
клад	-5486
ково	-5487
куль	-5488
мами	-5489
маню	-5490
моно	-5491
пуск	-5492
рные	-5493
уфим	-5494
ходы	-5495
чера	-5496
ющую	-5497
▁pol	-5498
▁вов	-5499
▁два	-5500
▁зер	-5501
▁маг	-5502
▁сей	-5503
▁уро	-5504
▁хме	-5505
ллина	-5506
ницах	-5507
роход	-5508
рядок	-5509
терна	-5510
тория	-5511
шенко	-5512
▁было	-5513
▁весь	-5514
▁гума	-5515
▁жиль	-5516
▁илья	-5517
▁кири	-5518
▁мера	-5519
▁меру	-5520
▁моду	-5521
▁музе	-5522
▁напо	-5523
▁озна	-5524
▁паци	-5525
▁прин	-5526
▁путь	-5527
▁роль	-5528
▁саха	-5529
▁сири	-5530
▁судо	-5531
▁тело	-5532
▁труд	-5533
▁укло	-5534
▁хими	-5535
▁худо	-5536
▁швей	-5537
▁этап	-5538
▁юрли	-5539
вались	-5540
вардии	-5541
вшихся	-5542
единая	-5543
жающей	-5544
▁борис	-5545
▁воспи	-5546
▁вреда	-5547
▁вчера	-5548
▁госко	-5549
▁денег	-5550
▁долей	-5551
▁досро	-5552
▁кирил	-5553
▁китая	-5554
▁корен	-5555
▁розни	-5556
▁слуша	-5557
▁снижа	-5558
▁соору	-5559
▁спике	-5560
▁стоит	-5561
▁столк	-5562
▁удары	-5563
▁урала	-5564
▁хокке	-5565
▁ювели	-5566
llantis	-5567
льности	-5568
новения	-5569
фикации	-5570
ционная	-5571
▁андрея	-5572
▁апарта	-5573
▁девяти	-5574
▁должно	-5575
▁евраев	-5576
▁единая	-5577
▁здании	-5578
▁корруп	-5579
▁кроссо	-5580
▁локомо	-5581
▁механи	-5582
▁настаи	-5583
▁неодно	-5584
▁номина	-5585
▁одному	-5586
▁относи	-5587
▁палаты	-5588
▁парков	-5589
▁пересе	-5590
▁претен	-5591
▁примут	-5592
▁приста	-5593
▁ранены	-5594
▁рестав	-5595
▁сирены	-5596
▁совете	-5597
▁соедин	-5598
▁спбгуп	-5599
▁страна	-5600
▁телеви	-5601
▁топлив	-5602
▁травмы	-5603
▁третий	-5604
▁турции	-5605
▁учреди	-5606
▁эмманю	-5607
рованной	-5608
▁валерий	-5609
▁воздуха	-5610
▁детских	-5611
▁запуска	-5612
▁запусти	-5613
▁интерес	-5614
▁объявил	-5615
▁осужден	-5616
▁пароход	-5617
▁первома	-5618
▁порядок	-5619
▁потерпе	-5620
▁предста	-5621
▁рейтинг	-5622
▁салават	-5623
▁соцсети	-5624
▁сторону	-5625
▁филиала	-5626
снабжения	-5627
тельности	-5628
▁автомати	-5629
▁аппарата	-5630
▁белгород	-5631
▁детского	-5632
▁заключен	-5633
▁контроля	-5634
▁кредитов	-5635
▁крупного	-5636
▁монитори	-5637
▁напомина	-5638
▁направля	-5639
▁объявили	-5640
▁пассажир	-5641
▁площадки	-5642
▁пояснили	-5643
▁проведет	-5644
▁проходят	-5645
▁процессу	-5646
▁раскрити	-5647
черноземье	-5648
▁аппаратов	-5649
▁архитекту	-5650
▁аэропорты	-5651
▁всероссий	-5652
▁гуманитар	-5653
▁дорожного	-5654
▁земельных	-5655
▁некоторых	-5656
▁обвинения	-5657
▁обращении	-5658
▁помещений	-5659
▁пострадал	-5660
▁привлечен	-5661
▁приоритет	-5662
▁проголосо	-5663
▁проспекте	-5664
▁регионами	-5665
▁увеличить	-5666
▁экономика	-5667
▁экспертов	-5668
▁stellantis	-5669
▁инициатива	-5670
▁казахстана	-5671
▁красноуфим	-5672
▁материалам	-5673
▁предлагают	-5674
▁уголовному	-5675
▁установить	-5676
▁учреждение	-5677
▁большинство	-5678
▁компенсацию	-5679
▁конструкции	-5680
▁образование	-5681
▁оценивается	-5682
▁победителем	-5683
▁поступления	-5684
▁принадлежит	-5685
▁управлением	-5686
▁обязательств	-5687
▁продолжаются	-5688
▁происшествий	-5689
▁руководители	-5690
▁руководством	-5691
▁эксплуатации	-5692
▁ликвидировали	-5693
▁международных	-5694
▁обязательства	-5695
▁предусмотрено	-5696
▁генпрокуратура	-5697
▁самоуправления	-5698
▁урегулированию	-5699
▁экстремистской	-5700
▁электроэнергии	-5701
▁многоквартирных	-5702
em	-5703
ub	-5704
ай	-5705
ию	-5706
нх	-5707
ess	-5708
гин	-5709
гре	-5710
дзе	-5711
ера	-5712
жан	-5713
йбы	-5714
коп	-5715
лее	-5716
люс	-5717
мам	-5718
мое	-5719
риа	-5720
рос	-5721
ряз	-5722
чае	-5723
час	-5724
шил	-5725
▁am	-5726
▁de	-5727
▁hr	-5728
▁in	-5729
вела	-5730
вете	-5731
защи	-5732
твра	-5733
тове	-5734
тору	-5735
хими	-5736
чила	-5737
шими	-5738
щали	-5739
щему	-5740
▁toy	-5741
▁або	-5742
▁бак	-5743
▁баш	-5744
▁впе	-5745
▁фак	-5746
▁хин	-5747
▁юго	-5748
балан	-5749
влены	-5750
града	-5751
декса	-5752
ралле	-5753
скоре	-5754
спорт	-5755
▁агро	-5756
▁гово	-5757
▁кров	-5758
▁куба	-5759
▁мега	-5760
▁ныне	-5761
▁охва	-5762
▁поро	-5763
▁скла	-5764
▁съем	-5765
▁удоб	-5766
▁шило	-5767
▁этом	-5768
довать	-5769
ленные	-5770
летнюю	-5771
льский	-5772
онеров	-5773
призна	-5774
против	-5775
сибирь	-5776
ствуют	-5777
стовер	-5778
щенных	-5779
▁армии	-5780
▁брига	-5781
▁вменя	-5782
▁войну	-5783
▁волга	-5784
▁выбра	-5785
▁горно	-5786
▁имеют	-5787
▁камер	-5788
▁космо	-5789
▁крити	-5790
▁масси	-5791
▁минут	-5792
▁найти	-5793
▁народ	-5794
▁нефть	-5795
▁новом	-5796
▁облом	-5797
▁орган	-5798
▁отказ	-5799
▁павел	-5800
▁посту	-5801
▁ресто	-5802
▁росту	-5803
▁сбили	-5804
▁секре	-5805
▁семья	-5806
▁сетей	-5807
▁собак	-5808
▁таган	-5809
▁такая	-5810
▁тести	-5811
▁целью	-5812
▁целях	-5813
действи	-5814
мотрели	-5815
произво	-5816
следова	-5817
▁toyota	-5818
▁автоза	-5819
▁аренду	-5820
▁вскоре	-5821
▁выигра	-5822
▁довери	-5823
▁женщин	-5824
▁запесо	-5825
▁изобра	-5826
▁кредит	-5827
▁многие	-5828
▁найден	-5829
▁нейтра	-5830
▁облига	-5831
▁обрабо	-5832
▁повлия	-5833
▁поиско	-5834
▁польши	-5835
▁портфе	-5836
▁реестр	-5837
▁сейчас	-5838
▁совеща	-5839
▁угрозе	-5840
▁хмелев	-5841
▁частью	-5842
▁штрафа	-5843
ровского	-5844
становки	-5845
тировать	-5846
▁аукцион	-5847
▁бактери	-5848
▁военный	-5849
▁высоким	-5850
▁годовом	-5851
▁действи	-5852
▁демокра	-5853
▁допуска	-5854
▁зампред	-5855
▁коопера	-5856
▁молодых	-5857
▁паралле	-5858
▁покинул	-5859
▁полицию	-5860
▁получит	-5861
▁продлил	-5862
▁процент	-5863
▁санкции	-5864
▁связаны	-5865
▁сделать	-5866
▁создать	-5867
▁фракции	-5868
▁частных	-5869
граждение	-5870
▁вакансий	-5871
▁водителя	-5872
▁возраста	-5873
▁восьмого	-5874
▁главного	-5875
▁динамика	-5876
▁ежегодно	-5877
▁интерфак	-5878
▁квартале	-5879
▁квартиры	-5880
▁клиентов	-5881
▁местному	-5882
▁мишустин	-5883
▁напомнил	-5884
▁начнется	-5885
▁обучение	-5886
▁операций	-5887
▁определя	-5888
▁пермский	-5889
▁показали	-5890
▁приступи	-5891
▁рейтинга	-5892
▁рождения	-5893
▁сегменте	-5894
▁сенатора	-5895
▁снизился	-5896
▁возглавил	-5897
▁воздушной	-5898
▁гражданам	-5899
▁евросоюза	-5900
▁инцидента	-5901
▁источника	-5902
▁коммуника	-5903
▁компаниям	-5904
▁назначено	-5905
▁направили	-5906
▁начальная	-5907
▁обществен	-5908
▁парламент	-5909
▁повышения	-5910
▁подвергся	-5911
▁правления	-5912
▁предотвра	-5913
▁реализова	-5914
▁связанных	-5915
▁студентов	-5916
▁тюменской	-5917
▁фестиваля	-5918
▁ярославле	-5919
▁выяснилось	-5920
▁исполнении	-5921
▁корпорации	-5922
▁назначения	-5923
▁находились	-5924
▁подготовки	-5925
▁российская	-5926
▁содержания	-5927
▁составляла	-5928
▁террористи	-5929
▁транспорти	-5930
▁уничтожили	-5931
▁установило	-5932
▁генеральной	-5933
▁запорожской	-5934
▁консульства	-5935
▁рекомендова	-5936
▁энергоресур	-5937
▁госсекретарь	-5938
▁национальной	-5939
▁неоднократно	-5940
▁пострадавшим	-5941
▁деятельностью	-5942
▁представителя	-5943
▁дополнительных	-5944
▁нефтепродуктов	-5945
▁производителей	-5946
.)	-5947
ab	-5948
li	-5949
ly	-5950
wa	-5951
бю	-5952
ley	-5953
ton	-5954
биу	-5955
бре	-5956
бэк	-5957
доб	-5958
жеб	-5959
жин	-5960
жом	-5961
ила	-5962
кци	-5963
лог	-5964
нда	-5965
ндо	-5966
нян	-5967
рок	-5968
руг	-5969
сия	-5970
смо	-5971
фов	-5972
шии	-5973
▁fm	-5974
бине	-5975
вому	-5976
вшую	-5977
етии	-5978
йдет	-5979
кции	-5980
лено	-5981
мага	-5982
след	-5983
факс	-5984
шают	-5985
▁air	-5986
▁new	-5987
▁ады	-5988
▁акс	-5989
▁гер	-5990
▁дип	-5991
▁заг	-5992
▁зри	-5993
▁кле	-5994
▁нап	-5995
▁пок	-5996
▁пят	-5997
▁сме	-5998
▁сол	-5999
▁уфы	-6000
▁учи	-6001
▁хан	-6002
▁шту	-6003
бинет	-6004
васто	-6005
восто	-6006
говой	-6007
демон	-6008
зацию	-6009
интер	-6010
нести	-6011
нился	-6012
нутся	-6013
право	-6014
тисти	-6015
шкина	-6016
ющими	-6017
▁аван	-6018
▁бюро	-6019
▁втор	-6020
▁геро	-6021
▁деву	-6022
▁иван	-6023
▁квтч	-6024
▁кеме	-6025
▁нежи	-6026
▁ними	-6027
▁огня	-6028
▁одеж	-6029
▁опер	-6030
▁плюс	-6031
▁поту	-6032
▁проз	-6033
▁проя	-6034
▁рели	-6035
▁роли	-6036
▁смен	-6037
▁союз	-6038
▁стоя	-6039
▁убор	-6040
▁уфим	-6041
▁хотя	-6042
▁цено	-6043
▁чрез	-6044
влении	-6045
входит	-6046
джеров	-6047
жность	-6048
летним	-6049
снован	-6050
тивный	-6051
чиками	-6052
▁group	-6053
▁volvo	-6054
▁анапе	-6055
▁болез	-6056
▁брони	-6057
▁вдвое	-6058
▁ведет	-6059
▁владе	-6060
▁вокза	-6061
▁графи	-6062
▁долга	-6063
▁жилье	-6064
▁запас	-6065
▁индии	-6066
▁иркут	-6067
▁какие	-6068
▁косми	-6069
▁матча	-6070
▁набиу	-6071
▁начал	-6072
▁новую	-6073
▁общий	-6074
▁огром	-6075
▁перви	-6076
▁пляжа	-6077
▁психо	-6078
▁своим	-6079
▁сетях	-6080
▁сорев	-6081
▁спарк	-6082
▁супер	-6083
▁торги	-6084
▁точки	-6085
▁указы	-6086
▁часто	-6087
▁этаже	-6088
вастопо	-6089
губерна	-6090
лизацию	-6091
льность	-6092
▁аренда	-6093
▁белого	-6094
▁васили	-6095
▁вокруг	-6096
▁выбира	-6097
▁выдели	-6098
▁генера	-6099
▁дениса	-6100
▁другим	-6101
▁замени	-6102
▁запуск	-6103
▁земель	-6104
▁инвест	-6105
▁индекс	-6106
▁иниции	-6107
▁коллек	-6108
▁концер	-6109
▁кубани	-6110
▁купить	-6111
▁лабора	-6112
▁медвед	-6113
▁научно	-6114
▁отмены	-6115
▁партию	-6116
▁первых	-6117
▁полный	-6118
▁привет	-6119
▁проезд	-6120
▁развед	-6121
▁решили	-6122
▁сделки	-6123
▁силови	-6124
▁смерть	-6125
▁смогли	-6126
▁ставку	-6127
▁уверен	-6128
▁центро	-6129
▁эвакуа	-6130
рованные	-6131
▁гладков	-6132
▁господи	-6133
▁гостини	-6134
▁грузови	-6135
▁доброво	-6136
▁достига	-6137
▁заявлял	-6138
▁кабинет	-6139
▁мужчину	-6140
▁назвали	-6141
▁николай	-6142
▁останов	-6143
▁падения	-6144
▁пешеход	-6145
▁позицию	-6146
▁поможет	-6147
▁поручил	-6148
▁продаже	-6149
▁регионы	-6150
▁санитар	-6151
▁системе	-6152
▁снизить	-6153
▁участки	-6154
▁функцио	-6155
▁чувашии	-6156
▁штатном	-6157
демонстри	-6158
интерфакс	-6159
промышлен	-6160
снабжение	-6161
▁альтерна	-6162
▁астрахан	-6163
▁включены	-6164
▁вопросов	-6165
▁еврокоми	-6166
▁запасные	-6167
▁здоровья	-6168
▁капитала	-6169
▁качества	-6170
▁молодежи	-6171
▁небольшо	-6172
▁общества	-6173
▁ожидания	-6174
▁отставку	-6175
▁площадке	-6176
▁пообещал	-6177
▁поставку	-6178
▁принятия	-6179
▁разработ	-6180
▁ресурсов	-6181
▁создания	-6182
▁статисти	-6183
▁телеграм	-6184
▁хинштейн	-6185
▁частично	-6186
▁атаковали	-6187
▁аэродромы	-6188
▁госсовета	-6189
▁задержаны	-6190
▁картотеке	-6191
▁незаконно	-6192
▁обращения	-6193
▁опасности	-6194
▁полугодии	-6195
▁получение	-6196
▁появилась	-6197
▁программу	-6198
▁регулярно	-6199
▁севастопо	-6200
▁скончался	-6201
▁соблюдать	-6202
▁требуется	-6203
▁утвержден	-6204
▁заниматься	-6205
▁инвесторов	-6206
▁московской	-6207
▁находиться	-6208
▁отказаться	-6209
▁подтвердил	-6210
▁приговорил	-6211
▁увеличение	-6212
▁банкротства	-6213
▁возбуждении	-6214
▁голосования	-6215
▁должностных	-6216
▁летательных	-6217
▁медицинских	-6218
▁оперативных	-6219
▁опубликовал	-6220
▁результатах	-6221
▁требованием	-6222
▁трубопровод	-6223
▁федеральных	-6224
▁центральной	-6225
▁долгосрочной	-6226
▁объединенная	-6227
▁продемонстри	-6228
▁производстве	-6229
▁региональной	-6230
▁национального	-6231
▁необходимости	-6232
▁рассматривает	-6233
▁восстановления	-6234
▁индивидуальный	-6235
▁индивидуальных	-6236
▁сотрудничество	-6237
▁урегулирования	-6238
▁специализирован	-6239
ap	-6240
ta	-6241
дд	-6242
зп	-6243
eed	-6244
ers	-6245
ery	-6246
iti	-6247
ola	-6248
pro	-6249
бки	-6250
вка	-6251
гры	-6252
дие	-6253
дят	-6254
зам	-6255
зен	-6256
рмо	-6257
рых	-6258
ссп	-6259
сци	-6260
чая	-6261
ьет	-6262
эко	-6263
▁ош	-6264
adem	-6265
вана	-6266
деше	-6267
дную	-6268
емся	-6269
зион	-6270
кети	-6271
комп	-6272
ланд	-6273
мога	-6274
мыка	-6275
няли	-6276
рост	-6277
садь	-6278
сную	-6279
сора	-6280
стор	-6281
тент	-6282
щика	-6283
▁rus	-6284
▁ван	-6285
▁ина	-6286
▁кмч	-6287
▁кнр	-6288
▁лау	-6289
▁мог	-6290
▁ово	-6291
▁опа	-6292
▁охо	-6293
▁очи	-6294
▁сом	-6295
▁туа	-6296
▁ува	-6297
▁шах	-6298
близи	-6299
блоки	-6300
ваемо	-6301
вшему	-6302
ездов	-6303
енным	-6304
ентов	-6305
ложил	-6306
лохов	-6307
преда	-6308
талии	-6309
тости	-6310
украи	-6311
чаево	-6312
черке	-6313
четов	-6314
чному	-6315
▁bent	-6316
▁азов	-6317
▁акку	-6318
▁воду	-6319
▁врио	-6320
▁грип	-6321
▁дзер	-6322
▁коэф	-6323
▁окса	-6324
▁осад	-6325
▁пале	-6326
▁педа	-6327
▁пора	-6328
▁седь	-6329
▁тела	-6330
▁тока	-6331
▁укра	-6332
▁упра	-6333
▁фрон	-6334
▁эрдо	-6335
ademie	-6336
август	-6337
канала	-6338
костью	-6339
летней	-6340
летняя	-6341
льзова	-6342
нилища	-6343
службу	-6344
стреби	-6345
сципли	-6346
ходили	-6347
ционно	-6348
ческом	-6349
▁альян	-6350
▁атаку	-6351
▁верну	-6352
▁видим	-6353
▁возна	-6354
▁выбро	-6355
▁диску	-6356
▁долла	-6357
▁дорог	-6358
▁замен	-6359
▁изоля	-6360
▁клуба	-6361
▁нынеш	-6362
▁олега	-6363
▁очеви	-6364
▁плано	-6365
▁плена	-6366
▁подве	-6367
▁потра	-6368
▁присо	-6369
▁путем	-6370
▁сбора	-6371
▁связь	-6372
▁серий	-6373
▁смени	-6374
▁снима	-6375
▁снова	-6376
▁сопер	-6377
▁среды	-6378
▁стано	-6379
▁строй	-6380
▁судом	-6381
▁татья	-6382
▁тенни	-6383
▁усадь	-6384
▁филип	-6385
ционное	-6386
▁безопа	-6387
▁войска	-6388
▁воспри	-6389
▁выделя	-6390
▁гибели	-6391
▁делает	-6392
▁дороге	-6393
▁загоре	-6394
▁заняла	-6395
▁зрения	-6396
▁иннова	-6397
▁квадра	-6398
▁льготы	-6399
▁малого	-6400
▁марина	-6401
▁насили	-6402
▁нашего	-6403
▁оптими	-6404
▁оружие	-6405
▁охране	-6406
▁патрио	-6407
▁подала	-6408
▁подеше	-6409
▁попали	-6410
▁портал	-6411
▁пригла	-6412
▁прошед	-6413
▁самого	-6414
▁своему	-6415
▁сектор	-6416
▁семена	-6417
▁служеб	-6418
▁сроком	-6419
▁сторон	-6420
▁учения	-6421
▁художе	-6422
действие	-6423
чительно	-6424
▁академи	-6425
▁аксенов	-6426
▁большом	-6427
▁будущем	-6428
▁бюджете	-6429
▁влияние	-6430
▁военные	-6431
▁возника	-6432
▁детской	-6433
▁женщину	-6434
▁изделий	-6435
▁истреби	-6436
▁коллеги	-6437
▁команду	-6438
▁межреги	-6439
▁мировой	-6440
▁момотов	-6441
▁начался	-6442
▁ориенти	-6443
▁перекры	-6444
▁правила	-6445
▁проверя	-6446
▁проекте	-6447
▁сборной	-6448
▁сектора	-6449
▁словаки	-6450
▁статуса	-6451
▁таганро	-6452
▁текущем	-6453
▁четверг	-6454
▁шолохов	-6455
нительной	-6456
▁анатолий	-6457
▁большого	-6458
▁включает	-6459
▁включили	-6460
▁дефицита	-6461
▁добавила	-6462
▁компанию	-6463
▁координа	-6464
▁коэффици	-6465
▁краевого	-6466
▁медведев	-6467
▁областью	-6468
▁объяснил	-6469
▁остались	-6470
▁повысить	-6471
▁призвали	-6472
▁причинен	-6473
▁пришлось	-6474
▁сегодняш	-6475
▁середине	-6476
▁судебных	-6477
▁украиной	-6478
▁экологии	-6479
вартирного	-6480
▁ближайшее	-6481
▁верховный	-6482
▁выполнить	-6483
▁городские	-6484
▁действиям	-6485
▁зеленский	-6486
▁инстанции	-6487
▁испытания	-6488
▁карачаево	-6489
▁категорий	-6490
▁квалифици	-6491
▁лукашенко	-6492
▁мощностью	-6493
▁надзорное	-6494
▁остальные	-6495
▁останется	-6496
▁отправили	-6497
▁приостано	-6498
▁результат	-6499
▁состоянию	-6500
▁стратегии	-6501
конференции	-6502
▁акваторией	-6503
▁возгорание	-6504
▁государств	-6505
▁задержания	-6506
▁изначально	-6507
▁наблюдения	-6508
▁петербургу	-6509
▁потенциаль	-6510
▁предложили	-6511
▁приходится	-6512
▁публикацию	-6513
▁разработан	-6514
▁реализация	-6515
▁российским	-6516
▁соглашений	-6517
▁сократился	-6518
▁фигурантов	-6519
▁параллельно	-6520
▁потребитель	-6521
▁рекомендуют	-6522
▁российскими	-6523
▁теплоснабжа	-6524
▁управляющий	-6525
▁финансового	-6526
▁документации	-6527
▁опубликована	-6528
▁пострадавшие	-6529
▁предлагается	-6530
▁предназначен	-6531
▁пространстве	-6532
▁рассказывает	-6533
▁ленинградской	-6534
▁международный	-6535
▁необходимость	-6536
▁подозреваемый	-6537
▁пояснительной	-6538
▁произошедшего	-6539
▁раскритиковал	-6540
▁строительству	-6541
▁благоустройство	-6542
▁образовательных	-6543
▁предусматривает	-6544
bc	-6545
to	-6546
un	-6547
пк	-6548
▁o	-6549
old	-6550
вай	-6551
гля	-6552
зка	-6553
лаг	-6554
лил	-6555
пти	-6556
пча	-6557
рно	-6558
шло	-6559
шов	-6560
▁ег	-6561
▁ид	-6562
▁ох	-6563
▁тв	-6564
▁эн	-6565
ital	-6566
вига	-6567
дами	-6568
дные	-6569
енты	-6570
жела	-6571
жное	-6572
кетп	-6573
лина	-6574
лист	-6575
март	-6576
рила	-6577
рном	-6578
руко	-6579
сном	-6580
сооб	-6581
спра	-6582
спро	-6583
стут	-6584
тием	-6585
фина	-6586
шинг	-6587
▁tes	-6588
▁tim	-6589
▁ада	-6590
▁бес	-6591
▁вдо	-6592
▁гиб	-6593
▁дат	-6594
▁дем	-6595
▁дон	-6596
▁них	-6597
▁оши	-6598
▁пас	-6599
▁сбы	-6600
▁тек	-6601
▁уже	-6602
▁фас	-6603
▁физ	-6604
▁язы	-6605
денты	-6606
жными	-6607
нефть	-6608
ницей	-6609
рацию	-6610
ректи	-6611
скаль	-6612
стата	-6613
стрии	-6614
трафо	-6615
▁агре	-6616
▁брон	-6617
▁быто	-6618
▁вело	-6619
▁вино	-6620
▁виру	-6621
▁гнее	-6622
▁гран	-6623
▁думе	-6624
▁замо	-6625
▁изби	-6626
▁иран	-6627
▁кури	-6628
▁моде	-6629
▁мост	-6630
▁муль	-6631
▁нали	-6632
▁ната	-6633
▁обсе	-6634
▁онко	-6635
▁отск	-6636
▁пари	-6637
▁паши	-6638
▁пита	-6639
▁пога	-6640
▁поко	-6641
▁поле	-6642
▁пото	-6643
▁рафа	-6644
▁сбил	-6645
▁села	-6646
▁сере	-6647
▁толь	-6648
▁тому	-6649
▁трой	-6650
▁упро	-6651
▁фаса	-6652
▁фила	-6653
билита	-6654
волжье	-6655
летних	-6656
лизова	-6657
льника	-6658
ментом	-6659
монопо	-6660
правок	-6661
тивную	-6662
центра	-6663
чается	-6664
читали	-6665
ющихся	-6666
▁адыге	-6667
▁банки	-6668
▁бирже	-6669
▁блока	-6670
▁важно	-6671
▁видом	-6672
▁войны	-6673
▁волье	-6674
▁вошел	-6675
▁градо	-6676
▁дочер	-6677
▁дроны	-6678
▁заслу	-6679
▁земле	-6680
▁концу	-6681
▁крыма	-6682
▁лекар	-6683
▁лондо	-6684
▁мария	-6685
▁михай	-6686
▁моста	-6687
▁откло	-6688
▁полях	-6689
▁решет	-6690
▁россе	-6691
▁садов	-6692
▁самый	-6693
▁стена	-6694
▁судна	-6695
▁суток	-6696
▁табли	-6697
▁такси	-6698
▁трени	-6699
▁хотят	-6700
ального	-6701
вещения	-6702
ганской	-6703
кетплей	-6704
ковской	-6705
нования	-6706
ровской	-6707
▁marton	-6708
▁авария	-6709
▁баллов	-6710
▁бастры	-6711
▁берегу	-6712
▁бикова	-6713
▁британ	-6714
▁вашинг	-6715
▁взамен	-6716
▁гавани	-6717
▁гросси	-6718
▁группи	-6719
▁группу	-6720
▁делега	-6721
▁европы	-6722
▁задачи	-6723
▁зарубе	-6724
▁звучит	-6725
▁золота	-6726
▁канале	-6727
▁матчей	-6728
▁месяце	-6729
▁молдав	-6730
▁начать	-6731
▁начнут	-6732
▁оценке	-6733
▁оценку	-6734
▁повлек	-6735
▁подзем	-6736
▁прежде	-6737
▁принес	-6738
▁присво	-6739
▁развер	-6740
▁распре	-6741
▁рассле	-6742
▁скорее	-6743
▁случай	-6744
▁спикер	-6745
▁списке	-6746
▁спустя	-6747
▁такого	-6748
▁телефо	-6749
▁тендер	-6750
▁улицах	-6751
▁ученые	-6752
▁фонтан	-6753
▁хоккей	-6754
▁чистой	-6755
▁южного	-6756
ровались	-6757
рованием	-6758
руководи	-6759
▁bentley	-6760
▁адвокат	-6761
▁альянса	-6762
▁большая	-6763
▁бюджету	-6764
▁волонте	-6765
▁главный	-6766
▁госдуму	-6767
▁госпита	-6768
▁девелоп	-6769
▁денежно	-6770
▁детские	-6771
▁издание	-6772
▁издания	-6773
▁исполни	-6774
▁калинин	-6775
▁клиента	-6776
▁лидеров	-6777
▁масштаб	-6778
▁металлу	-6779
▁москаль	-6780
▁неустой	-6781
▁отремон	-6782
▁оштрафо	-6783
▁перебои	-6784
▁перспек	-6785
▁протоко	-6786
▁ребенок	-6787
▁розыска	-6788
▁сбивать	-6789
▁станице	-6790
▁стражей	-6791
▁academie	-6792
▁выделено	-6793
▁вырастет	-6794
▁выступал	-6795
▁допустил	-6796
▁доступны	-6797
▁интересы	-6798
▁инфляция	-6799
▁кириенко	-6800
▁конфиско	-6801
▁маршруты	-6802
▁мессендж	-6803
▁многочис	-6804
▁мощность	-6805
▁намерены	-6806
▁нацпроек	-6807
▁обрабаты	-6808
▁ограничи	-6809
▁открытое	-6810
▁передали	-6811
▁подобные	-6812
▁подобных	-6813
▁поисково	-6814
▁получают	-6815
▁приведет	-6816
▁проведут	-6817
▁продукты	-6818
▁просьбой	-6819
▁светлана	-6820
▁скорость	-6821
▁снижения	-6822
▁созданию	-6823
▁странами	-6824
льхознадзо	-6825
▁ближайшие	-6826
▁городскую	-6827
▁домашнего	-6828
▁задейство	-6829
▁зеленским	-6830
▁конкурент	-6831
▁министров	-6832
▁нападения	-6833
▁направлен	-6834
▁обследова	-6835
▁опасность	-6836
▁отказался	-6837
▁платформы	-6838
▁поддержка	-6839
▁потенциал	-6840
▁привлекли	-6841
▁природных	-6842
▁продукция	-6843
▁прокурора	-6844
▁районного	-6845
▁располага	-6846
▁сбербанка	-6847
▁совладель	-6848
▁сократить	-6849
▁утвердила	-6850
▁фотографи	-6851
▁антимонопо	-6852
▁выполнение	-6853
▁дизельного	-6854
▁иноагентом	-6855
▁маркетплей	-6856
▁набиуллина	-6857
▁нападающий	-6858
▁направлена	-6859
▁наркотиков	-6860
▁населенных	-6861
▁невозможно	-6862
▁подозрению	-6863
▁проведении	-6864
▁разработки	-6865
▁расширение	-6866
▁реализацию	-6867
▁следствием	-6868
▁сокращения	-6869
▁сопровожда	-6870
▁сотрудника	-6871
▁спасателей	-6872
▁украинских	-6873
▁управлению	-6874
▁устройство	-6875
▁фактически	-6876
▁физических	-6877
▁банковского	-6878
▁департамент	-6879
▁дипломатиче	-6880
▁инструменты	-6881
▁исполняющим	-6882
▁наблюдается	-6883
▁потребление	-6884
▁предложений	-6885
▁представила	-6886
▁сократилась	-6887
▁требованиям	-6888
▁электронных	-6889
▁авиакомпания	-6890
▁исследование	-6891
▁исследований	-6892
▁коммерческий	-6893
▁медицинского	-6894
▁обеспечивает	-6895
▁объединенной	-6896
▁опубликовано	-6897
▁региональное	-6898
▁дополнительно	-6899
▁мошенничество	-6900
▁строительстве	-6901
▁транспортного	-6902
▁инвестиционных	-6903
▁искусственного	-6904
▁организованной	-6905
▁финансирование	-6906
▁россельхознадзо	-6907
fa	-6908
ун	-6909
хе	-6910
ьи	-6911
>,-	-6912
bes	-6913
бок	-6914
гар	-6915
дон	-6916
кун	-6917
лон	-6918
нав	-6919
нси	-6920
раг	-6921
рем	-6922
рзп	-6923
рье	-6924
сиб	-6925
тье	-6926
чан	-6927
шую	-6928
яко	-6929
▁hh	-6930
▁дж	-6931
▁ды	-6932
▁ит	-6933
cola	-6934
ream	-6935
беки	-6936
дают	-6937
емым	-6938
здра	-6939
инте	-6940
кову	-6941
кома	-6942
мана	-6943
мено	-6944
монт	-6945
нией	-6946
нико	-6947
ново	-6948
нома	-6949
ридо	-6950
росо	-6951
ряда	-6952
сило	-6953
сова	-6954
фона	-6955
шена	-6956
шено	-6957
▁nor	-6958
▁ввп	-6959
▁гол	-6960
▁дже	-6961
▁иль	-6962
▁ими	-6963
▁ита	-6964
▁кот	-6965
▁лит	-6966
▁озе	-6967
▁сде	-6968
▁смя	-6969
▁хва	-6970
▁цик	-6971
▁чел	-6972
▁чув	-6973
▁юге	-6974
▁яма	-6975
вился	-6976
вокуп	-6977
вшими	-6978
вычай	-6979
денко	-6980
длежа	-6981
довая	-6982
купок	-6983
ловая	-6984
ломет	-6985
манов	-6986
надца	-6987
ровой	-6988
стати	-6989
тенге	-6990
участ	-6991
ханов	-6992
четам	-6993
▁news	-6994
▁выво	-6995
▁горе	-6996
▁деше	-6997
▁жест	-6998
▁заем	-6999
▁иско	-7000
▁лега	-7001
▁лими	-7002
▁наши	-7003
▁обоз	-7004
▁обру	-7005
▁опья	-7006
▁парк	-7007
▁поля	-7008
▁росг	-7009
▁сада	-7010
▁стек	-7011
▁стен	-7012
▁таба	-7013
▁улиц	-7014
▁цене	-7015
▁школ	-7016
ванные	-7017
вающие	-7018
виться	-7019
влению	-7020
вшейся	-7021
гового	-7022
доволь	-7023
корруп	-7024
ложить	-7025
льному	-7026
никова	-7027
нируют	-7028
няются	-7029
тивной	-7030
▁dream	-7031
▁stone	-7032
▁tesla	-7033
▁адрес	-7034
▁актер	-7035
▁блана	-7036
▁бренд	-7037
▁вакци	-7038
▁вести	-7039
▁видов	-7040
▁воспо	-7041
▁вызов	-7042
▁грузи	-7043
▁ждать	-7044
▁заряд	-7045
▁кабар	-7046
▁кризи	-7047
▁куйбы	-7048
▁лауре	-7049
▁лично	-7050
▁напад	-7051
▁напал	-7052
▁нашей	-7053
▁незна	-7054
▁оправ	-7055
▁опыта	-7056
▁остро	-7057
▁очков	-7058
▁проте	-7059
▁сгоре	-7060
▁серии	-7061
▁сосед	-7062
▁союза	-7063
▁сцена	-7064
▁счету	-7065
▁торга	-7066
▁траге	-7067
▁учени	-7068
▁форме	-7069
▁члена	-7070
▁члены	-7071
▁южной	-7072
баланси	-7073
деление	-7074
комплек	-7075
льского	-7076
новском	-7077
▁forbes	-7078
▁аварии	-7079
▁батаре	-7080
▁борьбе	-7081
▁взяток	-7082
▁внесла	-7083
▁внесли	-7084
▁задача	-7085
▁защиту	-7086
▁заявок	-7087
▁италии	-7088
▁кабине	-7089
▁класса	-7090
▁крымом	-7091
▁мастер	-7092
▁мигран	-7093
▁мужчин	-7094
▁нижнем	-7095
▁общежи	-7096
▁округу	-7097
▁оплату	-7098
▁опроса	-7099
▁осетии	-7100
▁отелей	-7101
▁отличи	-7102
▁отпуск	-7103
▁паслер	-7104
▁победу	-7105
▁погода	-7106
▁полной	-7107
▁понома	-7108
▁поступ	-7109
▁прибре	-7110
▁ростом	-7111
▁сбежал	-7112
▁сделок	-7113
▁сириус	-7114
▁смерти	-7115
▁спасти	-7116
▁средне	-7117
▁страну	-7118
▁тольят	-7119
▁трассы	-7120
▁тренер	-7121
▁удержи	-7122
▁ужесто	-7123
▁уплаты	-7124
▁формат	-7125
▁швейца	-7126
▁штенге	-7127
росовест	-7128
сировать	-7129
▁ведется	-7130
▁встречу	-7131
▁второго	-7132
▁выходят	-7133
▁главной	-7134
▁границы	-7135
▁закупок	-7136
▁записке	-7137
▁истории	-7138
▁километ	-7139
▁конечно	-7140
▁конкурс	-7141
▁кредиты	-7142
▁мандата	-7143
▁минздра	-7144
▁михаила	-7145
▁намерен	-7146
▁насчиты	-7147
▁общения	-7148
▁оказать	-7149
▁отказов	-7150
▁отправл	-7151
▁отходов	-7152
▁оценкам	-7153
▁покупке	-7154
▁поселке	-7155
▁постоян	-7156
▁предмет	-7157
▁прилега	-7158
▁принять	-7159
▁природо	-7160
▁прирост	-7161
▁продукт	-7162
▁пройдут	-7163
▁районов	-7164
▁ректора	-7165
▁следить	-7166
▁совокуп	-7167
▁субсиди	-7168
тельством	-7169
тического	-7170
▁ассамбле	-7171
▁введение	-7172
▁включить	-7173
▁граждане	-7174
▁достигну	-7175
▁железной	-7176
▁запрещен	-7177
▁захарова	-7178
▁значимых	-7179
▁зоопарка	-7180
▁инфляции	-7181
▁кампании	-7182
▁касается	-7183
▁ключевых	-7184
▁кореняко	-7185
▁лидерами	-7186
▁нагрузки	-7187
▁напротив	-7188
▁началась	-7189
▁обвиняют	-7190
▁областях	-7191
▁объектах	-7192
▁объявила	-7193
▁передачи	-7194
▁перерабо	-7195
▁полагает	-7196
▁полноцен	-7197
▁рейтинге	-7198
▁саратова	-7199
▁сбаланси	-7200
▁сегмента	-7201
▁создании	-7202
▁торговли	-7203
▁убийстве	-7204
▁условиям	-7205
▁уточняет	-7206
▁учащихся	-7207
▁характер	-7208
▁цифровых	-7209
▁белгороде	-7210
▁владимиру	-7211
▁воздушное	-7212
▁возможной	-7213
▁возможных	-7214
▁городских	-7215
▁завершили	-7216
▁института	-7217
▁интернета	-7218
▁ленинский	-7219
▁мессендже	-7220
▁металличе	-7221
▁настоящий	-7222
▁начальной	-7223
▁небольшой	-7224
▁недействи	-7225
▁обращений	-7226
▁оказалась	-7227
▁опьянения	-7228
▁отделении	-7229
▁принимать	-7230
▁продавать	-7231
▁разрабаты	-7232
▁рассмотре	-7233
▁состоялся	-7234
▁сотрудник	-7235
▁спектакль	-7236
▁средством	-7237
▁судебного	-7238
▁терминале	-7239
▁установки	-7240
▁устойчиво	-7241
▁устройств	-7242
▁характери	-7243
▁чрезвычай	-7244
▁экономике	-7245
▁электриче	-7246
сторожности	-7247
▁антикорруп	-7248
▁банковских	-7249
▁владельцев	-7250
▁встретился	-7251
▁выполнения	-7252
▁госзакупок	-7253
▁доставлены	-7254
▁достижения	-7255
▁жительница	-7256
▁завершился	-7257
▁замедление	-7258
▁запесоцкий	-7259
▁инициативы	-7260
▁интеллекта	-7261
▁интерфаксу	-7262
▁исполнения	-7263
▁количеству	-7264
▁магистрали	-7265
▁межрегиона	-7266
▁обновление	-7267
▁окружающей	-7268
▁полученных	-7269
▁происходит	-7270
▁совершении	-7271
▁сообщества	-7272
▁становится	-7273
▁автономного	-7274
▁внутреннего	-7275
▁журналистам	-7276
▁заболеваний	-7277
▁консорциума	-7278
▁медицинские	-7279
▁направлении	-7280
▁необходимую	-7281
▁обвиняемого	-7282
▁организацию	-7283
▁официальный	-7284
▁приостановл	-7285
▁университет	-7286
▁ходатайство	-7287
▁журналистами	-7288
▁задержанного	-7289
▁заместителем	-7290
▁использовали	-7291
▁консультации	-7292
▁контролирует	-7293
▁максимальная	-7294
▁министерстве	-7295
▁наблюдателей	-7296
▁обслуживания	-7297
▁промышленной	-7298
▁распоряжение	-7299
▁строительной	-7300
▁транспортных	-7301
▁федеральными	-7302
петербургского	-7303
▁задолженность	-7304
▁мошенничестве	-7305
▁пользователей	-7306
▁проголосовали	-7307
▁реконструкцию	-7308
▁руководителем	-7309
▁собственников	-7310
▁финансировании	-7311
▁благоустройства	-7312
▁государственный	-7313
▁соответствующие	-7314
ft	-7315
od	-7316
po	-7317
аг	-7318
ак	-7319
дт	-7320
тю	-7321
ут	-7322
and	-7323
out	-7324
per	-7325
вла	-7326
гер	-7327
зор	-7328
ляй	-7329
рич	-7330
рма	-7331
роб	-7332
уро	-7333
хло	-7334
чин	-7335
▁ap	-7336
▁ем	-7337
▁ов	-7338
▁оф	-7339
▁цо	-7340
▁шу	-7341
cial	-7342
eely	-7343
file	-7344
будс	-7345
вира	-7346
воро	-7347
гать	-7348
горя	-7349
дным	-7350
езде	-7351
исет	-7352
лере	-7353
меть	-7354
мова	-7355
мули	-7356
носи	-7357
отск	-7358
рище	-7359
сное	-7360
соли	-7361
ссей	-7362
стар	-7363
стка	-7364
стям	-7365
шали	-7366
шина	-7367
шкин	-7368
шком	-7369
щают	-7370
▁асф	-7371
▁бря	-7372
▁вво	-7373
▁вет	-7374
▁вру	-7375
▁глу	-7376
▁гуф	-7377
▁жид	-7378
▁зав	-7379
▁зад	-7380
▁коб	-7381
▁лиф	-7382
▁она	-7383
▁пес	-7384
▁тат	-7385
▁той	-7386
▁тяж	-7387
▁уси	-7388
▁фер	-7389
▁хищ	-7390
▁шоу	-7391
балка	-7392
везли	-7393
вятся	-7394
йском	-7395
лейбо	-7396
логии	-7397
ранов	-7398
рении	-7399
ровка	-7400
сетей	-7401
такте	-7402
тории	-7403
ходом	-7404
цкого	-7405
чинов	-7406
▁coca	-7407
▁анса	-7408
▁атмо	-7409
▁бага	-7410
▁базы	-7411
▁бого	-7412
▁вати	-7413
▁века	-7414
▁визи	-7415
▁вызо	-7416
▁вьет	-7417
▁доли	-7418
▁жерт	-7419
▁игру	-7420
▁исла	-7421
▁када	-7422
▁ката	-7423
▁мать	-7424
▁навы	-7425
▁наша	-7426
▁неме	-7427
▁несу	-7428
▁окна	-7429
▁осло	-7430
▁отде	-7431
▁отца	-7432
▁офис	-7433
▁охла	-7434
▁пожи	-7435
▁рубе	-7436
▁сады	-7437
▁смяг	-7438
▁тара	-7439
▁трем	-7440
▁фраг	-7441
▁хоте	-7442
▁цель	-7443
▁южно	-7444
вающей	-7445
ведены	-7446
воздуш	-7447
ждению	-7448
ктором	-7449
культу	-7450
льство	-7451
магатэ	-7452
пление	-7453
потреб	-7454
спорта	-7455
театра	-7456
тников	-7457
▁chery	-7458
▁geely	-7459
▁times	-7460
▁блоге	-7461
▁вален	-7462
▁верто	-7463
▁ветер	-7464
▁врачи	-7465
▁всему	-7466
▁входя	-7467
▁выгод	-7468
▁выдви	-7469
▁газет	-7470
▁годов	-7471
▁граду	-7472
▁дверь	-7473
▁жизнь	-7474
▁жилом	-7475
▁жилые	-7476
▁задач	-7477
▁захва	-7478
▁иметь	-7479
▁капре	-7480
▁карты	-7481
▁клима	-7482
▁линей	-7483
▁могла	-7484
▁мусор	-7485
▁напря	-7486
▁нехва	-7487
▁норма	-7488
▁нужда	-7489
▁облду	-7490
▁обмен	-7491
▁образ	-7492
▁окнам	-7493
▁орлов	-7494
▁плана	-7495
▁поток	-7496
▁привы	-7497
▁призо	-7498
▁прогу	-7499
▁прока	-7500
▁прота	-7501
▁решил	-7502
▁судья	-7503
▁театр	-7504
▁турец	-7505
▁уделя	-7506
▁устра	-7507
▁хочет	-7508
▁целей	-7509
▁школе	-7510
▁этапа	-7511
▁юлаев	-7512
profile	-7513
августе	-7514
нениями	-7515
ностями	-7516
признан	-7517
рований	-7518
ровский	-7519
станция	-7520
техниче	-7521
ционную	-7522
▁асфаль	-7523
▁близки	-7524
▁вблизи	-7525
▁велико	-7526
▁врачей	-7527
▁встреч	-7528
▁выплат	-7529
▁гастро	-7530
▁грозит	-7531
▁дальше	-7532
▁доклад	-7533
▁дорогу	-7534
▁загряз	-7535
▁закону	-7536
▁заморо	-7537
▁замыка	-7538
▁зенита	-7539
▁импорт	-7540
▁кадров	-7541
▁кирилл	-7542
▁команд	-7543
▁магази	-7544
▁молока	-7545
▁мораль	-7546
▁написа	-7547
▁недель	-7548
▁неделя	-7549
▁новому	-7550
▁номеру	-7551
▁оборот	-7552
▁омбудс	-7553
▁осенью	-7554
▁отвеча	-7555
▁очевид	-7556
▁педаго	-7557
▁подбор	-7558
▁превра	-7559
▁привод	-7560
▁реклам	-7561
▁ректор	-7562
▁самары	-7563
▁самово	-7564
▁сезону	-7565
▁скорой	-7566
▁сможет	-7567
▁созыве	-7568
▁списка	-7569
▁ставке	-7570
▁ставок	-7571
▁сталки	-7572
▁старше	-7573
▁съемку	-7574
▁торгах	-7575
▁турнир	-7576
▁угрозу	-7577
▁устрои	-7578
▁штрафы	-7579
▁энгель	-7580
реватель	-7581
▁аппарат	-7582
▁большим	-7583
▁бразили	-7584
▁брендов	-7585
▁василий	-7586
▁владеет	-7587
▁говорит	-7588
▁говорят	-7589
▁границу	-7590
▁доверие	-7591
▁другого	-7592
▁задержи	-7593
▁закупки	-7594
▁израиля	-7595
▁контент	-7596
▁личного	-7597
▁мужчины	-7598
▁насилия	-7599
▁недавно	-7600
▁ожидают	-7601
▁округах	-7602
▁осадков	-7603
▁открыли	-7604
▁перехва	-7605
▁повреди	-7606
▁показал	-7607
▁покупку	-7608
▁пошлины	-7609
▁предела	-7610
▁признан	-7611
▁призыва	-7612
▁примеру	-7613
▁причаст	-7614
▁проблем	-7615
▁проезда	-7616
▁прошлый	-7617
▁сделали	-7618
▁средний	-7619
▁тарифов	-7620
▁телефон	-7621
▁требуют	-7622
▁уралсиб	-7623
▁центром	-7624
▁частный	-7625
▁эрдоган	-7626
▁ядерной	-7627
кредитной	-7628
мошенниче	-7629
нарушение	-7630
тельность	-7631
хранилища	-7632
экономики	-7633
▁белорусс	-7634
▁бизнесом	-7635
▁взыскать	-7636
▁военного	-7637
▁возбудил	-7638
▁вынужден	-7639
▁границах	-7640
▁давление	-7641
▁денежных	-7642
▁динамику	-7643
▁договоры	-7644
▁домашних	-7645
▁доступна	-7646
▁задержки	-7647
▁заслужен	-7648
▁значение	-7649
▁значения	-7650
▁зоопарке	-7651
▁избежать	-7652
▁индустри	-7653
▁квартире	-7654
▁комменти	-7655
▁конститу	-7656
▁корректи	-7657
▁марченко	-7658
▁механизм	-7659
▁название	-7660
▁направят	-7661
▁обжалова	-7662
▁областей	-7663
▁обратить	-7664
▁объектам	-7665
▁оказание	-7666
▁окружной	-7667
▁отменили	-7668
▁отправил	-7669
▁оформили	-7670
▁площадка	-7671
▁подъезда	-7672
▁пожарной	-7673
▁половины	-7674
▁поступил	-7675
▁практиче	-7676
▁превысил	-7677
▁предстоя	-7678
▁привести	-7679
▁принятие	-7680
▁решается	-7681
▁системой	-7682
▁субсидий	-7683
▁торговых	-7684
▁убийства	-7685
▁ускорить	-7686
▁участием	-7687
▁холдинга	-7688
▁шевченко	-7689
начальника	-7690
▁автобусов	-7691
▁выполнены	-7692
▁занимался	-7693
▁запретить	-7694
▁запрещено	-7695
▁кабардино	-7696
▁картотеки	-7697
▁компанией	-7698
▁компаниях	-7699
▁нижегород	-7700
▁объяснили	-7701
▁оператора	-7702
▁остановки	-7703
▁отопления	-7704
▁отражение	-7705
▁очередной	-7706
▁платформе	-7707
▁подростка	-7708
▁подходить	-7709
▁поколения	-7710
▁покушении	-7711
▁попросили	-7712
▁приставов	-7713
▁программи	-7714
▁реабилита	-7715
▁ситуацией	-7716
▁следующем	-7717
▁структуре	-7718
▁субъектов	-7719
▁установка	-7720
▁четвертый	-7721
▁эмманюэль	-7722
▁rusprofile	-7723
▁аналитиков	-7724
▁ассоциация	-7725
▁аэропортах	-7726
▁вступления	-7727
▁гражданина	-7728
▁заказчиком	-7729
▁исполнение	-7730
▁мессенджер	-7731
▁метрострой	-7732
▁набережную	-7733
▁наибольший	-7734
▁незаконном	-7735
▁необходимы	-7736
▁облачность	-7737
▁обнаружено	-7738
▁отчетности	-7739
▁повышенной	-7740
▁подростков	-7741
▁предположи	-7742
▁природного	-7743
▁разрешения	-7744
▁росгвардии	-7745
▁соблюдение	-7746
▁ставрополе	-7747
▁стандартам	-7748
▁учреждений	-7749
▁хмелевский	-7750
▁школьников	-7751
▁экстренные	-7752
▁востребован	-7753
▁европейские	-7754
▁заболеваемо	-7755
▁официальном	-7756
▁перенаправл	-7757
▁повреждений	-7758
▁популярными	-7759
▁предъявлено	-7760
▁приговорили	-7761
▁принимаются	-7762
▁руководство	-7763
▁специальных	-7764
▁спортивного	-7765
▁столкнулись	-7766
▁существенно	-7767
▁территорией	-7768
▁увеличением	-7769
▁участниками	-7770
▁центральную	-7771
▁юридических	-7772
▁аналогичного	-7773
▁астраханской	-7774
▁беспилотника	-7775
▁запланирован	-7776
▁коммерческих	-7777
▁минэкономики	-7778
▁недвижимость	-7779
▁обозреватель	-7780
▁организацией	-7781
▁официального	-7782
▁потребителей	-7783
▁предупредили	-7784
▁прогнозируют	-7785
▁руководителю	-7786
▁сотрудниками	-7787
▁характеристи	-7788
▁американского	-7789
▁представление	-7790
▁противовоздуш	-7791
▁туристической	-7792
▁военнослужащих	-7793
▁вознаграждение	-7794
▁восстановление	-7795
▁туристического	-7796
▁электромобилей	-7797
▁муниципалитетах	-7798
▁образовательные	-7799
▁правоохранители	-7800
▁предпринимателя	-7801
▁рассматривается	-7802
ps	-7803
ri	-7804
аэ	-7805
бр	-7806
дя	-7807
рф	-7808
уд	-7809
уз	-7810
фл	-7811
ard	-7812
coc	-7813
ube	-7814
ute	-7815
бий	-7816
бла	-7817
вос	-7818
ври	-7819
гое	-7820
дри	-7821
еву	-7822
ема	-7823
жая	-7824
жья	-7825
зок	-7826
или	-7827
кус	-7828
лое	-7829
мбу	-7830
пин	-7831
рто	-7832
рьи	-7833
сел	-7834
сян	-7835
тит	-7836
фры	-7837
хая	-7838
чев	-7839
шек	-7840
▁be	-7841
▁li	-7842
▁ер	-7843
▁кд	-7844
▁лы	-7845
▁мс	-7846
▁яр	-7847
▁ях	-7848
anie	-7849
berg	-7850
inan	-7851
буны	-7852
виде	-7853
воли	-7854
газо	-7855
гани	-7856
гене	-7857
гона	-7858
гоне	-7859
емая	-7860
зарь	-7861
зяев	-7862
кара	-7863
керы	-7864
кому	-7865
ллин	-7866
лько	-7867
люса	-7868
муля	-7869
нера	-7870
нило	-7871
нное	-7872
нову	-7873
ншта	-7874
пазо	-7875
писа	-7876
полу	-7877
прос	-7878
рави	-7879
рены	-7880
рная	-7881
роли	-7882
сами	-7883
ссию	-7884
степ	-7885
сфон	-7886
теле	-7887
трит	-7888
цени	-7889
цкая	-7890
чику	-7891
▁ipo	-7892
▁ази	-7893
▁где	-7894
▁его	-7895
▁зон	-7896
▁люд	-7897
▁ляй	-7898
▁миг	-7899
▁мяс	-7900
▁ним	-7901
▁опо	-7902
▁ощу	-7903
▁пой	-7904
▁пти	-7905
▁сен	-7906
▁сот	-7907
▁фин	-7908
▁ход	-7909
▁шаг	-7910
▁шай	-7911
itico	-7912
анали	-7913
банов	-7914
борге	-7915
вокза	-7916
граде	-7917
деров	-7918
ехать	-7919
консу	-7920
нанси	-7921
новод	-7922
новых	-7923
онных	-7924
ровке	-7925
ровым	-7926
рской	-7927
серва	-7928
солют	-7929
стану	-7930
стями	-7931
тивно	-7932
тками	-7933
тными	-7934
товал	-7935
цифры	-7936
▁yout	-7937
▁анта	-7938
▁анто	-7939
▁буль	-7940
▁вднх	-7941
▁взно	-7942
▁вида	-7943
▁гали	-7944
▁дежу	-7945
▁диаг	-7946
▁заби	-7947
▁знак	-7948
▁идут	-7949
▁изви	-7950
▁литр	-7951
▁люби	-7952
▁любы	-7953
▁миру	-7954
▁моти	-7955
▁огне	-7956
▁отбы	-7957
▁реак	-7958
▁рези	-7959
▁сало	-7960
▁сана	-7961
▁сема	-7962
▁силь	-7963
▁слов	-7964
▁спад	-7965
▁стир	-7966
▁сухо	-7967
▁титу	-7968
▁угле	-7969
▁умвд	-7970
▁уста	-7971
▁фина	-7972
▁чест	-7973
▁штук	-7974
igital	-7975
phanie	-7976
альный	-7977
альных	-7978
города	-7979
енного	-7980
зывают	-7981
интере	-7982
контро	-7983
мского	-7984
оборот	-7985
релизе	-7986
рского	-7987
тирует	-7988
ющейся	-7989
ющиеся	-7990
▁lecoc	-7991
▁super	-7992
▁альфа	-7993
▁аудио	-7994
▁аэроф	-7995
▁врача	-7996
▁втори	-7997
▁выбор	-7998
▁вывез	-7999
▁госте	-8000
▁групп	-8001
▁далее	-8002
▁жалоб	-8003
▁инфек	-8004
▁истец	-8005
▁кадро	-8006
▁кадры	-8007
▁касса	-8008
▁конди	-8009
▁крыму	-8010
▁купян	-8011
▁ляйен	-8012
▁маски	-8013
▁множе	-8014
▁мошен	-8015
▁мэрия	-8016
▁набра	-8017
▁новое	-8018
▁нормы	-8019
▁общее	-8020
▁общем	-8021
▁ориги	-8022
▁отбор	-8023
▁откро	-8024
▁петер	-8025
▁планы	-8026
▁подал	-8027
▁полуо	-8028
▁пребы	-8029
▁прояс	-8030
▁пятый	-8031
▁равно	-8032
▁разно	-8033
▁редже	-8034
▁самое	-8035
▁самой	-8036
▁сбера	-8037
▁серби	-8038
▁смарт	-8039
▁сожал	-8040
▁стрем	-8041
▁сувер	-8042
▁судно	-8043
▁счета	-8044
▁этапе	-8045
влением	-8046
водства	-8047
евремен	-8048
поведни	-8049
премьер	-8050
провода	-8051
ставлен	-8052
ционным	-8053
этажный	-8054
▁dreame	-8055
▁автома	-8056
▁адапти	-8057
▁актива	-8058
▁апрель	-8059
▁артист	-8060
▁атмосф	-8061
▁билеты	-8062
▁быстры	-8063
▁весной	-8064
▁второе	-8065
▁вырабо	-8066
▁дважды	-8067
▁дзержи	-8068
▁енисей	-8069
▁замети	-8070
▁компью	-8071
▁корпус	-8072
▁миссии	-8073
▁мосгор	-8074
▁нелега	-8075
▁обраща	-8076
▁объеди	-8077
▁обыски	-8078
▁обязал	-8079
▁одежды	-8080
▁омской	-8081
▁оплата	-8082
▁осколо	-8083
▁панкра	-8084
▁перено	-8085
▁письмо	-8086
▁поводу	-8087
▁подачи	-8088
▁подход	-8089
▁польша	-8090
▁помочь	-8091
▁практи	-8092
▁предме	-8093
▁приуро	-8094
▁причин	-8095
▁разные	-8096
▁растор	-8097
▁релизу	-8098
▁решить	-8099
▁розыск	-8100
▁семьям	-8101
▁сирена	-8102
▁трассе	-8103
исетский	-8104
пользова	-8105
ренности	-8106
ственное	-8107
ствовала	-8108
тельными	-8109
хождение	-8110
энергети	-8111
▁youtube	-8112
▁абсолют	-8113
▁авакяна	-8114
▁авиарей	-8115
▁авиации	-8116
▁болезни	-8117
▁большое	-8118
▁введены	-8119
▁вводили	-8120
▁ведения	-8121
▁венгрии	-8122
▁верхней	-8123
▁вопросу	-8124
▁вторник	-8125
▁высокой	-8126
▁главным	-8127
▁голосов	-8128
▁григорь	-8129
▁деревне	-8130
▁заверша	-8131
▁закупке	-8132
▁занятия	-8133
▁заранее	-8134
▁зарплат	-8135
▁знамени	-8136
▁импорта	-8137
▁информи	-8138
▁историю	-8139
▁кобзарь	-8140
▁команде	-8141
▁консоли	-8142
▁корпуса	-8143
▁кроншта	-8144
▁лечения	-8145
▁лидером	-8146
▁миллиар	-8147
▁минпром	-8148
▁назвала	-8149
▁нижнего	-8150
▁никаких	-8151
▁обратно	-8152
▁олимпий	-8153
▁оставил	-8154
▁ответил	-8155
▁отрасль	-8156
▁палести	-8157
▁переход	-8158
▁подозре	-8159
▁полгода	-8160
▁поликли	-8161
▁портала	-8162
▁потребу	-8163
▁предель	-8164
▁привели	-8165
▁привело	-8166
▁прогноз	-8167
▁проекти	-8168
▁профила	-8169
▁прошлым	-8170
▁родился	-8171
▁связана	-8172
▁сергеем	-8173
▁сказано	-8174
▁скрылся	-8175
▁случаях	-8176
▁содержи	-8177
▁состоит	-8178
▁спросом	-8179
▁стимули	-8180
▁столице	-8181
▁супруги	-8182
▁технику	-8183
▁торгово	-8184
▁трибуны	-8185
▁уменьши	-8186
▁участии	-8187
▁филармо	-8188
▁чемпион	-8189
▁эстонии	-8190
приволжье	-8191
ствования	-8192
▁politico	-8193
▁автодоро	-8194
▁аккумуля	-8195
▁бензином	-8196
▁больнице	-8197
▁бразилии	-8198
▁варианты	-8199
▁доставки	-8200
▁законную	-8201
▁западной	-8202
▁избрании	-8203
▁институт	-8204
▁клиентам	-8205
▁комбинат	-8206
▁концесси	-8207
▁круглого	-8208
▁легковых	-8209
▁минцифры	-8210
▁мощности	-8211
▁намерена	-8212
▁недоступ	-8213
▁обновлен	-8214
▁органами	-8215
▁отменить	-8216
▁отправля	-8217
▁оформить	-8218
▁покупать	-8219
▁политика	-8220
▁политиче	-8221
▁помогают	-8222
▁проблема	-8223
▁проверке	-8224
▁проиграл	-8225
▁протяжен	-8226
▁проходил	-8227
▁работали	-8228
▁решением	-8229
▁саратове	-8230
▁силовики	-8231
▁словакии	-8232
▁субсидии	-8233
▁топливом	-8234
▁торговле	-8235
▁третьего	-8236
▁укрыться	-8237
▁уставный	-8238
▁хранения	-8239
▁четверть	-8240
▁элементы	-8241
▁stephanie	-8242
▁азовского	-8243
▁бастрыкин	-8244
▁бюджетных	-8245
▁вводились	-8246
▁великобри	-8247
▁видеороли	-8248
▁водителей	-8249
▁вынуждены	-8250
▁выплатить	-8251
▁двусторон	-8252
▁диагности	-8253
▁документу	-8254
▁заявлении	-8255
▁земельный	-8256
▁интересах	-8257
▁интерфакс	-8258
▁искусства	-8259
▁кредитной	-8260
▁кроссовер	-8261
▁лекарства	-8262
▁направила	-8263
▁новгороде	-8264
▁обвинению	-8265
▁областном	-8266
▁обоснован	-8267
▁обращение	-8268
▁отдельных	-8269
▁пассажиры	-8270
▁пенсионер	-8271
▁персонала	-8272
▁пленарном	-8273
▁поквартир	-8274
▁попросила	-8275
▁проверить	-8276
▁продоволь	-8277
▁продолжит	-8278
▁профессии	-8279
▁процедура	-8280
▁процедуры	-8281
▁различные	-8282
▁сожалению	-8283
▁создавать	-8284
логического	-8285
▁автомобиле	-8286
▁активность	-8287
▁александру	-8288
▁ассоциации	-8289
▁госсекрета	-8290
▁задержании	-8291
▁имуществом	-8292
▁инициативе	-8293
▁корпорация	-8294
▁курганской	-8295
▁начинается	-8296
▁недостаточ	-8297
▁обсуждения	-8298
▁основанием	-8299
▁официально	-8300
▁подготовка	-8301
▁подготовке	-8302
▁подсчитали	-8303
▁потребовал	-8304
▁предложила	-8305
▁прекратить	-8306
▁проведение	-8307
▁проводятся	-8308
▁произведен	-8309
▁протяжении	-8310
▁разработку	-8311
▁разрешение	-8312
▁следующего	-8313
▁советского	-8314
▁состоялась	-8315
▁специализи	-8316
▁средствами	-8317
▁транспорте	-8318
▁требование	-8319
▁участвовал	-8320
▁финансовый	-8321
▁челябинске	-8322
▁чиновников	-8323
рабатывающих	-8324
▁автомобилем	-8325
▁группировки	-8326
▁девелопмент	-8327
▁демократиче	-8328
▁европейской	-8329
▁замминистра	-8330
▁иностранным	-8331
▁каспийского	-8332
▁мониторинга	-8333
▁москалькова	-8334
▁обнаружения	-8335
▁подтвердили	-8336
▁подчеркнули	-8337
▁потребности	-8338
▁процессуаль	-8339
▁путешествен	-8340
▁регистрации	-8341
▁ростовского	-8342
▁самозанятых	-8343
▁самолетного	-8344
▁собственные	-8345
▁спортсменов	-8346
▁установлены	-8347
▁участвовать	-8348
▁федеральный	-8349
▁формируется	-8350
▁электронной	-8351
▁американская	-8352
▁американские	-8353
▁апартаментов	-8354
▁единственный	-8355
▁используется	-8356
▁коммерческой	-8357
▁максимальный	-8358
▁обслуживание	-8359
▁общественной	-8360
▁организовала	-8361
▁организовать	-8362
▁предоставить	-8363
▁промышленных	-8364
▁региональных	-8365
▁столкновения	-8366
▁транспортные	-8367
▁управляющего	-8368
▁администрацию	-8369
▁водоснабжения	-8370
▁действительно	-8371
▁исследователи	-8372
▁постановления	-8373
▁пострадавшего	-8374
▁предусмотрены	-8375
▁производителя	-8376
▁производством	-8377
▁промышленного	-8378
▁рассматривают	-8379
▁родственников	-8380
▁специальности	-8381
▁экономической	-8382
▁злоумышленники	-8383
▁информационный	-8384
▁подозреваемого	-8385
▁предоставления	-8386
▁энергоресурсов	-8387
▁зарегистрирован	-8388
▁многоквартирные	-8389
▁предварительной	-8390
▁предприниматели	-8391
▁соответствующая	-8392
ho	-8393
il	-8394
лэ	-8395
мэ	-8396
оп	-8397
пч	-8398
см	-8399
фы	-8400
ый	-8401
эн	-8402
ace	-8403
ash	-8404
erv	-8405
gen	-8406
ian	-8407
ion	-8408
lin	-8409
mis	-8410
moe	-8411
ors	-8412
our	-8413
ree	-8414
swa	-8415
vid	-8416
бей	-8417
бом	-8418
влю	-8419
всу	-8420
гий	-8421
жим	-8422
жки	-8423
зму	-8424
ить	-8425
лии	-8426
лки	-8427
мей	-8428
миа	-8429
рид	-8430
сбы	-8431
сон	-8432
тва	-8433
тек	-8434
тли	-8435
тую	-8436
худ	-8437
цан	-8438
чих	-8439
чув	-8440
▁-<	-8441
▁ar	-8442
▁ci	-8443
▁es	-8444
▁ev	-8445
▁pi	-8446
▁ай	-8447
▁ах	-8448
▁гг	-8449
▁ек	-8450
▁мк	-8451
▁мы	-8452
▁мю	-8453
▁оз	-8454
▁пк	-8455
▁яб	-8456
loom	-8457
атри	-8458
була	-8459
вано	-8460
вной	-8461
джет	-8462
дипч	-8463
емле	-8464
жают	-8465
ждая	-8466
жена	-8467
заме	-8468
зить	-8469
кину	-8470
купа	-8471
лота	-8472
номи	-8473
нтра	-8474
пили	-8475
рное	-8476
садо	-8477
свер	-8478
сипе	-8479
спре	-8480
сред	-8481
стую	-8482
стые	-8483
стый	-8484
сура	-8485
тесь	-8486
тинг	-8487
хина	-8488
цева	-8489
шева	-8490
шков	-8491
ьево	-8492
▁car	-8493
▁nas	-8494
▁ара	-8495
▁био	-8496
▁гре	-8497
▁джо	-8498
▁изъ	-8499
▁кдв	-8500
▁кей	-8501
▁ким	-8502
▁лей	-8503
▁лоя	-8504
▁лут	-8505
▁сад	-8506
▁спг	-8507
▁таи	-8508
▁цер	-8509
агент	-8510
вляли	-8511
довой	-8512
запад	-8513
кетин	-8514
крови	-8515
кульп	-8516
летию	-8517
ллиан	-8518
ловой	-8519
новой	-8520
обору	-8521
район	-8522
ремет	-8523
ренко	-8524
синте	-8525
скопа	-8526
славу	-8527
слера	-8528
совой	-8529
стера	-8530
стере	-8531
стили	-8532
тента	-8533
торга	-8534
торию	-8535
центр	-8536
числи	-8537
шелся	-8538
южный	-8539
ющему	-8540
▁акса	-8541
▁асси	-8542
▁безу	-8543
▁боле	-8544
▁борт	-8545
▁васи	-8546
▁виды	-8547
▁воде	-8548
▁груз	-8549
▁джей	-8550
▁диви	-8551
▁долю	-8552
▁дроз	-8553
▁друг	-8554
▁зави	-8555
▁захо	-8556
▁июль	-8557
▁кита	-8558
▁клад	-8559
▁коти	-8560
▁крат	-8561
▁лето	-8562
▁лиги	-8563
▁маль	-8564
▁мете	-8565
▁мине	-8566
▁миню	-8567
▁мура	-8568
▁нако	-8569
▁наше	-8570
▁неба	-8571
▁небе	-8572
▁нова	-8573
▁огра	-8574
▁паке	-8575
▁поне	-8576
▁пони	-8577
▁посы	-8578
▁реку	-8579
▁рыно	-8580
▁собо	-8581
▁спон	-8582
▁таги	-8583
▁тайи	-8584
▁темы	-8585
▁трей	-8586
▁тюрь	-8587
▁уйти	-8588
▁ушел	-8589
▁факт	-8590
▁флаг	-8591
▁экза	-8592
▁эфио	-8593
▁юлия	-8594
swagen	-8595
ваемых	-8596
вороне	-8597
вшийся	-8598
держки	-8599
евской	-8600
западе	-8601
менедж	-8602
мотрит	-8603
нитого	-8604
ностях	-8605
рантин	-8606
ровкой	-8607
ропера	-8608
стного	-8609
терина	-8610
тьевой	-8611
ходила	-8612
ченные	-8613
▁bloom	-8614
▁актри	-8615
▁атака	-8616
▁будет	-8617
▁варьи	-8618
▁вечер	-8619
▁вовле	-8620
▁водой	-8621
▁войск	-8622
▁вторы	-8623
▁вышла	-8624
▁вышли	-8625
▁гуцан	-8626
▁детям	-8627
▁допро	-8628
▁дошко	-8629
▁елены	-8630
▁завое	-8631
▁запад	-8632
▁затро	-8633
▁иноаг	-8634
▁карту	-8635
▁корот	-8636
▁крово	-8637
▁кубан	-8638
▁кузне	-8639
▁легко	-8640
▁льгов	-8641
▁марии	-8642
▁медиа	-8643
▁можем	-8644
▁музея	-8645
▁ножом	-8646
▁обеща	-8647
▁ольга	-8648
▁осени	-8649
▁отмет	-8650
▁парка	-8651
▁побла	-8652
▁погру	-8653
▁подня	-8654
▁поиск	-8655
▁полез	-8656
▁посол	-8657
▁пробе	-8658
▁разво	-8659
▁реаги	-8660
▁риски	-8661
▁рыбин	-8662
▁сбере	-8663
▁сбиты	-8664
▁свето	-8665
▁серти	-8666
▁скота	-8667
▁сложи	-8668
▁сняли	-8669
▁совбе	-8670
▁стади	-8671
▁тайфу	-8672
▁темпы	-8673
▁тепла	-8674
▁трево	-8675
▁удара	-8676
▁уника	-8677
▁успел	-8678
▁физли	-8679
▁фунда	-8680
▁хвата	-8681
▁числу	-8682
▁шахты	-8683
▁шоссе	-8684
▁штаба	-8685
▁экспе	-8686
курорта	-8687
логисти	-8688
нальных	-8689
новение	-8690
новский	-8691
тизации	-8692
▁абонен	-8693
▁авиаба	-8694
▁авиага	-8695
▁агрега	-8696
▁байден	-8697
▁балтий	-8698
▁бассей	-8699
▁борьбы	-8700
▁бренда	-8701
▁важных	-8702
▁взрыва	-8703
▁витали	-8704
▁внесен	-8705
▁внешне	-8706
▁вокзал	-8707
▁входил	-8708
▁выдачи	-8709
▁высоте	-8710
▁выстав	-8711
▁выхода	-8712
▁газеты	-8713
▁границ	-8714
▁гриппа	-8715
▁делают	-8716
▁депози	-8717
▁добави	-8718
▁достав	-8719
▁жилого	-8720
▁завтра	-8721
▁избрал	-8722
▁инвали	-8723
▁искать	-8724
▁каждом	-8725
▁карели	-8726
▁контур	-8727
▁кремле	-8728
▁лидера	-8729
▁личной	-8730
▁мирных	-8731
▁музыка	-8732
▁наруши	-8733
▁начало	-8734
▁номера	-8735
▁особое	-8736
▁планах	-8737
▁планов	-8738
▁подали	-8739
▁правду	-8740
▁привел	-8741
▁прикам	-8742
▁принци	-8743
▁продав	-8744
▁просро	-8745
▁пунктп	-8746
▁расчет	-8747
▁сделал	-8748
▁сделка	-8749
▁скульп	-8750
▁службу	-8751
▁стрель	-8752
▁стреми	-8753
▁тройку	-8754
▁туапси	-8755
▁убытки	-8756
▁указал	-8757
▁фигури	-8758
▁фондов	-8759
▁хорошо	-8760
▁юрлица	-8761
балкарии	-8762
дловская	-8763
ственном	-8764
ственную	-8765
ствующих	-8766
сциплина	-8767
▁digital	-8768
▁биологи	-8769
▁быстрой	-8770
▁вариант	-8771
▁ведущих	-8772
▁веществ	-8773
▁военную	-8774
▁волейбо	-8775
▁володин	-8776
▁вольера	-8777
▁воспита	-8778
▁выразил	-8779
▁вырасти	-8780
▁главные	-8781
▁главных	-8782
▁данному	-8783
▁детский	-8784
▁диапазо	-8785
▁дорогах	-8786
▁достичь	-8787
▁ежеднев	-8788
▁желанию	-8789
▁жильцов	-8790
▁заблоки	-8791
▁заверил	-8792
▁зависит	-8793
▁заключа	-8794
▁запрета	-8795
▁ижевска	-8796
▁индекса	-8797
▁итальян	-8798
▁критиче	-8799
▁медведь	-8800
▁метропо	-8801
▁наступа	-8802
▁наталья	-8803
▁незначи	-8804
▁оценить	-8805
▁пашинян	-8806
▁перейти	-8807
▁покупки	-8808
▁полного	-8809
▁получал	-8810
▁помогли	-8811
▁причины	-8812
▁путиным	-8813
▁пытался	-8814
▁раненых	-8815
▁решении	-8816
▁сервисы	-8817
▁сигнала	-8818
▁старший	-8819
▁статьям	-8820
▁таблице	-8821
▁уровнем	-8822
▁формате	-8823
▁холдинг	-8824
▁черномо	-8825
▁шеремет	-8826
▁эльвира	-8827
вительных	-8828
демиологи	-8829
исследова	-8830
оборудова	-8831
производи	-8832
▁аппарате	-8833
▁аэрофлот	-8834
▁бриллиан	-8835
▁введении	-8836
▁велосипе	-8837
▁включать	-8838
▁воронеже	-8839
▁выполнен	-8840
▁высокого	-8841
▁говорить	-8842
▁действие	-8843
▁договори	-8844
▁договору	-8845
▁должника	-8846
▁досрочно	-8847
▁закрытое	-8848
▁занимала	-8849
▁занимают	-8850
▁заработа	-8851
▁защитник	-8852
▁которыми	-8853
▁крупными	-8854
▁максимум	-8855
▁маршруте	-8856
▁межрайон	-8857
▁началось	-8858
▁начнутся	-8859
▁объявило	-8860
▁одобрили	-8861
▁ознакоми	-8862
▁оператор	-8863
▁оперштаб	-8864
▁основном	-8865
▁отдельно	-8866
▁открытие	-8867
▁открытия	-8868
▁открытых	-8869
▁отражает	-8870
▁персонал	-8871
▁площадку	-8872
▁показало	-8873
▁покрытия	-8874
▁понедель	-8875
▁понимаем	-8876
▁попросил	-8877
▁портфель	-8878
▁потушили	-8879
▁пояснила	-8880
▁препарат	-8881
▁прибытия	-8882
▁пригород	-8883
▁признала	-8884
▁призывах	-8885
▁принятии	-8886
▁присоеди	-8887
▁пришелся	-8888
▁прогнозы	-8889
▁продлили	-8890
▁процессе	-8891
▁разведки	-8892
▁серновод	-8893
▁слушания	-8894
▁составят	-8895
▁способен	-8896
▁странице	-8897
▁субъекта	-8898
▁судебном	-8899
▁трудовых	-8900
▁уточнила	-8901
▁учебного	-8902
▁факторов	-8903
▁федорище	-8904
▁цифровой	-8905
▁частного	-8906
▁bloomberg	-8907
▁арестован	-8908
▁воздушном	-8909
▁восточной	-8910
▁вячеслава	-8911
▁госконтра	-8912
▁господину	-8913
▁дагестане	-8914
▁девелопер	-8915
▁демонстра	-8916
▁завершены	-8917
▁заявлений	-8918
▁индустрии	-8919
▁инстанция	-8920
▁исключить	-8921
▁котельных	-8922
▁магнитого	-8923
▁наказания	-8924
▁налоговые	-8925
▁налоговых	-8926
▁облигаций	-8927
▁ожидаются	-8928
▁оказалось	-8929
▁оренбурга	-8930
▁отражения	-8931
▁памятника	-8932
▁пациентов	-8933
▁перенесли	-8934
▁полугодие	-8935
▁пономарев	-8936
▁последних	-8937
▁последова	-8938
▁поступили	-8939
▁предложен	-8940
▁приговора	-8941
▁продлении	-8942
▁продуктив	-8943
▁размещена	-8944
▁размещено	-8945
▁рассчитан	-8946
▁регулятор	-8947
▁снизились	-8948
▁соревнова	-8949
▁телеканал	-8950
▁турнирной	-8951
▁удостовер	-8952
▁уклонении	-8953
▁установил	-8954
▁фигуранты	-8955
▁церемонии	-8956
▁церемония	-8957
▁электропо	-8958
▁ярославль	-8959
украинского	-8960
▁активности	-8961
▁аэропортов	-8962
▁банковском	-8963
▁владельцем	-8964
▁внутренней	-8965
▁воспринима	-8966
▁готовность	-8967
▁директором	-8968
▁жительства	-8969
▁завершения	-8970
▁земельного	-8971
▁количества	-8972
▁координиру	-8973
▁ликвидацию	-8974
▁морального	-8975
▁набережных	-8976
▁назначение	-8977
▁обнаружены	-8978
▁определили	-8979
▁освободили	-8980
▁основатель	-8981
▁отделением	-8982
▁отправился	-8983
▁победитель	-8984
▁пользуются	-8985
▁последнего	-8986
▁посредниче	-8987
▁приложение	-8988
▁приложения	-8989
▁приобрести	-8990
▁процентных	-8991
▁рассмотрит	-8992
▁расширения	-8993
▁регулятора	-8994
▁республика	-8995
▁решетников	-8996
▁российскую	-8997
▁ростовская	-8998
▁согласился	-8999
▁составляют	-9000
▁спортивные	-9001
▁существует	-9002
▁территория	-9003
▁уральского	-9004
▁устранения	-9005
▁филармонии	-9006
▁экспертизы	-9007
▁экстренных	-9008
свердловская	-9009
▁великобрита	-9010
▁возглавляет	-9011
▁дальнейшего	-9012
▁заксобрание	-9013
▁инструмента	-9014
▁клиническую	-9015
▁константина	-9016
▁конструкций	-9017
▁красноярске	-9018
▁минимальный	-9019
▁мобилизацию	-9020
▁направлений	-9021
▁определения	-9022
▁ответчиками	-9023
▁переговорах	-9024
▁подчеркнула	-9025
▁показателей	-9026
▁поставщиков	-9027
▁потребуется	-9028
▁представили	-9029
▁представлял	-9030
▁президентов	-9031
▁привлечения	-9032
▁проводились	-9033
▁результатов	-9034
▁систематиче	-9035
▁совершенное	-9036
▁совладельца	-9037
▁ставрополья	-9038
▁территориях	-9039
▁ульяновской	-9040
▁шереметьево	-9041
мошенничество	-9042
▁авиакомпаний	-9043
▁американской	-9044
▁арбитражного	-9045
▁восстановить	-9046
▁дзержинского	-9047
▁екатеринбург	-9048
▁используются	-9049
▁модернизацию	-9050
▁обязанностей	-9051
▁организована	-9052
▁осуществляет	-9053
▁относительно	-9054
▁поддерживают	-9055
▁полномочиями	-9056
▁предприятием	-9057
▁представлять	-9058
▁соответствие	-9059
▁способствует	-9060
▁справедливая	-9061
▁формирования	-9062
▁чрезвычайной	-9063
▁эвакуированы	-9064
экономического	-9065
▁демонстрирует	-9066
▁доказательств	-9067
▁задействованы	-9068
▁злоумышленник	-9069
▁исключительно	-9070
▁краснодарским	-9071
▁международной	-9072
▁мошенничества	-9073
▁обстоятельств	-9074
▁организаторов	-9075
▁отечественной	-9076
▁отопительному	-9077
▁реконструкции	-9078
▁экономических	-9079
▁эффективности	-9080
▁эффективность	-9081
▁восстановлению	-9082
▁госпитализации	-9083
▁инфраструктуру	-9084
▁многочисленные	-9085
▁неосторожности	-9086
▁петербургского	-9087
▁предварительно	-9088
▁предполагается	-9089
▁многоквартирном	-9090
▁предварительное	-9091
▁устанавливаются	-9092
au	-9093
ay	-9094
ce	-9095
ec	-9096
ra	-9097
th	-9098
ue	-9099
юм	-9100
.),	-9101
ada	-9102
бым	-9103
гри	-9104
гую	-9105
две	-9106
дек	-9107
дря	-9108
дые	-9109
жек	-9110
жны	-9111
жую	-9112
зку	-9113
зой	-9114
йяр	-9115
кри	-9116
ноп	-9117
нсе	-9118
нял	-9119
одо	-9120
орг	-9121
пав	-9122
пет	-9123
пон	-9124
псо	-9125
рла	-9126
рты	-9127
сди	-9128
сля	-9129
тим	-9130
угу	-9131
уса	-9132
фом	-9133
хии	-9134
чез	-9135
чре	-9136
чук	-9137
шка	-9138
щут	-9139
эпи	-9140
▁br	-9141
▁go	-9142
▁rt	-9143
▁to	-9144
▁въ	-9145
▁жю	-9146
▁рэ	-9147
▁сю	-9148
▁ус	-9149
▁фк	-9150
▁чп	-9151
вшее	-9152
дает	-9153
дови	-9154
дром	-9155
емом	-9156
ерли	-9157
йков	-9158
кинг	-9159
кино	-9160
коль	-9161
кпрф	-9162
либо	-9163
льев	-9164
мира	-9165
нике	-9166
ниях	-9167
нори	-9168
нтов	-9169
нями	-9170
пова	-9171
поло	-9172
рджи	-9173
рель	-9174
рито	-9175
рица	-9176
рота	-9177
ртия	-9178
сеев	-9179
слан	-9180
соби	-9181
ссив	-9182
суде	-9183
твым	-9184
тник	-9185
тное	-9186
тура	-9187
удму	-9188
филь	-9189
целе	-9190
чему	-9191
чкой	-9192
щики	-9193
щими	-9194
▁and	-9195
▁аза	-9196
▁бом	-9197
▁виш	-9198
▁вло	-9199
▁всп	-9200
▁гку	-9201
▁глэ	-9202
▁дал	-9203
▁днр	-9204
▁зао	-9205
▁зво	-9206
▁ист	-9207
▁миа	-9208
▁моз	-9209
▁оаэ	-9210
▁оби	-9211
▁оча	-9212
▁рав	-9213
▁сва	-9214
▁сел	-9215
▁сно	-9216
▁сын	-9217
▁тан	-9218
▁тиг	-9219
▁уай	-9220
▁уди	-9221
▁уте	-9222
▁хро	-9223
▁час	-9224
▁эли	-9225
▁юга	-9226
▁юни	-9227
висти	-9228
гских	-9229
демии	-9230
долго	-9231
ждена	-9232
йярто	-9233
керов	-9234
косро	-9235
кость	-9236
летах	-9237
лынец	-9238
марки	-9239
монов	-9240
мьера	-9241
новля	-9242
объек	-9243
пенко	-9244
рании	-9245
ркози	-9246
рская	-9247
сения	-9248
скала	-9249
служб	-9250
строя	-9251
хачка	-9252
части	-9253
часть	-9254
шской	-9255
ьянов	-9256
▁auto	-9257
▁gold	-9258
▁nasa	-9259
▁агра	-9260
▁алма	-9261
▁бали	-9262
▁бель	-9263
▁блок	-9264
▁боро	-9265
▁брак	-9266
▁ведо	-9267
▁визо	-9268
▁визы	-9269
▁воин	-9270
▁вред	-9271
▁выез	-9272
▁голу	-9273
▁горь	-9274
▁дает	-9275
▁даты	-9276
▁дать	-9277
▁двор	-9278
▁днев	-9279
▁дожд	-9280
▁доле	-9281
▁жени	-9282
▁забо	-9283
▁зала	-9284
▁кинг	-9285
▁кули	-9286
▁кура	-9287
▁лесо	-9288
▁лиди	-9289
▁лице	-9290
▁мари	-9291
▁мере	-9292
▁мили	-9293
▁могу	-9294
▁наук	-9295
▁нему	-9296
▁номи	-9297
▁ночи	-9298
▁орви	-9299
▁паки	-9300
▁пище	-9301
▁прос	-9302
▁пяте	-9303
▁разо	-9304
▁рано	-9305
▁ряда	-9306
▁сами	-9307
▁село	-9308
▁скло	-9309
▁сози	-9310
▁соли	-9311
▁спря	-9312
▁срзп	-9313
▁сына	-9314
▁тему	-9315
▁тура	-9316
▁указ	-9317
▁упал	-9318
▁урфу	-9319
▁ухуд	-9320
▁учет	-9321
▁фана	-9322
▁харт	-9323
▁харь	-9324
▁цеха	-9325
▁юрай	-9326
▁юрия	-9327
▁ясно	-9328
бейкер	-9329
валась	-9330
ванный	-9331
вающий	-9332
вшимся	-9333
денция	-9334
евский	-9335
ковать	-9336
ловать	-9337
ловске	-9338
нилась	-9339
няться	-9340
онаблю	-9341
совете	-9342
тности	-9343
тывает	-9344
хиатри	-9345
чаются	-9346
▁beers	-9347
▁ариан	-9348
▁архан	-9349
▁банды	-9350
▁бесце	-9351
▁букме	-9352
▁вдоль	-9353
▁ведут	-9354
▁взлет	-9355
▁вирту	-9356
▁враже	-9357
▁всего	-9358
▁вслед	-9359
▁гидро	-9360
▁главу	-9361
▁довер	-9362
▁доста	-9363
▁друга	-9364
▁загру	-9365
▁запча	-9366
▁знаки	-9367
▁индия	-9368
▁исчез	-9369
▁канад	-9370
▁карти	-9371
▁китае	-9372
▁конец	-9373
▁коржи	-9374
▁лицам	-9375
▁марат	-9376
▁марти	-9377
▁науки	-9378
▁непре	-9379
▁нефтя	-9380
▁нижне	-9381
▁обога	-9382
▁омска	-9383
▁первы	-9384
▁переи	-9385
▁перео	-9386
▁пермь	-9387
▁подож	-9388
▁покон	-9389
▁полет	-9390
▁попов	-9391
▁попол	-9392
▁почвы	-9393
▁радиа	-9394
▁редко	-9395
▁рубля	-9396
▁рязан	-9397
▁самая	-9398
▁сдаче	-9399
▁секун	-9400
▁семье	-9401
▁слюса	-9402
▁снять	-9403
▁ссыла	-9404
▁строя	-9405
▁схемы	-9406
▁сыгра	-9407
▁терак	-9408
▁тонну	-9409
▁точка	-9410
▁трети	-9411
▁укреп	-9412
▁упомя	-9413
▁учета	-9414
▁финля	-9415
▁фирмы	-9416
▁цвета	-9417
▁штаты	-9418
▁языка	-9419
вещение	-9420
ворении	-9421
процент	-9422
пустили	-9423
ртозаме	-9424
ставила	-9425
ционном	-9426
▁авторы	-9427
▁амбула	-9428
▁анаста	-9429
▁андрею	-9430
▁анонси	-9431
▁антона	-9432
▁ареста	-9433
▁бланар	-9434
▁бобров	-9435
▁бориса	-9436
▁важным	-9437
▁ветера	-9438
▁вторым	-9439
▁глэмпи	-9440
▁господ	-9441
▁госпро	-9442
▁госслу	-9443
▁график	-9444
▁грунта	-9445
▁группе	-9446
▁дизайн	-9447
▁европу	-9448
▁единый	-9449
▁жалобу	-9450
▁заводе	-9451
▁займет	-9452
▁закупа	-9453
▁запрос	-9454
▁защита	-9455
▁защите	-9456
▁звания	-9457
▁иванов	-9458
▁изъяти	-9459
▁инаугу	-9460
▁кладби	-9461
▁коллег	-9462
▁кольца	-9463
▁компет	-9464
▁коридо	-9465
▁костин	-9466
▁кровли	-9467
▁курске	-9468
▁лицами	-9469
▁медиан	-9470
▁местам	-9471
▁методо	-9472
▁мульти	-9473
▁мусора	-9474
▁называ	-9475
▁объемы	-9476
▁особен	-9477
▁осторо	-9478
▁отрица	-9479
▁пережи	-9480
▁переиз	-9481
▁платят	-9482
▁поезда	-9483
▁показы	-9484
▁полосу	-9485
▁понять	-9486
▁популя	-9487
▁пособи	-9488
▁почему	-9489
▁прести	-9490
▁прибли	-9491
▁пригро	-9492
▁примет	-9493
▁причем	-9494
▁прозра	-9495
▁реджеп	-9496
▁режисс	-9497
▁русфон	-9498
▁сборов	-9499
▁сильно	-9500
▁смогла	-9501
▁спусти	-9502
▁стамбу	-9503
▁стекла	-9504
▁суммар	-9505
▁таилан	-9506
▁уведом	-9507
▁удмурт	-9508
▁усилия	-9509
▁ученых	-9510
▁харито	-9511
▁центру	-9512
▁энерги	-9513
▁эскала	-9514
▁юрисди	-9515
▁ясного	-9516
интересо	-9517
мущества	-9518
нировать	-9519
образова	-9520
операции	-9521
оргсинте	-9522
степенно	-9523
тельские	-9524
удмуртия	-9525
уральска	-9526
черкесии	-9527
чивается	-9528
▁автобус	-9529
▁аккреди	-9530
▁актриса	-9531
▁атомная	-9532
▁базовые	-9533
▁блогера	-9534
▁боликов	-9535
▁большую	-9536
▁бригады	-9537
▁будущее	-9538
▁бывшему	-9539
▁ведутся	-9540
▁вернули	-9541
▁виногра	-9542
▁вменяют	-9543
▁возводи	-9544
▁возраст	-9545
▁волынец	-9546
▁восполь	-9547
▁вызовов	-9548
▁выявлен	-9549
▁главное	-9550
▁годовая	-9551
▁горожан	-9552
▁демонта	-9553
▁детская	-9554
▁дмитрия	-9555
▁доверия	-9556
▁животно	-9557
▁жилищно	-9558
▁заметно	-9559
▁игроков	-9560
▁изданию	-9561
▁классов	-9562
▁клиенты	-9563
▁краевом	-9564
▁кримина	-9565
▁крупные	-9566
▁курорте	-9567
▁курская	-9568
▁лауреат	-9569
▁лечение	-9570
▁махачка	-9571
▁мертвым	-9572
▁местная	-9573
▁местной	-9574
▁мирного	-9575
▁моделей	-9576
▁населен	-9577
▁нежилых	-9578
▁николая	-9579
▁носкова	-9580
▁обсудят	-9581
▁одобрен	-9582
▁оказали	-9583
▁окончил	-9584
▁отклады	-9585
▁открыть	-9586
▁паслера	-9587
▁патриот	-9588
▁передач	-9589
▁переста	-9590
▁перешел	-9591
▁периоде	-9592
▁пограни	-9593
▁поднима	-9594
▁подписы	-9595
▁поездки	-9596
▁пожаров	-9597
▁политик	-9598
▁получив	-9599
▁поселка	-9600
▁построй	-9601
▁привиле	-9602
▁причина	-9603
▁причине	-9604
▁прототи	-9605
▁пятницу	-9606
▁работой	-9607
▁рафаэль	-9608
▁ресурсы	-9609
▁ростова	-9610
▁саркози	-9611
▁сийярто	-9612
▁сильнее	-9613
▁следуют	-9614
▁слишком	-9615
▁события	-9616
▁совбеза	-9617
▁создает	-9618
▁станций	-9619
▁степень	-9620
▁стороне	-9621
▁странам	-9622
▁счетной	-9623
▁тарасов	-9624
▁текущий	-9625
▁технико	-9626
▁туристы	-9627
▁укрытие	-9628
▁усадьбы	-9629
▁учебный	-9630
▁флагман	-9631
▁хищении	-9632
▁экипажи	-9633
▁эфиопии	-9634
комнатные	-9635
комнатных	-9636
рованными	-9637
транспорт	-9638
▁авиасооб	-9639
▁алиханов	-9640
▁арендова	-9641
▁аукциона	-9642
▁будущего	-9643
▁виновной	-9644
▁вложения	-9645
▁выставки	-9646
▁выступая	-9647
▁говорили	-9648
▁дагестан	-9649
▁денежную	-9650
▁добилась	-9651
▁домашний	-9652
▁занимать	-9653
▁западный	-9654
▁запасной	-9655
▁зарплата	-9656
▁зарплату	-9657
▁инвестор	-9658
▁инженеры	-9659
▁интереса	-9660
▁карантин	-9661
▁ключевые	-9662
▁коллегой	-9663
▁консерва	-9664
▁констати	-9665
▁конфиска	-9666
▁кредитам	-9667
▁кузнецов	-9668
▁куйбышев	-9669
▁медицины	-9670
▁минераль	-9671
▁называют	-9672
▁направил	-9673
▁непосред	-9674
▁неработа	-9675
▁обломков	-9676
▁обустрой	-9677
▁означает	-9678
▁оплатить	-9679
▁патриоты	-9680
▁перебоев	-9681
▁передать	-9682
▁пересека	-9683
▁переходе	-9684
▁пермском	-9685
▁позволят	-9686
▁полигоне	-9687
▁полпреда	-9688
▁посетили	-9689
▁приграни	-9690
▁признана	-9691
▁признать	-9692
▁принципа	-9693
▁проектах	-9694
▁реальной	-9695
▁ребенком	-9696
▁рогозина	-9697
▁росстата	-9698
▁салавата	-9699
▁сведений	-9700
▁северный	-9701
▁сервисов	-9702
▁совершил	-9703
▁судебные	-9704
▁телефону	-9705
▁тольятти	-9706
▁турнирах	-9707
▁туропера	-9708
▁фонтанка	-9709
▁ядерного	-9710
губернатор	-9711
тельствуют	-9712
▁абсолютно	-9713
▁аварийных	-9714
▁арестовал	-9715
▁архангель	-9716
▁астрахани	-9717
▁береговой	-9718
▁возбудило	-9719
▁возможным	-9720
▁выступают	-9721
▁дрозденко	-9722
▁екатерина	-9723
▁жилищного	-9724
▁заведений	-9725
▁иноагента	-9726
▁казанский	-9727
▁кандидата	-9728
▁клиентами	-9729
▁комплексе	-9730
▁контракту	-9731
▁конфликте	-9732
▁краткосро	-9733
▁кредитные	-9734
▁локомотив	-9735
▁мигрантов	-9736
▁мосгорсуд	-9737
▁налоговый	-9738
▁неустойки	-9739
▁нефтехими	-9740
▁новгорода	-9741
▁обеспечен	-9742
▁областями	-9743
▁окончания	-9744
▁орловской	-9745
▁отремонти	-9746
▁первонача	-9747
▁перспекти	-9748
▁поблагода	-9749
▁подписала	-9750
▁подсчетам	-9751
▁позволило	-9752
▁положение	-9753
▁положения	-9754
▁последнее	-9755
▁постройки	-9756
▁поступила	-9757
▁предлагал	-9758
▁проводили	-9759
▁прогнозам	-9760
▁проспекта	-9761
▁развитием	-9762
▁ранениями	-9763
▁ремонтные	-9764
▁сведениям	-9765
▁сохраняет	-9766
▁сравнения	-9767
▁структуры	-9768
▁судострои	-9769
▁уголовной	-9770
▁учитывать	-9771
▁фестиваль	-9772
▁фрагменты	-9773
▁чиновника	-9774
способности	-9775
▁автодороги	-9776
▁арестовали	-9777
▁безопасное	-9778
▁бизнесмена	-9779
▁верховного	-9780
▁видеонаблю	-9781
▁владимиров	-9782
▁владислава	-9783
▁возместить	-9784
▁волгограда	-9785
▁градострои	-9786
▁грузовиков	-9787
▁девелопера	-9788
▁занимаются	-9789
▁застройщик	-9790
▁злоупотреб	-9791
▁используют	-9792
▁кандидатом	-9793
▁компаниями	-9794
▁крупнейшим	-9795
▁менеджеров	-9796
▁металлурги	-9797
▁московская	-9798
▁московский	-9799
▁напоминает	-9800
▁находилась	-9801
▁нахождения	-9802
▁незаконных	-9803
▁обвиняемых	-9804
▁обжаловать	-9805
▁обновления	-9806
▁обратилась	-9807
▁обсуждение	-9808
▁определить	-9809
▁отдыхающих	-9810
▁отказались	-9811
▁популярных	-9812
▁предостере	-9813
▁представил	-9814
▁предыдущем	-9815
▁предыдущий	-9816
▁приостанов	-9817
▁производит	-9818
▁росавиация	-9819
▁собеседник	-9820
▁содержание	-9821
▁специалист	-9822
▁спортивных	-9823
▁стабильным	-9824
▁таможенных	-9825
▁телеканала	-9826
▁трансформа	-9827
▁увеличения	-9828
▁украинские	-9829
▁утверждают	-9830
▁участникам	-9831
▁фигурантом	-9832
▁центробанк	-9833
▁челябинска	-9834
руководителя	-9835
▁аэропортами	-9836
▁возвращения	-9837
▁встретиться	-9838
▁глобального	-9839
▁государство	-9840
▁государству	-9841
▁гражданской	-9842
▁добросовест	-9843
▁единовремен	-9844
▁заключением	-9845
▁запрещенной	-9846
▁израильских	-9847
▁импортозаме	-9848
▁конкуренции	-9849
▁консульство	-9850
▁медицинское	-9851
▁московского	-9852
▁объединения	-9853
▁ограничение	-9854
▁отправиться	-9855
▁официальной	-9856
▁последующим	-9857
▁поступлений	-9858
▁потребители	-9859
▁представлен	-9860
▁прекращении	-9861
▁прекращения	-9862
▁производить	-9863
▁собственных	-9864
▁сотрудникам	-9865
▁сохраняется	-9866
▁специальное	-9867
▁специальный	-9868
▁традиционно	-9869
▁украинского	-9870
▁управляющим	-9871
▁федеральным	-9872
▁ходатайству	-9873
промышленного	-9874
▁безопасность	-9875
▁бронирований	-9876
▁гендиректора	-9877
▁гражданского	-9878
▁губернатором	-9879
▁единственным	-9880
▁заместителей	-9881
▁иностранного	-9882
▁инструментов	-9883
▁капитального	-9884
▁комментирует	-9885
▁коммунальные	-9886
▁максимальной	-9887
▁оперативники	-9888
▁отопительный	-9889
▁подтверждает	-9890
▁поставщиками	-9891
▁представляет	-9892
▁рассмотрению	-9893
▁собственному	-9894
▁спецоперации	-9895
▁устойчивость	-9896
▁эвакуировали	-9897
▁водохранилища	-9898
▁зафиксировали	-9899
▁информационно	-9900
▁концессионных	-9901
▁международные	-9902
▁муниципальной	-9903
▁обвинительным	-9904
▁предприятиями	-9905
▁производители	-9906
▁работодателей	-9907
▁сопровождение	-9908
▁туристических	-9909
▁взаимодействия	-9910
▁заболеваемости	-9911
▁инфраструктура	-9912
▁казаньоргсинте	-9913
▁ответственного	-9914
▁отечественного	-9915
▁президентского	-9916
▁способствовать	-9917
▁теплоснабжения	-9918
перерабатывающих	-9919
▁дополнительного	-9920
▁железнодорожный	-9921
▁замруководителя	-9922
▁противодействия	-9923
▁разбирательство	-9924
▁свидетельствуют	-9925
▁теплоснабжающая	-9926
▁территориальной	-9927
▁трубопроводного	-9928
ai	-9929
aw	-9930
lt	-9931
nn	-9932
og	-9933
pd	-9934
зв	-9935
иц	-9936
мк	-9937
оз	-9938
ок	-9939
пз	-9940
рг	-9941
фь	-9942
эз	-9943
юк	-9944
cor	-9945
hoi	-9946
ine	-9947
lti	-9948
net	-9949
tor	-9950
ами	-9951
бут	-9952
ват	-9953
вжд	-9954
гтя	-9955
дор	-9956
дца	-9957
жат	-9958
жах	-9959
заи	-9960
зде	-9961
зин	-9962
зме	-9963
йло	-9964
клы	-9965
ксо	-9966
леб	-9967
лож	-9968
луб	-9969
мки	-9970
нив	-9971
нпр	-9972
нью	-9973
пил	-9974
свя	-9975
сим	-9976
сым	-9977
тию	-9978
хих	-9979
цах	-9980
шут	-9981
щах	-9982
ьми	-9983
▁by	-9984
▁ft	-9985
▁or	-9986
▁sh	-9987
▁их	-9988
▁пы	-9989
▁см	-9990
▁юг	-9991
ashi	-9992
pace	-9993
безо	-9994
бера	-9995
вард	-9996
вера	-9997
вети	-9998
виль	-9999
дара	-10000
длен	-10001
дует	-10002
еров	-10003
жнее	-10004
зовы	-10005
июле	-10006
казу	-10007
кате	-10008
кера	-10009
кето	-10010
лева	-10011
леку	-10012
ленд	-10013
лень	-10014
ллей	-10015
лову	-10016
лоти	-10017
ммов	-10018
мыми	-10019
небе	-10020
нене	-10021
нков	-10022
ноза	-10023
нюка	-10024
оцен	-10025
преж	-10026
риев	-10027
рика	-10028
рики	-10029
риях	-10030
руем	-10031
рыве	-10032
ряет	-10033
сбыт	-10034
сеть	-10035
сомо	-10036
спет	-10037
стых	-10038
твор	-10039
тике	-10040
тила	-10041
ткой	-10042
тную	-10043
тома	-10044
туда	-10045
фили	-10046
хмао	-10047
ходу	-10048
чали	-10049
чева	-10050
чена	-10051
элек	-10052
элем	-10053
ябрю	-10054
▁aer	-10055
▁sub	-10056
▁аги	-10057
▁аму	-10058
▁бру	-10059
▁брю	-10060
▁вес	-10061
▁вик	-10062
▁вно	-10063
▁впо	-10064
▁вро	-10065
▁дни	-10066
▁дож	-10067
▁дуб	-10068
▁зим	-10069
▁изо	-10070
▁каб	-10071
▁каз	-10072
▁кво	-10073
▁кля	-10074
▁кух	-10075
▁лек	-10076
▁мож	-10077
▁мсу	-10078
▁нев	-10079
▁одк	-10080
▁оси	-10081
▁пдд	-10082
▁пом	-10083
▁пру	-10084
▁рем	-10085
▁ржд	-10086
▁сжи	-10087
▁сих	-10088
▁снг	-10089
▁сор	-10090
▁ужа	-10091
▁фнс	-10092
▁хло	-10093
▁цим	-10094
▁шар	-10095
▁шел	-10096
▁шых	-10097
▁юно	-10098
▁япо	-10099
ltima	-10100
temis	-10101
ально	-10102
бокса	-10103
будет	-10104
вляла	-10105
гнуть	-10106
дению	-10107
джера	-10108
довых	-10109
ездок	-10110
емому	-10111
ениях	-10112
завод	-10113
зента	-10114
ивать	-10115
изоля	-10116
ктики	-10117
летия	-10118
ллион	-10119
миака	-10120
несла	-10121
нефти	-10122
нится	-10123
рными	-10124
ровую	-10125
рском	-10126
ряков	-10127
серви	-10128
слежи	-10129
совет	-10130
стина	-10131
стром	-10132
табло	-10133
теров	-10134
тивов	-10135
торам	-10136
треть	-10137
тьева	-10138
финге	-10139
циони	-10140
чатки	-10141
шское	-10142
щиеся	-10143
▁азер	-10144
▁акци	-10145
▁алан	-10146
▁арта	-10147
▁бака	-10148
▁брат	-10149
▁брод	-10150
▁ввод	-10151
▁веще	-10152
▁вкон	-10153
▁вста	-10154
▁дают	-10155
▁дети	-10156
▁дири	-10157
▁диск	-10158
▁дово	-10159
▁есте	-10160
▁зале	-10161
▁заяв	-10162
▁иски	-10163
▁калу	-10164
▁коме	-10165
▁куру	-10166
▁лебе	-10167
▁мали	-10168
▁меду	-10169
▁мель	-10170
▁моди	-10171
▁мото	-10172
▁нала	-10173
▁наме	-10174
▁наро	-10175
▁нату	-10176
▁одни	-10177
▁оспо	-10178
▁отбо	-10179
▁отец	-10180
▁пахо	-10181
▁пром	-10182
▁радо	-10183
▁резо	-10184
▁сади	-10185
▁сзфо	-10186
▁силе	-10187
▁софи	-10188
▁схва	-10189
▁тези	-10190
▁тома	-10191
▁труб	-10192
▁туре	-10193
▁урсу	-10194
▁усил	-10195
▁хочу	-10196
▁целе	-10197
▁ябло	-10198
▁яков	-10199
ashion	-10200
альной	-10201
бюджет	-10202
вичков	-10203
ганска	-10204
граммы	-10205
делить	-10206
держан	-10207
держек	-10208
динова	-10209
довлет	-10210
дромет	-10211
жаться	-10212
казать	-10213
камчат	-10214
лински	-10215
ллейбу	-10216
льской	-10217
матери	-10218
ниться	-10219
переда	-10220
ргизии	-10221
седних	-10222
смотра	-10223
страхо	-10224
ступят	-10225
тивным	-10226
торами	-10227
центре	-10228
читься	-10229
шениях	-10230
шенные	-10231
эконом	-10232
ющийся	-10233
▁автор	-10234
▁азиат	-10235
▁архив	-10236
▁бакси	-10237
▁банке	-10238
▁бдипч	-10239
▁билет	-10240
▁биржи	-10241
▁бойко	-10242
▁борту	-10243
▁брать	-10244
▁броне	-10245
▁бурла	-10246
▁ввела	-10247
▁верси	-10248
▁весом	-10249
▁взгля	-10250
▁взять	-10251
▁видно	-10252
▁вовсе	-10253
▁вывод	-10254
▁герма	-10255
▁гибдд	-10256
▁госта	-10257
▁двери	-10258
▁дворе	-10259
▁дегтя	-10260
▁декла	-10261
▁делам	-10262
▁домой	-10263
▁досле	-10264
▁досто	-10265
▁дрона	-10266
▁забро	-10267
▁залож	-10268
▁земля	-10269
▁игоря	-10270
▁избир	-10271
▁ислен	-10272
▁итого	-10273
▁каких	-10274
▁кален	-10275
▁камен	-10276
▁кампу	-10277
▁касым	-10278
▁кимме	-10279
▁кубка	-10280
▁кудря	-10281
▁кузба	-10282
▁леген	-10283
▁линий	-10284
▁линия	-10285
▁любов	-10286
▁милле	-10287
▁минфи	-10288
▁мозаи	-10289
▁морей	-10290
▁накоп	-10291
▁никол	-10292
▁опухо	-10293
▁оскор	-10294
▁ослож	-10295
▁патру	-10296
▁переу	-10297
▁переч	-10298
▁пишут	-10299
▁плодо	-10300
▁повер	-10301
▁подра	-10302
▁посад	-10303
▁приба	-10304
▁прися	-10305
▁пятер	-10306
▁пятом	-10307
▁самом	-10308
▁самые	-10309
▁света	-10310
▁сериа	-10311
▁смену	-10312
▁сосла	-10313
▁стара	-10314
▁схеме	-10315
▁сцене	-10316
▁тайип	-10317
▁тамбо	-10318
▁титан	-10319
▁точно	-10320
▁турпо	-10321
▁упали	-10322
▁цикла	-10323
▁чечен	-10324
▁юрлиц	-10325
▁юрпсо	-10326
▁ямало	-10327
городки	-10328
ждением	-10329
женного	-10330
ковская	-10331
левской	-10332
летнему	-10333
невский	-10334
новятся	-10335
ноземья	-10336
ровская	-10337
спекция	-10338
стрелил	-10339
струдин	-10340
точниче	-10341
ческому	-10342
ющегося	-10343
▁ultima	-10344
▁адыгеи	-10345
▁ариант	-10346
▁баланс	-10347
▁баллон	-10348
▁болель	-10349
▁бывшей	-10350
▁верхне	-10351
▁волков	-10352
▁выдано	-10353
▁вызван	-10354
▁вылета	-10355
▁вымога	-10356
▁выходе	-10357
▁гнеева	-10358
▁грузов	-10359
▁детали	-10360
▁диалог	-10361
▁долгов	-10362
▁другую	-10363
▁законе	-10364
▁заняли	-10365
▁инспек	-10366
▁каждой	-10367
▁каждым	-10368
▁камеры	-10369
▁канику	-10370
▁карточ	-10371
▁класси	-10372
▁кольцо	-10373
▁контак	-10374
▁ленина	-10375
▁личный	-10376
▁лучшие	-10377
▁малень	-10378
▁машина	-10379
▁метров	-10380
▁миними	-10381
▁минуте	-10382
▁мирный	-10383
▁молодо	-10384
▁мосбир	-10385
▁мотиви	-10386
▁навига	-10387
▁навыки	-10388
▁настро	-10389
▁никита	-10390
▁никоно	-10391
▁новоор	-10392
▁носков	-10393
▁обстре	-10394
▁объему	-10395
▁обычно	-10396
▁одержа	-10397
▁оппози	-10398
▁опытом	-10399
▁основу	-10400
▁отбора	-10401
▁относя	-10402
▁отряда	-10403
▁отстра	-10404
▁оттуда	-10405
▁партий	-10406
▁пензен	-10407
▁писали	-10408
▁побере	-10409
▁подано	-10410
▁подача	-10411
▁подвер	-10412
▁подвод	-10413
▁подели	-10414
▁пожаре	-10415
▁потери	-10416
▁призыв	-10417
▁пришли	-10418
▁прозву	-10419
▁проник	-10420
▁просит	-10421
▁процен	-10422
▁прошло	-10423
▁пункте	-10424
▁разгла	-10425
▁району	-10426
▁риском	-10427
▁самовы	-10428
▁священ	-10429
▁сделку	-10430
▁сербии	-10431
▁сложно	-10432
▁случая	-10433
▁собран	-10434
▁соотно	-10435
▁спонсо	-10436
▁сроков	-10437
▁стадии	-10438
▁станут	-10439
▁счасть	-10440
▁тигром	-10441
▁транза	-10442
▁трасса	-10443
▁тротуа	-10444
▁тысячи	-10445
▁тюмени	-10446
▁удержа	-10447
▁удосто	-10448
▁узбеки	-10449
▁фильмы	-10450
▁хартли	-10451
▁челнах	-10452
▁юлаева	-10453
восстано	-10454
градская	-10455
нального	-10456
прежнему	-10457
ровалось	-10458
специали	-10459
ственная	-10460
▁азербай	-10461
▁аммиака	-10462
▁анализа	-10463
▁анталью	-10464
▁армения	-10465
▁ватикан	-10466
▁великой	-10467
▁влияния	-10468
▁военная	-10469
▁впослед	-10470
▁вредных	-10471
▁вступит	-10472
▁выплата	-10473
▁высказа	-10474
▁высокая	-10475
▁высокие	-10476
▁высокую	-10477
▁вычетов	-10478
▁выявила	-10479
▁господа	-10480
▁граммов	-10481
▁девочка	-10482
▁девочки	-10483
▁демонти	-10484
▁дизайна	-10485
▁добавив	-10486
▁желание	-10487
▁заводов	-10488
▁закупку	-10489
▁заложен	-10490
▁зданиях	-10491
▁изделия	-10492
▁интегра	-10493
▁интерак	-10494
▁карьеру	-10495
▁комната	-10496
▁комсомо	-10497
▁краевую	-10498
▁местный	-10499
▁металла	-10500
▁мировая	-10501
▁молодой	-10502
▁морских	-10503
▁наличие	-10504
▁наличии	-10505
▁налогам	-10506
▁налогов	-10507
▁напитки	-10508
▁несущие	-10509
▁номеров	-10510
▁нормати	-10511
▁облдуму	-10512
▁обломки	-10513
▁обороне	-10514
▁ожидает	-10515
▁опровер	-10516
▁остался	-10517
▁открыты	-10518
▁оформля	-10519
▁охватил	-10520
▁парамет	-10521
▁передви	-10522
▁периоди	-10523
▁платежи	-10524
▁поднебе	-10525
▁поездок	-10526
▁покрови	-10527
▁попытки	-10528
▁примени	-10529
▁просили	-10530
▁прочего	-10531
▁пушкина	-10532
▁работам	-10533
▁размера	-10534
▁размеры	-10535
▁секрета	-10536
▁символи	-10537
▁снимать	-10538
▁событие	-10539
▁событий	-10540
▁состава	-10541
▁спецтех	-10542
▁спикера	-10543
▁стенами	-10544
▁сторона	-10545
▁страной	-10546
▁стресса	-10547
▁татьяну	-10548
▁текущих	-10549
▁терапии	-10550
▁туалете	-10551
▁тушении	-10552
▁увидеть	-10553
▁ударили	-10554
▁употреб	-10555
▁упрощен	-10556
▁уступил	-10557
▁учебном	-10558
▁хватает	-10559
▁цифрови	-10560
▁четырем	-10561
▁экспери	-10562
▁ядерных	-10563
поведника	-10564
ступление	-10565
▁аварийно	-10566
▁автобусы	-10567
▁алкоголя	-10568
▁атомного	-10569
▁благодар	-10570
▁боликова	-10571
▁больница	-10572
▁брифинге	-10573
▁брянской	-10574
▁бумажным	-10575
▁вакансии	-10576
▁вероятно	-10577
▁ветерина	-10578
▁внимания	-10579
▁временем	-10580
▁выделили	-10581
▁выиграть	-10582
▁вырастут	-10583
▁высокопо	-10584
▁выступит	-10585
▁гарантий	-10586
▁генконсу	-10587
▁географи	-10588
▁гидромет	-10589
▁говорила	-10590
▁госсовет	-10591
▁градусов	-10592
▁дипломат	-10593
▁добиться	-10594
▁достигли	-10595
▁дочерняя	-10596
▁завершен	-10597
▁заменить	-10598
▁зрителей	-10599
▁качество	-10600
▁киргизии	-10601
▁коллегам	-10602
▁концерна	-10603
▁лицензия	-10604
▁маркетин	-10605
▁маршруту	-10606
▁мегафона	-10607
▁михайлов	-10608
▁многодет	-10609
▁морского	-10610
▁новичков	-10611
▁обнаружи	-10612
▁объектом	-10613
▁основным	-10614
▁ответили	-10615
▁отставке	-10616
▁паспорта	-10617
▁перевели	-10618
▁переводи	-10619
▁переданы	-10620
▁петропав	-10621
▁платформ	-10622
▁площадок	-10623
▁повредил	-10624
▁подборке	-10625
▁подписан	-10626
▁пожарные	-10627
▁покупали	-10628
▁помогает	-10629
▁помощник	-10630
▁поправок	-10631
▁появятся	-10632
▁правилам	-10633
▁превысит	-10634
▁придется	-10635
▁признаки	-10636
▁продлить	-10637
▁продукта	-10638
▁проезжую	-10639
▁проектом	-10640
▁пропуска	-10641
▁процессы	-10642
▁работник	-10643
▁разговор	-10644
▁северная	-10645
▁смотреть	-10646
▁собрании	-10647
▁сообщала	-10648
▁соседних	-10649
▁способна	-10650
▁способом	-10651
▁стартова	-10652
▁старшего	-10653
▁структур	-10654
▁судебной	-10655
▁сценарии	-10656
▁талантли	-10657
▁татнефть	-10658
▁топливно	-10659
▁торговля	-10660
▁упомянул	-10661
▁управлен	-10662
▁уточняют	-10663
▁учеников	-10664
▁холодной	-10665
▁ценности	-10666
довлетвори	-10667
менеджеров	-10668
петербургу	-10669
рабатывать	-10670
▁аудиторов	-10671
▁валентина	-10672
▁взаимодей	-10673
▁виновными	-10674
▁вконтакте	-10675
▁владельцу	-10676
▁выпускать	-10677
▁городская	-10678
▁гострудин	-10679
▁доброволь	-10680
▁достигает	-10681
▁ежедневно	-10682
▁животного	-10683
▁заведения	-10684
▁завершило	-10685
▁заключила	-10686
▁заключить	-10687
▁занятости	-10688
▁запрещает	-10689
▁известных	-10690
▁изменение	-10691
▁иркутской	-10692
▁капремонт	-10693
▁квартирах	-10694
▁климатиче	-10695
▁комитетов	-10696
▁метрополи	-10697
▁ненадлежа	-10698
▁новострой	-10699
▁обеспечил	-10700
▁обеспечит	-10701
▁осмотрели	-10702
▁основного	-10703
▁основными	-10704
▁отдельное	-10705
▁отопление	-10706
▁отправить	-10707
▁панкратов	-10708
▁партнеров	-10709
▁пешеходов	-10710
▁поддержал	-10711
▁позволяют	-10712
▁пригрозил	-10713
▁признание	-10714
▁признании	-10715
▁принимает	-10716
▁принимают	-10717
▁проблемой	-10718
▁проведена	-10719
▁проведено	-10720
▁проверяют	-10721
▁проводить	-10722
▁продлится	-10723
▁прокуроры	-10724
▁проспекту	-10725
▁протоколы	-10726
▁процедуру	-10727
▁психологи	-10728
▁публичные	-10729
▁работника	-10730
▁развивать	-10731
▁расширить	-10732
▁реализует	-10733
▁санитарно	-10734
▁связанные	-10735
▁связывают	-10736
▁сервисами	-10737
▁сертифика	-10738
▁серьезные	-10739
▁системами	-10740
▁следующей	-10741
▁следующим	-10742
▁служебной	-10743
▁составить	-10744
▁сохранить	-10745
▁спецслужб	-10746
▁структуру	-10747
▁таганроге	-10748
▁троллейбу	-10749
▁увеличила	-10750
▁указывают	-10751
▁управляет	-10752
▁установят	-10753
▁участвуют	-10754
▁федерация	-10755
▁функциона	-10756
▁хоккейной	-10757
▁цифрового	-10758
▁частичной	-10759
▁шыхлински	-10760
▁элементов	-10761
▁ярославля	-10762
способность	-10763
точничестве	-10764
▁авиагавани	-10765
▁банковские	-10766
▁библиотеки	-10767
▁вертолетов	-10768
▁внутренних	-10769
▁гастрономи	-10770
▁геленджике	-10771
▁загорелась	-10772
▁заинтересо	-10773
▁зарубежных	-10774
▁заседаниях	-10775
▁иноагентов	-10776
▁китайского	-10777
▁культурных	-10778
▁ленинского	-10779
▁лояльности	-10780
▁назначении	-10781
▁нарушением	-10782
▁недоступны	-10783
▁незаконной	-10784
▁нововороне	-10785
▁обвиняемой	-10786
▁обратились	-10787
▁объявлений	-10788
▁ограничено	-10789
▁ограничить	-10790
▁опрошенные	-10791
▁отвечающих	-10792
▁отличается	-10793
▁памятников	-10794
▁подготовил	-10795
▁подрядчика	-10796
▁подсудимый	-10797
▁показывает	-10798
▁полученные	-10799
▁постановки	-10800
▁постепенно	-10801
▁пребывания	-10802
▁приступить	-10803
▁причинение	-10804
▁ресторанов	-10805
▁сбережения	-10806
▁своевремен	-10807
▁серьезными	-10808
▁сообществе	-10809
▁сооружения	-10810
▁сохранение	-10811
▁спецслужбы	-10812
▁ставрополя	-10813
▁творческие	-10814
▁топливного	-10815
▁тренировки	-10816
▁уничтожены	-10817
▁установила	-10818
▁финансовых	-10819
▁чемпионате	-10820
▁черноземья	-10821
▁юрисдикции	-10822
безопасности	-10823
видетельство	-10824
эпидемиологи	-10825
▁архитектуры	-10826
▁банкротстве	-10827
▁беспилотной	-10828
▁вооруженные	-10829
▁воронежский	-10830
▁действовали	-10831
▁доследствен	-10832
▁енисейского	-10833
▁журналистов	-10834
▁заболевание	-10835
▁комментарий	-10836
▁мероприятии	-10837
▁направление	-10838
▁незаконного	-10839
▁неизвестные	-10840
▁необходимым	-10841
▁новостройки	-10842
▁обеспечению	-10843
▁объясняется	-10844
▁ознакомился	-10845
▁осколочными	-10846
▁официальных	-10847
▁пенсионеров	-10848
▁планировали	-10849
▁подозревают	-10850
▁посвященной	-10851
▁посетителей	-10852
▁потребовала	-10853
▁представить	-10854
▁предупрежда	-10855
▁прекращение	-10856
▁применением	-10857
▁причиненный	-10858
▁расположены	-10859
▁реставрацию	-10860
▁севастополя	-10861
▁сегодняшний	-10862
▁соединенные	-10863
▁страхование	-10864
▁температуры	-10865
▁террористов	-10866
▁установлена	-10867
▁устойчивого	-10868
▁федеральные	-10869
▁французский	-10870
▁харьковской	-10871
ведомственной	-10872
исследователь	-10873
спасательного	-10874
▁американских	-10875
▁впоследствии	-10876
▁государством	-10877
▁действующего	-10878
▁еврокомиссии	-10879
▁изготовлению	-10880
▁исследовании	-10881
▁минпромторга	-10882
▁национальных	-10883
▁недостаточно	-10884
▁обслуживанию	-10885
▁опубликовало	-10886
▁организаторы	-10887
▁организовали	-10888
▁подчеркивает	-10889
▁политических	-10890
▁популярность	-10891
▁пострадавший	-10892
▁представляют	-10893
▁преступлений	-10894
▁приостанавли	-10895
▁приостановил	-10896
▁распоряжении	-10897
▁рассмотрении	-10898
▁рассчитываем	-10899
▁соревнований	-10900
▁транспортная	-10901
▁формированию	-10902
▁французского	-10903
▁законопроекту	-10904
▁заместителями	-10905
▁запланированы	-10906
▁зафиксированы	-10907
▁интеллектуаль	-10908
▁испытательным	-10909
▁исследователь	-10910
▁исторического	-10911
▁красноярского	-10912
▁министерством	-10913
▁муниципальное	-10914
▁неудовлетвори	-10915
▁обслуживанием	-10916
▁подразделение	-10917
▁потенциальных	-10918
▁предоставлено	-10919
▁рекомендовали	-10920
▁рекомендуется	-10921
▁существования	-10922
▁туристический	-10923
▁установленных	-10924
▁экономический	-10925
▁взаимодействие	-10926
▁взяточничестве	-10927
▁дополнительную	-10928
▁инвестиционной	-10929
▁исполнительной	-10930
▁новороссийский	-10931
▁правительством	-10932
▁предоставлении	-10933
▁предупреждения	-10934
▁прогнозируется	-10935
▁удовлетворении	-10936
▁уполномоченный	-10937
▁уполномоченным	-10938
▁урегулировании	-10939
▁электростанции	-10940
▁видеонаблюдения	-10941
▁воспользоваться	-10942
▁дипломатических	-10943
▁железнодорожных	-10944
▁непосредственно	-10945
▁покровительство	-10946
▁преимущественно	-10947
▁путешественники	-10948
▁республиканской	-10949
▁росприроднадзор	-10950
cn	-10951
de	-10952
ga	-10953
iv	-10954
pi	-10955
uc	-10956
ve	-10957
ам	-10958
бд	-10959
бя	-10960
гс	-10961
зд	-10962
зю	-10963
ис	-10964
нв	-10965
ой	-10966
пп	-10967
пс	-10968
чт	-10969
эд	-10970
яз	-10971
all	-10972
app	-10973
ari	-10974
ats	-10975
efa	-10976
eta	-10977
iii	-10978
ple	-10979
way	-10980
али	-10981
бая	-10982
бее	-10983
ваю	-10984
вец	-10985
все	-10986
гон	-10987
дры	-10988
дте	-10989
дфл	-10990
жам	-10991
жли	-10992
жье	-10993
лке	-10994
мир	-10995
ниу	-10996
оба	-10997
пят	-10998
рюл	-10999
сив	-11000
спк	-11001
фей	-11002
фек	-11003
хин	-11004
цом	-11005
чив	-11006
чие	-11007
чим	-11008
чия	-11009
чке	-11010
чко	-11011
шал	-11012
шан	-11013
шаф	-11014
ьер	-11015
▁al	-11016
▁ii	-11017
▁of	-11018
▁ra	-11019
▁sa	-11020
▁so	-11021
▁вг	-11022
▁вэ	-11023
▁зу	-11024
▁тс	-11025
▁хе	-11026
▁хк	-11027
▁щи	-11028
▁эл	-11029
▁эп	-11030
анду	-11031
валы	-11032
вклю	-11033
ворю	-11034
гард	-11035
геро	-11036
гики	-11037
дава	-11038
дева	-11039
диан	-11040
дрик	-11041
дума	-11042
едет	-11043
енев	-11044
жаев	-11045
жник	-11046
земе	-11047
зюдо	-11048
кали	-11049
касс	-11050
каун	-11051
лени	-11052
леры	-11053
лога	-11054
меся	-11055
мкив	-11056
мэра	-11057
нгом	-11058
нная	-11059
нным	-11060
нула	-11061
обще	-11062
одеж	-11063
писи	-11064
пита	-11065
плош	-11066
пожа	-11067
поку	-11068
рджо	-11069
редо	-11070
реза	-11071
рено	-11072
рест	-11073
рять	-11074
сент	-11075
скре	-11076
скур	-11077
тена	-11078
тику	-11079
туры	-11080
цами	-11081
циом	-11082
чами	-11083
чист	-11084
ьями	-11085
▁abc	-11086
▁byd	-11087
▁cnn	-11088
▁com	-11089
▁esg	-11090
▁iii	-11091
▁pos	-11092
▁val	-11093
▁wta	-11094
▁азо	-11095
▁акт	-11096
▁аля	-11097
▁арт	-11098
▁арх	-11099
▁баз	-11100
▁гар	-11101
▁джу	-11102
▁дне	-11103
▁еги	-11104
▁егэ	-11105
▁ефи	-11106
▁ико	-11107
▁имя	-11108
▁кир	-11109
▁коу	-11110
▁лай	-11111
▁лев	-11112
▁муп	-11113
▁мяг	-11114
▁неи	-11115
▁нес	-11116
▁нпз	-11117
▁обь	-11118
▁оск	-11119
▁оха	-11120
▁поу	-11121
▁рен	-11122
▁рус	-11123
▁слы	-11124
▁уку	-11125
▁фбр	-11126
▁фик	-11127
▁фру	-11128
▁фтс	-11129
▁хер	-11130
▁цар	-11131
▁шат	-11132
▁шеи	-11133
▁шен	-11134
▁шеф	-11135
oneer	-11136
берут	-11137
вирус	-11138
волга	-11139
дился	-11140
енной	-11141
жащих	-11142
жется	-11143
жском	-11144
йорка	-11145
казов	-11146
класс	-11147
кован	-11148
ковым	-11149
лиган	-11150
лился	-11151
логом	-11152
льсен	-11153
марта	-11154
меров	-11155
метал	-11156
мушки	-11157
ндшаф	-11158
около	-11159
панов	-11160
пенга	-11161
праши	-11162
прези	-11163
припа	-11164
ратор	-11165
ровку	-11166
ртаев	-11167
связи	-11168
слева	-11169
соблю	-11170
спере	-11171
ссети	-11172
сской	-11173
сталь	-11174
страя	-11175
стрее	-11176
суточ	-11177
тации	-11178
тетом	-11179
товая	-11180
фокус	-11181
цизма	-11182
чника	-11183
штаба	-11184
щиком	-11185
▁lada	-11186
▁shot	-11187
▁tecn	-11188
▁uefa	-11189
▁абор	-11190
▁абра	-11191
▁арми	-11192
▁армя	-11193
▁ахме	-11194
▁бабу	-11195
▁бала	-11196
▁бела	-11197
▁ближ	-11198
▁блог	-11199
▁ботс	-11200
▁брас	-11201
▁буты	-11202
▁взор	-11203
▁впро	-11204
▁выго	-11205
▁вызы	-11206
▁гази	-11207
▁гром	-11208
▁даст	-11209
▁дель	-11210
▁дета	-11211
▁джет	-11212
▁драй	-11213
▁дрон	-11214
▁друз	-11215
▁ждут	-11216
▁звез	-11217
▁знаю	-11218
▁иные	-11219
▁испа	-11220
▁ищут	-11221
▁кабе	-11222
▁коля	-11223
▁копи	-11224
▁крис	-11225
▁лада	-11226
▁леги	-11227
▁лист	-11228
▁лиха	-11229
▁лицо	-11230
▁лота	-11231
▁мате	-11232
▁меда	-11233
▁мери	-11234
▁мета	-11235
▁моро	-11236
▁нано	-11237
▁нара	-11238
▁ндфл	-11239
▁небо	-11240
▁неве	-11241
▁него	-11242
▁нера	-11243
▁озер	-11244
▁орби	-11245
▁отда	-11246
▁отсы	-11247
▁пато	-11248
▁петр	-11249
▁пнев	-11250
▁пого	-11251
▁речи	-11252
▁риск	-11253
▁рога	-11254
▁рома	-11255
▁руки	-11256
▁сайт	-11257
▁свжд	-11258
▁свод	-11259
▁семе	-11260
▁скан	-11261
▁сожи	-11262
▁суди	-11263
▁сути	-11264
▁тихо	-11265
▁угля	-11266
▁утро	-11267
▁хаба	-11268
▁хиру	-11269
▁цоко	-11270
▁часы	-11271
▁штат	-11272
▁югры	-11273
▁яшин	-11274
альным	-11275
вились	-11276
вности	-11277
вшиеся	-11278
гаются	-11279
диться	-11280
дового	-11281
емость	-11282
жается	-11283
жающих	-11284
знания	-11285
ковник	-11286
курора	-11287
летели	-11288
льском	-11289
менная	-11290
мерный	-11291
навтов	-11292
обеспе	-11293
образу	-11294
подава	-11295
посадо	-11296
распре	-11297
рениях	-11298
рующая	-11299
рующих	-11300
сковой	-11301
скомпа	-11302
соснаб	-11303
справа	-11304
тивная	-11305
черный	-11306
чности	-11307
щенные	-11308
щенным	-11309
▁covid	-11310
▁англи	-11311
▁ансат	-11312
▁бадра	-11313
▁балко	-11314
▁битва	-11315
▁болга	-11316
▁буквы	-11317
▁букси	-11318
▁вадим	-11319
▁валют	-11320
▁верфь	-11321
▁взрос	-11322
▁вирус	-11323
▁вошла	-11324
▁вроде	-11325
▁вциом	-11326
▁выгля	-11327
▁выйти	-11328
▁вычет	-11329
▁гайси	-11330
▁гумен	-11331
▁держа	-11332
▁джона	-11333
▁дзюдо	-11334
▁дипми	-11335
▁докла	-11336
▁драго	-11337
▁егрюл	-11338
▁елиза	-11339
▁жизне	-11340
▁закре	-11341
▁здоро	-11342
▁зенит	-11343
▁ивана	-11344
▁ивану	-11345
▁иском	-11346
▁июлем	-11347
▁кибер	-11348
▁колон	-11349
▁конта	-11350
▁котте	-11351
▁краем	-11352
▁лицом	-11353
▁любой	-11354
▁масло	-11355
▁месту	-11356
▁мигра	-11357
▁минни	-11358
▁минсе	-11359
▁мозга	-11360
▁мотор	-11361
▁найма	-11362
▁науке	-11363
▁новак	-11364
▁норве	-11365
▁ночей	-11366
▁общих	-11367
▁опере	-11368
▁опция	-11369
▁орджо	-11370
▁остек	-11371
▁отдых	-11372
▁офиса	-11373
▁панси	-11374
▁парке	-11375
▁патро	-11376
▁пекин	-11377
▁пента	-11378
▁перед	-11379
▁пилот	-11380
▁плату	-11381
▁платы	-11382
▁подчи	-11383
▁помог	-11384
▁порно	-11385
▁посла	-11386
▁почты	-11387
▁почув	-11388
▁прива	-11389
▁приез	-11390
▁прино	-11391
▁прину	-11392
▁прово	-11393
▁пусть	-11394
▁рассе	-11395
▁ритей	-11396
▁рулем	-11397
▁рынки	-11398
▁рынку	-11399
▁самми	-11400
▁сануз	-11401
▁свадь	-11402
▁семян	-11403
▁симон	-11404
▁синте	-11405
▁смены	-11406
▁созыв	-11407
▁солне	-11408
▁солта	-11409
▁сообщ	-11410
▁сопро	-11411
▁сотни	-11412
▁сочин	-11413
▁сплош	-11414
▁среде	-11415
▁стола	-11416
▁сухая	-11417
▁сфера	-11418
▁сырье	-11419
▁тезис	-11420
▁тепли	-11421
▁терен	-11422
▁торже	-11423
▁тренд	-11424
▁троих	-11425
▁фарма	-11426
▁фенев	-11427
▁фирма	-11428
▁флота	-11429
▁форму	-11430
▁формы	-11431
▁фронт	-11432
▁ханты	-11433
▁цимля	-11434
▁честь	-11435
▁шесто	-11436
▁южном	-11437
включая	-11438
жденных	-11439
кторами	-11440
лизация	-11441
миллион	-11442
нимется	-11443
ризация	-11444
ровском	-11445
спетчер	-11446
театрах	-11447
тивными	-11448
тинента	-11449
тографи	-11450
торской	-11451
чностью	-11452
электро	-11453
этажное	-11454
юганска	-11455
▁golden	-11456
▁австра	-11457
▁австри	-11458
▁автори	-11459
▁адресу	-11460
▁аккаун	-11461
▁анализ	-11462
▁артему	-11463
▁ассист	-11464
▁банкно	-11465
▁боевые	-11466
▁бронзо	-11467
▁будучи	-11468
▁бульва	-11469
▁бывших	-11470
▁важный	-11471
▁венгер	-11472
▁версию	-11473
▁вечера	-11474
▁вклады	-11475
▁войдут	-11476
▁вообще	-11477
▁вперед	-11478
▁врачам	-11479
▁выбран	-11480
▁вывода	-11481
▁вызова	-11482
▁высшее	-11483
▁вьетна	-11484
▁газете	-11485
▁говорю	-11486
▁готовя	-11487
▁гуфсин	-11488
▁денису	-11489
▁джесси	-11490
▁дизель	-11491
▁другое	-11492
▁думать	-11493
▁единую	-11494
▁заказы	-11495
▁заочно	-11496
▁запасы	-11497
▁записи	-11498
▁заявку	-11499
▁знание	-11500
▁золото	-11501
▁изъять	-11502
▁исходя	-11503
▁каждая	-11504
▁казачи	-11505
▁камчат	-11506
▁катера	-11507
▁квадро	-11508
▁конвен	-11509
▁контек	-11510
▁крайне	-11511
▁кудряв	-11512
▁курджи	-11513
▁легкой	-11514
▁личном	-11515
▁личные	-11516
▁личных	-11517
▁лучшим	-11518
▁магатэ	-11519
▁мандат	-11520
▁маркса	-11521
▁массой	-11522
▁месяцы	-11523
▁методи	-11524
▁мнение	-11525
▁набрал	-11526
▁налоги	-11527
▁налогу	-11528
▁нежела	-11529
▁нецеле	-11530
▁николя	-11531
▁ночной	-11532
▁ноябрь	-11533
▁обмена	-11534
▁обруши	-11535
▁овощей	-11536
▁оксана	-11537
▁омский	-11538
▁оптима	-11539
▁отказе	-11540
▁открыт	-11541
▁оценка	-11542
▁павиль	-11543
▁паркер	-11544
▁перепи	-11545
▁победа	-11546
▁подало	-11547
▁подать	-11548
▁подачу	-11549
▁пожела	-11550
▁поздра	-11551
▁попада	-11552
▁попыта	-11553
▁посоль	-11554
▁предше	-11555
▁преодо	-11556
▁прибыл	-11557
▁приказ	-11558
▁прилет	-11559
▁пришел	-11560
▁продал	-11561
▁пьянов	-11562
▁разбор	-11563
▁разной	-11564
▁раская	-11565
▁речное	-11566
▁решать	-11567
▁рисков	-11568
▁рынком	-11569
▁самаре	-11570
▁связям	-11571
▁склады	-11572
▁слабее	-11573
▁снятия	-11574
▁соболя	-11575
▁спасли	-11576
▁спрята	-11577
▁срочно	-11578
▁старту	-11579
▁старых	-11580
▁статьи	-11581
▁студен	-11582
▁токаев	-11583
▁тюрьме	-11584
▁уборку	-11585
▁убыток	-11586
▁улучши	-11587
▁уровню	-11588
▁успеха	-11589
▁устава	-11590
▁филиал	-11591
▁фильма	-11592
▁хозяев	-11593
▁цедрик	-11594
▁церкви	-11595
▁шимкив	-11596
▁штатов	-11597
▁экскур	-11598
▁юртаев	-11599
женности	-11600
компания	-11601
продукты	-11602
рованная	-11603
рованным	-11604
становил	-11605
тинского	-11606
тический	-11607
хождении	-11608
цейского	-11609
▁fashion	-11610
▁pioneer	-11611
▁асфальт	-11612
▁байдена	-11613
▁батареи	-11614
▁болтона	-11615
▁брендом	-11616
▁будущих	-11617
▁быстрее	-11618
▁бытовые	-11619
▁введено	-11620
▁взлетно	-11621
▁взыскал	-11622
▁воздухе	-11623
▁вопроса	-11624
▁вопросе	-11625
▁востоке	-11626
▁впереди	-11627
▁впрочем	-11628
▁выбрали	-11629
▁вывести	-11630
▁выручки	-11631
▁высоких	-11632
▁гвардии	-11633
▁годовой	-11634
▁горение	-11635
▁горячей	-11636
▁госдуме	-11637
▁госуслу	-11638
▁границе	-11639
▁девочку	-11640
▁девушек	-11641
▁деревня	-11642
▁дорожно	-11643
▁евгению	-11644
▁заданию	-11645
▁запросы	-11646
▁извести	-11647
▁имеются	-11648
▁ипотеке	-11649
▁исправи	-11650
▁картофе	-11651
▁карьеры	-11652
▁климата	-11653
▁комедии	-11654
▁комнате	-11655
▁конкури	-11656
▁копенга	-11657
▁красную	-11658
▁крупный	-11659
▁купянск	-11660
▁лаврова	-11661
▁ландшаф	-11662
▁липецке	-11663
▁максиму	-11664
▁маломер	-11665
▁мансура	-11666
▁медведя	-11667
▁месторо	-11668
▁металло	-11669
▁минпрос	-11670
▁минтран	-11671
▁молдави	-11672
▁музыкан	-11673
▁наимено	-11674
▁наложен	-11675
▁нанесли	-11676
▁несогла	-11677
▁никонов	-11678
▁обвинил	-11679
▁образов	-11680
▁обратил	-11681
▁обязали	-11682
▁оснащен	-11683
▁открыто	-11684
▁отмечал	-11685
▁отрасле	-11686
▁отслежи	-11687
▁отстран	-11688
▁оценили	-11689
▁очереди	-11690
▁передал	-11691
▁переори	-11692
▁перечис	-11693
▁периоду	-11694
▁пескова	-11695
▁петерго	-11696
▁питание	-11697
▁платить	-11698
▁платных	-11699
▁подходы	-11700
▁пожарно	-11701
▁помогут	-11702
▁попытке	-11703
▁попытку	-11704
▁природы	-11705
▁продать	-11706
▁проекту	-11707
▁просьба	-11708
▁протест	-11709
▁пятерку	-11710
▁разделе	-11711
▁расцени	-11712
▁расчета	-11713
▁россети	-11714
▁сгорели	-11715
▁сдержан	-11716
▁секунды	-11717
▁слюсарь	-11718
▁созинов	-11719
▁сохраня	-11720
▁станицы	-11721
▁странах	-11722
▁счастье	-11723
▁тамбове	-11724
▁трампом	-11725
▁турнира	-11726
▁тяжкого	-11727
▁уверены	-11728
▁украину	-11729
▁упомина	-11730
▁федотов	-11731
▁финлянд	-11732
▁хищения	-11733
▁хорошие	-11734
▁хулиган	-11735
▁центров	-11736
▁чебокса	-11737
▁экзамен	-11738
▁эстония	-11739
обращения	-11740
покушение	-11741
представи	-11742
продукции	-11743
ственными	-11744
чреждение	-11745
▁авангард	-11746
▁автобуса	-11747
▁аэродром	-11748
▁баксиков	-11749
▁балицкий	-11750
▁безуслов	-11751
▁боеприпа	-11752
▁ботсваны	-11753
▁бурлачко	-11754
▁важность	-11755
▁введения	-11756
▁ведомств	-11757
▁взрывных	-11758
▁включают	-11759
▁воздержа	-11760
▁возможны	-11761
▁выбирают	-11762
▁выборами	-11763
▁выделить	-11764
▁выразили	-11765
▁выясняет	-11766
▁выясняют	-11767
▁германии	-11768
▁госзакуп	-11769
▁госкомпа	-11770
▁джетленд	-11771
▁динамике	-11772
▁долларов	-11773
▁доложить	-11774
▁евросоюз	-11775
▁жителями	-11776
▁завершил	-11777
▁закрытия	-11778
▁закрытом	-11779
▁занялись	-11780
▁запретил	-11781
▁запросил	-11782
▁календар	-11783
▁кандидат	-11784
▁квартиру	-11785
▁ключевая	-11786
▁колледжа	-11787
▁кольцово	-11788
▁конкурсе	-11789
▁конферен	-11790
▁курского	-11791
▁лицензии	-11792
▁личность	-11793
▁маршрута	-11794
▁меридиан	-11795
▁министры	-11796
▁минувшие	-11797
▁миронова	-11798
▁многоэта	-11799
▁мясников	-11800
▁написала	-11801
▁находясь	-11802
▁непрерыв	-11803
▁несостоя	-11804
▁нефтехим	-11805
▁никонова	-11806
▁обвинили	-11807
▁операцию	-11808
▁основная	-11809
▁осталось	-11810
▁ответчик	-11811
▁отменены	-11812
▁отрабаты	-11813
▁отраслей	-11814
▁памятник	-11815
▁первышов	-11816
▁перехода	-11817
▁пешехода	-11818
▁повестки	-11819
▁подавать	-11820
▁подожгли	-11821
▁подорожа	-11822
▁показала	-11823
▁покончил	-11824
▁покрытие	-11825
▁полагают	-11826
▁половине	-11827
▁полузащи	-11828
▁постанов	-11829
▁построен	-11830
▁потерять	-11831
▁правовой	-11832
▁праздник	-11833
▁предпочт	-11834
▁презента	-11835
▁премьера	-11836
▁привлечь	-11837
▁прикамья	-11838
▁принесли	-11839
▁пробудет	-11840
▁протапли	-11841
▁профсоюз	-11842
▁пытается	-11843
▁рабочего	-11844
▁районами	-11845
▁рогатого	-11846
▁родители	-11847
▁рыльский	-11848
▁самодель	-11849
▁самолете	-11850
▁сенаторы	-11851
▁сентябрю	-11852
▁серьезно	-11853
▁службами	-11854
▁собрание	-11855
▁сообщали	-11856
▁спецодеж	-11857
▁студенты	-11858
▁суверени	-11859
▁тепловых	-11860
▁трудовой	-11861
▁уклонист	-11862
▁упаковки	-11863
▁усилении	-11864
▁услугами	-11865
▁уфимский	-11866
▁учителей	-11867
▁филиппов	-11868
▁штенгело	-11869
▁энгельса	-11870
▁эпизодов	-11871
зированных	-11872
камчатском	-11873
российских	-11874
тельствует	-11875
▁абонентам	-11876
▁автокреди	-11877
▁амбулатор	-11878
▁артамонов	-11879
▁ассамблеи	-11880
▁банкротом	-11881
▁бесплатно	-11882
▁библиотек	-11883
▁бюджетной	-11884
▁бюджетные	-11885
▁вариантов	-11886
▁взыскания	-11887
▁включении	-11888
▁внедрение	-11889
▁возникает	-11890
▁волгоград	-11891
▁волонтеры	-11892
▁восточном	-11893
▁временное	-11894
▁временной	-11895
▁временный	-11896
▁выполнять	-11897
▁горсовета	-11898
▁госсовете	-11899
▁делегации	-11900
▁жидкостью	-11901
▁задержала	-11902
▁защитника	-11903
▁защитники	-11904
▁земельные	-11905
▁извещение	-11906
▁инвесторы	-11907
▁интересов	-11908
▁ипотечных	-11909
▁кандидаты	-11910
▁китайских	-11911
▁китайской	-11912
▁ключевыми	-11913
▁комбината	-11914
▁комплексы	-11915
▁консолиди	-11916
▁контрабан	-11917
▁контракты	-11918
▁концепции	-11919
▁котельные	-11920
▁криминали	-11921
▁лаборатор	-11922
▁ленинском	-11923
▁минздрава	-11924
▁министром	-11925
▁множество	-11926
▁мобильном	-11927
▁мобильных	-11928
▁мощностей	-11929
▁назначена	-11930
▁наркотики	-11931
▁народного	-11932
▁настоящая	-11933
▁некоторым	-11934
▁ненависти	-11935
▁неприемле	-11936
▁номинации	-11937
▁областную	-11938
▁облигации	-11939
▁обработки	-11940
▁оказывать	-11941
▁омбудсмен	-11942
▁орджоники	-11943
▁оснований	-11944
▁отделение	-11945
▁отечества	-11946
▁открытого	-11947
▁отпустили	-11948
▁оценивают	-11949
▁партнером	-11950
▁перевести	-11951
▁перевозки	-11952
▁переимено	-11953
▁перекрыто	-11954
▁перечисли	-11955
▁пермскому	-11956
▁площадках	-11957
▁повлекшее	-11958
▁повторное	-11959
▁повышении	-11960
▁подорожал	-11961
▁подписали	-11962
▁подросток	-11963
▁показаний	-11964
▁половиной	-11965
▁поселений	-11966
▁поселения	-11967
▁поставщик	-11968
▁постоянно	-11969
▁построено	-11970
▁потратить	-11971
▁появления	-11972
▁правонару	-11973
▁пределами	-11974
▁предметом	-11975
▁преподава	-11976
▁проведены	-11977
▁проектная	-11978
▁проектной	-11979
▁происходя	-11980
▁прокатный	-11981
▁профессий	-11982
▁прошедших	-11983
▁психиатри	-11984
▁публичных	-11985
▁работники	-11986
▁разговоре	-11987
▁разместил	-11988
▁расположи	-11989
▁руководил	-11990
▁скоростью	-11991
▁следующие	-11992
▁случилось	-11993
▁снабжение	-11994
▁снабжения	-11995
▁советника	-11996
▁совещании	-11997
▁сообщению	-11998
▁составлял	-11999
▁сплошными	-12000
▁сравнении	-12001
▁считается	-12002
▁татарский	-12003
▁тенденция	-12004
▁трудового	-12005
▁увеличили	-12006
▁улучшение	-12007
▁управлять	-12008
▁установку	-12009
▁устранены	-12010
▁устранить	-12011
▁факторами	-12012
▁федорищев	-12013
▁фигуранту	-12014
▁хозяйство	-12015
▁человеком	-12016
▁черемушки	-12017
▁четвертом	-12018
▁чувашской	-12019
▁электромо	-12020
губернатора	-12021
кинотеатрах	-12022
▁банковский	-12023
▁бесплатный	-12024
▁бесплатным	-12025
▁библиотеке	-12026
▁внутренние	-12027
▁возведения	-12028
▁возобновил	-12029
▁волонтеров	-12030
▁вследствие	-12031
▁вывезенных	-12032
▁господином	-12033
▁дальнейшей	-12034
▁дипломатов	-12035
▁документам	-12036
▁завершение	-12037
▁заключении	-12038
▁каспийский	-12039
▁комфортной	-12040
▁конкуренто	-12041
▁континента	-12042
▁контрактов	-12043
▁критически	-12044
▁кронштадте	-12045
▁локализова	-12046
▁мобильного	-12047
▁молодежной	-12048
▁московском	-12049
▁негативных	-12050
▁незаконное	-12051
▁незаконные	-12052
▁обогащения	-12053
▁обратиться	-12054
▁обстановки	-12055
▁операторов	-12056
▁освободить	-12057
▁отравления	-12058
▁отсутствия	-12059
▁оформления	-12060
▁партнерами	-12061
▁пассажирам	-12062
▁пензенской	-12063
▁повреждена	-12064
▁подготовку	-12065
▁подешевели	-12066
▁поднимется	-12067
▁подорожали	-12068
▁подрядчику	-12069
▁поставками	-12070
▁постановил	-12071
▁превышение	-12072
▁представят	-12073
▁предъявили	-12074
▁преступной	-12075
▁приложении	-12076
▁приоритеты	-12077
▁продуктами	-12078
▁противника	-12079
▁размещение	-12080
▁разработке	-12081
▁расписание	-12082
▁расписании	-12083
▁расписания	-12084
▁реализован	-12085
▁реальности	-12086
▁ростовскую	-12087
▁сертификат	-12088
▁скончалась	-12089
▁собирается	-12090
▁совместных	-12091
▁сообщество	-12092
▁сооружений	-12093
▁становятся	-12094
▁стартовала	-12095
▁татарстану	-12096
▁укрываться	-12097
▁устранению	-12098
▁финансовые	-12099
▁фотографии	-12100
▁экспертизу	-12101
▁аналогичные	-12102
▁бизнесменов	-12103
▁большинстве	-12104
▁воздействия	-12105
▁встретились	-12106
▁выполняться	-12107
▁высказались	-12108
▁гонконгских	-12109
▁гражданских	-12110
▁двигателями	-12111
▁заболевания	-12112
▁заксобрании	-12113
▁избирателей	-12114
▁иностранные	-12115
▁информацией	-12116
▁исполняющий	-12117
▁капитальный	-12118
▁клинических	-12119
▁количеством	-12120
▁комментарии	-12121
▁комплексном	-12122
▁коэффициент	-12123
▁красноярска	-12124
▁курсировать	-12125
▁медицинская	-12126
▁медицинский	-12127
▁методологии	-12128
▁наступления	-12129
▁находящихся	-12130
▁независимых	-12131
▁обеспечении	-12132
▁отправились	-12133
▁очередности	-12134
▁пароходства	-12135
▁пароходство	-12136
▁перехватили	-12137
▁подготовили	-12138
▁показателем	-12139
▁потребления	-12140
▁предприятии	-12141
▁предыдущего	-12142
▁прекращению	-12143
▁премиальных	-12144
▁привлекался	-12145
▁привлечении	-12146
▁приоритетом	-12147
▁продолжение	-12148
▁производств	-12149
▁противоправ	-12150
▁регулярного	-12151
▁ресурсоснаб	-12152
▁собеседники	-12153
▁собственным	-12154
▁современные	-12155
▁согласиться	-12156
▁согласовали	-12157
▁сократились	-12158
▁социального	-12159
▁специальные	-12160
▁страхования	-12161
▁таможенники	-12162
▁телевидения	-12163
▁технологиям	-12164
▁уверенность	-12165
▁управляющих	-12166
▁фигурантами	-12167
▁футбольного	-12168
▁центральных	-12169
▁центробанка	-12170
▁автомобилист	-12171
▁алкогольного	-12172
▁аналогичному	-12173
▁белгородскую	-12174
▁возможностью	-12175
▁коммерческие	-12176
▁коммунальных	-12177
▁коммуникаций	-12178
▁космического	-12179
▁коэффициента	-12180
▁максимальное	-12181
▁модернизация	-12182
▁направлениям	-12183
▁направленные	-12184
▁национальном	-12185
▁нефтеюганска	-12186
▁обследования	-12187
▁общественных	-12188
▁определенные	-12189
▁опубликовала	-12190
▁опубликовали	-12191
▁опубликованы	-12192
▁пассажирских	-12193
▁поблагодарил	-12194
▁подтверждены	-12195
▁подчеркивают	-12196
▁положительно	-12197
▁пользователи	-12198
▁популярности	-12199
▁последствиях	-12200
▁последующего	-12201
▁председателю	-12202
▁приватизации	-12203
▁приобретение	-12204
▁природоохран	-12205
▁причастности	-12206
▁причиненного	-12207
▁прояснениями	-12208
▁расследовать	-12209
▁рассчитывает	-12210
▁региональная	-12211
▁региональные	-12212
▁следственное	-12213
▁солтановский	-12214
▁соревнования	-12215
▁строительная	-12216
▁утверждается	-12217
▁утвержденным	-12218
▁федеральному	-12219
▁шолоховского	-12220
▁автоматически	-12221
▁апелляционный	-12222
▁возобновлении	-12223
▁госсекретарем	-12224
▁гуманитарного	-12225
▁долгосрочного	-12226
▁запланировано	-12227
▁использованию	-12228
▁красноуфимска	-12229
▁красноуфимске	-12230
▁логистических	-12231
▁обвинительное	-12232
▁обязательного	-12233
▁ограничениями	-12234
▁окончательное	-12235
▁организациями	-12236
▁петербургский	-12237
▁положительную	-12238
▁последствиями	-12239
▁президентской	-12240
▁располагается	-12241
▁расположенных	-12242
▁рассматривать	-12243
▁устанавливает	-12244
▁функционируют	-12245
▁электропереда	-12246
▁великобритании	-12247
▁военнослужащим	-12248
▁генконсульство	-12249
▁договоренности	-12250
▁дополнительная	-12251
▁дополнительное	-12252
▁исполнительный	-12253
▁исправительной	-12254
▁кровообращения	-12255
▁минимизировать	-12256
▁минпросвещения	-12257
▁опубликованном	-12258
▁перенаправлены	-12259
▁петропавловске	-12260
▁предоставление	-12261
▁представителем	-12262
▁сотрудничестве	-12263
▁ставропольском	-12264
▁стратегических	-12265
▁строительством	-12266
▁урегулирование	-12267
▁электропоездов	-12268
▁государственную	-12269
▁государственным	-12270
▁законодательной	-12271
▁злоупотреблении	-12272
▁информационного	-12273
▁предпринимателю	-12274
▁природопользова	-12275
▁рассматриваются	-12276
▁свидетельствует	-12277
▁соответствующей	-12278
▁транспортировки	-12279
br	-12280
di	-12281
ea	-12282
me	-12283
na	-12284
ne	-12285
ni	-12286
ov	-12287
pe	-12288
so	-12289
st	-12290
td	-12291
бб	-12292
ец	-12293
йо	-12294
рс	-12295
шь	-12296
ыз	-12297
.,-	-12298
>,<	-12299
arb	-12300
art	-12301
bit	-12302
che	-12303
ens	-12304
fon	-12305
hli	-12306
ile	-12307
ima	-12308
ity	-12309
lla	-12310
nal	-12311
oth	-12312
аги	-12313
ана	-12314
бек	-12315
бет	-12316
био	-12317
блу	-12318
бля	-12319
вне	-12320
вни	-12321
гал	-12322
гло	-12323
гос	-12324
дру	-12325
ете	-12326
жий	-12327
жут	-12328
зив	-12329
ино	-12330
ион	-12331
йки	-12332
кру	-12333
льс	-12334
мао	-12335
мах	-12336
маш	-12337
мок	-12338
моч	-12339
нау	-12340
нги	-12341
нмы	-12342
окт	-12343
они	-12344
оны	-12345
пах	-12346
пно	-12347
пор	-12348
рет	-12349
сай	-12350
сев	-12351
сей	-12352
сср	-12353
уна	-12354
унд	-12355
уфа	-12356
фан	-12357
фас	-12358
фер	-12359
фуд	-12360
цик	-12361
чел	-12362
чую	-12363
чье	-12364
шат	-12365
шер	-12366
шку	-12367
юсь	-12368
▁).	-12369
▁en	-12370
▁gu	-12371
▁wh	-12372
▁гп	-12373
▁дю	-12374
▁еж	-12375
▁ещ	-12376
▁мп	-12377
▁пр	-12378
▁пш	-12379
▁щу	-12380
▁ям	-12381
adis	-12382
cape	-12383
eric	-12384
odel	-12385
orse	-12386
reet	-12387
ruth	-12388
soft	-12389
tech	-12390
tier	-12391
usin	-12392
uten	-12393
алек	-12394
ведо	-12395
вере	-12396
визо	-12397
водо	-12398
волю	-12399
вшем	-12400
груп	-12401
дала	-12402
дежь	-12403
делы	-12404
дера	-12405
деян	-12406
джан	-12407
дием	-12408
добы	-12409
доне	-12410
емов	-12411
емую	-12412
ерти	-12413
етят	-12414
жами	-12415
жечь	-12416
жить	-12417
заде	-12418
зами	-12419
зина	-12420
ирты	-12421
йорк	-12422
кает	-12423
ката	-12424
китя	-12425
ктам	-12426
ляев	-12427
ману	-12428
меди	-12429
мому	-12430
нена	-12431
ними	-12432
обай	-12433
оном	-12434
пино	-12435
плат	-12436
рани	-12437
рейс	-12438
ризо	-12439
рову	-12440
рьер	-12441
само	-12442
санк	-12443
склю	-12444
скоп	-12445
сона	-12446
соры	-12447
спла	-12448
спол	-12449
ссуа	-12450
стат	-12451
стят	-12452
тама	-12453
тете	-12454
тиву	-12455
тихо	-12456
торг	-12457
трак	-12458
труд	-12459
фору	-12460
цким	-12461
чане	-12462
чике	-12463
член	-12464
шему	-12465
шова	-12466
щала	-12467
ыски	-12468
эксп	-12469
югра	-12470
юсер	-12471
ячих	-12472
▁boe	-12473
▁cam	-12474
▁ltd	-12475
▁mic	-12476
▁mor	-12477
▁res	-12478
▁wor	-12479
▁ага	-12480
▁апк	-12481
▁бдт	-12482
▁бин	-12483
▁бон	-12484
▁бск	-12485
▁бэк	-12486
▁ваз	-12487
▁ввс	-12488
▁век	-12489
▁вск	-12490
▁гек	-12491
▁гим	-12492
▁гуп	-12493
▁ден	-12494
▁еха	-12495
▁игр	-12496
▁инв	-12497
▁кем	-12498
▁коп	-12499
▁крт	-12500
▁кто	-12501
▁лук	-12502
▁мел	-12503
▁мит	-12504
▁мкд	-12505
▁мои	-12506
▁мсп	-12507
▁муз	-12508
▁мья	-12509
▁над	-12510
▁нбд	-12511
▁опг	-12512
▁опе	-12513
▁оса	-12514
▁пев	-12515
▁пик	-12516
▁пкф	-12517
▁пле	-12518
▁пли	-12519
▁роу	-12520
▁руд	-12521
▁сос	-12522
▁сур	-12523
▁тол	-12524
▁тут	-12525
▁уга	-12526
▁усы	-12527
▁уха	-12528
▁уша	-12529
▁фью	-12530
▁хай	-12531
▁хар	-12532
▁чья	-12533
▁шла	-12534
▁шот	-12535
▁шри	-12536
▁эпо	-12537
▁эсб	-12538
▁юби	-12539
▁юфо	-12540
arbuc	-12541
lines	-12542
байка	-12543
берет	-12544
болез	-12545
брали	-12546
ведут	-12547
верса	-12548
вития	-12549
влека	-12550
говое	-12551
грамм	-12552
дание	-12553
дении	-12554
думан	-12555
емеся	-12556
ентом	-12557
жимми	-12558
жника	-12559
жники	-12560
йская	-12561
китай	-12562
ковок	-12563
космо	-12564
кроют	-12565
ксима	-12566
лания	-12567
ленка	-12568
леров	-12569
ловую	-12570
логов	-12571
ляров	-12572
манда	-12573
мести	-12574
мется	-12575
мовой	-12576
монта	-12577
несен	-12578
ответ	-12579
отече	-12580
полов	-12581
проце	-12582
равле	-12583
раздо	-12584
редко	-12585
скава	-12586
сорга	-12587
ссией	-12588
стеро	-12589
твори	-12590
тенан	-12591
тенко	-12592
техно	-12593
тинга	-12594
фонов	-12595
цензу	-12596
щийся	-12597
щимся	-12598
ьерге	-12599
▁mash	-12600
▁wall	-12601
▁азат	-12602
▁аксе	-12603
▁акта	-12604
▁алле	-12605
▁апте	-12606
▁асла	-12607
▁аста	-12608
▁бази	-12609
▁базу	-12610
▁баку	-12611
▁бара	-12612
▁беги	-12613
▁бесе	-12614
▁брус	-12615
▁ваго	-12616
▁веру	-12617
▁весе	-12618
▁вещи	-12619
▁вкла	-12620
▁вовк	-12621
▁вспо	-12622
▁вход	-12623
▁выку	-12624
▁выпа	-12625
▁вэнс	-12626
▁гара	-12627
▁гено	-12628
▁глаз	-12629
▁двум	-12630
▁дели	-12631
▁демп	-12632
▁дере	-12633
▁доза	-12634
▁долг	-12635
▁древ	-12636
▁думу	-12637
▁егор	-12638
▁есть	-12639
▁жюри	-12640
▁заим	-12641
▁зали	-12642
▁зато	-12643
▁зача	-12644
▁заэс	-12645
▁игре	-12646
▁идею	-12647
▁идти	-12648
▁изно	-12649
▁имму	-12650
▁кине	-12651
▁киши	-12652
▁книг	-12653
▁кого	-12654
▁копы	-12655
▁кора	-12656
▁косу	-12657
▁креа	-12658
▁крти	-12659
▁куль	-12660
▁курс	-12661
▁лаге	-12662
▁лите	-12663
▁мара	-12664
▁марк	-12665
▁мася	-12666
▁мебе	-12667
▁мемо	-12668
▁миац	-12669
▁моды	-12670
▁може	-12671
▁мясо	-12672
▁нику	-12673
▁обща	-12674
▁общи	-12675
▁огла	-12676
▁озву	-12677
▁окра	-12678
▁отмы	-12679
▁ошиб	-12680
▁пане	-12681
▁пано	-12682
▁пары	-12683
▁пищу	-12684
▁побу	-12685
▁пове	-12686
▁поня	-12687
▁рага	-12688
▁райт	-12689
▁рака	-12690
▁резю	-12691
▁рель	-12692
▁рене	-12693
▁робо	-12694
▁руле	-12695
▁румы	-12696
▁рыбы	-12697
▁ряде	-12698
▁саль	-12699
▁сбро	-12700
▁себе	-12701
▁себя	-12702
▁сете	-12703
▁сиби	-12704
▁слоя	-12705
▁смог	-12706
▁снял	-12707
▁собя	-12708
▁спас	-12709
▁ссср	-12710
▁суды	-12711
▁судь	-12712
▁сыра	-12713
▁теге	-12714
▁терп	-12715
▁тест	-12716
▁туле	-12717
▁урфо	-12718
▁услы	-12719
▁хаби	-12720
▁хака	-12721
▁хмао	-12722
▁цвет	-12723
▁цени	-12724
▁цену	-12725
▁чина	-12726
▁чудо	-12727
▁шари	-12728
▁шест	-12729
▁эски	-12730
atsapp	-12731
erican	-12732
ournal	-12733
бирает	-12734
больше	-12735
вавших	-12736
ваемой	-12737
вающим	-12738
ведоми	-12739
вшаяся	-12740
генери	-12741
генных	-12742
говору	-12743
годных	-12744
гского	-12745
гующих	-12746
дверии	-12747
дением	-12748
евском	-12749
ентабе	-12750
зников	-12751
каналу	-12752
кового	-12753
кского	-12754
культа	-12755
лилось	-12756
лового	-12757
лякова	-12758
менной	-12759
метьев	-12760
мостью	-12761
ностям	-12762
нформи	-12763
рактар	-12764
редото	-12765
ровало	-12766
рочные	-12767
рующий	-12768
систем	-12769
спансе	-12770
спбгуп	-12771
ставят	-12772
стеров	-12773
страте	-12774
строве	-12775
теракт	-12776
тивное	-12777
товали	-12778
товать	-12779
тового	-12780
тонных	-12781
чества	-12782
чество	-12783
чивать	-12784
шников	-12785
щаются	-12786
щающий	-12787
ществи	-12788
ыскных	-12789
▁apple	-12790
▁busin	-12791
▁finan	-12792
▁horse	-12793
▁model	-12794
▁truth	-12795
▁айрат	-12796
▁актов	-12797
▁архыз	-12798
▁безво	-12799
▁белый	-12800
▁бузма	-12801
▁ветра	-12802
▁видит	-12803
▁возоб	-12804
▁возро	-12805
▁война	-12806
▁вспых	-12807
▁встро	-12808
▁вузов	-12809
▁входа	-12810
▁выезд	-12811
▁вышел	-12812
▁газом	-12813
▁геоло	-12814
▁гнеев	-12815
▁голос	-12816
▁гособ	-12817
▁дарья	-12818
▁двоих	-12819
▁двора	-12820
▁дезин	-12821
▁десан	-12822
▁длина	-12823
▁дождь	-12824
▁долги	-12825
▁драма	-12826
▁дугла	-12827
▁духов	-12828
▁заблу	-12829
▁закан	-12830
▁замыс	-12831
▁запол	-12832
▁зерно	-12833
▁знает	-12834
▁знака	-12835
▁зонах	-12836
▁имена	-12837
▁индию	-12838
▁инкри	-12839
▁интен	-12840
▁какое	-12841
▁каком	-12842
▁камам	-12843
▁клячи	-12844
▁книги	-12845
▁корте	-12846
▁красо	-12847
▁крове	-12848
▁крыша	-12849
▁курба	-12850
▁курса	-12851
▁курсы	-12852
▁лимит	-12853
▁литий	-12854
▁лицея	-12855
▁любое	-12856
▁любые	-12857
▁людми	-12858
▁людям	-12859
▁малых	-12860
▁марок	-12861
▁масел	-12862
▁масла	-12863
▁матве	-12864
▁мерам	-12865
▁метео	-12866
▁могло	-12867
▁монта	-12868
▁мульт	-12869
▁мэром	-12870
▁намет	-12871
▁напар	-12872
▁недоб	-12873
▁нейро	-12874
▁необо	-12875
▁непро	-12876
▁низко	-12877
▁нужды	-12878
▁обеих	-12879
▁обход	-12880
▁общим	-12881
▁овчин	-12882
▁оппон	-12883
▁особы	-12884
▁остан	-12885
▁остры	-12886
▁отеля	-12887
▁отста	-12888
▁офисе	-12889
▁охран	-12890
▁пензе	-12891
▁пензы	-12892
▁плохо	-12893
▁подви	-12894
▁поджо	-12895
▁подку	-12896
▁подло	-12897
▁полот	-12898
▁понес	-12899
▁посты	-12900
▁поэта	-12901
▁прибе	-12902
▁проче	-12903
▁пшени	-12904
▁пятью	-12905
▁развя	-12906
▁расту	-12907
▁регла	-12908
▁решен	-12909
▁риска	-12910
▁робер	-12911
▁рубеж	-12912
▁рубин	-12913
▁сбежа	-12914
▁сдачи	-12915
▁селек	-12916
▁семен	-12917
▁склад	-12918
▁скрид	-12919
▁сливо	-12920
▁смена	-12921
▁смене	-12922
▁специ	-12923
▁ссоры	-12924
▁стены	-12925
▁стиле	-12926
▁судьи	-12927
▁сумме	-12928
▁таком	-12929
▁такую	-12930
▁термо	-12931
▁тогда	-12932
▁торта	-12933
▁травм	-12934
▁убили	-12935
▁узнал	-12936
▁уклад	-12937
▁упала	-12938
▁уходе	-12939
▁учебы	-12940
▁учили	-12941
▁фасад	-12942
▁фонде	-12943
▁фонды	-12944
▁форос	-12945
▁херсо	-12946
▁ходом	-12947
▁хотел	-12948
▁хохло	-12949
▁хутор	-12950
▁ценой	-12951
▁чехии	-12952
▁чисто	-12953
▁школа	-12954
▁этими	-12955
▁южных	-12956
▁юноша	-12957
▁ясная	-12958
бинский	-12959
венства	-12960
госстра	-12961
делении	-12962
каналов	-12963
кования	-12964
линском	-12965
ловский	-12966
максима	-12967
ментами	-12968
надзоре	-12969
нальные	-12970
невосто	-12971
нимации	-12972
платель	-12973
правках	-12974
продукт	-12975
проекти	-12976
рактери	-12977
ризации	-12978
санитар	-12979
сколько	-12980
ставных	-12981
станций	-12982
умышлен	-12983
фициаль	-12984
черкасс	-12985
▁boeing	-12986
▁norbit	-12987
▁social	-12988
▁street	-12989
▁subway	-12990
▁админи	-12991
▁аренде	-12992
▁аттрак	-12993
▁афгани	-12994
▁баграм	-12995
▁белару	-12996
▁беспре	-12997
▁блогер	-12998
▁блоков	-12999
▁бренды	-13000
▁брюссе	-13001
▁важные	-13002
▁визита	-13003
▁вируса	-13004
▁власть	-13005
▁влияет	-13006
▁вмести	-13007
▁внедря	-13008
▁внести	-13009
▁войной	-13010
▁вступа	-13011
▁выводи	-13012
▁вызвал	-13013
▁вылете	-13014
▁выращи	-13015
▁высоты	-13016
▁галере	-13017
▁гибель	-13018
▁говоря	-13019
▁голове	-13020
▁головы	-13021
▁горизо	-13022
▁городу	-13023
▁горожа	-13024
▁гороха	-13025
▁гуфссп	-13026
▁данную	-13027
▁детьми	-13028
▁джимми	-13029
▁добыче	-13030
▁добычи	-13031
▁драйве	-13032
▁жалобы	-13033
▁жизнью	-13034
▁жильцы	-13035
▁заведу	-13036
▁запада	-13037
▁запаса	-13038
▁записа	-13039
▁зелено	-13040
▁игнори	-13041
▁карьер	-13042
▁каспий	-13043
▁клубов	-13044
▁конгре	-13045
▁коробе	-13046
▁корона	-13047
▁кремль	-13048
▁креста	-13049
▁кровля	-13050
▁легких	-13051
▁лесных	-13052
▁лидеры	-13053
▁лучших	-13054
▁любого	-13055
▁магрит	-13056
▁машине	-13057
▁медлен	-13058
▁медска	-13059
▁многих	-13060
▁многом	-13061
▁мьянмы	-13062
▁насеко	-13063
▁настав	-13064
▁начвин	-13065
▁несанк	-13066
▁неспра	-13067
▁нижний	-13068
▁нилова	-13069
▁новоро	-13070
▁новосе	-13071
▁обыгра	-13072
▁обыска	-13073
▁окружа	-13074
▁особых	-13075
▁отдали	-13076
▁открыл	-13077
▁отмене	-13078
▁отобра	-13079
▁офлайн	-13080
▁охраня	-13081
▁пакета	-13082
▁переме	-13083
▁пласти	-13084
▁пляжам	-13085
▁подвал	-13086
▁подопе	-13087
▁подъем	-13088
▁поиска	-13089
▁пойдут	-13090
▁полета	-13091
▁полное	-13092
▁полосы	-13093
▁поменя	-13094
▁потере	-13095
▁правом	-13096
▁превен	-13097
▁предус	-13098
▁премию	-13099
▁прикры	-13100
▁провин	-13101
▁просил	-13102
▁прямые	-13103
▁пятого	-13104
▁районы	-13105
▁ракитя	-13106
▁расска	-13107
▁растут	-13108
▁револю	-13109
▁ростех	-13110
▁рынках	-13111
▁свеклы	-13112
▁своими	-13113
▁сеннер	-13114
▁сергею	-13115
▁сессия	-13116
▁скором	-13117
▁службе	-13118
▁служил	-13119
▁сменил	-13120
▁содеян	-13121
▁создал	-13122
▁спарта	-13123
▁списки	-13124
▁сравни	-13125
▁статья	-13126
▁стерли	-13127
▁стипен	-13128
▁стирки	-13129
▁съехал	-13130
▁тарифы	-13131
▁театре	-13132
▁товара	-13133
▁трудоу	-13134
▁турция	-13135
▁увидел	-13136
▁увидят	-13137
▁ударил	-13138
▁узнать	-13139
▁упразд	-13140
▁услуга	-13141
▁уступа	-13142
▁уточня	-13143
▁утраты	-13144
▁факуль	-13145
▁фейков	-13146
▁фьючер	-13147
▁хвосто	-13148
▁хлопок	-13149
▁центры	-13150
▁чистый	-13151
▁штатно	-13152
▁экипаж	-13153
▁эксклю	-13154
▁эффект	-13155
▁японии	-13156
александ	-13157
гаевской	-13158
граничен	-13159
зовывать	-13160
иноагент	-13161
контроли	-13162
ландский	-13163
надлежит	-13164
проводов	-13165
работать	-13166
развития	-13167
рейтинга	-13168
рованном	-13169
рованную	-13170
российск	-13171
сентябре	-13172
совского	-13173
спетчеры	-13174
ставляет	-13175
ционеров	-13176
ционными	-13177
чиновник	-13178
▁cartier	-13179
▁poladis	-13180
▁starbuc	-13181
▁абортов	-13182
▁авангар	-13183
▁адресам	-13184
▁америки	-13185
▁артиста	-13186
▁атомные	-13187
▁атомных	-13188
▁беремен	-13189
▁близкие	-13190
▁бутылок	-13191
▁вакцина	-13192
▁вводить	-13193
▁ведущие	-13194
▁ведущий	-13195
▁виктора	-13196
▁виталия	-13197
▁включен	-13198
▁властям	-13199
▁внесены	-13200
▁второму	-13201
▁выбросы	-13202
▁выделят	-13203
▁вызвали	-13204
▁вызвало	-13205
▁выиграл	-13206
▁вьетнам	-13207
▁гайдара	-13208
▁главвра	-13209
▁главная	-13210
▁главном	-13211
▁голубым	-13212
▁гораздо	-13213
▁горнолы	-13214
▁госорга	-13215
▁данного	-13216
▁деловая	-13217
▁деревни	-13218
▁дешевле	-13219
▁диверси	-13220
▁доллара	-13221
▁допроса	-13222
▁достоин	-13223
▁дронами	-13224
▁единицы	-13225
▁ежемеся	-13226
▁журавле	-13227
▁забайка	-13228
▁заводах	-13229
▁закончи	-13230
▁закрыли	-13231
▁заметил	-13232
▁записки	-13233
▁зарядки	-13234
▁заявило	-13235
▁заявкам	-13236
▁зеленый	-13237
▁зеленых	-13238
▁зоопарк	-13239
▁избрали	-13240
▁избрана	-13241
▁изъятии	-13242
▁имеющих	-13243
▁инвента	-13244
▁инструк	-13245
▁интерье	-13246
▁историй	-13247
▁каналов	-13248
▁коллеге	-13249
▁команди	-13250
▁коммуни	-13251
▁компози	-13252
▁краевед	-13253
▁красной	-13254
▁кредиту	-13255
▁кризиса	-13256
▁критери	-13257
▁культур	-13258
▁курскую	-13259
▁курумоч	-13260
▁лондона	-13261
▁лондоне	-13262
▁мальчик	-13263
▁мегафон	-13264
▁меньшей	-13265
▁местном	-13266
▁местную	-13267
▁местона	-13268
▁месяцем	-13269
▁механиз	-13270
▁минфине	-13271
▁морской	-13272
▁нарушая	-13273
▁научных	-13274
▁нацизма	-13275
▁началом	-13276
▁начиная	-13277
▁недоста	-13278
▁немного	-13279
▁неправо	-13280
▁неприяз	-13281
▁нередко	-13282
▁несчаст	-13283
▁нетрика	-13284
▁нецензу	-13285
▁номером	-13286
▁нуждами	-13287
▁оборота	-13288
▁объекте	-13289
▁обыграл	-13290
▁оказана	-13291
▁округов	-13292
▁оскорби	-13293
▁острова	-13294
▁отказал	-13295
▁откроет	-13296
▁отменил	-13297
▁отметив	-13298
▁офисных	-13299
▁партспи	-13300
▁патрули	-13301
▁первыми	-13302
▁перевод	-13303
▁перекре	-13304
▁перешло	-13305
▁планами	-13306
▁полпред	-13307
▁полуост	-13308
▁поселок	-13309
▁посетят	-13310
▁пособие	-13311
▁поставл	-13312
▁построи	-13313
▁похитил	-13314
▁президи	-13315
▁прениях	-13316
▁привела	-13317
▁пригото	-13318
▁провела	-13319
▁провока	-13320
▁прописа	-13321
▁просьбу	-13322
▁пятерых	-13323
▁райсуде	-13324
▁ранений	-13325
▁расчеты	-13326
▁реестре	-13327
▁ремонту	-13328
▁рентабе	-13329
▁речного	-13330
▁сгенери	-13331
▁сговору	-13332
▁семенов	-13333
▁сенатор	-13334
▁серебра	-13335
▁силовой	-13336
▁соболез	-13337
▁собрали	-13338
▁создано	-13339
▁созданы	-13340
▁соотече	-13341
▁спбгики	-13342
▁спискам	-13343
▁станция	-13344
▁строить	-13345
▁супруга	-13346
▁татьяны	-13347
▁тенниси	-13348
▁теракте	-13349
▁техника	-13350
▁токаева	-13351
▁трамвай	-13352
▁тревоги	-13353
▁тушения	-13354
▁убежден	-13355
▁уведоми	-13356
▁уровнях	-13357
▁усилиям	-13358
▁форвард	-13359
▁фракцию	-13360
▁футбола	-13361
▁футболу	-13362
▁черепов	-13363
▁четверо	-13364
▁шестеро	-13365
▁экскава	-13366
бутдинова	-13367
иртышское	-13368
коммуника	-13369
менеджеры	-13370
министром	-13371
ненецкого	-13372
носителей	-13373
обложения	-13374
президент	-13375
ступлении	-13376
▁airlines	-13377
▁american	-13378
▁business	-13379
▁whatsapp	-13380
▁аксессуа	-13381
▁анатолия	-13382
▁атакован	-13383
▁атмосфер	-13384
▁аудитора	-13385
▁бадранов	-13386
▁безнадзо	-13387
▁бороться	-13388
▁бродячих	-13389
▁бульвара	-13390
▁бюджетов	-13391
▁васильев	-13392
▁вашингто	-13393
▁вернулся	-13394
▁вещества	-13395
▁взыскали	-13396
▁властями	-13397
▁внесения	-13398
[...]
