<unk>	0
<s>	0
</s>	0
ст	-0
▁п	-1
ен	-2
▁с	-3
ра	-4
ро	-5
но	-6
ко	-7
ре	-8
▁о	-9
го	-10
ни	-11
на	-12
um	-13
num	-14
▁в	-15
ли	-16
▁<	-17
ва	-18
те	-19
то	-20
ль	-21
ны	-22
▁м	-23
▁д	-24
▁по	-25
ла	-26
та	-27
ри	-28
за	-29
ени	-30
ка	-31
ет	-32
во	-33
ло	-34
да	-35
ер	-36
▁у	-37
ки	-38
ле	-39
▁а	-40
▁со	-41
ру	-42
▁и	-43
ци	-44
▁го	-45
не	-46
▁про	-47
▁ко	-48
ви	-49
▁за	-50
▁б	-51
ти	-52
▁об	-53
ди	-54
▁ра	-55
сс	-56
ста	-57
ми	-58
ско	-59
ся	-60
▁на	-61
сти	-62
▁к	-63
ть	-64
▁пре	-65
по	-66
▁ре	-67
ве	-68
об	-69
▁т	-70
чи	-71
до	-72
че	-73
ма	-74
▁г	-75
ения	-76
мо	-77
де	-78
▁до	-79
▁ф	-80
ных	-81
ду	-82
ча	-83
тель	-84
▁ро	-85
па	-86
бо	-87
▁во	-88
ной	-89
▁от	-90
ля	-91
▁при	-92
ного	-93
лу	-94
ги	-95
ем	-96
ски	-97
ку	-98
сто	-99
▁э	-100
жи	-101
ры	-102
сси	-103
хо	-104
щи	-105
ан	-106
ент	-107
▁вы	-108
▁де	-109
га	-110
вы	-111
▁-	-112
ств	-113
зо	-114
ение	-115
ря	-116
ну	-117
ме	-118
▁не	-119
▁та	-120
▁ру	-121
же	-122
ции	-123
сп	-124
стра	-125
▁сооб	-126
ный	-127
▁(	-128
ные	-129
ту	-130
▁ме	-131
▁росси	-132
▁ка	-133
зи	-134
ской	-135
си	-136
спо	-137
ство	-138
ши	-139
▁ма	-140
▁пред	-141
ют	-142
сть	-143
са	-144
▁су	-145
▁те	-146
со	-147
▁года	-148
▁ин	-149
ще	-150
вл	-151
▁под	-152
ня	-153
▁но	-154
ты	-155
му	-156
▁мо	-157
ше	-158
▁пе	-159
ния	-160
▁руб	-161
мен	-162
сь	-163
рова	-164
▁ми	-165
се	-166
жа	-167
ского	-168
ства	-169
тов	-170
вер	-171
ке	-172
ща	-173
▁ком	-174
ров	-175
ек	-176
ным	-177
ков	-178
пе	-179
яб	-180
▁ста	-181
ствен	-182
▁кон	-183
▁раз	-184
он	-185
сно	-186
ется	-187
лю	-188
пи	-189
▁обла	-190
су	-191
гу	-192
гра	-193
ении	-194
це	-195
▁мл	-196
▁из	-197
▁то	-198
про	-199
пра	-200
би	-201
▁кра	-202
она	-203
каза	-204
▁кото	-205
▁з	-206
ное	-207
нии	-208
ября	-209
ном	-210
пу	-211
▁воз	-212
▁па	-213
▁са	-214
▁си	-215
▁бе	-216
▁се	-217
ор	-218
ба	-219
ыс	-220
▁е	-221
▁так	-222
лек	-223
▁рабо	-224
▁ли	-225
ность	-226
мы	-227
▁ст	-228
▁реги	-229
ности	-230
бу	-231
слу	-232
▁сент	-233
нов	-234
▁жи	-235
ние	-236
▁пере	-237
▁также	-238
▁россии	-239
ский	-240
тив	-241
чен	-242
лет	-243
ден	-244
▁сообщи	-245
лей	-246
ск	-247
▁тыс	-248
▁сентября	-249
ды	-250
ска	-251
вет	-252
▁ав	-253
лен	-254
▁ве	-255
том	-256
▁ч	-257
▁области	-258
ран	-259
▁я	-260
стви	-261
▁ш	-262
дер	-263
▁фо	-264
▁пер	-265
▁ц	-266
▁ку	-267
сте	-268
▁объ	-269
сту	-270
рга	-271
бе	-272
ная	-273
фи	-274
▁сре	-275
▁пра	-276
▁прои	-277
вля	-278
▁р	-279
▁компа	-280
стави	-281
>-	-282
аль	-283
▁ак	-284
бли	-285
род	-286
лов	-287
▁году	-288
▁сообща	-289
▁пресс	-290
ских	-291
кра	-292
).	-293
нее	-294
жен	-295
▁млн	-296
▁фи	-297
▁полу	-298
ша	-299
лся	-300
ходи	-301
ге	-302
▁госпо	-303
▁ви	-304
▁гла	-305
▁фото	-306
▁которы	-307
▁вла	-308
дар	-309
дом	-310
▁бо	-311
тся	-312
ция	-313
ющи	-314
▁ъ	-315
рен	-316
▁обще	-317
,-	-318
служ	-319
дни	-320
▁ди	-321
зна	-322
фор	-323
зу	-324
дин	-325
▁рф	-326
▁че	-327
▁региона	-328
теля	-329
▁зая	-330
тер	-331
нима	-332
▁сле	-333
▁ново	-334
гла	-335
ети	-336
▁стра	-337
>.	-338
вать	-339
▁дан	-340
▁вре	-341
ха	-342
▁расс	-343
▁сво	-344
цион	-345
бы	-346
при	-347
тор	-348
▁ба	-349
сле	-350
▁уча	-351
▁орга	-352
ную	-353
▁пу	-354
▁пла	-355
ца	-356
правл	-357
тра	-358
▁это	-359
зво	-360
▁ча	-361
ром	-362
▁дол	-363
мер	-364
ву	-365
▁од	-366
ском	-367
пре	-368
ений	-369
вя	-370
▁чи	-371
зы	-372
рта	-373
ению	-374
раль	-375
▁прези	-376
▁сто	-377
пла	-378
телей	-379
кт	-380
ству	-381
вил	-382
вой	-383
▁тре	-384
▁россий	-385
тери	-386
стро	-387
тори	-388
ний	-389
цию	-390
рд	-391
▁рай	-392
▁ар	-393
лова	-394
зова	-395
жд	-396
ена	-397
грани	-398
вши	-399
клю	-400
ком	-401
кон	-402
▁эк	-403
▁бу	-404
дова	-405
▁хо	-406
▁ту	-407
лы	-408
▁сообщает	-409
▁га	-410
мя	-411
▁суд	-412
▁тра	-413
рт	-414
▁горо	-415
коно	-416
▁слу	-417
ников	-418
▁ограни	-419
лись	-420
▁фе	-421
чения	-422
▁сред	-423
▁ни	-424
води	-425
▁ю	-426
▁гу	-427
▁красно	-428
▁тер	-429
▁млрд	-430
вых	-431
ными	-432
▁нача	-433
▁обра	-434
руп	-435
▁ранее	-436
три	-437
яти	-438
служба	-439
седа	-440
ться	-441
кой	-442
сы	-443
стоя	-444
▁сер	-445
жда	-446
логи	-447
ские	-448
дов	-449
▁му	-450
стано	-451
▁органи	-452
рь	-453
спи	-454
ются	-455
шение	-456
>,	-457
te	-458
▁господин	-459
стов	-460
рти	-461
▁испо	-462
ника	-463
▁алек	-464
▁проек	-465
сан	-466
▁би	-467
сла	-468
лось	-469
▁мини	-470
▁ва	-471
форма	-472
▁слова	-473
кры	-474
▁пи	-475
вели	-476
гово	-477
пера	-478
ене	-479
тро	-480
▁цент	-481
▁(<	-482
▁ан	-483
шения	-484
тру	-485
▁ответ	-486
стве	-487
▁данным	-488
ей	-489
ход	-490
ностью	-491
),	-492
▁бан	-493
ят	-494
▁общество	-495
дент	-496
▁произво	-497
ствия	-498
соб	-499
циаль	-500
ены	-501
ская	-502
трудни	-503
▁гра	-504
▁ад	-505
мини	-506
стре	-507
ью	-508
льного	-509
вед	-510
сов	-511
спе	-512
▁сотрудни	-513
▁информа	-514
ций	-515
лове	-516
тели	-517
ением	-518
ней	-519
лась	-520
льта	-521
▁ки	-522
▁само	-523
оби	-524
ропо	-525
▁отм	-526
▁сообщил	-527
ритори	-528
▁получи	-529
▁прош	-530
▁время	-531
ев	-532
▁ле	-533
▁челове	-534
▁словам	-535
▁территори	-536
▁долж	-537
циа	-538
▁поли	-539
▁предпри	-540
вые	-541
▁вер	-542
▁лет	-543
▁стро	-544
тельства	-545
вали	-546
▁согла	-547
▁компании	-548
▁х	-549
▁дей	-550
▁состави	-551
▁боль	-552
▁ведом	-553
▁пол	-554
▁спе	-555
▁спо	-556
ления	-557
от	-558
бер	-559
пол	-560
тора	-561
жения	-562
вал	-563
ску	-564
▁ата	-565
▁свя	-566
▁ук	-567
ники	-568
▁соста	-569
-<	-570
зда	-571
нер	-572
казал	-573
▁организа	-574
▁аэ	-575
ске	-576
краи	-577
мент	-578
пута	-579
шен	-580
ному	-581
реди	-582
дут	-583
зульта	-584
▁управл	-585
▁ры	-586
ступ	-587
▁депута	-588
нес	-589
▁результа	-590
le	-591
емы	-592
▁бы	-593
▁ответствен	-594
ник	-595
▁след	-596
▁отмети	-597
министра	-598
▁сообщили	-599
▁пло	-600
держа	-601
▁соб	-602
▁прави	-603
▁работа	-604
рек	-605
ссий	-606
▁матери	-607
▁украи	-608
▁ев	-609
сло	-610
сса	-611
рату	-612
▁дру	-613
▁феде	-614
▁участ	-615
▁города	-616
оне	-617
чение	-618
вод	-619
▁ана	-620
страда	-621
▁пострада	-622
▁заявил	-623
▁н	-624
▁обе	-625
▁авто	-626
▁оста	-627
бур	-628
▁тех	-629
am	-630
фе	-631
▁объек	-632
▁сша	-633
рован	-634
▁авгу	-635
▁госу	-636
▁минист	-637
курату	-638
щения	-639
ено	-640
мож	-641
ниц	-642
▁вз	-643
▁да	-644
▁разви	-645
▁представи	-646
яс	-647
▁ок	-648
▁разме	-649
▁президент	-650
лого	-651
▁опера	-652
▁бю	-653
▁краснодар	-654
.,	-655
зе	-656
ень	-657
кси	-658
вания	-659
стран	-660
▁трам	-661
▁приня	-662
▁ию	-663
▁мар	-664
▁обо	-665
россий	-666
▁влади	-667
▁материа	-668
▁администра	-669
дол	-670
▁руко	-671
лот	-672
рио	-673
наль	-674
▁глава	-675
спу	-676
став	-677
▁государ	-678
лом	-679
хра	-680
вори	-681
жден	-682
тиче	-683
санд	-684
▁коми	-685
▁производ	-686
тре	-687
▁уго	-688
шении	-689
▁осно	-690
▁площа	-691
▁которые	-692
мента	-693
▁меся	-694
стру	-695
спубли	-696
▁республи	-697
▁отно	-698
▁александ	-699
вый	-700
точ	-701
▁зна	-702
▁бюд	-703
жение	-704
ман	-705
вили	-706
▁соот	-707
an	-708
кана	-709
берна	-710
пасно	-711
▁тран	-712
кту	-713
пы	-714
вести	-715
▁элек	-716
▁строи	-717
▁увели	-718
строй	-719
▁комп	-720
▁перио	-721
▁развити	-722
▁компания	-723
▁год	-724
▁город	-725
▁созда	-726
▁владими	-727
▁президен	-728
емь	-729
нию	-730
юще	-731
▁фа	-732
рабо	-733
▁края	-734
▁призна	-735
дук	-736
вого	-737
▁после	-738
▁уголов	-739
тельство	-740
▁соответ	-741
нитель	-742
▁прода	-743
год	-744
мон	-745
вает	-746
ниру	-747
шего	-748
тин	-749
коло	-750
нан	-751
▁помо	-752
кономи	-753
спилот	-754
▁беспилот	-755
дей	-756
рии	-757
чер	-758
▁обви	-759
er	-760
gr	-761
▁работы	-762
твер	-763
▁вклю	-764
▁исполь	-765
▁который	-766
тар	-767
▁te	-768
▁чет	-769
▁вопро	-770
▁губерна	-771
▁ограничен	-772
▁мест	-773
▁обеспе	-774
ках	-775
ступи	-776
ющих	-777
▁дву	-778
▁аэропо	-779
дет	-780
▁ск	-781
дель	-782
держ	-783
▁сан	-784
становл	-785
грам	-786
▁зда	-787
▁кор	-788
▁пов	-789
▁дома	-790
▁сист	-791
сал	-792
хи	-793
гро	-794
▁це	-795
тета	-796
▁дирек	-797
лем	-798
кова	-799
роны	-800
▁безо	-801
томоби	-802
▁автомоби	-803
▁председа	-804
▁нару	-805
▁около	-806
▁которо	-807
имо	-808
ским	-809
▁m	-810
▁сни	-811
▁други	-812
▁занима	-813
▁прокурату	-814
▁новороссий	-815
▁кро	-816
▁сум	-817
ледова	-818
▁подро	-819
▁возмож	-820
▁предло	-821
еры	-822
кан	-823
▁дело	-824
▁россия	-825
ях	-826
>-<	-827
ряд	-828
▁серге	-829
▁ян	-830
него	-831
▁сочи	-832
▁финан	-833
▁предприяти	-834
▁окру	-835
▁став	-836
▁законо	-837
ез	-838
▁мин	-839
▁показа	-840
▁руководи	-841
жу	-842
рей	-843
стан	-844
▁рей	-845
▁топ	-846
▁заме	-847
▁встре	-848
▁находи	-849
▁провер	-850
виа	-851
▁доку	-852
▁ограниченной	-853
ниче	-854
▁круп	-855
▁продол	-856
вым	-857
▁кв	-858
gram	-859
▁ростов	-860
▁территории	-861
цев	-862
▁ито	-863
▁tele	-864
▁моск	-865
▁планиру	-866
▁транспо	-867
▁ше	-868
▁окт	-869
▁исто	-870
▁необ	-871
▁эксп	-872
▁числе	-873
▁говори	-874
▁гражда	-875
пасности	-876
▁telegram	-877
▁s	-878
мот	-879
мени	-880
▁доб	-881
▁интер	-882
▁ла	-883
▁среди	-884
▁федераль	-885
зан	-886
▁назна	-887
▁против	-888
▁решение	-889
▁еди	-890
▁рас	-891
▁следу	-892
▁площад	-893
▁произо	-894
▁направл	-895
▁человек	-896
стри	-897
▁президента	-898
▁пар	-899
вляет	-900
▁того	-901
ждения	-902
▁креди	-903
▁власти	-904
▁продук	-905
лага	-906
▁биз	-907
▁воен	-908
▁доро	-909
▁режи	-910
▁явля	-911
▁будут	-912
▁дональ	-913
вест	-914
▁дела	-915
▁заседа	-916
▁экономи	-917
чет	-918
▁переда	-919
ссо	-920
тей	-921
▁зо	-922
ссии	-923
вом	-924
еме	-925
чита	-926
▁кур	-927
варти	-928
▁увеличи	-929
вета	-930
▁электро	-931
▁оц	-932
вших	-933
▁меж	-934
▁страны	-935
вле	-936
кта	-937
нем	-938
▁лю	-939
▁реа	-940
▁тру	-941
▁одна	-942
▁необходи	-943
▁ду	-944
жных	-945
ющий	-946
▁рын	-947
▁служ	-948
▁ос	-949
сков	-950
▁сро	-951
город	-952
вают	-953
▁ули	-954
льных	-955
ствие	-956
on	-957
тай	-958
туа	-959
дели	-960
муще	-961
льной	-962
▁двух	-963
▁заклю	-964
▁стоимо	-965
▁програм	-966
▁результате	-967
вра	-968
дзо	-969
рий	-970
▁евро	-971
▁уров	-972
тербур	-973
▁александр	-974
▁управления	-975
▁обя	-976
сколь	-977
ционер	-978
▁завер	-979
▁требо	-980
мыш	-981
скую	-982
▁конф	-983
▁поль	-984
▁состоя	-985
▁a	-986
бан	-987
дина	-988
годня	-989
щении	-990
▁груп	-991
▁тури	-992
ческого	-993
▁отметил	-994
▁сегодня	-995
▁ведомства	-996
▁безопасности	-997
лья	-998
стей	-999
▁анд	-1000
нения	-1001
мышлен	-1002
нил	-1003
▁отра	-1004
▁фигу	-1005
▁запре	-1006
▁сказал	-1007
▁r	-1008
шел	-1009
▁дми	-1010
▁публи	-1011
▁сокра	-1012
▁дмитри	-1013
▁вос	-1014
▁дея	-1015
▁уда	-1016
▁коммер	-1017
▁комплек	-1018
▁акционер	-1019
фа	-1020
▁c	-1021
▁кли	-1022
▁высо	-1023
▁объя	-1024
▁стан	-1025
▁янва	-1026
ван	-1027
вое	-1028
▁татар	-1029
▁поги	-1030
▁испол	-1031
▁позво	-1032
▁право	-1033
▁ситуа	-1034
▁трамп	-1035
▁подроб	-1036
▁согласно	-1037
бле	-1038
гам	-1039
▁ха	-1040
тных	-1041
▁фон	-1042
▁пожа	-1043
▁возду	-1044
▁деятель	-1045
▁жителей	-1046
▁сообщила	-1047
▁материале	-1048
лиза	-1049
тельно	-1050
▁проце	-1051
циали	-1052
▁акционерное	-1053
▁зам	-1054
росла	-1055
▁авиа	-1056
▁таки	-1057
▁проект	-1058
фо	-1059
вая	-1060
сты	-1061
личе	-1062
ципа	-1063
▁ген	-1064
▁фор	-1065
▁суда	-1066
▁энер	-1067
▁откры	-1068
▁районе	-1069
▁замести	-1070
рал	-1071
ставл	-1072
щение	-1073
▁однако	-1074
гут	-1075
жет	-1076
▁сра	-1077
канале	-1078
нского	-1079
бор	-1080
дел	-1081
там	-1082
нием	-1083
чных	-1084
▁уни	-1085
▁уточ	-1086
▁района	-1087
▁республики	-1088
рон	-1089
▁же	-1090
▁сов	-1091
ровали	-1092
ровать	-1093
▁атаки	-1094
ское	-1095
стана	-1096
▁возбу	-1097
▁оказа	-1098
▁сергей	-1099
▁задержа	-1100
▁фигуран	-1101
▁мэ	-1102
▁ри	-1103
▁день	-1104
ческих	-1105
▁случа	-1106
▁период	-1107
▁специали	-1108
▁отношении	-1109
▁соответству	-1110
емо	-1111
чно	-1112
▁уч	-1113
▁ино	-1114
▁крае	-1115
▁кроме	-1116
▁своем	-1117
▁пя	-1118
▁вме	-1119
ниципа	-1120
▁основ	-1121
▁област	-1122
▁гос	-1123
▁оон	-1124
▁опу	-1125
нению	-1126
▁угро	-1127
▁включа	-1128
▁августе	-1129
▁социаль	-1130
ственного	-1131
▁является	-1132
▁губернатор	-1133
кла	-1134
льту	-1135
вшего	-1136
льный	-1137
▁прибы	-1138
▁времен	-1139
▁дмитрий	-1140
▁муниципа	-1141
пер	-1142
дуна	-1143
▁защи	-1144
▁кате	-1145
▁поло	-1146
▁предо	-1147
дународ	-1148
▁международ	-1149
▁ростовской	-1150
дра	-1151
▁неф	-1152
▁офи	-1153
▁шта	-1154
▁виде	-1155
▁несколь	-1156
▁оператив	-1157
▁продолжа	-1158
▁собствен	-1159
шли	-1160
нами	-1161
нова	-1162
чной	-1163
▁тор	-1164
▁чер	-1165
▁потре	-1166
▁работ	-1167
▁участи	-1168
▁экспер	-1169
▁стоимость	-1170
▁информации	-1171
▁организации	-1172
▁краснодарского	-1173
in	-1174
пло	-1175
щен	-1176
нару	-1177
реги	-1178
телем	-1179
▁топли	-1180
тельных	-1181
▁алексе	-1182
ям	-1183
▁ло	-1184
бира	-1185
▁подо	-1186
▁дости	-1187
ин	-1188
дви	-1189
кну	-1190
мов	-1191
▁вто	-1192
▁шко	-1193
▁доба	-1194
▁отме	-1195
▁теле	-1196
вается	-1197
▁контро	-1198
▁образова	-1199
▁использова	-1200
зов	-1201
ших	-1202
▁рост	-1203
▁имуще	-1204
▁много	-1205
▁преду	-1206
▁уголовное	-1207
ов	-1208
ую	-1209
чь	-1210
▁лу	-1211
ками	-1212
▁повы	-1213
▁семь	-1214
▁догово	-1215
▁составляет	-1216
▁администрации	-1217
цы	-1218
сили	-1219
▁бла	-1220
▁ека	-1221
▁наз	-1222
▁спа	-1223
▁бпла	-1224
▁глав	-1225
▁запа	-1226
▁пода	-1227
▁четы	-1228
▁место	-1229
▁санкт	-1230
▁счита	-1231
▁послед	-1232
вший	-1233
номо	-1234
бурга	-1235
рного	-1236
▁выпол	-1237
▁главы	-1238
▁повре	-1239
▁централь	-1240
бин	-1241
нут	-1242
рак	-1243
рой	-1244
тен	-1245
тки	-1246
▁арте	-1247
▁инте	-1248
▁побе	-1249
▁проис	-1250
▁количе	-1251
▁культу	-1252
▁ограничения	-1253
кс	-1254
ья	-1255
шки	-1256
▁ссы	-1257
проек	-1258
ством	-1259
▁меди	-1260
▁особ	-1261
службе	-1262
▁причи	-1263
▁распо	-1264
▁утвер	-1265
▁опубли	-1266
▁четыре	-1267
▁граждан	-1268
▁разрабо	-1269
▁владимир	-1270
or	-1271
▁л	-1272
сии	-1273
▁фу	-1274
▁ци	-1275
дела	-1276
дили	-1277
▁дви	-1278
▁дет	-1279
ступа	-1280
▁неза	-1281
▁услу	-1282
▁част	-1283
▁бюдже	-1284
▁регио	-1285
рования	-1286
▁воздуш	-1287
▁екатери	-1288
▁октября	-1289
▁средств	-1290
es	-1291
кро	-1292
боле	-1293
елен	-1294
жный	-1295
▁свои	-1296
▁стал	-1297
▁конку	-1298
▁подпи	-1299
сследова	-1300
▁дональд	-1301
▁правительства	-1302
▁аг	-1303
▁ша	-1304
казы	-1305
▁ини	-1306
▁инф	-1307
▁лиц	-1308
▁спи	-1309
▁инвести	-1310
▁министр	-1311
▁поддерж	-1312
▁компаний	-1313
▁господина	-1314
рая	-1315
шей	-1316
кого	-1317
▁коман	-1318
▁связи	-1319
▁итогам	-1320
▁конфли	-1321
▁отмеча	-1322
бра	-1323
▁ава	-1324
веден	-1325
▁обвиня	-1326
ему	-1327
жно	-1328
▁ги	-1329
чный	-1330
▁вне	-1331
▁гор	-1332
ление	-1333
слови	-1334
▁выпу	-1335
▁суде	-1336
▁закон	-1337
▁источ	-1338
▁часть	-1339
▁андрей	-1340
▁контра	-1341
▁заседании	-1342
лан	-1343
рту	-1344
щих	-1345
▁гру	-1346
ходит	-1347
▁арен	-1348
▁бюджет	-1349
▁начала	-1350
▁регионального	-1351
▁f	-1352
▁v	-1353
вок	-1354
рия	-1355
тах	-1356
тия	-1357
мери	-1358
спек	-1359
▁иск	-1360
▁эта	-1361
скому	-1362
ствий	-1363
▁каза	-1364
▁обсу	-1365
▁ссыл	-1366
▁макси	-1367
▁жителя	-1368
▁подчер	-1369
▁услови	-1370
▁b	-1371
▁t	-1372
щая	-1373
ница	-1374
▁рам	-1375
▁том	-1376
циона	-1377
чного	-1378
ваться	-1379
▁аналоги	-1380
▁человека	-1381
en	-1382
▁жен	-1383
вание	-1384
▁заня	-1385
▁срав	-1386
ждение	-1387
правля	-1388
▁писал	-1389
▁получа	-1390
▁министер	-1391
▁p	-1392
кам	-1393
чные	-1394
ющие	-1395
▁пос	-1396
▁пун	-1397
рации	-1398
торов	-1399
▁акти	-1400
▁свер	-1401
ровано	-1402
▁благо	-1403
▁техно	-1404
▁которая	-1405
▁которых	-1406
▁законода	-1407
▁средства	-1408
▁исследова	-1409
▁прокуратура	-1410
зя	-1411
шо	-1412
рах	-1413
тить	-1414
торы	-1415
цией	-1416
▁муж	-1417
▁пояс	-1418
▁ходе	-1419
▁амери	-1420
▁могут	-1421
▁обнару	-1422
▁системы	-1423
нь	-1424
жили	-1425
рета	-1426
▁вол	-1427
▁ско	-1428
▁скр	-1429
матри	-1430
прияти	-1431
▁допол	-1432
▁зареги	-1433
▁постав	-1434
▁ссылкой	-1435
▁екатерин	-1436
▁зарегистри	-1437
▁предпринима	-1438
▁n	-1439
куп	-1440
мет	-1441
наб	-1442
ябре	-1443
▁кры	-1444
▁сай	-1445
▁тем	-1446
▁выра	-1447
▁гене	-1448
дитель	-1449
▁полити	-1450
▁рамках	-1451
▁способ	-1452
▁объектов	-1453
▁развития	-1454
▁говорится	-1455
▁российских	-1456
▁w	-1457
ких	-1458
вила	-1459
нили	-1460
▁атом	-1461
▁сохра	-1462
▁других	-1463
▁совета	-1464
городской	-1465
▁обеспечи	-1466
>),	-1467
>).	-1468
тал	-1469
длов	-1470
ходя	-1471
▁кри	-1472
▁мат	-1473
▁арби	-1474
▁измен	-1475
▁новых	-1476
ведения	-1477
▁привле	-1478
▁месяцев	-1479
▁деятельности	-1480
ar	-1481
ol	-1482
▁i	-1483
▁перм	-1484
вартир	-1485
вление	-1486
▁мужчи	-1487
▁обяза	-1488
тельной	-1489
▁промышлен	-1490
▁сотрудники	-1491
ган	-1492
спб	-1493
▁он	-1494
мина	-1495
пара	-1496
▁бел	-1497
▁каче	-1498
▁меро	-1499
▁моло	-1500
▁прог	-1501
▁помощ	-1502
▁район	-1503
▁ремон	-1504
▁инициа	-1505
тельного	-1506
▁арбитра	-1507
▁размере	-1508
▁действия	-1509
▁мероприяти	-1510
▁беспилотников	-1511
▁ж	-1512
дии	-1513
ток	-1514
▁ну	-1515
▁сп	-1516
ртии	-1517
рует	-1518
▁кар	-1519
▁кол	-1520
▁тасс	-1521
ческой	-1522
▁совер	-1523
▁прошлого	-1524
▁транспорт	-1525
▁h	-1526
ями	-1527
тали	-1528
▁клю	-1529
▁тур	-1530
шений	-1531
▁прио	-1532
▁спро	-1533
▁серви	-1534
▁части	-1535
▁сообщал	-1536
▁иностран	-1537
▁следствия	-1538
▁составила	-1539
кий	-1540
сли	-1541
ензи	-1542
▁каж	-1543
▁наи	-1544
рания	-1545
▁меры	-1546
▁неде	-1547
▁проводи	-1548
▁рассказал	-1549
▁государствен	-1550
вд	-1551
вую	-1552
кви	-1553
нди	-1554
ред	-1555
щер	-1556
роне	-1557
▁все	-1558
▁рос	-1559
▁сек	-1560
▁выбо	-1561
▁опре	-1562
▁сезо	-1563
▁учре	-1564
станов	-1565
ческий	-1566
▁ключе	-1567
▁места	-1568
▁сумму	-1569
▁медици	-1570
▁бюджета	-1571
▁заверши	-1572
▁установл	-1573
▁несколько	-1574
▁подробнее	-1575
мар	-1576
мпи	-1577
шин	-1578
▁оп	-1579
энер	-1580
▁аре	-1581
▁ожи	-1582
▁уче	-1583
▁эти	-1584
мости	-1585
▁дохо	-1586
▁месте	-1587
▁превы	-1588
▁бизнес	-1589
▁течение	-1590
▁финансо	-1591
▁американ	-1592
▁депутаты	-1593
▁дополнитель	-1594
чс	-1595
лез	-1596
вить	-1597
жной	-1598
ницы	-1599
▁име	-1600
▁сель	-1601
▁ущер	-1602
вления	-1603
▁рублей	-1604
▁яросла	-1605
▁получил	-1606
▁следует	-1607
▁директор	-1608
▁комитета	-1609
лых	-1610
пом	-1611
▁вой	-1612
льные	-1613
ндида	-1614
ремен	-1615
▁агент	-1616
▁закры	-1617
▁значи	-1618
▁конце	-1619
▁отпра	-1620
▁парла	-1621
▁банков	-1622
▁устано	-1623
▁кандида	-1624
ступления	-1625
▁свердлов	-1626
▁специаль	-1627
▁технологи	-1628
ъя	-1629
▁d	-1630
каз	-1631
ляр	-1632
сант	-1633
смот	-1634
менты	-1635
платы	-1636
ссажи	-1637
▁счет	-1638
▁госду	-1639
▁свобо	-1640
▁улице	-1641
▁извест	-1642
▁подтвер	-1643
▁находится	-1644
▁подчеркну	-1645
▁сообщении	-1646
тя	-1647
воз	-1648
тет	-1649
чил	-1650
▁ап	-1651
това	-1652
чень	-1653
▁бли	-1654
▁подго	-1655
▁версии	-1656
▁службы	-1657
▁пригово	-1658
гли	-1659
жей	-1660
нах	-1661
▁тя	-1662
мбле	-1663
▁оче	-1664
▁сло	-1665
ложен	-1666
сантъ	-1667
▁куро	-1668
▁объе	-1669
▁гости	-1670
▁вопрос	-1671
▁работу	-1672
▁опубликова	-1673
▁коммерсантъ	-1674
▁уд	-1675
льно	-1676
чное	-1677
ыска	-1678
▁осу	-1679
▁смо	-1680
енных	-1681
ченко	-1682
▁пять	-1683
▁регу	-1684
▁готов	-1685
▁детей	-1686
▁погиб	-1687
▁стало	-1688
▁конкур	-1689
▁предпо	-1690
▁ставропо	-1691
▁должность	-1692
>)	-1693
ter	-1694
ева	-1695
кин	-1696
мой	-1697
ним	-1698
щем	-1699
доро	-1700
ющей	-1701
▁мчс	-1702
летов	-1703
нение	-1704
пусти	-1705
▁живо	-1706
▁напа	-1707
▁поме	-1708
▁расп	-1709
▁женщи	-1710
▁округа	-1711
▁пассажи	-1712
▁украине	-1713
▁пострадали	-1714
▁сотрудников	-1715
▁пострадавших	-1716
мь	-1717
над	-1718
▁сы	-1719
нных	-1720
тной	-1721
фици	-1722
▁удо	-1723
дения	-1724
жении	-1725
струк	-1726
▁миха	-1727
▁фору	-1728
ствует	-1729
▁судов	-1730
▁число	-1731
ссамбле	-1732
▁доступ	-1733
▁момент	-1734
▁незакон	-1735
▁происше	-1736
▁количество	-1737
гов	-1738
лли	-1739
ору	-1740
сом	-1741
тно	-1742
хов	-1743
▁ау	-1744
▁ти	-1745
выше	-1746
ента	-1747
чены	-1748
▁кре	-1749
ющего	-1750
▁ниже	-1751
▁оцен	-1752
▁прой	-1753
▁това	-1754
▁фран	-1755
▁банка	-1756
▁снизи	-1757
▁городе	-1758
▁началь	-1759
петербур	-1760
▁область	-1761
▁проекта	-1762
▁законопроек	-1763
▁председатель	-1764
бир	-1765
▁ор	-1766
▁нау	-1767
▁реб	-1768
льном	-1769
ровал	-1770
чении	-1771
▁посе	-1772
▁прод	-1773
▁ради	-1774
▁штра	-1775
ментов	-1776
▁объем	-1777
▁ожида	-1778
▁свыше	-1779
▁систе	-1780
▁стран	-1781
▁треть	-1782
▁должен	-1783
блю	-1784
вки	-1785
▁re	-1786
кипа	-1787
ницу	-1788
руют	-1789
▁евг	-1790
▁сем	-1791
рения	-1792
строи	-1793
▁мене	-1794
▁мино	-1795
▁бизне	-1796
▁стали	-1797
▁первый	-1798
▁генераль	-1799
вов	-1800
лия	-1801
сро	-1802
▁км	-1803
бере	-1804
снаб	-1805
ющим	-1806
тором	-1807
▁выро	-1808
▁опро	-1809
▁напра	-1810
▁профе	-1811
▁совет	-1812
летнего	-1813
структу	-1814
▁прекра	-1815
▁включая	-1816
▁рассмот	-1817
▁украины	-1818
нет	-1819
рев	-1820
сут	-1821
▁чу	-1822
леты	-1823
▁бло	-1824
▁жиз	-1825
ваний	-1826
▁напи	-1827
▁насе	-1828
▁домов	-1829
▁сайте	-1830
▁прогно	-1831
▁полномо	-1832
▁официаль	-1833
▁государства	-1834
▁российского	-1835
▁новороссийске	-1836
ur	-1837
цу	-1838
зяй	-1839
мых	-1840
нам	-1841
вала	-1842
дить	-1843
нуть	-1844
рами	-1845
чили	-1846
верси	-1847
держи	-1848
▁инди	-1849
▁пока	-1850
▁пост	-1851
ставля	-1852
▁ликви	-1853
▁оцени	-1854
▁подоз	-1855
▁петербур	-1856
▁получили	-1857
▁расследова	-1858
▁строительство	-1859
гру	-1860
шет	-1861
шру	-1862
вари	-1863
лена	-1864
нять	-1865
стой	-1866
читы	-1867
жного	-1868
скими	-1869
▁доля	-1870
бороны	-1871
ступил	-1872
ческие	-1873
▁зелен	-1874
▁стать	-1875
▁судеб	-1876
ственно	-1877
▁трампа	-1878
▁января	-1879
▁национа	-1880
▁свободы	-1881
▁простран	-1882
▁городской	-1883
▁минобороны	-1884
▁свердловской	-1885
зер	-1886
няя	-1887
раз	-1888
регу	-1889
цент	-1890
щего	-1891
▁без	-1892
▁деся	-1893
▁дней	-1894
▁зако	-1895
▁сара	-1896
ретарь	-1897
▁видео	-1898
▁внима	-1899
▁прове	-1900
▁европе	-1901
▁маршру	-1902
▁объявл	-1903
▁одного	-1904
▁конфликта	-1905
▁сравнению	-1906
▁председателя	-1907
чка	-1908
▁поз	-1909
▁суб	-1910
▁сфе	-1911
▁июле	-1912
▁приз	-1913
▁теку	-1914
▁успе	-1915
▁бензи	-1916
▁интере	-1917
▁алексей	-1918
▁предвари	-1919
▁необходимо	-1920
гии	-1921
лай	-1922
тие	-1923
ыта	-1924
▁ал	-1925
вшие	-1926
град	-1927
ерен	-1928
хран	-1929
▁цен	-1930
форми	-1931
▁земе	-1932
▁капи	-1933
▁раза	-1934
▁трех	-1935
▁китай	-1936
▁надзо	-1937
▁новые	-1938
▁обору	-1939
▁тепло	-1940
▁августа	-1941
▁регионе	-1942
▁участие	-1943
раструкту	-1944
▁задержали	-1945
▁рассматри	-1946
▁российской	-1947
▁планируется	-1948
▁административ	-1949
▁правительство	-1950
al	-1951
сб	-1952
бой	-1953
каб	-1954
нен	-1955
тка	-1956
чей	-1957
щий	-1958
▁вс	-1959
влет	-1960
куро	-1961
мьер	-1962
▁mer	-1963
▁бал	-1964
▁мет	-1965
▁экс	-1966
служи	-1967
фикси	-1968
▁внес	-1969
▁гена	-1970
▁зада	-1971
▁июля	-1972
▁нака	-1973
▁нало	-1974
▁окон	-1975
▁пози	-1976
▁реко	-1977
▁срок	-1978
▁центр	-1979
▁здания	-1980
▁песков	-1981
▁четвер	-1982
▁зафикси	-1983
▁позволя	-1984
▁процесс	-1985
▁сократи	-1986
▁полномочи	-1987
▁производства	-1988
сур	-1989
хва	-1990
ters	-1991
гети	-1992
нице	-1993
рева	-1994
тные	-1995
▁бор	-1996
▁бра	-1997
▁мвд	-1998
▁тон	-1999
льное	-2000
▁водо	-2001
▁пяти	-2002
▁декаб	-2003
▁новый	-2004
▁пожар	-2005
▁расхо	-2006
тельные	-2007
▁настоя	-2008
▁выступа	-2009
▁произош	-2010
▁решения	-2011
▁управля	-2012
▁составил	-2013
▁федерации	-2014
▁генассамбле	-2015
▁предприятия	-2016
▁инфраструкту	-2017
▁представитель	-2018
ап	-2019
кет	-2020
▁хи	-2021
▁ши	-2022
▁нет	-2023
▁уби	-2024
ждены	-2025
▁merc	-2026
▁иску	-2027
▁нико	-2028
▁тяже	-2029
▁челя	-2030
▁актив	-2031
▁нефте	-2032
▁поряд	-2033
▁рынке	-2034
▁аппара	-2035
▁данные	-2036
▁задерж	-2037
▁отказа	-2038
ствовать	-2039
▁признал	-2040
▁финанси	-2041
▁перегово	-2042
▁оборудова	-2043
▁информацион	-2044
ил	-2045
чу	-2046
ье	-2047
кие	-2048
рил	-2049
сек	-2050
тан	-2051
▁им	-2052
▁ты	-2053
нуне	-2054
охра	-2055
тром	-2056
▁reu	-2057
▁зар	-2058
▁сби	-2059
▁дене	-2060
▁лени	-2061
▁пути	-2062
▁суще	-2063
▁должны	-2064
▁здание	-2065
▁налого	-2066
▁примен	-2067
▁reuters	-2068
▁накануне	-2069
▁отметили	-2070
▁следствен	-2071
>:	-2072
ee	-2073
вор	-2074
▁ря	-2075
▁ул	-2076
баты	-2077
боль	-2078
нали	-2079
нача	-2080
▁кла	-2081
▁пля	-2082
движи	-2083
кации	-2084
▁делу	-2085
▁днем	-2086
▁попа	-2087
матиче	-2088
▁консу	-2089
▁напом	-2090
▁режим	-2091
▁рынка	-2092
▁связа	-2093
▁север	-2094
▁большо	-2095
▁деньги	-2096
▁первом	-2097
▁катеров	-2098
▁назначен	-2099
▁рассказа	-2100
▁парламента	-2101
▁e	-2102
жил	-2103
▁ль	-2104
нить	-2105
чным	-2106
ябрь	-2107
▁пен	-2108
▁тро	-2109
компа	-2110
надзо	-2111
▁голо	-2112
▁поки	-2113
▁порта	-2114
▁сдела	-2115
▁житель	-2116
▁реализа	-2117
▁челябин	-2118
▁предлага	-2119
▁составит	-2120
▁аэропорта	-2121
▁полностью	-2122
ro	-2123
ti	-2124
ню	-2125
бов	-2126
езд	-2127
нин	-2128
тем	-2129
ума	-2130
ност	-2131
тата	-2132
чить	-2133
чном	-2134
▁выя	-2135
▁мед	-2136
▁обл	-2137
▁там	-2138
▁эко	-2139
ществ	-2140
▁буду	-2141
▁думы	-2142
▁инци	-2143
▁плат	-2144
цитата	-2145
▁права	-2146
▁вместе	-2147
▁генпро	-2148
▁москве	-2149
▁подряд	-2150
▁устрой	-2151
▁европей	-2152
▁недвижи	-2153
▁позволи	-2154
▁прибыль	-2155
▁стороны	-2156
▁топлива	-2157
▁ярослав	-2158
▁универси	-2159
пр	-2160
нев	-2161
▁зак	-2162
▁мер	-2163
▁циф	-2164
ходят	-2165
▁апре	-2166
▁санк	-2167
▁сети	-2168
рованы	-2169
▁выпла	-2170
▁годом	-2171
▁наблю	-2172
▁намер	-2173
▁очень	-2174
▁сфере	-2175
▁возгла	-2176
▁восемь	-2177
▁данных	-2178
▁владель	-2179
▁лишения	-2180
▁удовлет	-2181
▁правоохра	-2182
▁подчеркнул	-2183
▁требования	-2184
▁заместитель	-2185
▁прокуратуры	-2186
фф	-2187
ген	-2188
щие	-2189
зыва	-2190
▁дел	-2191
▁дро	-2192
делен	-2193
ститу	-2194
▁запу	-2195
▁маши	-2196
▁стар	-2197
летний	-2198
▁объяс	-2199
▁выпуск	-2200
▁обрати	-2201
▁очеред	-2202
▁добавил	-2203
▁которой	-2204
▁максима	-2205
▁следова	-2206
▁считает	-2207
▁которого	-2208
▁аэропорту	-2209
▁ведомстве	-2210
▁продукции	-2211
▁производи	-2212
▁произошел	-2213
▁российские	-2214
ом	-2215
ян	-2216
нок	-2217
так	-2218
▁жу	-2219
вода	-2220
мест	-2221
▁бри	-2222
▁дом	-2223
▁лав	-2224
▁мск	-2225
▁обу	-2226
▁ото	-2227
▁соц	-2228
▁теа	-2229
нский	-2230
стане	-2231
▁анти	-2232
▁бело	-2233
▁девя	-2234
▁моря	-2235
▁тыся	-2236
▁желез	-2237
▁колле	-2238
▁пишет	-2239
▁разли	-2240
▁требу	-2241
▁находя	-2242
▁нового	-2243
▁распро	-2244
▁рейтин	-2245
▁случае	-2246
▁бывшего	-2247
▁обслужи	-2248
▁погибли	-2249
▁поступи	-2250
▁краснода	-2251
▁ведомство	-2252
▁участников	-2253
▁руководителя	-2254
▁.	-2255
▁g	-2256
дже	-2257
них	-2258
сою	-2259
▁an	-2260
веро	-2261
деля	-2262
спон	-2263
тиво	-2264
▁мол	-2265
▁мощ	-2266
▁даль	-2267
▁поку	-2268
ваются	-2269
регули	-2270
▁возра	-2271
▁доход	-2272
▁менее	-2273
▁роста	-2274
▁указа	-2275
▁факту	-2276
▁набере	-2277
▁ноября	-2278
▁уровне	-2279
ственных	-2280
▁депутат	-2281
▁премьер	-2282
▁противо	-2283
▁возможность	-2284
▁законопроект	-2285
▁l	-2286
зма	-2287
пар	-2288
сет	-2289
что	-2290
шие	-2291
ший	-2292
щее	-2293
▁газ	-2294
▁поя	-2295
▁роз	-2296
▁упа	-2297
более	-2298
парта	-2299
рение	-2300
ствии	-2301
▁аква	-2302
▁брен	-2303
▁идет	-2304
▁неко	-2305
▁попу	-2306
▁член	-2307
▁штаб	-2308
няется	-2309
▁анали	-2310
▁путин	-2311
▁ребен	-2312
▁вороне	-2313
▁москвы	-2314
▁москов	-2315
▁новоси	-2316
▁бизнеса	-2317
▁прошлом	-2318
▁известно	-2319
▁организова	-2320
▁губернатора	-2321
ит	-2322
>:<	-2323
зом	-2324
йти	-2325
лой	-2326
мии	-2327
сам	-2328
сил	-2329
тий	-2330
▁всу	-2331
▁две	-2332
▁мир	-2333
▁нор	-2334
▁сти	-2335
дение	-2336
надле	-2337
экипа	-2338
▁коло	-2339
▁удму	-2340
▁фили	-2341
▁долго	-2342
▁конца	-2343
▁корпо	-2344
▁среду	-2345
▁февра	-2346
тельным	-2347
тербурга	-2348
▁принима	-2349
▁качестве	-2350
▁проверку	-2351
▁районный	-2352
▁регионов	-2353
▁регистра	-2354
▁состоянии	-2355
▁предполага	-2356
▁генпрокурату	-2357
дс	-2358
нк	-2359
пов	-2360
шая	-2361
шее	-2362
шта	-2363
▁ог	-2364
лега	-2365
обра	-2366
ющая	-2367
▁дня	-2368
▁зем	-2369
▁нео	-2370
▁опы	-2371
▁сми	-2372
жской	-2373
льным	-2374
менти	-2375
▁доме	-2376
▁спец	-2377
▁цена	-2378
дентов	-2379
чением	-2380
энерго	-2381
▁госпи	-2382
▁казан	-2383
▁месяц	-2384
▁стала	-2385
▁такие	-2386
деления	-2387
шенниче	-2388
▁взыска	-2389
▁группы	-2390
▁многок	-2391
▁начале	-2392
▁сессии	-2393
▁уничто	-2394
▁энерго	-2395
▁урегули	-2396
▁безэкипа	-2397
▁внимание	-2398
▁интернет	-2399
▁энергети	-2400
▁новосибир	-2401
▁белгородской	-2402
▁новороссийск	-2403
нг	-2404
стр	-2405
шим	-2406
▁аи	-2407
▁ом	-2408
▁тю	-2409
▁уф	-2410
вело	-2411
сной	-2412
тами	-2413
▁мэр	-2414
ктиче	-2415
▁банк	-2416
▁выше	-2417
▁выяс	-2418
ванием	-2419
▁разре	-2420
▁форми	-2421
тельный	-2422
▁другие	-2423
▁страте	-2424
▁центра	-2425
ственной	-2426
▁крупней	-2427
▁курской	-2428
▁площадь	-2429
▁система	-2430
▁действий	-2431
▁наиболее	-2432
▁поддержа	-2433
▁проверки	-2434
▁професси	-2435
▁развитие	-2436
▁ставрополь	-2437
▁управление	-2438
▁арбитражный	-2439
▁организаций	-2440
вли	-2441
▁тр	-2442
виси	-2443
▁кам	-2444
▁мид	-2445
ждено	-2446
▁вось	-2447
▁парт	-2448
▁убий	-2449
▁общей	-2450
▁приоб	-2451
▁расши	-2452
▁ущерб	-2453
▁возвра	-2454
▁работе	-2455
▁комплекс	-2456
▁осуществ	-2457
▁нарушения	-2458
▁информацию	-2459
▁информация	-2460
▁татарстана	-2461
▁обеспечения	-2462
▁представители	-2463
▁строительства	-2464
ot	-2465
ссе	-2466
той	-2467
тон	-2468
чью	-2469
щую	-2470
▁ге	-2471
▁жа	-2472
бань	-2473
бран	-2474
ваку	-2475
виду	-2476
слав	-2477
того	-2478
▁вра	-2479
▁нач	-2480
▁обы	-2481
▁пет	-2482
▁сту	-2483
нении	-2484
▁архи	-2485
▁вече	-2486
▁кана	-2487
▁мира	-2488
▁миро	-2489
▁моби	-2490
▁охра	-2491
▁реши	-2492
▁цены	-2493
руется	-2494
▁винов	-2495
▁одной	-2496
▁отдел	-2497
▁эваку	-2498
▁катего	-2499
▁связан	-2500
тельстве	-2501
▁медицин	-2502
▁совмест	-2503
▁водитель	-2504
▁животных	-2505
▁некоторы	-2506
▁работает	-2507
▁работают	-2508
▁депутатов	-2509
▁директора	-2510
▁имущества	-2511
▁частности	-2512
▁сотрудниче	-2513
▁иностранных	-2514
et	-2515
яр	-2516
вят	-2517
джи	-2518
жит	-2519
рыв	-2520
яче	-2521
бора	-2522
выми	-2523
дний	-2524
езда	-2525
емый	-2526
жные	-2527
сток	-2528
ффек	-2529
▁диа	-2530
▁исп	-2531
▁ква	-2532
▁клу	-2533
▁ору	-2534
▁юри	-2535
шению	-2536
▁вяче	-2537
▁газа	-2538
▁одно	-2539
вченко	-2540
ждении	-2541
телями	-2542
▁демон	-2543
▁особо	-2544
▁радио	-2545
▁чемпи	-2546
видуаль	-2547
еренции	-2548
▁бывший	-2549
▁заксоб	-2550
▁обязан	-2551
▁пример	-2552
▁режима	-2553
▁северо	-2554
▁новости	-2555
▁объедин	-2556
▁задержан	-2557
▁министра	-2558
▁принадле	-2559
▁авиакомпа	-2560
▁следствие	-2561
▁екатеринбур	-2562
▁индивидуаль	-2563
▁происшествия	-2564
эк	-2565
бри	-2566
дия	-2567
кая	-2568
луа	-2569
пец	-2570
цов	-2571
чик	-2572
яна	-2573
▁ис	-2574
ктов	-2575
тный	-2576
форм	-2577
хода	-2578
ющее	-2579
▁кру	-2580
▁лег	-2581
▁сет	-2582
▁тай	-2583
доров	-2584
комму	-2585
нском	-2586
ровки	-2587
▁выру	-2588
▁изъя	-2589
▁край	-2590
▁нато	-2591
▁недо	-2592
▁опла	-2593
▁стол	-2594
▁стре	-2595
зовать	-2596
▁воору	-2597
▁жилых	-2598
▁комму	-2599
▁людей	-2600
▁метал	-2601
▁прием	-2602
▁реали	-2603
▁рынок	-2604
▁труда	-2605
▁тысяч	-2606
▁чинов	-2607
▁шесть	-2608
▁эффек	-2609
▁автобу	-2610
▁кварти	-2611
▁месяца	-2612
▁провед	-2613
▁продли	-2614
▁прокуро	-2615
секретарь	-2616
▁акватори	-2617
▁дональда	-2618
▁площадью	-2619
▁предупре	-2620
▁ситуация	-2621
▁утвержда	-2622
▁владимира	-2623
▁обнаружили	-2624
▁показатель	-2625
▁расположен	-2626
▁республике	-2627
▁предложения	-2628
▁екатеринбурга	-2629
из	-2630
шу	-2631
one	-2632
гна	-2633
жал	-2634
кое	-2635
лях	-2636
мом	-2637
рее	-2638
сад	-2639
чки	-2640
шед	-2641
▁цб	-2642
декс	-2643
лета	-2644
нной	-2645
ссия	-2646
телю	-2647
тики	-2648
▁бое	-2649
▁оте	-2650
▁риа	-2651
льная	-2652
ником	-2653
▁внут	-2654
▁выда	-2655
▁годы	-2656
▁мень	-2657
▁поми	-2658
▁прав	-2659
▁тонн	-2660
▁волго	-2661
▁жизни	-2662
▁завод	-2663
▁липец	-2664
▁нужно	-2665
▁столи	-2666
▁торго	-2667
▁харак	-2668
▁часов	-2669
▁штраф	-2670
рование	-2671
▁компен	-2672
▁продаж	-2673
▁рабочи	-2674
▁внутрен	-2675
▁госпожа	-2676
▁курорта	-2677
▁мужчина	-2678
▁приобре	-2679
▁техники	-2680
петербург	-2681
▁документа	-2682
▁муниципали	-2683
▁автомобилей	-2684
▁оперативный	-2685
ang	-2686
деж	-2687
кса	-2688
мым	-2689
тил	-2690
тку	-2691
цен	-2692
дним	-2693
емых	-2694
енно	-2695
лайн	-2696
тера	-2697
урал	-2698
▁арм	-2699
▁боб	-2700
▁вза	-2701
▁жур	-2702
▁нем	-2703
▁ниж	-2704
▁сви	-2705
▁фут	-2706
▁бесп	-2707
▁изда	-2708
▁лиде	-2709
▁несо	-2710
▁обно	-2711
▁спор	-2712
▁домаш	-2713
▁жилья	-2714
▁казах	-2715
▁сказа	-2716
▁турни	-2717
▁хозяй	-2718
▁дороги	-2719
▁избира	-2720
▁партии	-2721
▁помощь	-2722
▁пробле	-2723
▁атомной	-2724
▁жителям	-2725
▁популяр	-2726
▁преступ	-2727
▁рекомен	-2728
▁содержа	-2729
▁установ	-2730
▁эксплуа	-2731
▁местного	-2732
▁подготов	-2733
▁ситуации	-2734
▁изменения	-2735
▁планируют	-2736
▁возбуждено	-2737
▁учреждения	-2738
▁безэкипажных	-2739
▁производство	-2740
oy	-2741
ru	-2742
тп	-2743
жай	-2744
лок	-2745
мые	-2746
▁шо	-2747
влен	-2748
вшей	-2749
▁май	-2750
▁воло	-2751
▁гото	-2752
▁лица	-2753
▁орен	-2754
▁ночью	-2755
▁отмен	-2756
▁соблю	-2757
▁спрос	-2758
▁стаби	-2759
▁услуг	-2760
▁цифро	-2761
▁артеми	-2762
▁гостей	-2763
▁заболе	-2764
▁михаил	-2765
▁назвал	-2766
▁обстоя	-2767
▁пожара	-2768
▁станет	-2769
тельству	-2770
▁времени	-2771
▁госдумы	-2772
▁первого	-2773
▁ребенка	-2774
▁туристи	-2775
▁инициати	-2776
▁использу	-2777
▁получить	-2778
▁туристов	-2779
▁удмуртии	-2780
▁произошло	-2781
▁восстановл	-2782
▁требований	-2783
▁уголовного	-2784
.-	-2785
he	-2786
вш	-2787
вар	-2788
вно	-2789
дно	-2790
рот	-2791
тый	-2792
▁ху	-2793
няет	-2794
▁взя	-2795
▁кос	-2796
▁лиш	-2797
▁ман	-2798
▁пво	-2799
▁ран	-2800
главы	-2801
▁взят	-2802
▁роса	-2803
▁силу	-2804
▁стру	-2805
▁ядер	-2806
женных	-2807
▁возго	-2808
▁отсут	-2809
▁плате	-2810
▁стату	-2811
▁форма	-2812
▁введен	-2813
▁второй	-2814
▁зарпла	-2815
▁лавров	-2816
▁органы	-2817
▁отдель	-2818
▁помощи	-2819
▁потреб	-2820
▁систем	-2821
▁встречи	-2822
▁заявили	-2823
▁квартир	-2824
▁написал	-2825
▁пояснил	-2826
▁пройдет	-2827
▁руковод	-2828
▁конструк	-2829
▁проектов	-2830
▁комплекса	-2831
▁областной	-2832
▁представл	-2833
▁программы	-2834
▁специалисты	-2835
дил	-2836
лев	-2837
эта	-2838
▁ву	-2839
▁иг	-2840
стом	-2841
▁бар	-2842
▁нью	-2843
дирек	-2844
канал	-2845
нется	-2846
▁дени	-2847
▁льго	-2848
▁наза	-2849
▁речь	-2850
▁тать	-2851
▁шума	-2852
йского	-2853
▁исклю	-2854
▁молда	-2855
▁пресе	-2856
▁спаса	-2857
▁белору	-2858
▁больше	-2859
▁динами	-2860
▁единиц	-2861
▁истори	-2862
▁приори	-2863
▁тамбов	-2864
▁угроза	-2865
▁услуги	-2866
ствовали	-2867
▁алексея	-2868
▁площади	-2869
▁черного	-2870
▁движения	-2871
▁позволит	-2872
▁получила	-2873
▁пользова	-2874
▁имущество	-2875
▁планирует	-2876
▁готовности	-2877
▁ответственности	-2878
ad	-2879
нд	-2880
тр	-2881
бро	-2882
док	-2883
лье	-2884
рам	-2885
тых	-2886
▁ес	-2887
влял	-2888
горо	-2889
нику	-2890
пред	-2891
стью	-2892
треб	-2893
ятся	-2894
▁кад	-2895
▁сте	-2896
лении	-2897
▁верх	-2898
▁вину	-2899
▁води	-2900
▁июне	-2901
▁мину	-2902
▁спра	-2903
жением	-2904
тивных	-2905
▁запла	-2906
▁затем	-2907
▁оружи	-2908
▁приро	-2909
▁самар	-2910
▁своих	-2911
▁сигна	-2912
▁случи	-2913
▁сумма	-2914
▁футбо	-2915
▁целом	-2916
▁экспо	-2917
▁аварий	-2918
▁общего	-2919
▁стране	-2920
▁страхо	-2921
станавли	-2922
▁артемий	-2923
▁вечером	-2924
▁журнали	-2925
▁приняли	-2926
▁принято	-2927
▁самолет	-2928
▁структу	-2929
▁четырех	-2930
▁шуматов	-2931
▁культуры	-2932
▁политики	-2933
▁фигурант	-2934
▁эксперты	-2935
▁мошенниче	-2936
▁подозрева	-2937
▁постановл	-2938
▁александра	-2939
▁документов	-2940
▁рассказали	-2941
▁татарстане	-2942
▁транспорта	-2943
▁федерального	-2944
as	-2945
ио	-2946
лн	-2947
сф	-2948
гом	-2949
йор	-2950
пли	-2951
сок	-2952
чат	-2953
▁жк	-2954
вило	-2955
енко	-2956
жать	-2957
мена	-2958
риан	-2959
рить	-2960
▁гри	-2961
▁дтп	-2962
графи	-2963
тания	-2964
▁ауди	-2965
▁двое	-2966
▁краю	-2967
▁осво	-2968
▁раск	-2969
▁серь	-2970
▁сове	-2971
никами	-2972
нодоро	-2973
рабаты	-2974
▁кажды	-2975
▁профи	-2976
▁рубио	-2977
зирован	-2978
ционной	-2979
▁вместо	-2980
▁жители	-2981
▁здоров	-2982
▁избран	-2983
▁капита	-2984
▁онлайн	-2985
▁размер	-2986
▁ставки	-2987
▁украин	-2988
▁аэропорт	-2989
▁компенса	-2990
▁агентства	-2991
▁инициатив	-2992
▁экономики	-2993
▁эксплуата	-2994
▁размещения	-2995
▁заместителя	-2996
▁предприятий	-2997
▁исследования	-2998
▁недвижимости	-2999
▁нижегородской	-3000
▁новороссийска	-3001
ig	-3002
фу	-3003
зки	-3004
лад	-3005
рко	-3006
ктор	-3007
новь	-3008
рили	-3009
сить	-3010
▁ann	-3011
▁неу	-3012
▁тен	-3013
жений	-3014
ковал	-3015
чений	-3016
▁влия	-3017
▁впер	-3018
▁сбор	-3019
▁свое	-3020
▁семи	-3021
▁спек	-3022
▁трав	-3023
▁функ	-3024
продук	-3025
статоч	-3026
▁вновь	-3027
▁вошли	-3028
▁закуп	-3029
▁реаль	-3030
▁ресур	-3031
▁таким	-3032
▁утром	-3033
рованию	-3034
смотрен	-3035
тельное	-3036
тельств	-3037
▁ближай	-3038
▁инстру	-3039
▁наказа	-3040
▁пользу	-3041
▁ремонт	-3042
▁экстре	-3043
градской	-3044
▁вопросы	-3045
▁впервые	-3046
▁евгений	-3047
▁институ	-3048
▁которое	-3049
▁обороны	-3050
▁процеду	-3051
▁техниче	-3052
▁удалось	-3053
▁уровень	-3054
▁экологи	-3055
▁больницу	-3056
▁операции	-3057
▁приговор	-3058
▁регионах	-3059
▁госпитали	-3060
▁документы	-3061
▁пермского	-3062
▁позволяет	-3063
▁предоставл	-3064
▁железнодоро	-3065
▁министерства	-3066
▁предусмотрен	-3067
▁специалистов	-3068
▁университета	-3069
▁расследование	-3070
▁правоохранитель	-3071
os	-3072
ph	-3073
us	-3074
вез	-3075
вел	-3076
дой	-3077
пок	-3078
раи	-3079
рую	-3080
тое	-3081
дыха	-3082
личи	-3083
пром	-3084
шает	-3085
▁аль	-3086
▁еже	-3087
▁зло	-3088
▁мор	-3089
нитар	-3090
чению	-3091
▁вице	-3092
▁крем	-3093
▁роди	-3094
▁башки	-3095
▁израи	-3096
▁инжен	-3097
▁искус	-3098
▁назад	-3099
экономи	-3100
▁благоу	-3101
▁защиты	-3102
▁помимо	-3103
▁проком	-3104
▁серьез	-3105
▁состав	-3106
▁спокой	-3107
▁колонии	-3108
▁ликвида	-3109
▁составе	-3110
▁участок	-3111
▁франции	-3112
▁контракт	-3113
▁остается	-3114
▁проверка	-3115
▁снижение	-3116
▁должности	-3117
▁находятся	-3118
▁публичное	-3119
▁пресечения	-3120
▁социальных	-3121
▁направления	-3122
▁прокомменти	-3123
▁многоквартир	-3124
it	-3125
рю	-3126
вью	-3127
еха	-3128
кер	-3129
лка	-3130
сор	-3131
суд	-3132
щим	-3133
▁su	-3134
года	-3135
даря	-3136
мень	-3137
пере	-3138
рной	-3139
слов	-3140
▁сил	-3141
▁сче	-3142
▁что	-3143
гской	-3144
прово	-3145
телям	-3146
щений	-3147
▁wang	-3148
▁всем	-3149
▁газе	-3150
▁госс	-3151
▁сама	-3152
▁сдел	-3153
▁сена	-3154
▁трен	-3155
ждений	-3156
жности	-3157
перату	-3158
▁арест	-3159
▁атаке	-3160
▁избра	-3161
▁имени	-3162
▁массо	-3163
▁призы	-3164
▁собра	-3165
▁успеш	-3166
▁фонда	-3167
ровании	-3168
ционных	-3169
▁mercur	-3170
▁август	-3171
▁достиг	-3172
▁зданий	-3173
▁казани	-3174
▁неделе	-3175
▁театра	-3176
▁центре	-3177
▁январе	-3178
ционного	-3179
▁встреча	-3180
▁департа	-3181
▁корпора	-3182
▁наблюда	-3183
▁продажи	-3184
▁проспек	-3185
▁россиян	-3186
▁согласо	-3187
▁интервью	-3188
▁краснояр	-3189
▁стратеги	-3190
▁помещения	-3191
▁сохранять	-3192
▁сообщалось	-3193
▁организация	-3194
▁профессиона	-3195
▁промышленности	-3196
ed	-3197
is	-3198
жо	-3199
оте	-3200
ъек	-3201
ыду	-3202
дной	-3203
нина	-3204
обла	-3205
обно	-3206
рина	-3207
рово	-3208
рори	-3209
спри	-3210
стет	-3211
▁гро	-3212
▁лен	-3213
▁мно	-3214
▁пои	-3215
емого	-3216
енные	-3217
охран	-3218
▁веду	-3219
▁жела	-3220
▁лета	-3221
▁начи	-3222
▁одоб	-3223
▁трлн	-3224
▁хода	-3225
должен	-3226
шенных	-3227
▁запро	-3228
▁насле	-3229
▁пенси	-3230
▁перво	-3231
▁попро	-3232
▁семей	-3233
▁шести	-3234
▁школы	-3235
▁аренды	-3236
▁военно	-3237
▁голосо	-3238
▁дефици	-3239
▁закона	-3240
▁армении	-3241
▁военной	-3242
▁декабря	-3243
▁заплани	-3244
▁комитет	-3245
▁полиции	-3246
▁предыду	-3247
▁ранения	-3248
▁задолжен	-3249
▁замглавы	-3250
▁занимает	-3251
▁комиссии	-3252
▁напомним	-3253
▁привлека	-3254
▁работать	-3255
▁чемпиона	-3256
▁эффектив	-3257
▁благодаря	-3258
▁заявление	-3259
▁кравченко	-3260
▁температу	-3261
▁пассажиров	-3262
▁аналогичный	-3263
▁подробности	-3264
▁руководитель	-3265
▁инфраструктуры	-3266
ll	-3267
ху	-3268
щу	-3269
бло	-3270
лам	-3271
мый	-3272
нул	-3273
сят	-3274
▁съ	-3275
коми	-3276
ложи	-3277
нила	-3278
сные	-3279
тому	-3280
▁выс	-3281
▁дра	-3282
▁жкх	-3283
▁зву	-3284
▁луч	-3285
▁убе	-3286
льную	-3287
мотре	-3288
▁запи	-3289
▁злоу	-3290
▁имен	-3291
▁иска	-3292
▁либо	-3293
▁пору	-3294
▁смер	-3295
▁урал	-3296
▁фонд	-3297
▁чаще	-3298
▁этим	-3299
дствен	-3300
коммун	-3301
ностей	-3302
смотря	-3303
▁восто	-3304
▁гелен	-3305
▁отече	-3306
▁подоб	-3307
▁рядом	-3308
▁субси	-3309
надзора	-3310
тельная	-3311
▁банкро	-3312
▁беспла	-3313
▁дронов	-3314
▁испыта	-3315
▁меньше	-3316
▁мнению	-3317
▁округе	-3318
▁победи	-3319
▁покупа	-3320
▁россию	-3321
▁mercury	-3322
▁действу	-3323
▁консуль	-3324
▁оренбур	-3325
▁отрасли	-3326
▁подписа	-3327
▁подрост	-3328
▁потреби	-3329
▁саратов	-3330
▁среднем	-3331
▁вячеслав	-3332
▁геленджи	-3333
▁гендирек	-3334
▁несмотря	-3335
▁проходит	-3336
▁сентябре	-3337
▁современ	-3338
▁экстреми	-3339
петербурга	-3340
▁источники	-3341
▁облкоммун	-3342
▁краснодара	-3343
▁осуществля	-3344
▁повреждены	-3345
▁представля	-3346
▁публикации	-3347
▁образования	-3348
▁министерство	-3349
▁муниципалитета	-3350
▁облкоммунэнерго	-3351
at	-3352
co	-3353
ou	-3354
дж	-3355
вол	-3356
кто	-3357
нец	-3358
ноз	-3359
син	-3360
фим	-3361
цио	-3362
▁кг	-3363
вшим	-3364
горь	-3365
гото	-3366
деле	-3367
мого	-3368
чено	-3369
▁выз	-3370
▁дво	-3371
▁ндс	-3372
▁оле	-3373
▁сда	-3374
▁сег	-3375
▁сня	-3376
весто	-3377
зации	-3378
▁авак	-3379
▁бере	-3380
▁газо	-3381
▁золо	-3382
▁импо	-3383
▁коап	-3384
▁логи	-3385
▁экст	-3386
▁этих	-3387
льными	-3388
работа	-3389
шением	-3390
▁ввели	-3391
▁вводи	-3392
▁годах	-3393
▁одним	-3394
▁оформ	-3395
▁персо	-3396
▁поста	-3397
▁потен	-3398
▁своей	-3399
ставили	-3400
ционный	-3401
▁архите	-3402
▁взятки	-3403
▁неделю	-3404
▁уровня	-3405
▁учетом	-3406
▁эвакуи	-3407
▁допусти	-3408
▁инвесто	-3409
▁котором	-3410
▁полиция	-3411
▁призвал	-3412
▁распоря	-3413
▁региону	-3414
▁участке	-3415
▁депутата	-3416
▁документ	-3417
▁долгосро	-3418
▁должност	-3419
▁контроль	-3420
▁основной	-3421
▁передает	-3422
▁подписал	-3423
▁создание	-3424
▁воздушных	-3425
▁настоящее	-3426
▁госпитализи	-3427
▁исполнитель	-3428
▁предложение	-3429
▁международного	-3430
▁обстоятельства	-3431
еди	-3432
обе	-3433
под	-3434
спа	-3435
тии	-3436
фин	-3437
цей	-3438
▁ат	-3439
верг	-3440
гого	-3441
емой	-3442
запа	-3443
пове	-3444
рана	-3445
рный	-3446
част	-3447
▁дли	-3448
▁ого	-3449
▁оль	-3450
▁поэ	-3451
банка	-3452
менте	-3453
тного	-3454
щению	-3455
▁един	-3456
▁коор	-3457
▁утра	-3458
▁физи	-3459
▁хоро	-3460
▁андре	-3461
▁дипло	-3462
▁заявл	-3463
▁имеет	-3464
▁карто	-3465
▁клиен	-3466
▁метро	-3467
▁покуп	-3468
▁сирен	-3469
▁сторо	-3470
▁таких	-3471
▁трудо	-3472
▁усили	-3473
▁числа	-3474
станции	-3475
▁аресто	-3476
▁девело	-3477
▁единой	-3478
▁объект	-3479
▁освобо	-3480
▁постро	-3481
▁принял	-3482
▁провод	-3483
▁просто	-3484
▁угрозы	-3485
▁ущерба	-3486
ственный	-3487
▁дальней	-3488
▁заявила	-3489
▁интерне	-3490
▁объекта	-3491
▁получен	-3492
▁порядка	-3493
▁работал	-3494
▁станции	-3495
▁террори	-3496
▁феврале	-3497
▁экстрен	-3498
▁вопросам	-3499
▁остаются	-3500
▁покинуть	-3501
▁поставки	-3502
▁поставщи	-3503
▁поступило	-3504
▁сообщение	-3505
▁беспилотных	-3506
▁благоустрой	-3507
▁конференции	-3508
▁мероприятий	-3509
▁челябинской	-3510
▁краснодарском	-3511
ie	-3512
бк	-3513
вто	-3514
дем	-3515
лью	-3516
мум	-3517
сах	-3518
горе	-3519
жную	-3520
прав	-3521
стры	-3522
тная	-3523
чная	-3524
щено	-3525
▁the	-3526
▁сою	-3527
нской	-3528
шенно	-3529
▁ассо	-3530
▁атак	-3531
▁бори	-3532
▁вели	-3533
▁дизе	-3534
▁иноа	-3535
▁коро	-3536
▁лишь	-3537
▁попы	-3538
▁пыта	-3539
▁селе	-3540
▁уфсб	-3541
▁учеб	-3542
▁лидер	-3543
▁марко	-3544
▁марте	-3545
▁резер	-3546
▁свиде	-3547
▁состо	-3548
▁активы	-3549
▁вариан	-3550
▁именно	-3551
▁отдыха	-3552
▁первой	-3553
▁подраз	-3554
▁режиме	-3555
▁созыва	-3556
▁устран	-3557
ктически	-3558
▁констан	-3559
▁крупных	-3560
▁октябре	-3561
▁подгото	-3562
▁позиции	-3563
▁приводи	-3564
▁росавиа	-3565
▁систему	-3566
▁считают	-3567
▁уточнил	-3568
▁виновным	-3569
▁отмечает	-3570
▁прогнози	-3571
▁действует	-3572
▁кандидату	-3573
▁контракта	-3574
▁поддержку	-3575
▁последний	-3576
▁самарской	-3577
▁автомобиля	-3578
▁материалов	-3579
▁надзорного	-3580
▁проведения	-3581
▁российский	-3582
▁сообщается	-3583
▁ограничений	-3584
▁предприятие	-3585
▁удовлетвори	-3586
▁генассамблеи	-3587
▁оборудования	-3588
▁пространства	-3589
ат	-3590
▁y	-3591
вии	-3592
дий	-3593
ким	-3594
кре	-3595
лер	-3596
мин	-3597
нюю	-3598
пру	-3599
тех	-3600
▁ии	-3601
▁уг	-3602
▁чт	-3603
ваны	-3604
деми	-3605
мене	-3606
нный	-3607
опар	-3608
стин	-3609
тика	-3610
тном	-3611
цкий	-3612
▁вок	-3613
▁ива	-3614
▁рбк	-3615
▁све	-3616
▁эфи	-3617
дерни	-3618
креди	-3619
никам	-3620
ологи	-3621
опера	-3622
▁адре	-3623
▁годо	-3624
▁жало	-3625
▁жили	-3626
▁здра	-3627
▁крым	-3628
▁памя	-3629
▁сала	-3630
▁степ	-3631
▁укры	-3632
▁юрий	-3633
блиоте	-3634
вающих	-3635
▁взрыв	-3636
▁огонь	-3637
▁посвя	-3638
▁фести	-3639
тельную	-3640
▁дохода	-3641
▁запрет	-3642
▁заявки	-3643
▁каждый	-3644
▁минима	-3645
▁неболь	-3646
▁отдела	-3647
▁полови	-3648
▁понима	-3649
▁предъя	-3650
▁рейсов	-3651
▁спорта	-3652
▁аэропор	-3653
▁большин	-3654
▁клиниче	-3655
▁платфор	-3656
▁помощью	-3657
▁поэтому	-3658
▁районах	-3659
▁расходы	-3660
▁спектак	-3661
▁стандар	-3662
▁участка	-3663
▁библиоте	-3664
▁инцидент	-3665
▁отмечают	-3666
▁примерно	-3667
▁самолеты	-3668
▁составля	-3669
▁условиях	-3670
▁агентство	-3671
▁находился	-3672
▁устанавли	-3673
▁заключения	-3674
▁крупнейших	-3675
▁нескольких	-3676
▁увеличился	-3677
▁возможности	-3678
▁заксобрания	-3679
▁культурного	-3680
▁обязанности	-3681
▁президентом	-3682
▁генассамблее	-3683
▁использовать	-3684
▁соответственно	-3685
▁экономического	-3686
ав	-3687
вен	-3688
лах	-3689
мут	-3690
сво	-3691
сер	-3692
щал	-3693
щей	-3694
грал	-3695
зили	-3696
тили	-3697
▁(-<	-3698
▁вен	-3699
▁зай	-3700
▁сбе	-3701
▁ска	-3702
ктора	-3703
рению	-3704
рский	-3705
тиков	-3706
туаль	-3707
▁дове	-3708
▁заку	-3709
▁игро	-3710
▁кали	-3711
▁мето	-3712
▁мэра	-3713
▁путе	-3714
▁свой	-3715
кубань	-3716
ноземь	-3717
правки	-3718
ровала	-3719
ческая	-3720
▁грузо	-3721
▁дерев	-3722
▁корпу	-3723
▁корре	-3724
▁ленин	-3725
▁нанес	-3726
▁нефти	-3727
▁новой	-3728
▁позже	-3729
▁прило	-3730
▁прошу	-3731
▁пункт	-3732
▁рекон	-3733
▁служб	-3734
▁супру	-3735
▁тради	-3736
▁филиа	-3737
воохран	-3738
спекции	-3739
▁верхов	-3740
▁выборы	-3741
▁главой	-3742
▁девять	-3743
▁зависи	-3744
▁завода	-3745
▁клиент	-3746
▁основа	-3747
▁первым	-3748
▁полуго	-3749
▁постоя	-3750
▁природ	-3751
▁прошел	-3752
▁регион	-3753
▁регуля	-3754
▁сергея	-3755
▁список	-3756
▁спроса	-3757
▁январь	-3758
казывает	-3759
новремен	-3760
▁активов	-3761
▁ассоциа	-3762
▁выручка	-3763
▁исполня	-3764
▁которую	-3765
▁крупном	-3766
▁ликвиди	-3767
▁образом	-3768
▁органов	-3769
▁перевоз	-3770
▁получат	-3771
▁потребо	-3772
▁провели	-3773
▁проекты	-3774
▁согласи	-3775
▁средней	-3776
▁временно	-3777
▁наследия	-3778
▁периодом	-3779
▁проведен	-3780
▁рассчиты	-3781
▁сведения	-3782
▁сообщило	-3783
▁нарушение	-3784
▁объединен	-3785
▁повышение	-3786
▁поддержки	-3787
▁стоимости	-3788
▁теплоснаб	-3789
▁городского	-3790
▁обеспечить	-3791
▁распростра	-3792
▁реализации	-3793
▁результаты	-3794
▁стоимостью	-3795
▁устройства	-3796
▁здравоохран	-3797
▁региональном	-3798
▁екатеринбурге	-3799
▁генпрокуратуры	-3800
▁представителей	-3801
▁предприниматель	-3802
ma	-3803
om	-3804
дь	-3805
нр	-3806
хл	-3807
зии	-3808
чис	-3809
авгу	-3810
мати	-3811
нные	-3812
поте	-3813
рных	-3814
сила	-3815
сных	-3816
циям	-3817
шать	-3818
▁вну	-3819
▁мае	-3820
▁поч	-3821
драть	-3822
лений	-3823
может	-3824
пуска	-3825
сного	-3826
▁борь	-3827
▁пала	-3828
▁пеше	-3829
▁поте	-3830
▁силы	-3831
▁увер	-3832
ковали	-3833
пления	-3834
службы	-3835
стойчи	-3836
тивные	-3837
▁акций	-3838
▁аэрод	-3839
▁второ	-3840
▁вынес	-3841
▁госсо	-3842
▁двига	-3843
▁жилищ	-3844
▁инфля	-3845
▁общая	-3846
▁парти	-3847
▁патри	-3848
▁перми	-3849
▁плани	-3850
▁появи	-3851
▁скоро	-3852
▁суммы	-3853
▁школь	-3854
тельном	-3855
▁ввести	-3856
▁взаимо	-3857
▁высоко	-3858
▁ежегод	-3859
▁зоопар	-3860
▁отмени	-3861
▁посети	-3862
▁прошли	-3863
▁салава	-3864
▁стражу	-3865
▁форуме	-3866
зоваться	-3867
▁встрети	-3868
▁говорил	-3869
▁доходов	-3870
▁ленобла	-3871
▁модерни	-3872
▁обсужда	-3873
▁объекты	-3874
▁отправи	-3875
▁полетов	-3876
▁порядке	-3877
▁приняла	-3878
▁случаев	-3879
▁устойчи	-3880
▁башкирии	-3881
▁достаточ	-3882
▁возбудили	-3883
▁населения	-3884
▁отношения	-3885
▁татарстан	-3886
▁участники	-3887
▁автомобили	-3888
▁направлены	-3889
▁начальника	-3890
▁отмечается	-3891
▁полномочий	-3892
▁мероприятия	-3893
▁последствия	-3894
▁регистраций	-3895
▁следователи	-3896
▁спокойствие	-3897
▁увеличилось	-3898
▁преступления	-3899
▁соответствии	-3900
▁новосибирской	-3901
▁правительстве	-3902
▁следственного	-3903
тб	-3904
ых	-3905
эс	-3906
зай	-3907
лля	-3908
лые	-3909
сит	-3910
тая	-3911
хан	-3912
цам	-3913
шев	-3914
шла	-3915
эль	-3916
▁сф	-3917
банк	-3918
днее	-3919
дону	-3920
лете	-3921
стам	-3922
торе	-3923
фсою	-3924
чную	-3925
шили	-3926
▁ste	-3927
▁аук	-3928
▁бро	-3929
▁гло	-3930
▁най	-3931
▁пав	-3932
▁спб	-3933
▁ура	-3934
▁эпи	-3935
ванию	-3936
седни	-3937
▁внед	-3938
▁июня	-3939
▁преж	-3940
▁сбер	-3941
▁туап	-3942
сматри	-3943
ходить	-3944
▁акции	-3945
▁вакан	-3946
▁вылет	-3947
▁вырос	-3948
▁ипоте	-3949
▁манда	-3950
▁могли	-3951
▁произ	-3952
▁прось	-3953
▁расти	-3954
▁росто	-3955
▁юриди	-3956
министр	-3957
▁надзор	-3958
▁объеме	-3959
▁положи	-3960
▁помога	-3961
▁правам	-3962
▁пункта	-3963
▁сообще	-3964
▁соцсет	-3965
▁субъек	-3966
▁торгов	-3967
▁францу	-3968
▁яндекс	-3969
вершенно	-3970
ственные	-3971
▁возобно	-3972
▁выросла	-3973
▁городов	-3974
▁евросою	-3975
▁занимал	-3976
▁интерфа	-3977
▁последу	-3978
▁профсою	-3979
▁пунктов	-3980
▁регуляр	-3981
▁санкций	-3982
▁сервиса	-3983
▁средняя	-3984
▁татьяна	-3985
▁фестива	-3986
▁отметила	-3987
▁программ	-3988
▁ситуацию	-3989
▁временные	-3990
▁заседания	-3991
▁корреспон	-3992
▁материалы	-3993
▁последние	-3994
▁автомобиль	-3995
▁директоров	-3996
▁полномочия	-3997
▁работников	-3998
▁экстремист	-3999
▁повреждения	-4000
▁несовершенно	-4001
▁рассмотрение	-4002
▁использование	-4003
▁председателем	-4004
ac	-4005
ah	-4006
ii	-4007
их	-4008
кар	-4009
кую	-4010
луч	-4011
прф	-4012
тур	-4013
фон	-4014
▁st	-4015
▁вд	-4016
edes	-4017
вало	-4018
днев	-4019
жены	-4020
жном	-4021
кобы	-4022
лети	-4023
фика	-4024
хани	-4025
щена	-4026
▁бой	-4027
▁куб	-4028
▁нам	-4029
▁пан	-4030
▁рее	-4031
▁сим	-4032
▁фир	-4033
▁эле	-4034
дного	-4035
енный	-4036
йорке	-4037
ходил	-4038
ходов	-4039
▁базе	-4040
▁круг	-4041
▁матч	-4042
▁неиз	-4043
▁опыт	-4044
▁отве	-4045
▁отка	-4046
▁свет	-4047
▁сило	-4048
▁тамо	-4049
▁улуч	-4050
▁умер	-4051
▁фрак	-4052
▁артем	-4053
▁горду	-4054
▁едино	-4055
▁замед	-4056
▁занял	-4057
▁итоге	-4058
▁комна	-4059
▁конфи	-4060
▁нашли	-4061
▁преми	-4062
▁рейсы	-4063
▁спорт	-4064
▁сразу	-4065
▁судей	-4066
▁ураль	-4067
лизации	-4068
строить	-4069
тивного	-4070
▁восьми	-4071
▁госсек	-4072
▁изгото	-4073
▁кварта	-4074
▁максим	-4075
▁первые	-4076
▁перебо	-4077
▁прошла	-4078
▁респон	-4079
▁смогут	-4080
ственным	-4081
▁боброва	-4082
▁вступил	-4083
▁инциден	-4084
▁картоте	-4085
▁команда	-4086
▁очередь	-4087
▁портале	-4088
▁прибыли	-4089
▁решению	-4090
▁связано	-4091
▁участия	-4092
▁mercedes	-4093
▁кондрать	-4094
▁которому	-4095
▁поддержи	-4096
▁провести	-4097
▁развитию	-4098
▁северной	-4099
▁совершен	-4100
▁соцсетях	-4101
▁среднего	-4102
▁назначили	-4103
▁нарушении	-4104
▁объявлена	-4105
▁оказались	-4106
▁превышает	-4107
▁произошед	-4108
▁совместно	-4109
▁возгорания	-4110
▁воздушного	-4111
▁злоумышлен	-4112
▁ленобласти	-4113
▁набережной	-4114
▁областного	-4115
▁продолжают	-4116
▁установили	-4117
▁последствий	-4118
▁деятельность	-4119
▁территориаль	-4120
▁соответствующее	-4121
▁ставропольского	-4122
зм	-4123
ум	-4124
дых	-4125
жев	-4126
тят	-4127
чай	-4128
▁ур	-4129
▁эр	-4130
oyah	-4131
вказ	-4132
влек	-4133
воль	-4134
дать	-4135
един	-4136
жным	-4137
лдин	-4138
лены	-4139
меня	-4140
няют	-4141
сочи	-4142
ссен	-4143
тона	-4144
ходе	-4145
чика	-4146
▁апе	-4147
▁дер	-4148
▁мая	-4149
▁оли	-4150
▁упо	-4151
жению	-4152
ковых	-4153
рание	-4154
служа	-4155
стить	-4156
хозяй	-4157
чески	-4158
чными	-4159
▁анна	-4160
▁воды	-4161
▁ночь	-4162
▁олег	-4163
▁подъ	-4164
▁посо	-4165
▁похи	-4166
▁скон	-4167
▁скры	-4168
▁тари	-4169
▁упол	-4170
▁фоне	-4171
ленных	-4172
руются	-4173
ческое	-4174
чность	-4175
▁voyah	-4176
▁возме	-4177
▁гаран	-4178
▁глоба	-4179
▁годам	-4180
▁елена	-4181
▁каждо	-4182
▁линии	-4183
▁многи	-4184
▁нагру	-4185
▁нарко	-4186
▁одном	-4187
▁памят	-4188
▁самых	-4189
▁семьи	-4190
▁улицы	-4191
▁услов	-4192
▁учены	-4193
▁якобы	-4194
вшегося	-4195
номочен	-4196
▁апелля	-4197
▁возник	-4198
▁втором	-4199
▁доказа	-4200
▁должна	-4201
▁мессен	-4202
▁молоде	-4203
▁москва	-4204
▁напада	-4205
▁отстав	-4206
▁оформи	-4207
▁первую	-4208
▁премии	-4209
▁росрее	-4210
▁сервис	-4211
▁сохран	-4212
▁банкрот	-4213
▁бензина	-4214
▁властей	-4215
▁встрече	-4216
▁договор	-4217
▁октябрь	-4218
▁периода	-4219
▁питания	-4220
▁позднее	-4221
▁товаров	-4222
▁туризма	-4223
▁условия	-4224
▁француз	-4225
▁договора	-4226
▁определи	-4227
▁погибших	-4228
▁сентябрь	-4229
▁уточнили	-4230
▁участков	-4231
▁бизнесмен	-4232
▁консульта	-4233
▁некоторые	-4234
▁ожидается	-4235
▁определен	-4236
▁хозяйства	-4237
▁ликвидации	-4238
▁оперативно	-4239
▁помещениях	-4240
▁реконструк	-4241
▁военнослужа	-4242
▁уполномочен	-4243
▁федеральной	-4244
▁федеральном	-4245
▁авиакомпании	-4246
▁продолжается	-4247
.<	-4248
ca	-4249
им	-4250
▁u	-4251
ini	-4252
бар	-4253
гуп	-4254
дам	-4255
дим	-4256
дро	-4257
жем	-4258
кли	-4259
кор	-4260
рте	-4261
сий	-4262
стя	-4263
шем	-4264
▁le	-4265
▁no	-4266
▁ам	-4267
▁юр	-4268
били	-4269
вока	-4270
жает	-4271
льян	-4272
ремо	-4273
суди	-4274
тным	-4275
чать	-4276
штей	-4277
▁pro	-4278
▁vol	-4279
▁втб	-4280
▁ори	-4281
▁убы	-4282
▁уви	-4283
ведли	-4284
сказы	-4285
щихся	-4286
▁веро	-4287
▁выну	-4288
▁даге	-4289
▁дево	-4290
▁доби	-4291
▁запо	-4292
▁исте	-4293
▁люди	-4294
▁ники	-4295
▁опти	-4296
▁порт	-4297
▁райо	-4298
▁связ	-4299
▁сеть	-4300
▁собы	-4301
▁уско	-4302
▁часа	-4303
пример	-4304
ческим	-4305
▁будем	-4306
▁дании	-4307
▁дизай	-4308
▁затра	-4309
▁каспи	-4310
▁летом	-4311
▁новая	-4312
▁отрас	-4313
▁покры	-4314
ведение	-4315
▁апреля	-4316
▁внутри	-4317
▁газета	-4318
▁готова	-4319
▁группа	-4320
▁десять	-4321
▁измени	-4322
▁изъяли	-4323
▁казань	-4324
▁машины	-4325
▁начали	-4326
▁начина	-4327
▁облада	-4328
▁оборон	-4329
▁оплаты	-4330
▁первое	-4331
▁полага	-4332
▁работо	-4333
▁сезона	-4334
▁форума	-4335
действия	-4336
рованных	-4337
тических	-4338
▁автоном	-4339
▁вернуть	-4340
▁выросло	-4341
▁городах	-4342
▁декабре	-4343
▁команды	-4344
▁полицей	-4345
▁препара	-4346
▁продажу	-4347
▁сказала	-4348
▁сопрово	-4349
▁термина	-4350
▁ходатай	-4351
▁контроли	-4352
▁оказался	-4353
▁основных	-4354
▁особенно	-4355
▁политике	-4356
▁причиной	-4357
▁расходов	-4358
▁самостоя	-4359
▁собрания	-4360
▁текущего	-4361
▁акватории	-4362
▁изменений	-4363
▁наказание	-4364
▁поддержке	-4365
▁инвестиций	-4366
▁переговоры	-4367
▁принадлежа	-4368
▁росреестра	-4369
▁тамбовской	-4370
▁территорию	-4371
▁уточняется	-4372
▁энергетики	-4373
▁действовать	-4374
▁переговоров	-4375
▁саратовской	-4376
▁центральный	-4377
▁администрация	-4378
▁краснодарский	-4379
▁муниципального	-4380
▁здравоохранения	-4381
re	-4382
бай	-4383
гах	-4384
неф	-4385
нта	-4386
рай	-4387
рез	-4388
рят	-4389
чку	-4390
▁сх	-4391
бина	-4392
дила	-4393
емые	-4394
ениа	-4395
жено	-4396
ллек	-4397
нему	-4398
нули	-4399
стая	-4400
стер	-4401
тива	-4402
тран	-4403
▁ано	-4404
▁бир	-4405
▁выи	-4406
▁мак	-4407
▁ней	-4408
вшись	-4409
делец	-4410
редни	-4411
тайте	-4412
товой	-4413
ураль	-4414
▁арти	-4415
▁вуза	-4416
▁зону	-4417
▁мире	-4418
▁непо	-4419
▁номе	-4420
▁пара	-4421
▁план	-4422
▁подс	-4423
▁праз	-4424
▁приш	-4425
▁сизо	-4426
▁соба	-4427
▁трое	-4428
▁федо	-4429
▁чере	-4430
городе	-4431
▁антон	-4432
▁астра	-4433
▁вениа	-4434
▁двумя	-4435
▁знако	-4436
▁машин	-4437
▁медве	-4438
▁общую	-4439
▁отопи	-4440
▁приви	-4441
▁роман	-4442
▁самоу	-4443
▁сроки	-4444
▁сутки	-4445
▁такое	-4446
▁умень	-4447
ставить	-4448
▁апреле	-4449
▁данный	-4450
▁десяти	-4451
▁комфор	-4452
▁недели	-4453
▁оконча	-4454
▁охраны	-4455
▁повтор	-4456
▁своего	-4457
▁собира	-4458
▁статье	-4459
▁высказы	-4460
▁краевой	-4461
▁момента	-4462
▁органах	-4463
▁персона	-4464
▁подверг	-4465
▁приходи	-4466
▁публика	-4467
▁ремонта	-4468
▁столкну	-4469
▁читайте	-4470
▁электри	-4471
▁источник	-4472
▁конкурса	-4473
▁например	-4474
▁поставок	-4475
▁приводит	-4476
▁развитии	-4477
▁гостиница	-4478
▁петербург	-4479
▁предложил	-4480
▁программа	-4481
▁программе	-4482
▁продукцию	-4483
▁рекоменду	-4484
▁сообщения	-4485
▁автоматиче	-4486
▁белоруссии	-4487
▁геленджика	-4488
▁инициативу	-4489
▁оставаться	-4490
▁росавиации	-4491
▁территорий	-4492
▁гендиректор	-4493
▁опубликован	-4494
▁республикан	-4495
▁генерального	-4496
▁производству	-4497
▁респондентов	-4498
▁транспортной	-4499
▁удовлетворил	-4500
▁собственности	-4501
▁сотрудничества	-4502
fi	-4503
ар	-4504
нс	-4505
рк	-4506
тк	-4507
цо	-4508
ben	-4509
bor	-4510
ent	-4511
вич	-4512
еру	-4513
кло	-4514
мая	-4515
мую	-4516
рги	-4517
рец	-4518
рус	-4519
ссы	-4520
тке	-4521
тым	-4522
хоз	-4523
чем	-4524
▁ai	-4525
▁co	-4526
▁ma	-4527
▁гк	-4528
▁зи	-4529
▁ир	-4530
▁сц	-4531
▁эм	-4532
дных	-4533
ится	-4534
кина	-4535
пить	-4536
пози	-4537
смен	-4538
штаб	-4539
▁аэс	-4540
▁бол	-4541
▁гай	-4542
▁мен	-4543
▁нас	-4544
▁оно	-4545
▁пси	-4546
▁рез	-4547
▁сбо	-4548
▁сла	-4549
▁спу	-4550
имуще	-4551
клады	-4552
назна	-4553
спаса	-4554
списа	-4555
сторо	-4556
чиком	-4557
▁внеш	-4558
▁всей	-4559
▁деле	-4560
▁кара	-4561
▁каса	-4562
▁назы	-4563
▁нега	-4564
▁нена	-4565
▁пово	-4566
▁цели	-4567
кавказ	-4568
провод	-4569
ставки	-4570
стребо	-4571
▁гибри	-4572
▁защит	-4573
▁игорь	-4574
▁кампа	-4575
▁отчет	-4576
▁пообе	-4577
▁прото	-4578
▁рейса	-4579
▁роспо	-4580
▁улица	-4581
▁учиты	-4582
▁форум	-4583
▁этому	-4584
ноземье	-4585
▁артема	-4586
▁готовы	-4587
▁модель	-4588
▁москву	-4589
▁основе	-4590
▁оценки	-4591
▁партне	-4592
▁подклю	-4593
▁присут	-4594
▁просят	-4595
▁сконча	-4596
▁холдин	-4597
▁церемо	-4598
▁чистая	-4599
ставлены	-4600
▁аэродро	-4601
▁большой	-4602
▁выплаты	-4603
▁выпуска	-4604
▁гордумы	-4605
▁запрете	-4606
▁инженер	-4607
▁иноаген	-4608
▁капитал	-4609
▁логисти	-4610
▁падение	-4611
▁партнер	-4612
▁пенсион	-4613
▁привлек	-4614
▁применя	-4615
▁рабочих	-4616
▁расписа	-4617
▁решений	-4618
▁требует	-4619
▁третьем	-4620
правления	-4621
продуктов	-4622
▁восстано	-4623
▁движение	-4624
▁интеллек	-4625
▁комиссия	-4626
▁объявлен	-4627
▁преимуще	-4628
▁процесса	-4629
▁прошунин	-4630
▁работода	-4631
▁родствен	-4632
▁эксперти	-4633
петербурге	-4634
▁безопасно	-4635
▁гостиницы	-4636
▁завершить	-4637
▁заседание	-4638
▁обвинение	-4639
▁отношений	-4640
▁получении	-4641
▁роспотреб	-4642
▁владимиром	-4643
▁временного	-4644
▁опрошенных	-4645
▁показателя	-4646
▁продолжает	-4647
▁соглашение	-4648
▁сокращение	-4649
▁социальной	-4650
▁установлен	-4651
▁чемпионата	-4652
▁кандидатуру	-4653
▁предусматри	-4654
▁сократилось	-4655
▁электроэнер	-4656
▁беспилотники	-4657
▁задолженности	-4658
▁зафиксировано	-4659
▁использования	-4660
▁международном	-4661
▁расследования	-4662
▁использованием	-4663
▁краснодарскому	-4664
▁соответствующий	-4665
gh	-4666
ус	-4667
▁,	-4668
вей	-4669
гор	-4670
дит	-4671
лый	-4672
нга	-4673
нте	-4674
ссу	-4675
чек	-4676
щик	-4677
вани	-4678
волж	-4679
голо	-4680
дило	-4681
золя	-4682
кими	-4683
поли	-4684
рели	-4685
рыва	-4686
сист	-4687
ссов	-4688
тина	-4689
циях	-4690
щать	-4691
▁mar	-4692
▁бай	-4693
▁вид	-4694
▁вся	-4695
▁гон	-4696
▁ени	-4697
▁куп	-4698
▁нов	-4699
▁пря	-4700
▁ряд	-4701
▁сли	-4702
▁хра	-4703
вался	-4704
вании	-4705
влено	-4706
втоин	-4707
дется	-4708
зация	-4709
нений	-4710
нного	-4711
рация	-4712
стами	-4713
щиков	-4714
▁аэро	-4715
▁барс	-4716
▁бума	-4717
▁вале	-4718
▁горя	-4719
▁госа	-4720
▁демо	-4721
▁зоны	-4722
▁игра	-4723
▁кафе	-4724
▁наде	-4725
▁обжа	-4726
▁одну	-4727
▁оско	-4728
▁снаб	-4729
▁типа	-4730
▁укре	-4731
▁филь	-4732
▁чува	-4733
женные	-4734
нилось	-4735
способ	-4736
▁блоки	-4737
▁енисе	-4738
▁заказ	-4739
▁ирана	-4740
▁матче	-4741
▁мэрии	-4742
▁невоз	-4743
▁новым	-4744
▁поезд	-4745
▁протя	-4746
▁срока	-4747
▁фикси	-4748
сприрод	-4749
стройки	-4750
▁авакян	-4751
▁бензин	-4752
▁вступи	-4753
▁входит	-4754
▁группо	-4755
▁издели	-4756
▁олимпи	-4757
▁перево	-4758
▁подоро	-4759
▁потеря	-4760
▁раскры	-4761
▁регули	-4762
▁сформи	-4763
▁членов	-4764
▁чтении	-4765
▁военных	-4766
▁выделен	-4767
▁выступи	-4768
▁выявили	-4769
▁газпром	-4770
▁женщины	-4771
▁израиль	-4772
▁которым	-4773
▁кредито	-4774
▁минимум	-4775
▁наиболь	-4776
▁столицы	-4777
▁тяжелом	-4778
▁тяжести	-4779
▁условий	-4780
▁больницы	-4781
▁возрасте	-4782
▁востребо	-4783
▁достигла	-4784
▁ключевой	-4785
▁ключевым	-4786
▁коммента	-4787
▁конкурен	-4788
▁назначил	-4789
▁поправки	-4790
▁посредни	-4791
▁проблемы	-4792
▁существу	-4793
▁выступает	-4794
▁госавтоин	-4795
▁обратился	-4796
▁поврежден	-4797
▁получения	-4798
▁предназна	-4799
▁росприрод	-4800
▁самолетов	-4801
▁составили	-4802
▁состоится	-4803
▁кандидатов	-4804
▁кондратьев	-4805
▁одновремен	-4806
▁российском	-4807
▁соглашения	-4808
▁финансовой	-4809
▁аналогичным	-4810
▁вооруженных	-4811
▁компенсации	-4812
▁распростран	-4813
▁температура	-4814
▁увеличилась	-4815
▁ярославской	-4816
▁оборудование	-4817
▁оренбургской	-4818
▁следственные	-4819
▁следственный	-4820
▁корреспондент	-4821
▁соответствует	-4822
▁государственной	-4823
▁ответственность	-4824
ch	-4825
lo	-4826
эф	-4827
ota	-4828
вку	-4829
вль	-4830
дпр	-4831
зил	-4832
йте	-4833
кты	-4834
лий	-4835
рию	-4836
шко	-4837
▁ch	-4838
▁gr	-4839
▁мм	-4840
▁оч	-4841
бирь	-4842
енов	-4843
кета	-4844
чего	-4845
чета	-4846
шены	-4847
▁for	-4848
▁iph	-4849
▁lam	-4850
▁vig	-4851
▁бук	-4852
▁изу	-4853
▁кни	-4854
▁низ	-4855
▁оба	-4856
▁ост	-4857
▁пор	-4858
▁фсб	-4859
▁юла	-4860
borgh	-4861
ведом	-4862
вится	-4863
йский	-4864
ковой	-4865
мость	-4866
никах	-4867
ресур	-4868
циями	-4869
▁базо	-4870
▁венг	-4871
▁гибе	-4872
▁добы	-4873
▁дума	-4874
▁заве	-4875
▁заво	-4876
▁запе	-4877
▁зени	-4878
▁ижев	-4879
▁избе	-4880
▁инду	-4881
▁карь	-4882
▁клуб	-4883
▁мага	-4884
▁маги	-4885
▁музы	-4886
▁обли	-4887
▁осен	-4888
▁осна	-4889
▁отли	-4890
▁отре	-4891
▁писа	-4892
▁собе	-4893
▁созы	-4894
▁твер	-4895
▁улья	-4896
нитори	-4897
рована	-4898
ставил	-4899
ческую	-4900
щением	-4901
яросла	-4902
▁анапы	-4903
▁анато	-4904
▁всеми	-4905
▁выход	-4906
▁главе	-4907
▁налог	-4908
▁никто	-4909
▁пакет	-4910
▁петро	-4911
▁полно	-4912
▁посел	-4913
▁потер	-4914
▁рекла	-4915
▁самым	-4916
▁сезон	-4917
▁собой	-4918
▁тюмен	-4919
▁устав	-4920
▁экипа	-4921
скольку	-4922
тромоби	-4923
▁iphone	-4924
▁боевых	-4925
▁быстро	-4926
▁доходы	-4927
▁конкре	-4928
▁концеп	-4929
▁кремля	-4930
▁курорт	-4931
▁наличи	-4932
▁налога	-4933
▁оружия	-4934
▁остано	-4935
▁перена	-4936
▁повест	-4937
▁полном	-4938
▁провел	-4939
▁путеше	-4940
▁разных	-4941
▁райсуд	-4942
▁резерв	-4943
▁светла	-4944
▁сигнал	-4945
▁служба	-4946
▁ставка	-4947
▁упаков	-4948
borghini	-4949
скохозяй	-4950
тической	-4951
▁выборов	-4952
▁выросли	-4953
▁евгения	-4954
▁женщина	-4955
▁местные	-4956
▁местных	-4957
▁подсуди	-4958
▁разгово	-4959
▁топливо	-4960
▁успешно	-4961
ярославль	-4962
▁выступил	-4963
▁молдавии	-4964
▁неизвест	-4965
▁основные	-4966
▁приобрет	-4967
▁проводят	-4968
▁продолжи	-4969
▁размести	-4970
▁самолета	-4971
▁являются	-4972
▁взыскании	-4973
▁выражении	-4974
▁депутатом	-4975
▁казахстан	-4976
▁коммуналь	-4977
▁подрядчик	-4978
▁поскольку	-4979
▁произошла	-4980
▁различных	-4981
▁собеседни	-4982
▁составило	-4983
▁спасатели	-4984
▁спортсмен	-4985
▁достаточно	-4986
▁занимается	-4987
▁константин	-4988
▁петербурге	-4989
▁подтвержда	-4990
▁применения	-4991
▁проводится	-4992
▁рассказала	-4993
▁технологий	-4994
▁фигурантка	-4995
▁lamborghini	-4996
▁значительно	-4997
▁предоставля	-4998
▁специальной	-4999
▁участвовали	-5000
▁электромоби	-5001
▁зафиксирован	-5002
▁предполагает	-5003
▁сельскохозяй	-5004
▁случившегося	-5005
▁эксплуатацию	-5006
▁муниципальных	-5007
▁общественного	-5008
▁постановление	-5009
▁производитель	-5010
▁собственность	-5011
▁дополнительные	-5012
▁самостоятельно	-5013
▁финансирования	-5014
▁государственных	-5015
el	-5016
ew	-5017
im	-5018
зс	-5019
тс	-5020
вит	-5021
гда	-5022
джа	-5023
жды	-5024
зем	-5025
лют	-5026
рин	-5027
рья	-5028
тые	-5029
цер	-5030
чит	-5031
ыск	-5032
ясь	-5033
▁ac	-5034
▁it	-5035
▁сз	-5036
ваем	-5037
гами	-5038
гель	-5039
гози	-5040
гран	-5041
дино	-5042
дный	-5043
енок	-5044
енти	-5045
ехал	-5046
заня	-5047
конф	-5048
ныне	-5049
сети	-5050
сная	-5051
стаи	-5052
щает	-5053
▁hon	-5054
▁азс	-5055
▁али	-5056
▁гео	-5057
▁жда	-5058
▁иде	-5059
▁квт	-5060
▁куз	-5061
▁мас	-5062
▁ред	-5063
▁три	-5064
▁эль	-5065
ведет	-5066
комна	-5067
лению	-5068
скова	-5069
слава	-5070
сорци	-5071
тетов	-5072
чиков	-5073
штейн	-5074
▁vigo	-5075
▁близ	-5076
▁зара	-5077
▁игры	-5078
▁карт	-5079
▁коль	-5080
▁лока	-5081
▁мишу	-5082
▁неда	-5083
▁ника	-5084
▁похо	-5085
▁прак	-5086
▁реша	-5087
▁русс	-5088
▁сосе	-5089
▁твор	-5090
▁узна	-5091
▁широ	-5092
валось	-5093
начала	-5094
ростов	-5095
ствием	-5096
сторон	-5097
щается	-5098
▁голов	-5099
▁госза	-5100
▁денис	-5101
▁домах	-5102
▁жилой	-5103
▁замет	-5104
▁земли	-5105
▁квали	-5106
▁макро	-5107
▁марта	-5108
▁микро	-5109
▁награ	-5110
▁непри	-5111
▁оказы	-5112
▁опове	-5113
▁пляжи	-5114
▁попал	-5115
▁пошли	-5116
▁пропа	-5117
▁разру	-5118
▁ракет	-5119
▁транс	-5120
▁трубо	-5121
▁этого	-5122
ложения	-5123
ционные	-5124
▁адвока	-5125
▁активи	-5126
▁алкого	-5127
▁вероят	-5128
▁выполн	-5129
▁запоро	-5130
▁зарабо	-5131
▁затрат	-5132
▁кубань	-5133
▁местах	-5134
▁минфин	-5135
▁никола	-5136
▁ноябре	-5137
▁объема	-5138
▁органа	-5139
▁отказы	-5140
▁павлов	-5141
▁победы	-5142
▁полеты	-5143
▁правил	-5144
▁пройти	-5145
▁путина	-5146
▁растет	-5147
▁рогози	-5148
▁середи	-5149
▁создан	-5150
▁статус	-5151
▁счетом	-5152
▁ударов	-5153
▁черных	-5154
зировать	-5155
хождения	-5156
▁активно	-5157
▁воронеж	-5158
▁выполня	-5159
▁застрой	-5160
▁комбина	-5161
▁повышен	-5162
▁россией	-5163
▁ростове	-5164
▁сначала	-5165
▁степени	-5166
▁указано	-5167
▁ульянов	-5168
▁февраля	-5169
▁экспорт	-5170
▁добавили	-5171
▁здоровью	-5172
▁консорци	-5173
▁липецкой	-5174
▁независи	-5175
▁перечень	-5176
▁платежей	-5177
▁получать	-5178
▁потенциа	-5179
▁предложи	-5180
▁признали	-5181
▁проводит	-5182
▁прокурор	-5183
▁рассчита	-5184
▁самозаня	-5185
▁сообщают	-5186
▁финансов	-5187
▁чиновник	-5188
▁демонстри	-5189
▁договоров	-5190
▁доставили	-5191
▁интернете	-5192
▁кредитных	-5193
▁нарушений	-5194
▁начальник	-5195
▁отделения	-5196
▁продуктов	-5197
▁разработа	-5198
▁сельского	-5199
▁следующий	-5200
▁снизилась	-5201
▁социально	-5202
▁справедли	-5203
▁возглавлял	-5204
▁краснодаре	-5205
▁направлено	-5206
▁обвинитель	-5207
▁обвиняемый	-5208
▁обвиняется	-5209
▁отсутствие	-5210
▁поддержали	-5211
▁воронежской	-5212
▁выступления	-5213
▁европейских	-5214
▁зависимости	-5215
▁мероприятие	-5216
▁необходимые	-5217
▁полицейские	-5218
▁правоохрани	-5219
▁прокуратуре	-5220
▁американский	-5221
▁департамента	-5222
▁кредитования	-5223
▁одновременно	-5224
▁пространство	-5225
▁региональный	-5226
▁центрального	-5227
▁волгоградской	-5228
▁предварительным	-5229
ia	-5230
id	-5231
ob	-5232
oe	-5233
.).	-5234
tis	-5235
гой	-5236
дан	-5237
дев	-5238
зит	-5239
кте	-5240
лин	-5241
лым	-5242
обо	-5243
пен	-5244
пии	-5245
хим	-5246
хма	-5247
ьев	-5248
▁аб	-5249
▁ум	-5250
llan	-5251
брал	-5252
вито	-5253
жали	-5254
комо	-5255
лами	-5256
лежа	-5257
льхо	-5258
нист	-5259
ньше	-5260
раев	-5261
рити	-5262
сный	-5263
тков	-5264
чает	-5265
чики	-5266
шить	-5267
щены	-5268
ющем	-5269
▁ака	-5270
▁ктк	-5271
▁кхл	-5272
▁мос	-5273
▁нац	-5274
▁наш	-5275
▁сам	-5276
▁стс	-5277
ровая	-5278
стоит	-5279
▁hong	-5280
▁бата	-5281
▁боли	-5282
▁глад	-5283
▁двер	-5284
▁зару	-5285
▁заха	-5286
▁зоне	-5287
▁иске	-5288
▁кино	-5289
▁коле	-5290
▁коне	-5291
▁кпрф	-5292
▁лдпр	-5293
▁лука	-5294
▁любо	-5295
▁мало	-5296
▁меня	-5297
▁момо	-5298
▁море	-5299
▁пись	-5300
▁проб	-5301
▁рейс	-5302
▁реки	-5303
▁тера	-5304
▁удар	-5305
▁холо	-5306
▁хран	-5307
▁эсто	-5308
гласно	-5309
голосо	-5310
знадзо	-5311
кратно	-5312
лением	-5313
надзор	-5314
совета	-5315
▁авито	-5316
▁алтай	-5317
▁балан	-5318
▁вмеша	-5319
▁возле	-5320
▁задей	-5321
▁ирина	-5322
▁итоги	-5323
▁карта	-5324
▁марки	-5325
▁милли	-5326
▁надеж	-5327
▁наших	-5328
▁номер	-5329
▁оборо	-5330
▁отклю	-5331
▁проез	-5332
▁прожи	-5333
▁росте	-5334
▁совла	-5335
▁сферы	-5336
▁талан	-5337
▁эпизо	-5338
▁эфире	-5339
ведении	-5340
ведений	-5341
ствовал	-5342
ческими	-5343
▁виктор	-5344
▁входят	-5345
▁гонкон	-5346
▁изнача	-5347
▁коорди	-5348
▁макрон	-5349
▁модели	-5350
▁опасно	-5351
▁первая	-5352
▁перене	-5353
▁пляжей	-5354
▁прогре	-5355
▁продви	-5356
▁раньше	-5357
▁рекорд	-5358
▁сезоне	-5359
▁товары	-5360
▁третье	-5361
▁туапсе	-5362
рованный	-5363
роваться	-5364
тельному	-5365
▁актуаль	-5366
▁билетов	-5367
▁выборах	-5368
▁высокий	-5369
▁госдума	-5370
▁госпожи	-5371
▁группой	-5372
▁дефицит	-5373
▁диплома	-5374
▁другими	-5375
▁каждого	-5376
▁лицензи	-5377
▁маршрут	-5378
▁поступа	-5379
▁праздни	-5380
▁прошлой	-5381
▁рабочие	-5382
▁разбира	-5383
▁реализу	-5384
▁секторе	-5385
▁сельхоз	-5386
▁таможен	-5387
▁украина	-5388
▁условно	-5389
▁эксперт	-5390
▁энергии	-5391
рованного	-5392
▁вениамин	-5393
▁владелец	-5394
▁возможно	-5395
▁заключил	-5396
▁зарплаты	-5397
▁контроле	-5398
▁конфликт	-5399
▁магистра	-5400
▁невозмож	-5401
▁обсудили	-5402
▁обсудить	-5403
▁передаче	-5404
▁подчерки	-5405
▁посвящен	-5406
▁приорите	-5407
▁строгого	-5408
▁убийство	-5409
▁аналитики	-5410
▁владельца	-5411
▁заявления	-5412
▁категории	-5413
▁направить	-5414
▁построить	-5415
▁предстоит	-5416
▁российско	-5417
▁сложности	-5418
▁состояние	-5419
▁удовлетво	-5420
▁фигуранта	-5421
▁характера	-5422
▁заключение	-5423
▁зеленского	-5424
▁инвестиции	-5425
▁источников	-5426
▁оповещения	-5427
▁петербурга	-5428
▁показатели	-5429
▁профсоюзов	-5430
▁разработка	-5431
▁социальные	-5432
▁технологии	-5433
▁управлении	-5434
▁утверждает	-5435
▁арбитражных	-5436
▁генеральный	-5437
▁единогласно	-5438
▁обеспечение	-5439
▁практически	-5440
▁результатам	-5441
▁установлено	-5442
▁центральном	-5443
▁высказывания	-5444
▁пользоваться	-5445
▁рассмотрения	-5446
▁подразделения	-5447
▁руководителей	-5448
▁информационной	-5449
ci	-5450
hi	-5451
ic	-5452
la	-5453
vo	-5454
мс	-5455
тэ	-5456
ber	-5457
ing	-5458
oup	-5459
вин	-5460
дах	-5461
душ	-5462
ерт	-5463
кке	-5464
кут	-5465
лле	-5466
нит	-5467
рат	-5468
рит	-5469
сен	-5470
теа	-5471
цем	-5472
▁au	-5473
▁аф	-5474
▁вв	-5475
▁мя	-5476
▁уз	-5477
▁чс	-5478
вшая	-5479
дали	-5480
деть	-5481
дних	-5482
дукт	-5483
жная	-5484
изво	-5485
клад	-5486
ково	-5487
куль	-5488
мами	-5489
маню	-5490
моно	-5491
пуск	-5492
рные	-5493
уфим	-5494
ходы	-5495
чера	-5496
ющую	-5497
▁pol	-5498
▁вов	-5499
▁два	-5500
▁зер	-5501
▁маг	-5502
▁сей	-5503
▁уро	-5504
▁хме	-5505
ллина	-5506
ницах	-5507
роход	-5508
рядок	-5509
терна	-5510
тория	-5511
шенко	-5512
▁было	-5513
▁весь	-5514
▁гума	-5515
▁жиль	-5516
▁илья	-5517
▁кири	-5518
▁мера	-5519
▁меру	-5520
▁моду	-5521
▁музе	-5522
▁напо	-5523
▁озна	-5524
▁паци	-5525
▁прин	-5526
▁путь	-5527
▁роль	-5528
▁саха	-5529
▁сири	-5530
▁судо	-5531
▁тело	-5532
▁труд	-5533
▁укло	-5534
▁хими	-5535
▁худо	-5536
▁швей	-5537
▁этап	-5538
▁юрли	-5539
вались	-5540
вардии	-5541
вшихся	-5542
единая	-5543
жающей	-5544
▁борис	-5545
▁воспи	-5546
▁вреда	-5547
▁вчера	-5548
▁госко	-5549
▁денег	-5550
▁долей	-5551
▁досро	-5552
▁кирил	-5553
▁китая	-5554
▁корен	-5555
▁розни	-5556
▁слуша	-5557
▁снижа	-5558
▁соору	-5559
▁спике	-5560
▁стоит	-5561
▁столк	-5562
▁удары	-5563
▁урала	-5564
▁хокке	-5565
▁ювели	-5566
llantis	-5567
льности	-5568
новения	-5569
фикации	-5570
ционная	-5571
▁андрея	-5572
▁апарта	-5573
▁девяти	-5574
▁должно	-5575
▁евраев	-5576
▁единая	-5577
▁здании	-5578
▁корруп	-5579
▁кроссо	-5580
▁локомо	-5581
▁механи	-5582
▁настаи	-5583
▁неодно	-5584
▁номина	-5585
▁одному	-5586
▁относи	-5587
▁палаты	-5588
▁парков	-5589
▁пересе	-5590
▁претен	-5591
▁примут	-5592
▁приста	-5593
▁ранены	-5594
▁рестав	-5595
▁сирены	-5596
▁совете	-5597
▁соедин	-5598
▁спбгуп	-5599
▁страна	-5600
▁телеви	-5601
▁топлив	-5602
▁травмы	-5603
▁третий	-5604
▁турции	-5605
▁учреди	-5606
▁эмманю	-5607
рованной	-5608
▁валерий	-5609
▁воздуха	-5610
▁детских	-5611
▁запуска	-5612
▁запусти	-5613
▁интерес	-5614
▁объявил	-5615
▁осужден	-5616
▁пароход	-5617
▁первома	-5618
▁порядок	-5619
▁потерпе	-5620
▁предста	-5621
▁рейтинг	-5622
▁салават	-5623
▁соцсети	-5624
▁сторону	-5625
▁филиала	-5626
снабжения	-5627
тельности	-5628
▁автомати	-5629
▁аппарата	-5630
▁белгород	-5631
▁детского	-5632
▁заключен	-5633
▁контроля	-5634
▁кредитов	-5635
▁крупного	-5636
▁монитори	-5637
▁напомина	-5638
▁направля	-5639
▁объявили	-5640
▁пассажир	-5641
▁площадки	-5642
▁пояснили	-5643
▁проведет	-5644
▁проходят	-5645
▁процессу	-5646
▁раскрити	-5647
черноземье	-5648
▁аппаратов	-5649
▁архитекту	-5650
▁аэропорты	-5651
▁всероссий	-5652
▁гуманитар	-5653
▁дорожного	-5654
▁земельных	-5655
▁некоторых	-5656
▁обвинения	-5657
▁обращении	-5658
▁помещений	-5659
▁пострадал	-5660
▁привлечен	-5661
▁приоритет	-5662
▁проголосо	-5663
▁проспекте	-5664
▁регионами	-5665
▁увеличить	-5666
▁экономика	-5667
▁экспертов	-5668
▁stellantis	-5669
▁инициатива	-5670
▁казахстана	-5671
▁красноуфим	-5672
▁материалам	-5673
▁предлагают	-5674
▁уголовному	-5675
▁установить	-5676
▁учреждение	-5677
▁большинство	-5678
▁компенсацию	-5679
▁конструкции	-5680
▁образование	-5681
▁оценивается	-5682
▁победителем	-5683
▁поступления	-5684
▁принадлежит	-5685
▁управлением	-5686
▁обязательств	-5687
▁продолжаются	-5688
▁происшествий	-5689
▁руководители	-5690
▁руководством	-5691
▁эксплуатации	-5692
▁ликвидировали	-5693
▁международных	-5694
▁обязательства	-5695
▁предусмотрено	-5696
▁генпрокуратура	-5697
▁самоуправления	-5698
▁урегулированию	-5699
▁экстремистской	-5700
▁электроэнергии	-5701
▁многоквартирных	-5702
em	-5703
ub	-5704
ай	-5705
ию	-5706
нх	-5707
ess	-5708
гин	-5709
гре	-5710
дзе	-5711
ера	-5712
жан	-5713
йбы	-5714
коп	-5715
лее	-5716
люс	-5717
мам	-5718
мое	-5719
риа	-5720
рос	-5721
ряз	-5722
чае	-5723
час	-5724
шил	-5725
▁am	-5726
▁de	-5727
▁hr	-5728
▁in	-5729
вела	-5730
вете	-5731
защи	-5732
твра	-5733
тове	-5734
тору	-5735
хими	-5736
чила	-5737
шими	-5738
щали	-5739
щему	-5740
▁toy	-5741
▁або	-5742
▁бак	-5743
▁баш	-5744
▁впе	-5745
▁фак	-5746
▁хин	-5747
▁юго	-5748
балан	-5749
влены	-5750
града	-5751
декса	-5752
ралле	-5753
скоре	-5754
спорт	-5755
▁агро	-5756
▁гово	-5757
▁кров	-5758
▁куба	-5759
▁мега	-5760
▁ныне	-5761
▁охва	-5762
▁поро	-5763
▁скла	-5764
▁съем	-5765
▁удоб	-5766
▁шило	-5767
▁этом	-5768
довать	-5769
ленные	-5770
летнюю	-5771
льский	-5772
онеров	-5773
призна	-5774
против	-5775
сибирь	-5776
ствуют	-5777
стовер	-5778
щенных	-5779
▁армии	-5780
▁брига	-5781
▁вменя	-5782
▁войну	-5783
▁волга	-5784
▁выбра	-5785
▁горно	-5786
▁имеют	-5787
▁камер	-5788
▁космо	-5789
▁крити	-5790
▁масси	-5791
▁минут	-5792
▁найти	-5793
▁народ	-5794
▁нефть	-5795
▁новом	-5796
▁облом	-5797
▁орган	-5798
▁отказ	-5799
▁павел	-5800
▁посту	-5801
▁ресто	-5802
▁росту	-5803
▁сбили	-5804
▁секре	-5805
▁семья	-5806
▁сетей	-5807
▁собак	-5808
▁таган	-5809
▁такая	-5810
▁тести	-5811
▁целью	-5812
▁целях	-5813
действи	-5814
мотрели	-5815
произво	-5816
следова	-5817
▁toyota	-5818
▁автоза	-5819
▁аренду	-5820
▁вскоре	-5821
▁выигра	-5822
▁довери	-5823
▁женщин	-5824
▁запесо	-5825
▁изобра	-5826
▁кредит	-5827
▁многие	-5828
▁найден	-5829
▁нейтра	-5830
▁облига	-5831
▁обрабо	-5832
▁повлия	-5833
▁поиско	-5834
▁польши	-5835
▁портфе	-5836
▁реестр	-5837
▁сейчас	-5838
▁совеща	-5839
▁угрозе	-5840
▁хмелев	-5841
▁частью	-5842
▁штрафа	-5843
ровского	-5844
становки	-5845
тировать	-5846
▁аукцион	-5847
▁бактери	-5848
▁военный	-5849
▁высоким	-5850
▁годовом	-5851
▁действи	-5852
▁демокра	-5853
▁допуска	-5854
▁зампред	-5855
▁коопера	-5856
▁молодых	-5857
▁паралле	-5858
▁покинул	-5859
▁полицию	-5860
▁получит	-5861
▁продлил	-5862
▁процент	-5863
▁санкции	-5864
▁связаны	-5865
▁сделать	-5866
▁создать	-5867
▁фракции	-5868
▁частных	-5869
граждение	-5870
▁вакансий	-5871
▁водителя	-5872
▁возраста	-5873
▁восьмого	-5874
▁главного	-5875
▁динамика	-5876
▁ежегодно	-5877
▁интерфак	-5878
▁квартале	-5879
▁квартиры	-5880
▁клиентов	-5881
▁местному	-5882
▁мишустин	-5883
▁напомнил	-5884
▁начнется	-5885
▁обучение	-5886
▁операций	-5887
▁определя	-5888
▁пермский	-5889
▁показали	-5890
▁приступи	-5891
▁рейтинга	-5892
▁рождения	-5893
▁сегменте	-5894
▁сенатора	-5895
▁снизился	-5896
▁возглавил	-5897
▁воздушной	-5898
▁гражданам	-5899
▁евросоюза	-5900
▁инцидента	-5901
▁источника	-5902
▁коммуника	-5903
▁компаниям	-5904
▁назначено	-5905
▁направили	-5906
▁начальная	-5907
▁обществен	-5908
▁парламент	-5909
▁повышения	-5910
▁подвергся	-5911
▁правления	-5912
▁предотвра	-5913
▁реализова	-5914
▁связанных	-5915
▁студентов	-5916
▁тюменской	-5917
▁фестиваля	-5918
▁ярославле	-5919
▁выяснилось	-5920
▁исполнении	-5921
▁корпорации	-5922
▁назначения	-5923
▁находились	-5924
▁подготовки	-5925
▁российская	-5926
▁содержания	-5927
▁составляла	-5928
▁террористи	-5929
▁транспорти	-5930
▁уничтожили	-5931
▁установило	-5932
▁генеральной	-5933
▁запорожской	-5934
▁консульства	-5935
▁рекомендова	-5936
▁энергоресур	-5937
▁госсекретарь	-5938
▁национальной	-5939
▁неоднократно	-5940
▁пострадавшим	-5941
▁деятельностью	-5942
▁представителя	-5943
▁дополнительных	-5944
▁нефтепродуктов	-5945
▁производителей	-5946
.)	-5947
ab	-5948
li	-5949
ly	-5950
wa	-5951
бю	-5952
ley	-5953
ton	-5954
биу	-5955
бре	-5956
бэк	-5957
доб	-5958
жеб	-5959
жин	-5960
жом	-5961
ила	-5962
кци	-5963
лог	-5964
нда	-5965
ндо	-5966
нян	-5967
рок	-5968
руг	-5969
сия	-5970
смо	-5971
фов	-5972
шии	-5973
▁fm	-5974
бине	-5975
вому	-5976
вшую	-5977
етии	-5978
йдет	-5979
кции	-5980
лено	-5981
мага	-5982
след	-5983
факс	-5984
шают	-5985
▁air	-5986
▁new	-5987
▁ады	-5988
▁акс	-5989
▁гер	-5990
▁дип	-5991
▁заг	-5992
▁зри	-5993
▁кле	-5994
▁нап	-5995
▁пок	-5996
▁пят	-5997
▁сме	-5998
▁сол	-5999
▁уфы	-6000
▁учи	-6001
▁хан	-6002
▁шту	-6003
бинет	-6004
васто	-6005
восто	-6006
говой	-6007
демон	-6008
зацию	-6009
интер	-6010
нести	-6011
нился	-6012
нутся	-6013
право	-6014
тисти	-6015
шкина	-6016
ющими	-6017
▁аван	-6018
▁бюро	-6019
▁втор	-6020
▁геро	-6021
▁деву	-6022
▁иван	-6023
▁квтч	-6024
▁кеме	-6025
▁нежи	-6026
▁ними	-6027
▁огня	-6028
▁одеж	-6029
▁опер	-6030
▁плюс	-6031
▁поту	-6032
▁проз	-6033
▁проя	-6034
▁рели	-6035
▁роли	-6036
▁смен	-6037
▁союз	-6038
▁стоя	-6039
▁убор	-6040
▁уфим	-6041
▁хотя	-6042
▁цено	-6043
▁чрез	-6044
влении	-6045
входит	-6046
джеров	-6047
жность	-6048
летним	-6049
снован	-6050
тивный	-6051
чиками	-6052
▁group	-6053
▁volvo	-6054
▁анапе	-6055
▁болез	-6056
▁брони	-6057
▁вдвое	-6058
▁ведет	-6059
▁владе	-6060
▁вокза	-6061
▁графи	-6062
▁долга	-6063
▁жилье	-6064
▁запас	-6065
▁индии	-6066
▁иркут	-6067
▁какие	-6068
▁косми	-6069
▁матча	-6070
▁набиу	-6071
▁начал	-6072
▁новую	-6073
▁общий	-6074
▁огром	-6075
▁перви	-6076
▁пляжа	-6077
▁психо	-6078
▁своим	-6079
▁сетях	-6080
▁сорев	-6081
▁спарк	-6082
▁супер	-6083
▁торги	-6084
▁точки	-6085
▁указы	-6086
▁часто	-6087
▁этаже	-6088
вастопо	-6089
губерна	-6090
лизацию	-6091
льность	-6092
▁аренда	-6093
▁белого	-6094
▁васили	-6095
▁вокруг	-6096
▁выбира	-6097
▁выдели	-6098
▁генера	-6099
▁дениса	-6100
▁другим	-6101
▁замени	-6102
▁запуск	-6103
▁земель	-6104
▁инвест	-6105
▁индекс	-6106
▁иниции	-6107
▁коллек	-6108
▁концер	-6109
▁кубани	-6110
▁купить	-6111
▁лабора	-6112
▁медвед	-6113
▁научно	-6114
▁отмены	-6115
▁партию	-6116
▁первых	-6117
▁полный	-6118
▁привет	-6119
▁проезд	-6120
▁развед	-6121
▁решили	-6122
▁сделки	-6123
▁силови	-6124
▁смерть	-6125
▁смогли	-6126
▁ставку	-6127
▁уверен	-6128
▁центро	-6129
▁эвакуа	-6130
рованные	-6131
▁гладков	-6132
▁господи	-6133
▁гостини	-6134
▁грузови	-6135
▁доброво	-6136
▁достига	-6137
▁заявлял	-6138
▁кабинет	-6139
▁мужчину	-6140
▁назвали	-6141
▁николай	-6142
▁останов	-6143
▁падения	-6144
▁пешеход	-6145
▁позицию	-6146
▁поможет	-6147
▁поручил	-6148
▁продаже	-6149
▁регионы	-6150
▁санитар	-6151
▁системе	-6152
▁снизить	-6153
▁участки	-6154
▁функцио	-6155
▁чувашии	-6156
▁штатном	-6157
демонстри	-6158
интерфакс	-6159
промышлен	-6160
снабжение	-6161
▁альтерна	-6162
▁астрахан	-6163
▁включены	-6164
▁вопросов	-6165
▁еврокоми	-6166
▁запасные	-6167
▁здоровья	-6168
▁капитала	-6169
▁качества	-6170
▁молодежи	-6171
▁небольшо	-6172
▁общества	-6173
▁ожидания	-6174
▁отставку	-6175
▁площадке	-6176
▁пообещал	-6177
▁поставку	-6178
▁принятия	-6179
▁разработ	-6180
▁ресурсов	-6181
▁создания	-6182
▁статисти	-6183
▁телеграм	-6184
▁хинштейн	-6185
▁частично	-6186
▁атаковали	-6187
▁аэродромы	-6188
▁госсовета	-6189
▁задержаны	-6190
▁картотеке	-6191
▁незаконно	-6192
▁обращения	-6193
▁опасности	-6194
▁полугодии	-6195
▁получение	-6196
▁появилась	-6197
▁программу	-6198
▁регулярно	-6199
▁севастопо	-6200
▁скончался	-6201
▁соблюдать	-6202
▁требуется	-6203
▁утвержден	-6204
▁заниматься	-6205
▁инвесторов	-6206
▁московской	-6207
▁находиться	-6208
▁отказаться	-6209
▁подтвердил	-6210
▁приговорил	-6211
▁увеличение	-6212
▁банкротства	-6213
▁возбуждении	-6214
▁голосования	-6215
▁должностных	-6216
▁летательных	-6217
▁медицинских	-6218
▁оперативных	-6219
▁опубликовал	-6220
▁результатах	-6221
▁требованием	-6222
▁трубопровод	-6223
▁федеральных	-6224
▁центральной	-6225
▁долгосрочной	-6226
▁объединенная	-6227
▁продемонстри	-6228
▁производстве	-6229
▁региональной	-6230
▁национального	-6231
▁необходимости	-6232
▁рассматривает	-6233
▁восстановления	-6234
▁индивидуальный	-6235
▁индивидуальных	-6236
▁сотрудничество	-6237
▁урегулирования	-6238
▁специализирован	-6239
ap	-6240
ta	-6241
дд	-6242
зп	-6243
eed	-6244
ers	-6245
ery	-6246
iti	-6247
ola	-6248
pro	-6249
бки	-6250
вка	-6251
гры	-6252
дие	-6253
дят	-6254
зам	-6255
зен	-6256
рмо	-6257
рых	-6258
ссп	-6259
сци	-6260
чая	-6261
ьет	-6262
эко	-6263
▁ош	-6264
adem	-6265
вана	-6266
деше	-6267
дную	-6268
емся	-6269
зион	-6270
кети	-6271
комп	-6272
ланд	-6273
мога	-6274
мыка	-6275
няли	-6276
рост	-6277
садь	-6278
сную	-6279
сора	-6280
стор	-6281
тент	-6282
щика	-6283
▁rus	-6284
▁ван	-6285
▁ина	-6286
▁кмч	-6287
▁кнр	-6288
▁лау	-6289
▁мог	-6290
▁ово	-6291
▁опа	-6292
▁охо	-6293
▁очи	-6294
▁сом	-6295
▁туа	-6296
▁ува	-6297
▁шах	-6298
близи	-6299
блоки	-6300
ваемо	-6301
вшему	-6302
ездов	-6303
енным	-6304
ентов	-6305
ложил	-6306
лохов	-6307
преда	-6308
талии	-6309
тости	-6310
украи	-6311
чаево	-6312
черке	-6313
четов	-6314
чному	-6315
▁bent	-6316
▁азов	-6317
▁акку	-6318
▁воду	-6319
▁врио	-6320
▁грип	-6321
▁дзер	-6322
▁коэф	-6323
▁окса	-6324
▁осад	-6325
▁пале	-6326
▁педа	-6327
▁пора	-6328
▁седь	-6329
▁тела	-6330
▁тока	-6331
▁укра	-6332
▁упра	-6333
▁фрон	-6334
▁эрдо	-6335
ademie	-6336
август	-6337
канала	-6338
костью	-6339
летней	-6340
летняя	-6341
льзова	-6342
нилища	-6343
службу	-6344
стреби	-6345
сципли	-6346
ходили	-6347
ционно	-6348
ческом	-6349
▁альян	-6350
▁атаку	-6351
▁верну	-6352
▁видим	-6353
▁возна	-6354
▁выбро	-6355
▁диску	-6356
▁долла	-6357
▁дорог	-6358
▁замен	-6359
▁изоля	-6360
▁клуба	-6361
▁нынеш	-6362
▁олега	-6363
▁очеви	-6364
▁плано	-6365
▁плена	-6366
▁подве	-6367
▁потра	-6368
▁присо	-6369
▁путем	-6370
▁сбора	-6371
▁связь	-6372
▁серий	-6373
▁смени	-6374
▁снима	-6375
▁снова	-6376
▁сопер	-6377
▁среды	-6378
▁стано	-6379
▁строй	-6380
▁судом	-6381
▁татья	-6382
▁тенни	-6383
▁усадь	-6384
▁филип	-6385
ционное	-6386
▁безопа	-6387
▁войска	-6388
▁воспри	-6389
▁выделя	-6390
▁гибели	-6391
▁делает	-6392
▁дороге	-6393
▁загоре	-6394
▁заняла	-6395
▁зрения	-6396
▁иннова	-6397
▁квадра	-6398
▁льготы	-6399
▁малого	-6400
▁марина	-6401
▁насили	-6402
▁нашего	-6403
▁оптими	-6404
▁оружие	-6405
▁охране	-6406
▁патрио	-6407
▁подала	-6408
▁подеше	-6409
▁попали	-6410
▁портал	-6411
▁пригла	-6412
▁прошед	-6413
▁самого	-6414
▁своему	-6415
▁сектор	-6416
▁семена	-6417
▁служеб	-6418
▁сроком	-6419
▁сторон	-6420
▁учения	-6421
▁художе	-6422
действие	-6423
чительно	-6424
▁академи	-6425
▁аксенов	-6426
▁большом	-6427
▁будущем	-6428
▁бюджете	-6429
▁влияние	-6430
▁военные	-6431
▁возника	-6432
▁детской	-6433
▁женщину	-6434
▁изделий	-6435
▁истреби	-6436
▁коллеги	-6437
▁команду	-6438
▁межреги	-6439
▁мировой	-6440
▁момотов	-6441
▁начался	-6442
▁ориенти	-6443
▁перекры	-6444
▁правила	-6445
▁проверя	-6446
▁проекте	-6447
▁сборной	-6448
▁сектора	-6449
▁словаки	-6450
▁статуса	-6451
▁таганро	-6452
▁текущем	-6453
▁четверг	-6454
▁шолохов	-6455
нительной	-6456
▁анатолий	-6457
▁большого	-6458
▁включает	-6459
▁включили	-6460
▁дефицита	-6461
▁добавила	-6462
▁компанию	-6463
▁координа	-6464
▁коэффици	-6465
▁краевого	-6466
▁медведев	-6467
▁областью	-6468
▁объяснил	-6469
▁остались	-6470
▁повысить	-6471
▁призвали	-6472
▁причинен	-6473
▁пришлось	-6474
▁сегодняш	-6475
▁середине	-6476
▁судебных	-6477
▁украиной	-6478
▁экологии	-6479
вартирного	-6480
▁ближайшее	-6481
▁верховный	-6482
▁выполнить	-6483
▁городские	-6484
▁действиям	-6485
▁зеленский	-6486
▁инстанции	-6487
▁испытания	-6488
▁карачаево	-6489
▁категорий	-6490
▁квалифици	-6491
▁лукашенко	-6492
▁мощностью	-6493
▁надзорное	-6494
▁остальные	-6495
▁останется	-6496
▁отправили	-6497
▁приостано	-6498
▁результат	-6499
▁состоянию	-6500
▁стратегии	-6501
конференции	-6502
▁акваторией	-6503
▁возгорание	-6504
▁государств	-6505
▁задержания	-6506
▁изначально	-6507
▁наблюдения	-6508
▁петербургу	-6509
▁потенциаль	-6510
▁предложили	-6511
▁приходится	-6512
▁публикацию	-6513
▁разработан	-6514
▁реализация	-6515
▁российским	-6516
▁соглашений	-6517
▁сократился	-6518
▁фигурантов	-6519
▁параллельно	-6520
▁потребитель	-6521
▁рекомендуют	-6522
▁российскими	-6523
▁теплоснабжа	-6524
▁управляющий	-6525
▁финансового	-6526
▁документации	-6527
▁опубликована	-6528
▁пострадавшие	-6529
▁предлагается	-6530
▁предназначен	-6531
▁пространстве	-6532
▁рассказывает	-6533
▁ленинградской	-6534
▁международный	-6535
▁необходимость	-6536
▁подозреваемый	-6537
▁пояснительной	-6538
▁произошедшего	-6539
▁раскритиковал	-6540
▁строительству	-6541
▁благоустройство	-6542
▁образовательных	-6543
▁предусматривает	-6544
bc	-6545
to	-6546
un	-6547
пк	-6548
▁o	-6549
old	-6550
вай	-6551
гля	-6552
зка	-6553
лаг	-6554
лил	-6555
пти	-6556
пча	-6557
рно	-6558
шло	-6559
шов	-6560
▁ег	-6561
▁ид	-6562
▁ох	-6563
▁тв	-6564
▁эн	-6565
ital	-6566
вига	-6567
дами	-6568
дные	-6569
енты	-6570
жела	-6571
жное	-6572
кетп	-6573
лина	-6574
лист	-6575
март	-6576
рила	-6577
рном	-6578
руко	-6579
сном	-6580
сооб	-6581
спра	-6582
спро	-6583
стут	-6584
тием	-6585
фина	-6586
шинг	-6587
▁tes	-6588
▁tim	-6589
▁ада	-6590
▁бес	-6591
▁вдо	-6592
▁гиб	-6593
▁дат	-6594
▁дем	-6595
▁дон	-6596
▁них	-6597
▁оши	-6598
▁пас	-6599
▁сбы	-6600
▁тек	-6601
▁уже	-6602
▁фас	-6603
▁физ	-6604
▁язы	-6605
денты	-6606
жными	-6607
нефть	-6608
ницей	-6609
рацию	-6610
ректи	-6611
скаль	-6612
стата	-6613
стрии	-6614
трафо	-6615
▁агре	-6616
▁брон	-6617
▁быто	-6618
▁вело	-6619
▁вино	-6620
▁виру	-6621
▁гнее	-6622
▁гран	-6623
▁думе	-6624
▁замо	-6625
▁изби	-6626
▁иран	-6627
▁кури	-6628
▁моде	-6629
▁мост	-6630
▁муль	-6631
▁нали	-6632
▁ната	-6633
▁обсе	-6634
▁онко	-6635
▁отск	-6636
▁пари	-6637
▁паши	-6638
▁пита	-6639
▁пога	-6640
▁поко	-6641
▁поле	-6642
▁пото	-6643
▁рафа	-6644
▁сбил	-6645
▁села	-6646
▁сере	-6647
▁толь	-6648
▁тому	-6649
▁трой	-6650
▁упро	-6651
▁фаса	-6652
▁фила	-6653
билита	-6654
волжье	-6655
летних	-6656
лизова	-6657
льника	-6658
ментом	-6659
монопо	-6660
правок	-6661
тивную	-6662
центра	-6663
чается	-6664
читали	-6665
ющихся	-6666
▁адыге	-6667
▁банки	-6668
▁бирже	-6669
▁блока	-6670
▁важно	-6671
▁видом	-6672
▁войны	-6673
▁волье	-6674
▁вошел	-6675
▁градо	-6676
▁дочер	-6677
▁дроны	-6678
▁заслу	-6679
▁земле	-6680
▁концу	-6681
▁крыма	-6682
▁лекар	-6683
▁лондо	-6684
▁мария	-6685
▁михай	-6686
▁моста	-6687
▁откло	-6688
▁полях	-6689
▁решет	-6690
▁россе	-6691
▁садов	-6692
▁самый	-6693
▁стена	-6694
▁судна	-6695
▁суток	-6696
▁табли	-6697
▁такси	-6698
▁трени	-6699
▁хотят	-6700
ального	-6701
вещения	-6702
ганской	-6703
кетплей	-6704
ковской	-6705
нования	-6706
ровской	-6707
▁marton	-6708
▁авария	-6709
▁баллов	-6710
▁бастры	-6711
▁берегу	-6712
▁бикова	-6713
▁британ	-6714
▁вашинг	-6715
▁взамен	-6716
▁гавани	-6717
▁гросси	-6718
▁группи	-6719
▁группу	-6720
▁делега	-6721
▁европы	-6722
▁задачи	-6723
▁зарубе	-6724
▁звучит	-6725
▁золота	-6726
▁канале	-6727
▁матчей	-6728
▁месяце	-6729
▁молдав	-6730
▁начать	-6731
▁начнут	-6732
▁оценке	-6733
▁оценку	-6734
▁повлек	-6735
▁подзем	-6736
▁прежде	-6737
▁принес	-6738
▁присво	-6739
▁развер	-6740
▁распре	-6741
▁рассле	-6742
▁скорее	-6743
▁случай	-6744
▁спикер	-6745
▁списке	-6746
▁спустя	-6747
▁такого	-6748
▁телефо	-6749
▁тендер	-6750
▁улицах	-6751
▁ученые	-6752
▁фонтан	-6753
▁хоккей	-6754
▁чистой	-6755
▁южного	-6756
ровались	-6757
рованием	-6758
руководи	-6759
▁bentley	-6760
▁адвокат	-6761
▁альянса	-6762
▁большая	-6763
▁бюджету	-6764
▁волонте	-6765
▁главный	-6766
▁госдуму	-6767
▁госпита	-6768
▁девелоп	-6769
▁денежно	-6770
▁детские	-6771
▁издание	-6772
▁издания	-6773
▁исполни	-6774
▁калинин	-6775
▁клиента	-6776
▁лидеров	-6777
▁масштаб	-6778
▁металлу	-6779
▁москаль	-6780
▁неустой	-6781
▁отремон	-6782
▁оштрафо	-6783
▁перебои	-6784
▁перспек	-6785
▁протоко	-6786
▁ребенок	-6787
▁розыска	-6788
▁сбивать	-6789
▁станице	-6790
▁стражей	-6791
▁academie	-6792
▁выделено	-6793
▁вырастет	-6794
▁выступал	-6795
▁допустил	-6796
▁доступны	-6797
▁интересы	-6798
▁инфляция	-6799
▁кириенко	-6800
▁конфиско	-6801
▁маршруты	-6802
▁мессендж	-6803
▁многочис	-6804
▁мощность	-6805
▁намерены	-6806
▁нацпроек	-6807
▁обрабаты	-6808
▁ограничи	-6809
▁открытое	-6810
▁передали	-6811
▁подобные	-6812
▁подобных	-6813
▁поисково	-6814
▁получают	-6815
▁приведет	-6816
▁проведут	-6817
▁продукты	-6818
▁просьбой	-6819
▁светлана	-6820
▁скорость	-6821
▁снижения	-6822
▁созданию	-6823
▁странами	-6824
льхознадзо	-6825
▁ближайшие	-6826
▁городскую	-6827
▁домашнего	-6828
▁задейство	-6829
▁зеленским	-6830
▁конкурент	-6831
▁министров	-6832
▁нападения	-6833
▁направлен	-6834
▁обследова	-6835
▁опасность	-6836
▁отказался	-6837
▁платформы	-6838
▁поддержка	-6839
▁потенциал	-6840
▁привлекли	-6841
▁природных	-6842
▁продукция	-6843
▁прокурора	-6844
▁районного	-6845
▁располага	-6846
▁сбербанка	-6847
▁совладель	-6848
▁сократить	-6849
▁утвердила	-6850
▁фотографи	-6851
▁антимонопо	-6852
▁выполнение	-6853
▁дизельного	-6854
▁иноагентом	-6855
▁маркетплей	-6856
▁набиуллина	-6857
▁нападающий	-6858
▁направлена	-6859
▁наркотиков	-6860
▁населенных	-6861
▁невозможно	-6862
▁подозрению	-6863
▁проведении	-6864
▁разработки	-6865
▁расширение	-6866
▁реализацию	-6867
▁следствием	-6868
▁сокращения	-6869
▁сопровожда	-6870
▁сотрудника	-6871
▁спасателей	-6872
▁украинских	-6873
▁управлению	-6874
▁устройство	-6875
▁фактически	-6876
▁физических	-6877
▁банковского	-6878
▁департамент	-6879
▁дипломатиче	-6880
▁инструменты	-6881
▁исполняющим	-6882
▁наблюдается	-6883
▁потребление	-6884
▁предложений	-6885
▁представила	-6886
▁сократилась	-6887
▁требованиям	-6888
▁электронных	-6889
▁авиакомпания	-6890
▁исследование	-6891
▁исследований	-6892
▁коммерческий	-6893
▁медицинского	-6894
▁обеспечивает	-6895
▁объединенной	-6896
▁опубликовано	-6897
▁региональное	-6898
▁дополнительно	-6899
▁мошенничество	-6900
▁строительстве	-6901
▁транспортного	-6902
▁инвестиционных	-6903
▁искусственного	-6904
▁организованной	-6905
▁финансирование	-6906
▁россельхознадзо	-6907
fa	-6908
ун	-6909
хе	-6910
ьи	-6911
>,-	-6912
bes	-6913
бок	-6914
гар	-6915
дон	-6916
кун	-6917
лон	-6918
нав	-6919
нси	-6920
раг	-6921
рем	-6922
рзп	-6923
рье	-6924
сиб	-6925
тье	-6926
чан	-6927
шую	-6928
яко	-6929
▁hh	-6930
▁дж	-6931
▁ды	-6932
▁ит	-6933
cola	-6934
ream	-6935
беки	-6936
дают	-6937
емым	-6938
здра	-6939
инте	-6940
кову	-6941
кома	-6942
мана	-6943
мено	-6944
монт	-6945
нией	-6946
нико	-6947
ново	-6948
нома	-6949
ридо	-6950
росо	-6951
ряда	-6952
сило	-6953
сова	-6954
фона	-6955
шена	-6956
шено	-6957
▁nor	-6958
▁ввп	-6959
▁гол	-6960
▁дже	-6961
▁иль	-6962
▁ими	-6963
▁ита	-6964
▁кот	-6965
▁лит	-6966
▁озе	-6967
▁сде	-6968
▁смя	-6969
▁хва	-6970
▁цик	-6971
▁чел	-6972
▁чув	-6973
▁юге	-6974
▁яма	-6975
вился	-6976
вокуп	-6977
вшими	-6978
вычай	-6979
денко	-6980
длежа	-6981
довая	-6982
купок	-6983
ловая	-6984
ломет	-6985
манов	-6986
надца	-6987
ровой	-6988
стати	-6989
тенге	-6990
участ	-6991
ханов	-6992
четам	-6993
▁news	-6994
▁выво	-6995
▁горе	-6996
▁деше	-6997
▁жест	-6998
▁заем	-6999
▁иско	-7000
▁лега	-7001
▁лими	-7002
▁наши	-7003
▁обоз	-7004
▁обру	-7005
▁опья	-7006
▁парк	-7007
▁поля	-7008
▁росг	-7009
▁сада	-7010
▁стек	-7011
▁стен	-7012
▁таба	-7013
▁улиц	-7014
▁цене	-7015
▁школ	-7016
ванные	-7017
вающие	-7018
виться	-7019
влению	-7020
вшейся	-7021
гового	-7022
доволь	-7023
корруп	-7024
ложить	-7025
льному	-7026
никова	-7027
нируют	-7028
няются	-7029
тивной	-7030
▁dream	-7031
▁stone	-7032
▁tesla	-7033
▁адрес	-7034
▁актер	-7035
▁блана	-7036
▁бренд	-7037
▁вакци	-7038
▁вести	-7039
▁видов	-7040
▁воспо	-7041
▁вызов	-7042
▁грузи	-7043
▁ждать	-7044
▁заряд	-7045
▁кабар	-7046
▁кризи	-7047
▁куйбы	-7048
▁лауре	-7049
▁лично	-7050
▁напад	-7051
▁напал	-7052
▁нашей	-7053
▁незна	-7054
▁оправ	-7055
▁опыта	-7056
▁остро	-7057
▁очков	-7058
▁проте	-7059
▁сгоре	-7060
▁серии	-7061
▁сосед	-7062
▁союза	-7063
▁сцена	-7064
▁счету	-7065
▁торга	-7066
▁траге	-7067
▁учени	-7068
▁форме	-7069
▁члена	-7070
▁члены	-7071
▁южной	-7072
баланси	-7073
деление	-7074
комплек	-7075
льского	-7076
новском	-7077
▁forbes	-7078
▁аварии	-7079
▁батаре	-7080
▁борьбе	-7081
▁взяток	-7082
▁внесла	-7083
▁внесли	-7084
▁задача	-7085
▁защиту	-7086
▁заявок	-7087
▁италии	-7088
▁кабине	-7089
▁класса	-7090
▁крымом	-7091
▁мастер	-7092
▁мигран	-7093
▁мужчин	-7094
▁нижнем	-7095
▁общежи	-7096
▁округу	-7097
▁оплату	-7098
▁опроса	-7099
▁осетии	-7100
▁отелей	-7101
▁отличи	-7102
▁отпуск	-7103
▁паслер	-7104
▁победу	-7105
▁погода	-7106
▁полной	-7107
▁понома	-7108
▁поступ	-7109
▁прибре	-7110
▁ростом	-7111
▁сбежал	-7112
▁сделок	-7113
▁сириус	-7114
▁смерти	-7115
▁спасти	-7116
▁средне	-7117
▁страну	-7118
▁тольят	-7119
▁трассы	-7120
▁тренер	-7121
▁удержи	-7122
▁ужесто	-7123
▁уплаты	-7124
▁формат	-7125
▁швейца	-7126
▁штенге	-7127
росовест	-7128
сировать	-7129
▁ведется	-7130
▁встречу	-7131
▁второго	-7132
▁выходят	-7133
▁главной	-7134
▁границы	-7135
▁закупок	-7136
▁записке	-7137
▁истории	-7138
▁километ	-7139
▁конечно	-7140
▁конкурс	-7141
▁кредиты	-7142
▁мандата	-7143
▁минздра	-7144
▁михаила	-7145
▁намерен	-7146
▁насчиты	-7147
▁общения	-7148
▁оказать	-7149
▁отказов	-7150
▁отправл	-7151
▁отходов	-7152
▁оценкам	-7153
▁покупке	-7154
▁поселке	-7155
▁постоян	-7156
▁предмет	-7157
▁прилега	-7158
▁принять	-7159
▁природо	-7160
▁прирост	-7161
▁продукт	-7162
▁пройдут	-7163
▁районов	-7164
▁ректора	-7165
▁следить	-7166
▁совокуп	-7167
▁субсиди	-7168
тельством	-7169
тического	-7170
▁ассамбле	-7171
▁введение	-7172
▁включить	-7173
▁граждане	-7174
▁достигну	-7175
▁железной	-7176
▁запрещен	-7177
▁захарова	-7178
▁значимых	-7179
▁зоопарка	-7180
▁инфляции	-7181
▁кампании	-7182
▁касается	-7183
▁ключевых	-7184
▁кореняко	-7185
▁лидерами	-7186
▁нагрузки	-7187
▁напротив	-7188
▁началась	-7189
▁обвиняют	-7190
▁областях	-7191
▁объектах	-7192
▁объявила	-7193
▁передачи	-7194
▁перерабо	-7195
▁полагает	-7196
▁полноцен	-7197
▁рейтинге	-7198
▁саратова	-7199
▁сбаланси	-7200
▁сегмента	-7201
▁создании	-7202
▁торговли	-7203
▁убийстве	-7204
▁условиям	-7205
▁уточняет	-7206
▁учащихся	-7207
▁характер	-7208
▁цифровых	-7209
▁белгороде	-7210
▁владимиру	-7211
▁воздушное	-7212
▁возможной	-7213
▁возможных	-7214
▁городских	-7215
▁завершили	-7216
▁института	-7217
▁интернета	-7218
▁ленинский	-7219
▁мессендже	-7220
▁металличе	-7221
▁настоящий	-7222
▁начальной	-7223
▁небольшой	-7224
▁недействи	-7225
▁обращений	-7226
▁оказалась	-7227
▁опьянения	-7228
▁отделении	-7229
▁принимать	-7230
▁продавать	-7231
▁разрабаты	-7232
▁рассмотре	-7233
▁состоялся	-7234
▁сотрудник	-7235
▁спектакль	-7236
▁средством	-7237
▁судебного	-7238
▁терминале	-7239
▁установки	-7240
▁устойчиво	-7241
▁устройств	-7242
▁характери	-7243
▁чрезвычай	-7244
▁экономике	-7245
▁электриче	-7246
сторожности	-7247
▁антикорруп	-7248
▁банковских	-7249
▁владельцев	-7250
▁встретился	-7251
▁выполнения	-7252
▁госзакупок	-7253
▁доставлены	-7254
▁достижения	-7255
▁жительница	-7256
▁завершился	-7257
▁замедление	-7258
▁запесоцкий	-7259
▁инициативы	-7260
▁интеллекта	-7261
▁интерфаксу	-7262
▁исполнения	-7263
▁количеству	-7264
▁магистрали	-7265
▁межрегиона	-7266
▁обновление	-7267
▁окружающей	-7268
▁полученных	-7269
▁происходит	-7270
▁совершении	-7271
▁сообщества	-7272
▁становится	-7273
▁автономного	-7274
▁внутреннего	-7275
▁журналистам	-7276
▁заболеваний	-7277
▁консорциума	-7278
▁медицинские	-7279
▁направлении	-7280
▁необходимую	-7281
▁обвиняемого	-7282
▁организацию	-7283
▁официальный	-7284
▁приостановл	-7285
▁университет	-7286
▁ходатайство	-7287
▁журналистами	-7288
▁задержанного	-7289
▁заместителем	-7290
▁использовали	-7291
▁консультации	-7292
▁контролирует	-7293
▁максимальная	-7294
▁министерстве	-7295
▁наблюдателей	-7296
▁обслуживания	-7297
▁промышленной	-7298
▁распоряжение	-7299
▁строительной	-7300
▁транспортных	-7301
▁федеральными	-7302
петербургского	-7303
▁задолженность	-7304
▁мошенничестве	-7305
▁пользователей	-7306
▁проголосовали	-7307
▁реконструкцию	-7308
▁руководителем	-7309
▁собственников	-7310
▁финансировании	-7311
▁благоустройства	-7312
▁государственный	-7313
▁соответствующие	-7314
ft	-7315
od	-7316
po	-7317
аг	-7318
ак	-7319
дт	-7320
тю	-7321
ут	-7322
and	-7323
out	-7324
per	-7325
вла	-7326
гер	-7327
зор	-7328
ляй	-7329
рич	-7330
рма	-7331
роб	-7332
уро	-7333
хло	-7334
чин	-7335
▁ap	-7336
▁ем	-7337
▁ов	-7338
▁оф	-7339
▁цо	-7340
▁шу	-7341
cial	-7342
eely	-7343
file	-7344
будс	-7345
вира	-7346
воро	-7347
гать	-7348
горя	-7349
дным	-7350
езде	-7351
исет	-7352
лере	-7353
меть	-7354
мова	-7355
мули	-7356
носи	-7357
отск	-7358
рище	-7359
сное	-7360
соли	-7361
ссей	-7362
стар	-7363
стка	-7364
стям	-7365
шали	-7366
шина	-7367
шкин	-7368
шком	-7369
щают	-7370
▁асф	-7371
▁бря	-7372
▁вво	-7373
▁вет	-7374
▁вру	-7375
▁глу	-7376
▁гуф	-7377
▁жид	-7378
▁зав	-7379
▁зад	-7380
▁коб	-7381
▁лиф	-7382
▁она	-7383
▁пес	-7384
▁тат	-7385
▁той	-7386
▁тяж	-7387
▁уси	-7388
▁фер	-7389
▁хищ	-7390
▁шоу	-7391
балка	-7392
везли	-7393
вятся	-7394
йском	-7395
лейбо	-7396
логии	-7397
ранов	-7398
рении	-7399
ровка	-7400
сетей	-7401
такте	-7402
тории	-7403
ходом	-7404
цкого	-7405
чинов	-7406
▁coca	-7407
▁анса	-7408
▁атмо	-7409
▁бага	-7410
▁базы	-7411
▁бого	-7412
▁вати	-7413
▁века	-7414
▁визи	-7415
▁вызо	-7416
▁вьет	-7417
▁доли	-7418
▁жерт	-7419
▁игру	-7420
▁исла	-7421
▁када	-7422
▁ката	-7423
▁мать	-7424
▁навы	-7425
▁наша	-7426
▁неме	-7427
▁несу	-7428
▁окна	-7429
▁осло	-7430
▁отде	-7431
▁отца	-7432
▁офис	-7433
▁охла	-7434
▁пожи	-7435
▁рубе	-7436
▁сады	-7437
▁смяг	-7438
▁тара	-7439
▁трем	-7440
▁фраг	-7441
▁хоте	-7442
▁цель	-7443
▁южно	-7444
вающей	-7445
ведены	-7446
воздуш	-7447
ждению	-7448
ктором	-7449
культу	-7450
льство	-7451
магатэ	-7452
пление	-7453
потреб	-7454
спорта	-7455
театра	-7456
тников	-7457
▁chery	-7458
▁geely	-7459
▁times	-7460
▁блоге	-7461
▁вален	-7462
▁верто	-7463
▁ветер	-7464
▁врачи	-7465
▁всему	-7466
▁входя	-7467
▁выгод	-7468
▁выдви	-7469
▁газет	-7470
▁годов	-7471
▁граду	-7472
▁дверь	-7473
▁жизнь	-7474
▁жилом	-7475
▁жилые	-7476
▁задач	-7477
▁захва	-7478
▁иметь	-7479
▁капре	-7480
▁карты	-7481
▁клима	-7482
▁линей	-7483
▁могла	-7484
▁мусор	-7485
▁напря	-7486
▁нехва	-7487
▁норма	-7488
▁нужда	-7489
▁облду	-7490
▁обмен	-7491
▁образ	-7492
▁окнам	-7493
▁орлов	-7494
▁плана	-7495
▁поток	-7496
▁привы	-7497
▁призо	-7498
▁прогу	-7499
▁прока	-7500
▁прота	-7501
▁решил	-7502
▁судья	-7503
▁театр	-7504
▁турец	-7505
▁уделя	-7506
▁устра	-7507
▁хочет	-7508
▁целей	-7509
▁школе	-7510
▁этапа	-7511
▁юлаев	-7512
profile	-7513
августе	-7514
нениями	-7515
ностями	-7516
признан	-7517
рований	-7518
ровский	-7519
станция	-7520
техниче	-7521
ционную	-7522
▁асфаль	-7523
▁близки	-7524
▁вблизи	-7525
▁велико	-7526
▁врачей	-7527
▁встреч	-7528
▁выплат	-7529
▁гастро	-7530
▁грозит	-7531
▁дальше	-7532
▁доклад	-7533
▁дорогу	-7534
▁загряз	-7535
▁закону	-7536
▁заморо	-7537
▁замыка	-7538
▁зенита	-7539
▁импорт	-7540
▁кадров	-7541
▁кирилл	-7542
▁команд	-7543
▁магази	-7544
▁молока	-7545
▁мораль	-7546
▁написа	-7547
▁недель	-7548
▁неделя	-7549
▁новому	-7550
▁номеру	-7551
▁оборот	-7552
▁омбудс	-7553
▁осенью	-7554
▁отвеча	-7555
▁очевид	-7556
▁педаго	-7557
▁подбор	-7558
▁превра	-7559
▁привод	-7560
▁реклам	-7561
▁ректор	-7562
▁самары	-7563
▁самово	-7564
▁сезону	-7565
▁скорой	-7566
▁сможет	-7567
▁созыве	-7568
▁списка	-7569
▁ставке	-7570
▁ставок	-7571
▁сталки	-7572
▁старше	-7573
▁съемку	-7574
▁торгах	-7575
▁турнир	-7576
▁угрозу	-7577
▁устрои	-7578
▁штрафы	-7579
▁энгель	-7580
реватель	-7581
▁аппарат	-7582
▁большим	-7583
▁бразили	-7584
▁брендов	-7585
▁василий	-7586
▁владеет	-7587
▁говорит	-7588
▁говорят	-7589
▁границу	-7590
▁доверие	-7591
▁другого	-7592
▁задержи	-7593
▁закупки	-7594
▁израиля	-7595
▁контент	-7596
▁личного	-7597
▁мужчины	-7598
▁насилия	-7599
▁недавно	-7600
▁ожидают	-7601
▁округах	-7602
▁осадков	-7603
▁открыли	-7604
▁перехва	-7605
▁повреди	-7606
▁показал	-7607
▁покупку	-7608
▁пошлины	-7609
▁предела	-7610
▁признан	-7611
▁призыва	-7612
▁примеру	-7613
▁причаст	-7614
▁проблем	-7615
▁проезда	-7616
▁прошлый	-7617
▁сделали	-7618
▁средний	-7619
▁тарифов	-7620
▁телефон	-7621
▁требуют	-7622
▁уралсиб	-7623
▁центром	-7624
▁частный	-7625
▁эрдоган	-7626
▁ядерной	-7627
кредитной	-7628
мошенниче	-7629
нарушение	-7630
тельность	-7631
хранилища	-7632
экономики	-7633
▁белорусс	-7634
▁бизнесом	-7635
▁взыскать	-7636
▁военного	-7637
▁возбудил	-7638
▁вынужден	-7639
▁границах	-7640
▁давление	-7641
▁денежных	-7642
▁динамику	-7643
▁договоры	-7644
▁домашних	-7645
▁доступна	-7646
▁задержки	-7647
▁заслужен	-7648
▁значение	-7649
▁значения	-7650
▁зоопарке	-7651
▁избежать	-7652
▁индустри	-7653
▁квартире	-7654
▁комменти	-7655
▁конститу	-7656
▁корректи	-7657
▁марченко	-7658
▁механизм	-7659
▁название	-7660
▁направят	-7661
▁обжалова	-7662
▁областей	-7663
▁обратить	-7664
▁объектам	-7665
▁оказание	-7666
▁окружной	-7667
▁отменили	-7668
▁отправил	-7669
▁оформили	-7670
▁площадка	-7671
▁подъезда	-7672
▁пожарной	-7673
▁половины	-7674
▁поступил	-7675
▁практиче	-7676
▁превысил	-7677
▁предстоя	-7678
▁привести	-7679
▁принятие	-7680
▁решается	-7681
▁системой	-7682
▁субсидий	-7683
▁торговых	-7684
▁убийства	-7685
▁ускорить	-7686
▁участием	-7687
▁холдинга	-7688
▁шевченко	-7689
начальника	-7690
▁автобусов	-7691
▁выполнены	-7692
▁занимался	-7693
▁запретить	-7694
▁запрещено	-7695
▁кабардино	-7696
▁картотеки	-7697
▁компанией	-7698
▁компаниях	-7699
▁нижегород	-7700
▁объяснили	-7701
▁оператора	-7702
▁остановки	-7703
▁отопления	-7704
▁отражение	-7705
▁очередной	-7706
▁платформе	-7707
▁подростка	-7708
▁подходить	-7709
▁поколения	-7710
▁покушении	-7711
▁попросили	-7712
▁приставов	-7713
▁программи	-7714
▁реабилита	-7715
▁ситуацией	-7716
▁следующем	-7717
▁структуре	-7718
▁субъектов	-7719
▁установка	-7720
▁четвертый	-7721
▁эмманюэль	-7722
▁rusprofile	-7723
▁аналитиков	-7724
▁ассоциация	-7725
▁аэропортах	-7726
▁вступления	-7727
▁гражданина	-7728
▁заказчиком	-7729
▁исполнение	-7730
▁мессенджер	-7731
▁метрострой	-7732
▁набережную	-7733
▁наибольший	-7734
▁незаконном	-7735
▁необходимы	-7736
▁облачность	-7737
▁обнаружено	-7738
▁отчетности	-7739
▁повышенной	-7740
▁подростков	-7741
▁предположи	-7742
▁природного	-7743
▁разрешения	-7744
▁росгвардии	-7745
▁соблюдение	-7746
▁ставрополе	-7747
▁стандартам	-7748
▁учреждений	-7749
▁хмелевский	-7750
▁школьников	-7751
▁экстренные	-7752
▁востребован	-7753
▁европейские	-7754
▁заболеваемо	-7755
▁официальном	-7756
▁перенаправл	-7757
▁повреждений	-7758
▁популярными	-7759
▁предъявлено	-7760
▁приговорили	-7761
▁принимаются	-7762
▁руководство	-7763
▁специальных	-7764
▁спортивного	-7765
▁столкнулись	-7766
▁существенно	-7767
▁территорией	-7768
▁увеличением	-7769
▁участниками	-7770
▁центральную	-7771
▁юридических	-7772
▁аналогичного	-7773
▁астраханской	-7774
▁беспилотника	-7775
▁запланирован	-7776
▁коммерческих	-7777
▁минэкономики	-7778
▁недвижимость	-7779
▁обозреватель	-7780
▁организацией	-7781
▁официального	-7782
▁потребителей	-7783
▁предупредили	-7784
▁прогнозируют	-7785
▁руководителю	-7786
▁сотрудниками	-7787
▁характеристи	-7788
▁американского	-7789
▁представление	-7790
▁противовоздуш	-7791
▁туристической	-7792
▁военнослужащих	-7793
▁вознаграждение	-7794
▁восстановление	-7795
▁туристического	-7796
▁электромобилей	-7797
▁муниципалитетах	-7798
▁образовательные	-7799
▁правоохранители	-7800
▁предпринимателя	-7801
▁рассматривается	-7802
ps	-7803
ri	-7804
аэ	-7805
бр	-7806
дя	-7807
рф	-7808
уд	-7809
уз	-7810
фл	-7811
ard	-7812
coc	-7813
ube	-7814
ute	-7815
бий	-7816
бла	-7817
вос	-7818
ври	-7819
гое	-7820
дри	-7821
еву	-7822
ема	-7823
жая	-7824
жья	-7825
зок	-7826
или	-7827
кус	-7828
лое	-7829
мбу	-7830
пин	-7831
рто	-7832
рьи	-7833
сел	-7834
сян	-7835
тит	-7836
фры	-7837
хая	-7838
чев	-7839
шек	-7840
▁be	-7841
▁li	-7842
▁ер	-7843
▁кд	-7844
▁лы	-7845
▁мс	-7846
▁яр	-7847
▁ях	-7848
anie	-7849
berg	-7850
inan	-7851
буны	-7852
виде	-7853
воли	-7854
газо	-7855
гани	-7856
гене	-7857
гона	-7858
гоне	-7859
емая	-7860
зарь	-7861
зяев	-7862
кара	-7863
керы	-7864
кому	-7865
ллин	-7866
лько	-7867
люса	-7868
муля	-7869
нера	-7870
нило	-7871
нное	-7872
нову	-7873
ншта	-7874
пазо	-7875
писа	-7876
полу	-7877
прос	-7878
рави	-7879
рены	-7880
рная	-7881
роли	-7882
сами	-7883
ссию	-7884
степ	-7885
сфон	-7886
теле	-7887
трит	-7888
цени	-7889
цкая	-7890
чику	-7891
▁ipo	-7892
▁ази	-7893
▁где	-7894
▁его	-7895
▁зон	-7896
▁люд	-7897
▁ляй	-7898
▁миг	-7899
▁мяс	-7900
▁ним	-7901
▁опо	-7902
▁ощу	-7903
▁пой	-7904
▁пти	-7905
▁сен	-7906
▁сот	-7907
▁фин	-7908
▁ход	-7909
▁шаг	-7910
▁шай	-7911
itico	-7912
анали	-7913
банов	-7914
борге	-7915
вокза	-7916
граде	-7917
деров	-7918
ехать	-7919
консу	-7920
нанси	-7921
новод	-7922
новых	-7923
онных	-7924
ровке	-7925
ровым	-7926
рской	-7927
серва	-7928
солют	-7929
стану	-7930
стями	-7931
тивно	-7932
тками	-7933
тными	-7934
▁	-7935
о	-7936
а	-7937
е	-7938
и	-7939
н	-7940
т	-7941
р	-7942
с	-7943
л	-7944
в	-7945
к	-7946
д	-7947
п	-7948
м	-7949
у	-7950
г	-7951
я	-7952
б	-7953
ы	-7954
з	-7955
.	-7956
й	-7957
ь	-7958
,	-7959
ч	-7960
n	-7961
х	-7962
ж	-7963
m	-7964
u	-7965
<	-7966
>	-7967
ц	-7968
ю	-7969
ш	-7970
-	-7971
ф	-7972
щ	-7973
э	-7974
e	-7975
)	-7976
(	-7977
ъ	-7978
a	-7979
r	-7980
:	-7981
o	-7982
t	-7983
i	-7984
l	-7985
s	-7986
c	-7987
g	-7988
h	-7989
p	-7990
d	-7991
b	-7992
y	-7993
v	-7994
f	-7995
w	-7996
