<unk>	0
<s>	0
</s>	0
.	-2.96646
▁	-3.07598
,	-3.18587
num	-3.51332
<	-3.51342
>	-3.59524
е	-3.86596
и	-4.08857
й	-4.14103
а	-4.14888
-	-4.48568
х	-4.63815
м	-4.74293
у	-5.10138
ого	-5.15894
я	-5.17065
ы	-5.25959
о	-5.27178
ой	-5.29036
го	-5.29752
▁-	-5.33451
▁(	-5.40781
ся	-5.45009
ю	-5.54097
▁года	-5.57709
ом	-5.60086
ая	-5.63369
▁руб	-5.71641
ть	-5.72523
:	-5.87874
ую	-6.04494
ов	-6.08338
▁также	-6.09631
▁россии	-6.0977
▁тыс	-6.15211
▁сентября	-6.15659
▁области	-6.18503
▁с	-6.19333
ет	-6.1936
▁году	-6.31871
ых	-6.32128
▁пресс	-6.32359
ь	-6.32441
)	-6.32459
▁млн	-6.37913
т	-6.41968
▁ъ	-6.43813
▁фото	-6.45187
▁рф	-6.47917
>-	-6.48157
ми	-6.53355
).	-6.5751
▁господин	-6.58103
▁это	-6.62505
л	-6.72342
▁сообщает	-6.72766
служба	-6.79646
▁суд	-6.80066
,-	-6.80885
ных	-6.80908
▁млрд	-6.81983
▁ранее	-6.82582
ли	-6.91964
▁данным	-6.93948
▁общество	-6.97136
ют	-6.97899
▁в	-6.98029
в	-6.99242
▁сообщил	-7.00561
▁время	-7.06217
▁словам	-7.06314
▁лет	-7.07514
▁президент	-7.0845
▁компании	-7.09613
▁ст	-7.14191
за	-7.16013
▁заявил	-7.16636
ного	-7.17992
▁по	-7.18764
ем	-7.20475
▁сообщили	-7.207
ий	-7.20715
ется	-7.21425
▁из	-7.21906
▁региона	-7.22122
с	-7.22834
▁сша	-7.24707
▁ук	-7.29183
ами	-7.29664
ах	-7.31085
▁города	-7.31482
▁глава	-7.31567
▁которые	-7.32427
▁год	-7.33216
▁не	-7.34166
ной	-7.35791
▁александр	-7.38581
ч	-7.38604
▁получил	-7.38802
▁сред	-7.38861
),	-7.38987
▁края	-7.39282
▁про	-7.40597
ей	-7.41008
▁о	-7.42535
коло	-7.42829
▁составил	-7.42959
лись	-7.4319
▁работы	-7.43627
▁который	-7.44014
▁ответственность	-7.44505
▁уголовно	-7.48103
лась	-7.49294
▁российски	-7.50452
ый	-7.50678
▁решение	-7.54656
▁стал	-7.55171
▁компания	-7.55757
▁серге	-7.55812
▁м	-7.56166
▁человек	-7.56881
▁ограниченно	-7.57147
ный	-7.57215
▁дело	-7.57271
▁территории	-7.57779
▁числе	-7.57898
▁сочи	-7.58405
▁telegram	-7.58896
их	-7.59701
▁новы	-7.60044
▁власти	-7.627
ться	-7.63236
▁будут	-7.63341
▁против	-7.64735
▁президента	-7.6478
▁ч	-7.65501
ка	-7.66336
ит	-7.66438
▁страны	-7.67561
▁кв	-7.67791
▁отметил	-7.688
▁сказал	-7.69174
▁владимир	-7.70198
▁результате	-7.70927
того	-7.71034
▁управления	-7.71521
▁период	-7.71945
▁одно	-7.72771
▁проект	-7.72997
п	-7.73333
▁ведомства	-7.73668
▁безопасности	-7.73768
но	-7.73876
ить	-7.74464
ные	-7.74485
▁дмитри	-7.75714
▁трамп	-7.75918
на	-7.76295
▁согласн	-7.76513
▁отношени	-7.77144
▁рост	-7.79201
▁жителей	-7.79449
▁материале	-7.79514
▁акционерно	-7.80286
канале	-7.80479
▁двух	-7.80821
▁андре	-7.81077
▁котор	-7.81696
ки	-7.81928
▁районе	-7.82905
▁сообщила	-7.82986
▁однако	-7.83325
▁краснодарск	-7.83813
ла	-7.8389
▁сегодня	-7.84116
ная	-7.84403
▁республики	-7.84916
му	-7.86118
▁атаки	-7.86212
▁кром	-7.86564
▁суда	-7.87301
▁губернатор	-7.87473
▁дела	-7.87893
▁министр	-7.88658
могут	-7.89156
▁дома	-7.89813
▁оон	-7.89883
▁россия	-7.90363
ят	-7.9099
▁августе	-7.91076
▁т	-7.91326
ок	-7.91611
▁своем	-7.91657
▁ростовской	-7.91702
р	-7.91895
▁нескольк	-7.92435
▁информации	-7.9329
▁организации	-7.93363
▁алексе	-7.94166
ского	-7.94703
▁являет	-7.94865
ое	-7.96947
▁обще	-7.97049
▁дональд	-7.97134
▁средств	-7.97182
службе	-7.97463
▁администрации	-7.98003
ые	-7.98216
▁санк	-7.98689
▁бпла	-7.9874
▁главы	-8.00204
▁ограничения	-8.00535
ст	-8.02055
▁октября	-8.02431
▁писал	-8.02532
▁правительства	-8.03416
к	-8.03878
лось	-8.04218
▁компаний	-8.04396
▁начала	-8.05374
▁принял	-8.05417
▁итога	-8.05524
▁связи	-8.05918
д	-8.06558
▁часть	-8.07364
▁заседании	-8.07376
▁закон	-8.07953
▁пере	-8.08504
ский	-8.08671
▁начал	-8.09034
▁ссылк	-8.09421
▁место	-8.09678
▁директор	-8.09719
i	-8.10122
▁скр	-8.10667
▁гу	-8.10712
▁объем	-8.10849
▁том	-8.11721
ются	-8.12013
▁на	-8.12314
▁прокуратура	-8.12559
▁которых	-8.12766
▁человека	-8.13133
▁сообщал	-8.13407
▁системы	-8.13773
▁рамк	-8.13835
ную	-8.13865
вести	-8.14141
ым	-8.14294
▁работа	-8.1452
▁счет	-8.1474
e	-8.14979
▁развития	-8.15713
▁говорится	-8.15762
▁объектов	-8.1583
н	-8.16245
▁глав	-8.16393
▁других	-8.16826
▁сво	-8.17103
▁месяцев	-8.17946
▁деятельности	-8.17953
▁за	-8.18055
▁подробн	-8.18228
▁района	-8.18314
▁совета	-8.18869
▁сотрудники	-8.19378
ась	-8.20053
▁включа	-8.20087
▁беспилотников	-8.20193
▁рассказал	-8.20308
▁вопрос	-8.20463
▁размере	-8.21262
▁тасс	-8.21332
спб	-8.21349
▁стоимость	-8.22095
▁следствия	-8.22512
▁перв	-8.23166
▁оста	-8.23443
▁вы	-8.2376
▁меры	-8.2389
▁пост	-8.24058
▁п	-8.2439
ской	-8.24532
▁сумму	-8.24899
▁прошлого	-8.25439
ам	-8.25459
▁находит	-8.25569
течение	-8.25901
▁бюджета	-8.26109
▁средства	-8.2611
▁депутаты	-8.26391
▁общ	-8.26396
▁свои	-8.27098
>),	-8.27229
▁рублей	-8.27319
▁следует	-8.27378
▁месте	-8.27708
▁граждан	-8.27863
▁таки	-8.28011
▁момент	-8.28023
▁комитета	-8.28423
▁количество	-8.29273
ходе	-8.2951
ен	-8.29762
▁сообщении	-8.29771
▁российск	-8.29981
выше	-8.30169
▁улице	-8.30203
▁версии	-8.31201
ому	-8.31381
▁стран	-8.31812
▁доход	-8.32091
▁коммерсантъ	-8.32319
▁службы	-8.32536
▁при	-8.32853
▁работу	-8.32863
▁срок	-8.33544
▁детей	-8.33622
▁должность	-8.3363
▁пять	-8.33633
▁лиц	-8.33945
▁российско	-8.34395
▁совет	-8.349
▁пострадавших	-8.34937
▁мчс	-8.34939
▁сотрудников	-8.34986
ным	-8.35058
▁су	-8.35214
▁пострадали	-8.35376
▁украине	-8.35506
▁судов	-8.3602
▁центр	-8.36427
▁число	-8.36509
▁банка	-8.36567
▁направлен	-8.36921
▁регионально	-8.36992
▁сравнени	-8.37014
б	-8.37402
▁так	-8.37444
▁председатель	-8.37576
должен	-8.37615
▁помощь	-8.37618
▁экс	-8.37825
>).	-8.38406
▁прошл	-8.39192
▁признал	-8.3928
▁проекта	-8.39593
▁заместител	-8.39735
▁городе	-8.40617
оставляет	-8.41083
▁первый	-8.41121
▁евгени	-8.4183
▁действия	-8.41908
▁бывше	-8.41924
▁украины	-8.41937
a	-8.42482
▁един	-8.42888
▁д	-8.43318
▁сайте	-8.43616
▁округа	-8.43701
▁работ	-8.44187
▁перво	-8.44529
▁строительство	-8.44663
▁новороссийске	-8.45191
▁запрет	-8.45636
▁свердловско	-8.45676
▁оперативны	-8.45817
▁госпож	-8.46133
▁минобороны	-8.46133
▁января	-8.46147
▁свободы	-8.46209
▁доля	-8.46254
▁предприятия	-8.46448
▁лишени	-8.46695
▁арбитражны	-8.46823
▁режим	-8.46834
▁законопроект	-8.46967
▁состав	-8.47022
▁стали	-8.47152
▁га	-8.47198
▁дней	-8.47639
>)	-8.47676
▁государства	-8.47871
▁иск	-8.48117
▁председателя	-8.48173
▁конфликта	-8.48305
▁дел	-8.48326
▁четыре	-8.4842
▁июле	-8.4872
ра	-8.48878
▁пока	-8.49175
▁трампа	-8.49386
▁временно	-8.49687
▁раз	-8.49951
▁составит	-8.50092
ось	-8.5017
▁песков	-8.50486
▁новороссийск	-8.50513
▁представитель	-8.50604
▁здание	-8.50679
▁задержали	-8.50826
▁региональн	-8.5095
▁планируется	-8.50953
▁под	-8.50957
▁участие	-8.51049
o	-8.51189
им	-8.51458
▁регионе	-8.5167
▁августа	-8.51796
▁цен	-8.51813
то	-8.51924
▁раза	-8.52355
з	-8.52365
▁фигурант	-8.52421
▁производства	-8.52442
▁июля	-8.52449
▁домов	-8.52637
сь	-8.53028
▁ул	-8.53732
▁решения	-8.53834
▁мвд	-8.53848
▁бюджет	-8.5409
▁бывши	-8.54108
▁федерации	-8.54162
летнего	-8.5436
▁мест	-8.54823
▁рынке	-8.55498
ись	-8.55503
▁первом	-8.55855
городской	-8.55902
ер	-8.5593
ц	-8.55976
ец	-8.56085
▁данные	-8.56223
▁reuters	-8.57082
▁накануне	-8.57082
▁назвал	-8.57176
▁артем	-8.57197
▁мэр	-8.57279
▁должны	-8.573
▁поставк	-8.57598
▁получени	-8.57668
▁части	-8.57689
▁рынка	-8.58028
▁область	-8.5834
▁назначен	-8.58583
▁подчеркнул	-8.58668
▁катеров	-8.58749
▁днем	-8.58756
▁деньги	-8.58757
▁возможность	-8.58783
лся	-8.58937
▁день	-8.58942
▁ведомство	-8.59153
▁делу	-8.59432
▁увеличил	-8.59736
цитат	-8.60443
▁полностью	-8.60445
▁бизнес	-8.60456
▁прибыль	-8.6047
▁штаб	-8.60478
стало	-8.60538
новых	-8.60642
▁права	-8.60645
▁социальны	-8.60745
▁выпуск	-8.60945
ев	-8.6099
▁отметили	-8.61251
ия	-8.61257
▁правительство	-8.61278
▁г	-8.61325
ном	-8.6134
▁дом	-8.61811
▁восемь	-8.62167
▁михаил	-8.62167
▁развитие	-8.62169
▁думы	-8.62207
▁топлива	-8.62221
▁топ	-8.62222
▁стороны	-8.62227
▁добавил	-8.62304
▁москве	-8.62341
▁шест	-8.62504
▁здания	-8.62909
▁городск	-8.62958
▁позволя	-8.63373
▁вместе	-8.63785
▁случае	-8.63828
▁прокуратуры	-8.63946
▁очень	-8.63954
▁сфере	-8.64054
▁представител	-8.64085
▁путин	-8.64186
▁город	-8.64423
▁км	-8.64476
▁известно	-8.64492
▁сети	-8.64534
▁данных	-8.64713
▁уровне	-8.65191
▁считает	-8.65263
▁годом	-8.65335
▁котором	-8.65364
▁продукции	-8.65929
▁ведомстве	-8.65936
▁аэропорту	-8.66207
▁произоше	-8.66271
▁жил	-8.66318
▁конц	-8.66705
▁премьер	-8.66789
▁составля	-8.66932
▁которой	-8.66947
▁которого	-8.67077
▁пишет	-8.67526
▁моря	-8.67536
▁погибли	-8.67592
▁мск	-8.67593
▁места	-8.67673
▁крае	-8.67787
▁участников	-8.67827
▁провел	-8.67862
▁второ	-8.67964
▁нового	-8.68407
▁занимает	-8.68434
▁руководителя	-8.68755
▁интернет	-8.69328
▁ноября	-8.69377
▁менее	-8.69378
▁мид	-8.69429
▁факту	-8.69557
▁сократи	-8.69581
▁нет	-8.69689
▁трех	-8.70082
▁прошлом	-8.70191
▁комплекс	-8.70286
▁качестве	-8.70656
s	-8.71139
d	-8.71204
▁ск	-8.7127
▁внимание	-8.71291
▁москвы	-8.71311
▁районны	-8.71875
▁местн	-8.72213
▁тонн	-8.72546
летний	-8.72584
идет	-8.72822
▁руководител	-8.72975
▁бизнеса	-8.73056
▁проверку	-8.73305
▁регионов	-8.73323
▁поступил	-8.73366
▁роста	-8.73389
▁состоянии	-8.73645
▁депутат	-8.73733
няя	-8.73818
▁необходимо	-8.73862
▁семь	-8.74106
зарегистрировано	-8.74154
▁иностранны	-8.74157
▁всу	-8.74184
▁краснодарском	-8.74365
▁продаж	-8.74791
▁федеральн	-8.74859
ва	-8.74951
▁завод	-8.75053
секретарь	-8.75143
▁публично	-8.7518
▁сессии	-8.752
▁безэкипажны	-8.75202
▁возбужден	-8.75219
▁группы	-8.75256
▁белгородской	-8.75326
▁дня	-8.75495
▁ущерб	-8.75535
▁среду	-8.75567
▁видео	-8.75703
ф	-8.76028
▁пяти	-8.76173
▁доме	-8.76313
▁губернатора	-8.76535
▁площадь	-8.7675
▁управление	-8.76853
▁написал	-8.77148
▁особо	-8.77148
▁предложил	-8.77148
▁действий	-8.77151
▁другие	-8.77162
тся	-8.77176
▁единиц	-8.77186
▁занял	-8.7721
▁организаций	-8.77222
▁наибол	-8.77264
▁ремонт	-8.77394
▁курской	-8.77436
▁возбудил	-8.77451
▁проверки	-8.77486
▁месяц	-8.7788
▁квартир	-8.77985
▁ново	-8.78129
▁фонд	-8.78258
▁детск	-8.78297
сти	-8.78378
r	-8.78449
▁цена	-8.78768
h	-8.7891
▁следственны	-8.78954
▁жителям	-8.78981
▁информация	-8.79189
▁строительства	-8.79189
▁информацию	-8.79189
▁нарушения	-8.79192
▁часов	-8.79256
▁призвал	-8.79298
▁прием	-8.79357
▁услуг	-8.79397
▁жителя	-8.79446
▁тысяч	-8.79448
▁обеспечения	-8.79516
▁назначил	-8.79624
▁банк	-8.79631
▁международн	-8.79754
▁лидер	-8.79759
ек	-8.79827
▁татарстана	-8.80171
▁задержан	-8.80299
▁чист	-8.80372
▁больш	-8.80422
▁использование	-8.80597
▁жилы	-8.8097
риа	-8.81059
▁надзорно	-8.81093
ни	-8.81097
вые	-8.81101
ло	-8.81134
▁частности	-8.81275
▁животных	-8.81276
▁водитель	-8.81292
▁некоторы	-8.81398
▁работают	-8.81463
▁имущества	-8.81518
▁депутатов	-8.81522
▁виде	-8.81642
▁лавров	-8.81651
▁социально	-8.81652
г	-8.81678
ng	-8.81699
▁центра	-8.81725
▁цены	-8.81978
▁мира	-8.82019
▁нато	-8.82095
▁работе	-8.82224
до	-8.82367
▁объект	-8.82843
урал	-8.82937
▁пожар	-8.82985
станет	-8.83019
ском	-8.83127
▁следствие	-8.8319
▁воздушно	-8.83199
▁тем	-8.83232
▁вячеслав	-8.834
▁происшествия	-8.83447
▁показатель	-8.83455
▁сми	-8.83605
▁всем	-8.83619
▁новости	-8.83672
▁спрос	-8.83718
▁от	-8.83754
▁газа	-8.84281
▁занимал	-8.84394
▁административно	-8.84475
▁мужчина	-8.84518
▁выше	-8.8455
▁директора	-8.84585
▁связан	-8.84916
▁то	-8.84943
▁баз	-8.85098
▁выросл	-8.85383
▁республике	-8.85574
▁рынок	-8.85574
▁предложения	-8.85581
▁людей	-8.85584
▁планируют	-8.85587
▁обнаружили	-8.85671
или	-8.8573
▁режима	-8.85814
▁екатеринбурга	-8.85889
▁аи	-8.85933
▁больше	-8.85945
▁конце	-8.85976
▁площадью	-8.86008
▁труда	-8.86102
ru	-8.86105
▁ввел	-8.86459
▁аэропорт	-8.86585
▁работал	-8.86734
▁договор	-8.86956
▁выход	-8.87213
шел	-8.8722
▁пермск	-8.87288
▁размер	-8.87478
ными	-8.87554
▁аппарат	-8.8756
▁нем	-8.87602
▁жизни	-8.87796
▁нужно	-8.87826
▁техники	-8.87965
▁сохраня	-8.88052
ж	-8.88057
▁цб	-8.88079
▁автомобилей	-8.88143
▁август	-8.88161
▁учет	-8.88394
▁месяца	-8.88408
▁самолет	-8.88743
▁военно	-8.88802
▁министра	-8.88969
▁свое	-8.89127
▁производство	-8.89287
▁дональда	-8.89507
ш	-8.89754
▁wa	-8.90018
▁сил	-8.90022
▁процесс	-8.90032
▁позволит	-8.90069
▁ситуации	-8.90069
▁партии	-8.90069
▁жилья	-8.90072
▁курорта	-8.90089
▁речь	-8.90105
▁годы	-8.90288
▁аналогичны	-8.90288
ость	-8.90527
▁областн	-8.90557
специалисты	-8.90588
▁владимира	-8.90814
▁портал	-8.91023
▁дороги	-8.91242
ков	-8.91352
▁пояснил	-8.9136
▁атомно	-8.92326
▁ребенка	-8.92394
▁удмуртии	-8.92396
▁гостей	-8.92397
▁туристов	-8.92454
▁получить	-8.92472
▁требований	-8.9254
▁времени	-8.92567
▁госдумы	-8.92618
▁ночью	-8.92625
▁произошло	-8.92682
▁ф	-8.92708
▁парламента	-8.92754
▁основно	-8.93091
▁намерен	-8.93282
▁могл	-8.93432
▁доступ	-8.93608
▁основны	-8.94088
▁пожара	-8.94165
ку	-8.94244
ат	-8.94264
▁система	-8.94285
▁обратил	-8.94321
▁фон	-8.9462
▁финансов	-8.94661
▁опубликован	-8.94687
▁помощи	-8.94775
либо	-8.94776
▁пройдет	-8.94789
▁официально	-8.94841
ee	-8.94851
▁принято	-8.94872
▁опыт	-8.94881
▁крупнейши	-8.94882
▁текуще	-8.94998
▁органы	-8.9508
▁пво	-8.95091
▁программы	-8.95147
▁областной	-8.95329
▁комитет	-8.95368
▁правоохранител	-8.95516
▁встречи	-8.95546
▁проектов	-8.95562
ыми	-8.95658
▁крупны	-8.96034
▁ситуация	-8.96168
▁приговор	-8.96379
▁имущество	-8.96402
ны	-8.96413
▁снижение	-8.96544
▁планирует	-8.96787
йте	-8.96839
▁многоквартирн	-8.97166
▁меньше	-8.97214
▁татьян	-8.97215
▁денис	-8.97215
▁ответственности	-8.97217
▁нью	-8.97221
▁право	-8.97275
▁площади	-8.97282
▁движения	-8.97335
▁возможно	-8.97466
▁вмест	-8.97589
▁он	-8.97661
ил	-8.97673
▁комплекса	-8.9772
▁готовности	-8.97842
▁таким	-8.98011
▁штраф	-8.98133
▁министерство	-8.9818
▁две	-8.98326
▁ес	-8.98468
▁угроза	-8.98647
▁пример	-8.99127
▁центральн	-8.99232
▁требования	-8.99234
▁услуги	-8.99259
▁систем	-8.99283
▁местны	-8.99382
▁арест	-8.99497
▁соответствующи	-8.99683
▁дополнительны	-8.99689
▁неделе	-8.99714
▁шуматов	-8.99714
▁затем	-8.99715
▁вечером	-8.99759
▁целом	-8.99774
мимо	-8.99783
▁культуры	-8.99865
▁документов	-8.99874
▁июне	-8.99903
▁вину	-8.99957
▁сумма	-9.00022
▁участи	-9.00079
▁эксперты	-9.00115
▁олег	-9.00119
▁расследование	-9.00149
▁политики	-9.00325
▁все	-9.00364
▁силу	-9.00389
он	-9.00479
▁объявил	-9.00546
▁создани	-9.00562
▁транспорта	-9.00564
▁подписал	-9.00667
йти	-9.0106
▁учреждения	-9.01236
министр	-9.01251
▁татарстане	-9.0132
не	-9.01521
▁аэропорта	-9.01583
▁введен	-9.01654
▁артеми	-9.02131
▁избран	-9.02186
▁дтп	-9.02279
▁онлайн	-9.02279
▁краю	-9.02279
▁двое	-9.02297
▁недвижимости	-9.02351
▁юри	-9.02365
▁размещения	-9.02381
▁попал	-9.02412
▁ставки	-9.02417
▁жители	-9.02437
▁предприятий	-9.02476
▁экономики	-9.0249
▁рубио	-9.02515
▁исследования	-9.0253
▁агентства	-9.02531
вице	-9.02597
▁б	-9.02673
▁черного	-9.02717
▁подал	-9.02884
▁настояще	-9.0289
▁автомобиль	-9.02931
▁выручк	-9.03055
▁заместителя	-9.03179
▁инцидент	-9.03239
дут	-9.03433
▁рассказали	-9.0353
▁участник	-9.03536
▁нижегородско	-9.03646
та	-9.03769
▁благодар	-9.03934
▁детски	-9.03955
▁стране	-9.03965
▁направил	-9.03965
▁этим	-9.03982
▁антон	-9.04454
▁контроль	-9.04478
▁явля	-9.04675
▁край	-9.04897
▁ключев	-9.04904
▁заявили	-9.04907
▁впер	-9.04909
▁пользу	-9.0491
▁предусмотрен	-9.0491
▁уровень	-9.0491
▁вновь	-9.0491
▁обороны	-9.04911
▁удалось	-9.04912
▁вошли	-9.04914
▁ann	-9.04923
▁американски	-9.04944
▁больницу	-9.04955
▁виновным	-9.04958
▁операции	-9.04984
▁соответстви	-9.04988
▁новороссийска	-9.04999
▁утром	-9.0504
▁северо	-9.05045
▁которое	-9.05069
▁отказ	-9.05136
▁министерства	-9.05138
▁нов	-9.05182
▁документы	-9.05292
▁специалистов	-9.05311
▁университета	-9.05599
▁заявление	-9.05825
ко	-9.05884
▁н	-9.05887
▁выплат	-9.05963
▁вопросы	-9.06139
▁находят	-9.06317
▁увеличи	-9.06438
▁авто	-9.06823
▁прав	-9.06944
ских	-9.07294
▁предварительно	-9.07566
▁участок	-9.07613
▁назад	-9.07613
▁франции	-9.07613
▁колонии	-9.07616
▁пресечения	-9.07652
▁должности	-9.07749
▁инвестиционн	-9.07845
▁среднем	-9.07906
▁необходимы	-9.07914
▁проверка	-9.08046
▁защиты	-9.08087
▁ряд	-9.08216
▁оказал	-9.08232
▁до	-9.08414
ходит	-9.08441
▁оперативно	-9.08444
ру	-9.08453
▁соответствующе	-9.08845
ри	-9.08929
ти	-9.09254
▁изменения	-9.09306
ск	-9.09307
▁четырех	-9.09326
▁атак	-9.09481
▁действу	-9.09695
▁запас	-9.09802
▁напомни	-9.09939
▁индивидуальны	-9.10165
▁сервис	-9.10224
▁погиб	-9.10238
▁мир	-9.1028
▁крупн	-9.10283
▁наше	-9.1033
▁зданий	-9.1039
▁интервью	-9.1039
▁казани	-9.1039
▁промышленности	-9.10403
▁сообщалось	-9.10448
▁что	-9.10486
▁январе	-9.10495
▁проходит	-9.1066
ин	-9.10952
▁пол	-9.1099
▁регионах	-9.11042
▁полици	-9.11125
▁американск	-9.11237
c	-9.11557
▁составе	-9.11571
▁нарушение	-9.11588
▁россиян	-9.11781
лет	-9.12062
>:	-9.12183
▁закона	-9.12457
▁атаке	-9.1255
t	-9.12584
▁уточнил	-9.12757
▁наш	-9.12807
ятся	-9.12879
петербурга	-9.129
▁продажи	-9.12921
▁к	-9.13009
▁мер	-9.13087
смотря	-9.13237
▁декабря	-9.13248
▁кравченко	-9.13248
▁трлн	-9.13248
▁виктор	-9.13248
▁аренды	-9.13251
▁предложение	-9.1326
▁армении	-9.13324
▁инфраструктуры	-9.13327
▁пр	-9.13348
▁пассажиров	-9.13351
▁одним	-9.1347
▁школы	-9.13555
▁замглавы	-9.13607
▁комиссии	-9.13661
el	-9.13951
петербург	-9.14024
▁вылет	-9.14047
▁фонда	-9.1405
▁мин	-9.1406
ль	-9.1408
▁работать	-9.14166
▁создан	-9.14191
▁контракт	-9.14245
▁сообщение	-9.14373
▁порядк	-9.14405
▁подробност	-9.14514
▁беспилотны	-9.14847
российской	-9.14873
▁центре	-9.14953
▁полиции	-9.14994
▁председател	-9.15437
▁эти	-9.1564
▁лично	-9.15663
▁об	-9.15694
▁ставропольск	-9.1588
имени	-9.1597
▁государственно	-9.1612
▁мнению	-9.16189
▁облкоммунэнерго	-9.16189
▁превыша	-9.16189
▁mercury	-9.16189
▁следующи	-9.16197
▁житель	-9.162
▁вступил	-9.16209
▁округе	-9.16243
▁отрасли	-9.16271
▁россию	-9.16271
▁создание	-9.16275
▁образования	-9.16287
▁опубликовал	-9.16298
▁дронов	-9.1632
▁семи	-9.16342
▁жкх	-9.16372
аще	-9.16412
▁незаконно	-9.16459
▁повреждены	-9.16509
▁гендиректор	-9.16558
▁рядом	-9.16607
▁передает	-9.16608
▁совместно	-9.16811
▁публикации	-9.16904
▁гос	-9.17087
▁причин	-9.17121
▁краснодара	-9.17135
▁сентябре	-9.17257
ное	-9.17395
▁служб	-9.17493
▁находил	-9.17504
▁специально	-9.1761
▁источники	-9.17697
ировать	-9.17777
▁значительно	-9.17909
▁встреча	-9.1813
▁защит	-9.18218
▁европейски	-9.1826
▁первым	-9.18451
▁пункт	-9.1847
▁член	-9.18596
▁ак	-9.19015
▁федерально	-9.19078
ская	-9.19119
y	-9.19215
▁автомобиля	-9.19219
▁долгосрочн	-9.19219
▁использовать	-9.19219
▁неделю	-9.19219
▁коап	-9.19223
▁кг	-9.19236
▁другим	-9.19287
▁считают	-9.1932
ному	-9.19358
▁участке	-9.19393
▁ндс	-9.19467
▁взятки	-9.19505
▁имеет	-9.19524
цев	-9.19569
ями	-9.19621
▁просто	-9.19724
▁региону	-9.19795
▁рейтинг	-9.19823
▁китай	-9.19973
▁объявлен	-9.20053
▁марте	-9.2007
▁генассамбле	-9.20071
▁селе	-9.20151
▁план	-9.20179
▁обстоятельства	-9.20222
▁участвовал	-9.20435
▁депутата	-9.20572
▁подрядчик	-9.20726
▁покину	-9.20888
▁последни	-9.21217
▁налог	-9.21271
▁объекта	-9.2172
▁ре	-9.21834
▁зам	-9.22181
▁объединенн	-9.22222
▁шести	-9.22254
▁мероприятий	-9.22344
▁правительстве	-9.22344
▁феврале	-9.22384
▁предприниматель	-9.22391
ности	-9.22405
▁остаются	-9.22427
▁ход	-9.22581
▁угрозы	-9.22587
▁вопросам	-9.22599
▁коммерчески	-9.22652
да	-9.22847
▁созыва	-9.22857
▁станции	-9.2287
▁числа	-9.22999
ров	-9.23149
▁генеральн	-9.23193
▁агентство	-9.23302
▁вооруженны	-9.2336
▁начальн	-9.23441
ya	-9.23532
▁находи	-9.23716
▁р	-9.23853
ать	-9.23876
▁ростовск	-9.23879
▁участка	-9.24455
▁различны	-9.24472
▁конференции	-9.24711
канал	-9.24807
▁ущерба	-9.24932
▁выполнени	-9.24998
▁международно	-9.25013
▁предприятие	-9.25073
▁первы	-9.25108
▁отмечает	-9.25134
▁челябинско	-9.25208
прокомментировал	-9.2534
▁константин	-9.2557
▁уфсб	-9.2557
the	-9.25577
▁лишь	-9.25592
▁ограничений	-9.256
▁материалов	-9.25692
▁самарской	-9.25696
именно	-9.25708
▁рейсов	-9.25738
▁попросил	-9.2584
▁пространства	-9.25862
▁проведения	-9.25867
▁признан	-9.2591
▁активы	-9.26
▁октябре	-9.26016
▁заключил	-9.26076
▁поддержку	-9.26152
▁земельны	-9.26253
▁оборудования	-9.26303
▁регион	-9.26382
▁систему	-9.26383
▁позиции	-9.26506
писок	-9.2669
▁воздушны	-9.26726
▁частны	-9.26964
▁размещен	-9.27042
▁офис	-9.27122
▁эксперт	-9.27134
▁реализаци	-9.27188
▁машин	-9.27388
▁созда	-9.27453
▁способ	-9.27486
кубань	-9.27501
▁военн	-9.27554
▁контракта	-9.27629
▁татарстан	-9.27889
▁генассамблее	-9.27973
▁этап	-9.27991
▁военны	-9.28612
▁пути	-9.28769
▁мероприятия	-9.28903
▁поэтому	-9.28903
▁рбк	-9.28903
▁яндекс	-9.28903
▁соответственно	-9.28904
▁отмечают	-9.28904
▁сбил	-9.28915
▁половин	-9.28915
▁источник	-9.28916
▁возможности	-9.28927
▁огонь	-9.2893
▁расходы	-9.28931
▁выступил	-9.28934
▁марко	-9.2897
▁заключения	-9.2907
▁заксобрания	-9.29073
ьных	-9.29096
▁заявки	-9.29305
▁спорта	-9.29335
бу	-9.29351
▁каждый	-9.29371
▁гор	-9.29383
▁окон	-9.29579
▁обязанности	-9.29635
▁федеральном	-9.2967
▁самолеты	-9.29693
▁программ	-9.29709
▁условиях	-9.29725
▁экспорт	-9.29801
дону	-9.29835
▁кредитны	-9.30097
▁иска	-9.30131
▁которым	-9.30141
▁достигл	-9.30258
▁режиме	-9.30336
▁отдела	-9.30492
▁турнир	-9.30537
▁отдел	-9.30783
▁готовы	-9.30863
▁повышение	-9.3087
▁говорил	-9.3095
▁проведен	-9.31088
▁сообщается	-9.31176
▁наши	-9.31274
▁южно	-9.31576
▁пакет	-9.31679
▁районах	-9.31882
▁поддержк	-9.31887
▁получат	-9.32084
▁цифров	-9.32259
▁девять	-9.32351
▁корпораци	-9.32351
▁наследия	-9.32351
▁позже	-9.32351
▁стоимости	-9.32351
▁нефти	-9.32352
▁январь	-9.32362
▁участков	-9.32373
▁образом	-9.32441
▁прекращени	-9.32442
▁генпрокуратуры	-9.32456
▁представителей	-9.32546
▁органов	-9.32548
▁активов	-9.32554
▁выборы	-9.32616
▁результаты	-9.32622
▁региональном	-9.32714
▁мае	-9.32752
▁средней	-9.32787
▁пред	-9.32849
▁екатеринбурге	-9.33024
▁втором	-9.33066
овать	-9.33108
▁e	-9.33166
▁запланирован	-9.33371
ность	-9.33471
▁стоимостью	-9.33562
▁капитал	-9.33709
▁передач	-9.33995
▁ранения	-9.34018
▁максим	-9.34033
▁поддержки	-9.34074
чи	-9.34085
▁нам	-9.34134
▁реализации	-9.34159
ения	-9.34167
▁подготовк	-9.34182
▁периодом	-9.34271
▁начальник	-9.34385
▁подобны	-9.34446
▁крупно	-9.34515
n	-9.34522
▁иван	-9.34607
▁проекты	-9.34993
▁спроса	-9.34996
▁уровня	-9.35016
бр	-9.35053
▁подход	-9.35385
▁вырос	-9.35452
▁температур	-9.35463
▁заявила	-9.35701
скольк	-9.35857
▁акций	-9.35923
▁преступления	-9.35923
▁салават	-9.35923
▁спокойствие	-9.35923
▁башкирии	-9.35923
▁двум	-9.35926
▁удовлетворил	-9.35939
▁быстро	-9.35942
▁полномочий	-9.35942
▁перми	-9.3597
▁стражу	-9.3598
▁полетов	-9.36002
▁суммы	-9.36015
▁следователи	-9.36022
▁населения	-9.36047
▁случаев	-9.36115
▁взыскани	-9.36186
ор	-9.3625
▁регистраций	-9.36256
▁отмечается	-9.36409
▁мэра	-9.36434
▁федеральны	-9.36492
▁ко	-9.36573
▁доходов	-9.36581
▁силы	-9.36758
▁документ	-9.3683
▁промышленно	-9.36849
▁оказа	-9.37021
▁объекты	-9.37098
▁самы	-9.37254
▁бо	-9.37599
▁обвиняемы	-9.376
во	-9.37666
▁сообщило	-9.3778
▁активно	-9.37857
▁изъял	-9.37938
▁форуме	-9.38027
▁a	-9.38247
ги	-9.38457
▁налогов	-9.38503
▁порядке	-9.38605
▁воздушн	-9.3866
▁начальника	-9.38756
▁приняти	-9.38909
▁матч	-9.38997
ан	-9.39032
▁завершил	-9.3916
▁новосибирск	-9.39177
▁производственны	-9.39206
▁госпитализирова	-9.39405
▁полномочия	-9.39463
▁слова	-9.39593
▁ситуацию	-9.39627
▁санкций	-9.39627
▁ste	-9.39627
▁мощность	-9.39628
▁акции	-9.39629
▁временные	-9.39634
▁материалы	-9.39712
▁сигнал	-9.39715
▁работников	-9.39733
▁радио	-9.39781
▁повреждения	-9.39789
▁оплат	-9.39865
▁июня	-9.3991
▁пунктов	-9.39914
▁внутренне	-9.39931
▁специальны	-9.39931
▁городов	-9.40122
▁рассмотрение	-9.40258
га	-9.40292
▁директоров	-9.40484
▁сокращение	-9.40599
▁корреспондент	-9.4068
▁те	-9.4078
▁ведет	-9.41001
▁удар	-9.41001
овой	-9.41105
▁тех	-9.41112
си	-9.41212
▁прокурор	-9.41252
ющий	-9.41403
▁ключевым	-9.41416
▁банков	-9.41495
▁транспортно	-9.41605
▁курск	-9.42057
▁боевы	-9.42166
▁последние	-9.4221
▁обеспечива	-9.42446
▁парк	-9.42569
▁включ	-9.42572
сочи	-9.42745
▁договора	-9.42773
▁бренд	-9.42921
▁продолжают	-9.43048
▁деятельность	-9.43175
▁пункта	-9.43194
▁лица	-9.43222
▁краево	-9.4328
▁соответству	-9.43319
гр	-9.43329
юю	-9.43432
▁картотек	-9.43473
▁ленобласти	-9.43473
▁набережной	-9.43473
▁сразу	-9.43473
▁соцсетях	-9.43473
▁mercedes	-9.43473
▁развитию	-9.43473
▁решению	-9.43475
▁фракци	-9.43475
▁нарушении	-9.43477
кобы	-9.43478
▁очередь	-9.43478
▁чита	-9.43481
▁последствий	-9.43492
▁возгорания	-9.4351
▁завершить	-9.43547
анна	-9.43552
▁нашли	-9.43614
▁среднего	-9.43627
▁практически	-9.43727
▁вынес	-9.43772
йорке	-9.43865
▁утвердил	-9.43885
▁прибыли	-9.43917
▁рейсы	-9.4393
▁должн	-9.43946
▁условия	-9.43968
▁предварительны	-9.43991
▁нижне	-9.44056
▁установили	-9.44071
▁трудов	-9.44086
▁ии	-9.44118
▁приговорил	-9.44156
▁куб	-9.44161
▁боброва	-9.44276
▁краснодарски	-9.44434
▁связано	-9.44442
ния	-9.44634
▁сбор	-9.44642
▁устройства	-9.44681
▁клуб	-9.44931
▁заключение	-9.44954
▁банковски	-9.44996
▁актив	-9.45064
▁туристическ	-9.45109
▁подтвердил	-9.45157
▁расположен	-9.45171
▁встрече	-9.45174
енко	-9.45202
▁выполнен	-9.45276
▁вид	-9.45353
тельной	-9.45368
▁объявлена	-9.45523
▁часа	-9.4554
▁сам	-9.45561
▁итоге	-9.45576
▁украински	-9.45868
▁итог	-9.45927
▁руководство	-9.46032
▁ш	-9.46358
▁никола	-9.46365
▁зафиксирован	-9.46386
ше	-9.46391
▁увеличение	-9.46514
▁международны	-9.46522
p	-9.46539
▁роман	-9.46682
▁vo	-9.46718
▁организация	-9.46769
▁тако	-9.46842
▁отправил	-9.4685
▁государственн	-9.46929
▁ночь	-9.47156
▁привел	-9.47177
▁вариант	-9.47224
парк	-9.47278
▁приводит	-9.4733
▁суде	-9.47419
▁курорт	-9.47441
▁su	-9.47466
▁подверг	-9.47473
▁властей	-9.47473
▁авиакомпании	-9.47473
▁питания	-9.47475
▁премии	-9.47475
▁погибших	-9.47475
▁позднее	-9.47476
▁линии	-9.47477
▁вернуть	-9.47486
▁хозяйства	-9.47489
▁товаров	-9.47499
▁официальны	-9.47558
▁ожидается	-9.47589
▁сентябрь	-9.47628
▁объеме	-9.47636
▁частично	-9.47647
▁одном	-9.47708
▁дорог	-9.47755
▁команд	-9.47779
▁команда	-9.4779
▁улицы	-9.47803
ющих	-9.47806
▁туризма	-9.47822
▁региональны	-9.47851
▁продолжается	-9.4786
▁воды	-9.47882
▁помещениях	-9.47887
▁сеть	-9.47916
▁трети	-9.48035
▁экономическ	-9.48064
▁москва	-9.48092
▁состоя	-9.48107
▁ликвидации	-9.48219
▁судей	-9.48275
▁требование	-9.48663
▁успешно	-9.48875
▁новом	-9.48875
▁отметила	-9.4891
▁экономически	-9.48913
▁конкурса	-9.48954
▁бензина	-9.48996
▁сезона	-9.49039
▁годов	-9.49166
▁иску	-9.49172
▁судебны	-9.49207
▁разны	-9.49293
▁курс	-9.49343
▁орган	-9.49372
▁со	-9.49441
▁появи	-9.49547
▁регулярно	-9.49567
▁культурн	-9.49733
▁уточнили	-9.49917
▁статус	-9.50003
▁ту	-9.50299
g	-9.50456
▁дохода	-9.50479
▁требует	-9.50497
▁обвиня	-9.50602
▁ниже	-9.50613
▁минут	-9.50669
али	-9.50764
▁поддержива	-9.51041
▁семьи	-9.51088
▁произошл	-9.51128
▁следственно	-9.51153
▁общественно	-9.51161
▁полугоди	-9.51249
▁мост	-9.51347
▁налоговы	-9.51405
▁важны	-9.51466
▁конфликт	-9.51605
▁восьми	-9.51633
▁апреля	-9.51639
▁внутри	-9.51639
▁втб	-9.5164
▁расходов	-9.51642
▁vol	-9.51645
▁газета	-9.51646
▁собрания	-9.51655
▁здравоохранения	-9.51678
▁переговоров	-9.51678
▁росреестра	-9.51678
▁инвестиций	-9.51679
▁десять	-9.51693
▁переговоры	-9.51728
▁no	-9.51734
▁декабре	-9.51757
▁центральный	-9.5176
▁оборудование	-9.51767
▁краев	-9.51803
▁территорию	-9.51827
▁запуск	-9.51849
▁уточняется	-9.51861
▁наказание	-9.51871
▁форум	-9.51883
▁тамбовской	-9.51894
▁администрация	-9.51929
▁возглавлял	-9.51932
▁заседание	-9.51963
▁модель	-9.51965
▁люди	-9.51973
▁изменений	-9.51976
▁маршрут	-9.52006
▁законодательно	-9.52034
▁мая	-9.52152
▁pro	-9.52172
▁команды	-9.5219
▁оплаты	-9.52233
▁машины	-9.52319
▁причиной	-9.52391
▁новосибирско	-9.52413
вший	-9.52477
▁ремонта	-9.52484
▁действовать	-9.52525
▁энергетики	-9.52583
▁самолета	-9.52657
▁выросло	-9.52677
▁политике	-9.52789
▁ответчик	-9.5282
▁акватории	-9.52852
▁театра	-9.52876
ова	-9.52887
▁готова	-9.5297
u	-9.52977
▁продажу	-9.52988
▁группа	-9.53238
▁снижени	-9.53242
▁буде	-9.53373
▁главны	-9.53417
▁бензин	-9.53585
▁срока	-9.53605
▁райсуд	-9.53627
▁статье	-9.53775
▁форума	-9.54091
▁ярославско	-9.54234
▁сизо	-9.54271
▁f	-9.54289
▁авакян	-9.54314
et	-9.54347
▁завода	-9.54348
▁северно	-9.54491
▁включен	-9.5469
▁повышени	-9.54892
▁представлен	-9.55341
▁э	-9.55528
▁макрон	-9.55558
▁барс	-9.55562
▁рабочи	-9.55797
▁муниципальны	-9.55834
▁интерес	-9.55918
▁импорт	-9.55965
▁апреле	-9.55987
▁вениамин	-9.55987
▁злоумышленник	-9.55987
▁оставаться	-9.55987
▁продукцию	-9.55987
▁росавиации	-9.55987
▁минимум	-9.55987
▁недели	-9.55987
▁сообщения	-9.55989
▁собак	-9.55989
▁развитии	-9.55989
▁трое	-9.55989
▁соглашение	-9.55993
▁собственности	-9.55999
▁поставок	-9.56005
▁ставка	-9.56013
▁респондентов	-9.56013
▁телеканал	-9.56029
▁избирательн	-9.56102
▁затрат	-9.5611
▁например	-9.5611
▁тепло	-9.56152
▁подач	-9.56153
▁сутки	-9.56185
▁постановление	-9.56221
▁сотрудничества	-9.5625
▁белоруссии	-9.56261
▁производству	-9.56272
▁превысил	-9.56311
▁охраны	-9.56345
▁зону	-9.56374
▁эта	-9.56378
▁связанны	-9.56386
▁летом	-9.56461
▁составлял	-9.56485
игорь	-9.5652
▁инициативу	-9.56584
вшись	-9.56641
▁данны	-9.56661
▁геленджика	-9.56754
▁территорий	-9.56774
▁ежегодно	-9.56863
▁органах	-9.56868
▁представил	-9.56919
▁начали	-9.56974
▁своего	-9.57015
▁показателя	-9.57138
▁чиновник	-9.57155
▁третьем	-9.57158
▁смогл	-9.57279
▁пыта	-9.5739
▁национально	-9.57516
▁генеральны	-9.57552
елена	-9.57578
▁вуза	-9.57592
▁втор	-9.57655
▁гостиница	-9.57666
▁газ	-9.57867
▁электро	-9.57981
▁госсовет	-9.58278
▁самым	-9.58313
▁домашни	-9.58389
▁мало	-9.5846
▁построен	-9.58581
▁периода	-9.586
▁занимать	-9.58671
▁реестр	-9.587
ке	-9.58708
▁женщина	-9.5871
▁программе	-9.58809
муниципального	-9.58832
▁атом	-9.5887
петербурге	-9.58989
▁открыто	-9.59181
▁зарегистрирован	-9.59225
▁рейс	-9.59299
▁рас	-9.59396
▁направления	-9.59524
▁кредит	-9.59574
▁май	-9.59651
▁мире	-9.59696
▁полном	-9.59734
▁движение	-9.59884
▁ответ	-9.59941
▁новым	-9.60077
▁продолжает	-9.60116
▁стать	-9.60133
▁основн	-9.60157
▁инициатив	-9.60189
▁особенно	-9.60196
▁район	-9.60263
▁достаточно	-9.60276
▁последствия	-9.60367
▁просьб	-9.60398
э	-9.6049
чень	-9.60522
черноземье	-9.60533
▁ближайше	-9.60533
▁выраст	-9.60533
▁жилищно	-9.60533
▁церемони	-9.60533
▁пообещал	-9.60533
▁прошунин	-9.60533
▁начнут	-9.60533
▁обвинение	-9.60533
ben	-9.60533
▁автономно	-9.60536
▁достави	-9.60542
▁гордумы	-9.60548
▁решений	-9.60575
▁з	-9.60592
службы	-9.6063
▁кандидатуру	-9.60636
▁москву	-9.6067
▁возрасте	-9.60711
▁расследования	-9.60714
▁гостиницы	-9.60753
▁законодательств	-9.60806
▁опрошенных	-9.60833
▁беспилотники	-9.60833
▁использования	-9.6084
▁рос	-9.6084
▁городах	-9.60858
▁отдельно	-9.61006
▁упал	-9.61043
▁минфин	-9.61062
▁комиссия	-9.61068
▁липецк	-9.61101
▁рейса	-9.61105
▁зафиксировано	-9.61137
▁основе	-9.61137
▁чемпионата	-9.61183
▁аэс	-9.61349
▁отсутствие	-9.61424
тор	-9.61437
▁выплаты	-9.6145
▁продуктов	-9.61533
▁задолженности	-9.61549
▁третье	-9.61563
▁рабочих	-9.61565
▁сказала	-9.6161
▁оценки	-9.61742
▁карт	-9.61758
▁этому	-9.6176
▁полно	-9.61781
▁имеют	-9.6183
▁годах	-9.61921
▁сроки	-9.61979
▁матче	-9.61993
▁семей	-9.61994
▁co	-9.62038
▁сделал	-9.62093
▁ка	-9.62099
▁переход	-9.62329
▁результата	-9.62446
▁многи	-9.62494
▁списк	-9.62568
▁покинул	-9.62827
▁российском	-9.62853
▁отказа	-9.62868
▁торгов	-9.63049
▁аналогичным	-9.63075
ики	-9.63139
нов	-9.63187
▁большой	-9.63256
▁клиническ	-9.63256
из	-9.63388
▁научно	-9.63496
▁транспортн	-9.63499
▁кондратьев	-9.63521
▁борис	-9.63602
▁саратовско	-9.63643
▁дефицит	-9.63648
▁сервиса	-9.63854
ости	-9.63858
▁красн	-9.64003
лен	-9.64088
▁передал	-9.64374
от	-9.64496
▁сведения	-9.64513
ma	-9.64518
▁транспорт	-9.64572
▁атомн	-9.64585
▁распоряжени	-9.64647
ников	-9.65066
on	-9.65137
▁украин	-9.65145
▁продлил	-9.65154
▁мессенджер	-9.652
▁центрально	-9.65207
▁крым	-9.65209
ел	-9.65269
ярославль	-9.65269
▁одна	-9.65283
▁валери	-9.65295
▁одну	-9.65295
▁самостоятельно	-9.65295
▁тяжести	-9.65295
▁экстренны	-9.65295
▁эфир	-9.65295
▁каспийск	-9.65295
▁станиц	-9.653
▁оренбургской	-9.65301
▁модернизаци	-9.65303
▁соблюда	-9.65323
▁вынужден	-9.65342
▁компенсации	-9.65344
▁мэрии	-9.65379
▁столицы	-9.65389
▁выступает	-9.65429
▁условий	-9.6543
▁обучение	-9.65431
▁кандидатов	-9.65442
▁собственность	-9.6545
▁сообщают	-9.65472
ростов	-9.65496
▁состоится	-9.65499
▁поправки	-9.65506
▁обеспечи	-9.65511
▁кадров	-9.65512
▁тяжелом	-9.6554
▁установлен	-9.65551
▁проблемы	-9.65601
▁отдыха	-9.65647
▁зоны	-9.65657
▁соглашения	-9.65679
▁больницы	-9.65735
▁чтении	-9.65763
▁женщины	-9.6577
▁исполняющи	-9.65796
▁самолетов	-9.65799
▁текущи	-9.65811
▁фигурантка	-9.65819
▁типа	-9.65919
▁индекс	-9.65948
ируют	-9.66009
▁членов	-9.66038
▁предпринимателя	-9.66065
▁ирана	-9.66109
кр	-9.66111
▁выявили	-9.66199
▁обеспечение	-9.66385
▁прошлы	-9.66472
ние	-9.66485
▁сп	-9.66738
▁поврежден	-9.66803
▁максимально	-9.66821
▁структур	-9.67006
▁военных	-9.67017
▁финансовой	-9.6712
▁кабинет	-9.67182
▁процесса	-9.67468
▁беспилотн	-9.67507
ба	-9.67755
▁переда	-9.67901
▁общественн	-9.67921
▁мера	-9.68248
ение	-9.6835
▁большо	-9.68447
▁пострадал	-9.68598
▁полученны	-9.68736
ус	-9.6878
▁гк	-9.68888
законодательства	-9.68949
▁поезд	-9.68956
уют	-9.69206
▁правил	-9.69253
▁приш	-9.69278
▁плана	-9.69294
▁заседания	-9.69361
▁краснодар	-9.69391
▁темп	-9.69449
▁топливо	-9.69465
▁снизи	-9.69487
ре	-9.69503
▁проводят	-9.69851
▁предполагает	-9.69889
▁автобус	-9.69945
▁дополнительн	-9.70012
▁ip	-9.70279
▁lamborghini	-9.70295
▁молдавии	-9.70295
▁одобрил	-9.70295
▁спасатели	-9.70295
▁условно	-9.70295
▁экипаж	-9.70295
▁никто	-9.70295
▁случившегося	-9.70295
▁vig	-9.70295
▁светлан	-9.70296
▁фсб	-9.70298
▁выражении	-9.703
▁кремля	-9.70312
бэк	-9.70312
▁оружия	-9.70312
▁зависимост	-9.70317
▁ирин	-9.70325
▁эксплуатацию	-9.70327
▁собой	-9.70341
▁технологий	-9.70343
ца	-9.70375
▁производитель	-9.70386
▁цели	-9.70393
▁финансовы	-9.70394
▁анапы	-9.70395
▁владел	-9.70431
▁актер	-9.70456
▁улица	-9.70462
▁выборов	-9.70466
▁обход	-9.70473
▁применения	-9.70474
▁одновременно	-9.70491
сибирь	-9.7055
▁принят	-9.70599
▁ведущи	-9.70654
▁вышл	-9.70659
▁стратегически	-9.7071
▁проводится	-9.70717
▁ma	-9.70758
▁начнет	-9.70794
▁оставил	-9.70841
начала	-9.70841
▁номер	-9.70945
▁им	-9.70964
▁финансирования	-9.7104
▁отношений	-9.71081
▁h	-9.71209
▁депутатом	-9.71313
ведут	-9.71383
▁государственных	-9.7145
▁банковск	-9.71468
ду	-9.71584
би	-9.71599
▁высоко	-9.71603
▁большинство	-9.71628
▁принадлеж	-9.71734
ясь	-9.7175
▁момента	-9.7185
▁омск	-9.71884
▁пермски	-9.71892
▁природ	-9.71924
▁экономическо	-9.71935
▁налога	-9.72007
▁миров	-9.72277
▁организовал	-9.72333
▁готов	-9.7236
сят	-9.72368
▁подряд	-9.72414
▁le	-9.72597
▁фигуранта	-9.7265
▁бюджетны	-9.72675
▁взрыв	-9.72716
падение	-9.72766
▁разработка	-9.7283
▁населенны	-9.72918
▁заключен	-9.73014
▁коммерческ	-9.7313
сть	-9.73185
▁мо	-9.73571
▁призыв	-9.73599
▁бизнесмен	-9.7361
▁обсуди	-9.73621
▁дрон	-9.73666
▁павлов	-9.73693
▁встреч	-9.73724
▁ассоциаци	-9.73782
▁оборот	-9.73786
▁объяснил	-9.73796
▁аукцион	-9.73862
▁поставщик	-9.73864
▁друг	-9.73942
▁отмен	-9.73987
▁муниципалитета	-9.74458
нии	-9.74471
йдут	-9.74545
стр	-9.74654
▁адрес	-9.74847
▁проводит	-9.74941
един	-9.74943
▁запрос	-9.74953
▁провед	-9.75003
▁борьб	-9.75008
▁оба	-9.75074
▁культурно	-9.75177
▁национальн	-9.75191
▁доступны	-9.75241
округ	-9.75334
▁промышленны	-9.7543
оно	-9.7548
▁сезон	-9.75489
▁органа	-9.75527
▁адвокат	-9.75558
▁апелляционн	-9.75558
▁здоровью	-9.75558
▁мероприятие	-9.75558
▁мишустин	-9.75558
▁ноябре	-9.75558
▁рассчитан	-9.75558
▁россией	-9.75558
▁степени	-9.75558
▁уничтожил	-9.75558
▁азс	-9.75561
▁hong	-9.75562
▁платежей	-9.75568
▁середин	-9.75571
▁полицейские	-9.75572
▁пострадавшим	-9.75572
▁свет	-9.75572
▁образование	-9.75575
▁нарушений	-9.75578
▁кредитования	-9.7558
▁растет	-9.75584
▁хоч	-9.75607
▁выступления	-9.75611
▁черных	-9.75619
▁волгоградской	-9.75633
▁победы	-9.75668
▁воронежской	-9.75673
▁пройти	-9.75692
▁приоритет	-9.75697
▁указано	-9.75704
▁февраля	-9.75727
▁скорость	-9.75736
▁водителя	-9.75764
▁анатоли	-9.75767
▁стоит	-9.75796
▁полеты	-9.7582
▁получать	-9.75849
▁прокуратуре	-9.75862
▁сельского	-9.75864
▁ударов	-9.7589
▁земли	-9.75905
▁петербурге	-9.75919
▁вод	-9.75922
▁игры	-9.75971
▁допустил	-9.76021
▁правов	-9.76054
▁пляжи	-9.76096
▁договоров	-9.76128
ошел	-9.76129
▁липецкой	-9.76186
▁грузов	-9.76232
▁пространство	-9.76283
▁казахстан	-9.76295
▁отношения	-9.76304
▁кредитн	-9.76348
по	-9.76351
▁отделения	-9.76423
ства	-9.76502
▁женщин	-9.76551
ут	-9.76563
▁собственны	-9.7679
▁поддержали	-9.76871
▁ленинск	-9.76936
▁департамента	-9.77035
▁ростове	-9.77063
▁отдельны	-9.77181
▁обязательств	-9.77215
▁ин	-9.77294
▁дальнейше	-9.77513
▁берег	-9.7758
▁данн	-9.77592
▁госдум	-9.77617
▁частн	-9.77634
▁вне	-9.77641
▁помога	-9.77664
▁обязательно	-9.7769
жи	-9.77715
▁летательны	-9.77732
▁представля	-9.7778
▁средни	-9.77781
▁рассказала	-9.77809
▁деле	-9.77828
▁программа	-9.77843
▁краснодаре	-9.7787
▁центральном	-9.78159
▁клиент	-9.78193
▁источника	-9.78297
▁ал	-9.78368
l	-9.78501
hon	-9.78722
▁местах	-9.78726
▁продаже	-9.7874
▁институт	-9.78806
▁закупк	-9.79048
спасательн	-9.79105
▁железнодорожны	-9.79317
▁дон	-9.79366
▁проезд	-9.79473
▁признали	-9.79611
▁земель	-9.79657
▁внес	-9.79703
▁спортивны	-9.79756
▁партнер	-9.79829
нести	-9.79972
▁вывод	-9.80009
август	-9.80018
▁федеральным	-9.80038
▁напомнил	-9.80071
▁контроле	-9.80149
▁должностны	-9.80213
ис	-9.80223
▁предсто	-9.8033
▁устав	-9.80367
▁обе	-9.80484
▁судебн	-9.8049
▁трасс	-9.80549
▁дании	-9.80571
▁убийство	-9.80627
▁утверждает	-9.80683
▁путина	-9.80686
▁внесен	-9.80695
▁участникам	-9.80743
▁таможенн	-9.80743
▁главно	-9.8075
▁круг	-9.80755
▁ру	-9.80792
▁направи	-9.80825
▁рус	-9.80851
госавтоинспекции	-9.80865
▁дизельно	-9.80973
▁газпром	-9.81041
▁патриот	-9.81042
▁добавили	-9.81048
▁автомобили	-9.81072
▁авито	-9.81113
▁единогласно	-9.81113
▁последующи	-9.81113
▁раньше	-9.81113
▁туапсе	-9.81113
▁момотов	-9.81113
▁энергии	-9.81114
▁ульяновск	-9.81114
▁сферы	-9.81114
▁принимают	-9.81115
▁брак	-9.81116
▁отечественно	-9.81116
▁сложности	-9.81119
▁гладков	-9.81122
▁пользоваться	-9.81124
▁учреждение	-9.81128
▁голосов	-9.81129
▁оповещения	-9.81132
▁зеленского	-9.81144
▁пляжей	-9.81146
▁входят	-9.81149
▁семья	-9.81162
▁выборах	-9.81183
▁материалам	-9.81184
▁предлагают	-9.81187
▁подразделения	-9.81202
▁билетов	-9.81215
▁профсоюзов	-9.81228
▁инвестиции	-9.81329
▁технологии	-9.8133
▁возл	-9.81332
ился	-9.81342
▁обсудили	-9.81344
▁ле	-9.81378
▁закрыто	-9.81379
▁рассмотрения	-9.81388
▁каждого	-9.81399
▁садов	-9.81431
▁группой	-9.81436
▁предоставлени	-9.81439
▁аналитики	-9.81474
▁источников	-9.81511
▁заявления	-9.81523
▁застройщик	-9.81547
▁лдпр	-9.81547
▁зарплаты	-9.81556
иться	-9.81599
▁товары	-9.81632
▁тюменско	-9.81666
▁показатели	-9.81679
▁артист	-9.81702
▁количеств	-9.81723
▁десяти	-9.8173
▁установлено	-9.81745
▁сотрудник	-9.81769
ирует	-9.818
▁риск	-9.81804
▁реки	-9.81806
▁ктк	-9.81837
▁ран	-9.81866
▁страхов	-9.81893
▁предыдущи	-9.81919
▁интернете	-9.8195
▁должно	-9.81958
▁медицинск	-9.82033
ают	-9.82084
▁своим	-9.82088
▁выступал	-9.82115
▁модели	-9.82117
▁кхл	-9.82118
▁продолжит	-9.82123
▁дорожно	-9.82154
▁домах	-9.82184
▁призыва	-9.82196
vo	-9.82201
▁стс	-9.82217
▁характера	-9.82246
▁европейск	-9.82273
признан	-9.82278
▁полу	-9.82289
▁высокий	-9.82321
▁спортивн	-9.82491
▁местно	-9.82497
▁управлении	-9.82509
▁никол	-9.82526
▁лес	-9.82576
летн	-9.82581
▁информационной	-9.82587
▁передаче	-9.82739
▁сделк	-9.82778
▁категории	-9.82814
▁состояние	-9.82835
▁зоне	-9.82839
ует	-9.82882
▁руководителей	-9.82917
▁денежно	-9.82919
марта	-9.82954
▁категори	-9.82965
▁секторе	-9.83198
▁кпрф	-9.83269
кс	-9.83317
▁филиала	-9.83349
▁сезоне	-9.83431
▁владе	-9.83518
▁кубань	-9.83522
▁генерально	-9.8357
▁поселк	-9.83629
▁дал	-9.83636
▁c	-9.83696
▁электронны	-9.83932
▁юридически	-9.83954
▁северн	-9.83972
▁уральск	-9.84053
▁необходим	-9.84086
▁массово	-9.84101
▁привлечени	-9.84336
▁украинск	-9.84346
вших	-9.84597
▁туристически	-9.84638
▁высок	-9.84645
▁купи	-9.84912
▁местном	-9.84924
▁дополнительно	-9.85055
▁доле	-9.85156
▁заявлял	-9.85215
▁доклад	-9.85267
▁департамент	-9.85365
▁оценивает	-9.85427
илья	-9.8553
▁важно	-9.85581
m	-9.85603
нском	-9.8568
▁казанск	-9.85729
▁управляющи	-9.8593
нт	-9.86234
▁стро	-9.86236
▁акватори	-9.86335
▁урал	-9.86379
▁искусственн	-9.86393
▁предмет	-9.86422
▁кор	-9.86445
▁выпуска	-9.86478
▁возможны	-9.86508
▁доби	-9.86542
▁рейтинга	-9.86635
▁действиям	-9.86639
▁открыты	-9.86737
▁пре	-9.86746
▁владислав	-9.86996
▁денег	-9.86996
▁евраев	-9.86996
▁здании	-9.86996
▁ликвидировали	-9.86996
▁медведев	-9.86996
▁павел	-9.86996
▁поручил	-9.86996
▁раскритиковал	-9.86996
▁сириус	-9.86996
▁порядок	-9.86996
▁было	-9.86996
▁эмманюэл	-9.86996
tis	-9.86996
▁китая	-9.86996
▁обвинения	-9.86997
▁механизм	-9.86997
▁урегулированию	-9.86997
llan	-9.86998
▁возглавил	-9.86998
▁получит	-9.87002
▁просил	-9.87003
▁окружающ	-9.87004
▁примут	-9.87006
▁компенсацию	-9.87011
▁зампред	-9.87014
▁жилье	-9.87016
▁победителем	-9.87018
▁установить	-9.87019
▁тело	-9.87025
▁роль	-9.8703
▁влияние	-9.87041
▁экстремистской	-9.87049
▁никак	-9.87053
▁электроэнергии	-9.87055
▁соцсети	-9.87056
▁видим	-9.87078
▁весь	-9.87093
▁трат	-9.87104
▁палаты	-9.87113
▁проходя	-9.87116
▁самоуправления	-9.87121
▁планировал	-9.8714
▁сирены	-9.87145
▁поступления	-9.87152
▁турции	-9.87155
▁эксплуатации	-9.87158
▁путь	-9.8716
▁нефте	-9.87164
▁контроля	-9.87165
▁контакт	-9.87166
▁конструкции	-9.87226
▁сторону	-9.87247
▁помещений	-9.87269
▁изначально	-9.87277
▁вход	-9.87302
▁кредитов	-9.87302
▁незаконны	-9.87305
▁происшествий	-9.87361
▁увеличить	-9.87364
▁обязал	-9.87408
максимальная	-9.87415
▁травмы	-9.8742
▁экспертов	-9.87425
▁обращении	-9.87462
▁белгородск	-9.8755
▁генпрокуратура	-9.87551
▁it	-9.87594
▁дорожн	-9.87612
▁организован	-9.8762
▁аппаратов	-9.87633
▁экономика	-9.87641
▁продолжаются	-9.87684
▁атаковал	-9.87791
▁удары	-9.87845
▁динамика	-9.87906
▁годовом	-9.87939
▁воздуха	-9.8795
▁площадки	-9.87974
▁сери	-9.88068
▁внесл	-9.88093
▁вреда	-9.88121
вшихся	-9.88274
▁одному	-9.8831
экономическо	-9.88311
▁этого	-9.88326
▁требованиям	-9.88328
▁представителя	-9.8833
▁спбгуп	-9.88366
▁следственн	-9.88391
▁торговы	-9.88419
▁аэропорты	-9.88463
▁повыси	-9.88479
▁открыт	-9.8848
▁гражданско	-9.88498
▁спуст	-9.88526
▁молоды	-9.88541
▁используют	-9.88541
▁проспекте	-9.88548
▁занимают	-9.88587
▁привлекл	-9.88641
▁объема	-9.88652
▁покушени	-9.88672
▁нанес	-9.88706
▁мужчин	-9.8879
▁род	-9.88803
▁казахстана	-9.88816
▁красноярск	-9.88829
▁урала	-9.88859
эс	-9.88885
▁конкурс	-9.89026
▁чс	-9.89078
▁инициатива	-9.89138
▁исследовани	-9.89151
▁университет	-9.89169
▁советник	-9.892
▁оператор	-9.89239
▁исполнени	-9.89284
вшей	-9.8936
▁стар	-9.89472
▁регионами	-9.89487
▁треть	-9.89522
де	-9.89535
▁обратить	-9.89564
▁иске	-9.8965
▁совершенно	-9.89654
▁вся	-9.8976
▁управлением	-9.89791
▁de	-9.89819
пи	-9.89835
▁иностранн	-9.89921
же	-9.89945
▁южн	-9.89958
▁коммунальны	-9.89975
▁остан	-9.89982
▁пор	-9.9003
▁ядерн	-9.90175
▁s	-9.9062
▁уполномоченны	-9.90681
▁шаг	-9.90805
тр	-9.90834
▁петербурга	-9.91131
▁объявили	-9.91173
▁обязательства	-9.91304
▁проходил	-9.91374
▁собеседник	-9.9142
▁поток	-9.91446
▁решил	-9.91502
▁гражданам	-9.91518
▁се	-9.9158
▁молод	-9.9163
▁море	-9.91643
▁пояснили	-9.91669
чь	-9.9185
▁высоким	-9.92017
▁рекоменду	-9.92036
▁информационны	-9.92105
▁обсужда	-9.92308
▁личны	-9.92358
▁законодательн	-9.92651
▁высот	-9.92669
▁страна	-9.92684
▁руководители	-9.92732
▁памятник	-9.92746
▁обеспечит	-9.92795
▁физически	-9.92813
▁казань	-9.92954
▁сектор	-9.92995
▁факт	-9.93029
▁охран	-9.93049
▁возбуждени	-9.93064
скоре	-9.93185
▁ярославле	-9.93205
▁дв	-9.93225
▁toyota	-9.93246
▁ближайши	-9.93246
▁бригад	-9.93246
▁невозможно	-9.93246
▁неоднократно	-9.93246
▁параллельно	-9.93246
▁плюс	-9.93246
▁подозрени	-9.93246
▁сейчас	-9.93246
▁фестиваля	-9.93246
▁хинштейн	-9.93246
▁целях	-9.93246
▁вступлени	-9.93246
▁избрал	-9.93246
▁кафе	-9.93247
▁нефтепродуктов	-9.93248
▁правления	-9.93248
▁шило	-9.93252
▁доказательств	-9.93252
▁сетей	-9.93255
▁выяснилось	-9.93256
▁верхне	-9.93256
▁специализирова	-9.93259
▁санкции	-9.93261
▁аренду	-9.93262
▁оборонно	-9.93272
▁связь	-9.93281
▁обвинил	-9.93285
▁четверг	-9.93291
▁войну	-9.93312
▁польши	-9.93331
▁запорожской	-9.93334
▁рождения	-9.93355
▁оружие	-9.93369
▁студентов	-9.93375
▁госсекретарь	-9.93394
▁препарат	-9.93403
▁находились	-9.93415
▁операций	-9.93416
▁оказани	-9.93449
▁сделать	-9.9346
▁содержания	-9.93462
▁восьмого	-9.93462
банк	-9.93471
▁консульства	-9.93516
▁целью	-9.93522
▁снизился	-9.93531
▁установило	-9.93548
нных	-9.93559
▁назначения	-9.9366
▁необходимость	-9.93689
▁клиентов	-9.93703
▁правила	-9.93745
▁график	-9.93772
▁запуска	-9.93801
▁окружно	-9.93813
▁рассматривают	-9.93814
▁этаже	-9.93846
▁штатном	-9.93857
ченко	-9.93863
▁армии	-9.93871
▁сенатора	-9.93914
▁деятельностью	-9.93917
▁изготовлени	-9.93939
▁евросоюза	-9.93946
▁земле	-9.93952
▁арестовал	-9.93961
вшего	-9.94003
▁выразил	-9.94009
▁вакансий	-9.94044
▁квартале	-9.94062
▁нефть	-9.94064
▁вызов	-9.94076
ик	-9.94096
▁сегменте	-9.94106
▁муниципально	-9.9417
▁полицию	-9.94171
▁запасны	-9.9421
▁ж	-9.94353
предпринимателей	-9.94374
▁название	-9.94399
▁производителей	-9.94464
▁возраста	-9.94478
▁коллеги	-9.94488
▁снизить	-9.9453
▁показали	-9.94535
▁пассажир	-9.94694
▁квартиры	-9.94951
интерфакс	-9.94961
▁пожарно	-9.95084
▁наибольши	-9.95112
▁включил	-9.95161
▁угрозе	-9.95283
▁ним	-9.95408
▁приведе	-9.95528
▁судебно	-9.9555
▁настоящи	-9.95621
вал	-9.95638
▁марин	-9.95662
▁оценк	-9.95742
▁задач	-9.95798
▁улиц	-9.95813
▁верховны	-9.95828
▁приняты	-9.95983
▁марки	-9.96003
▁востребован	-9.96041
▁уничтожен	-9.96131
▁инцидента	-9.96294
▁золота	-9.96361
▁труд	-9.96404
ста	-9.96464
▁подготовки	-9.96596
▁волга	-9.96629
ится	-9.96796
▁ключевы	-9.96897
▁мм	-9.96904
▁школ	-9.96937
▁капитала	-9.97038
▁государственны	-9.97097
▁норм	-9.97132
▁потенциал	-9.97157
▁отправили	-9.97388
▁исполнительны	-9.97422
▁сада	-9.97426
▁ос	-9.9745
▁нес	-9.97481
▁выполни	-9.97593
▁состоял	-9.97745
▁re	-9.9781
▁известны	-9.97972
цы	-9.98
▁медицинско	-9.98064
▁электронн	-9.98167
▁топливно	-9.98182
▁подтвержден	-9.98277
▁защитник	-9.98308
▁замен	-9.98363
▁каса	-9.9841
▁совершени	-9.98464
нию	-9.98533
ком	-9.98702
▁росту	-9.98751
▁высказывания	-9.98788
▁ид	-9.98952
▁закрыт	-9.99016
атор	-9.99029
▁союз	-9.99114
лов	-9.99296
строить	-9.99316
▁строительн	-9.994
▁долга	-9.99404
▁устройств	-9.99452
▁ведут	-9.99508
▁рассматривает	-9.9951
▁угроз	-9.9974
▁хотя	-9.99741
уз	-9.99751
▁демонстриру	-9.99912
▁телеграм	-9.99912
▁аксенов	-9.99912
▁бюро	-9.99912
▁вдвое	-9.99912
▁вмешательств	-9.99912
▁здоровья	-9.99912
▁индии	-9.99912
▁огня	-9.99912
▁партию	-9.99912
▁подготовил	-9.99912
▁убытк	-9.99912
▁молодежи	-9.99912
▁обратно	-9.99912
▁уфы	-9.99913
▁сетях	-9.99913
▁кубани	-9.99913
▁ставку	-9.99915
▁васили	-9.99917
▁опасности	-9.99918
▁обращения	-9.99918
ley	-9.9992
▁fm	-9.99921
▁урегулирования	-9.99922
▁чувашии	-9.99923
▁какие	-9.99925
▁квтч	-9.99928
▁визит	-9.99929
▁турецк	-9.9993
▁банкротства	-9.99931
▁карач	-9.99932
▁фактически	-9.99934
▁авария	-9.99936
▁поможет	-9.99936
▁арбитражн	-9.99942
▁архитектор	-9.99954
▁общества	-9.99958
▁продлит	-9.99966
▁ресурсов	-9.99972
▁позицию	-10.0002
▁ожидания	-10.0002
▁голосования	-10.0003
▁сотрудничество	-10.0005
▁полный	-10.0005
▁результат	-10.0005
▁инвесторов	-10.0006
▁пришел	-10.0008
▁предусматривает	-10.0011
▁скончался	-10.0011
▁падения	-10.0013
▁производстве	-10.0014
▁участки	-10.0023
▁будущем	-10.0024
▁аэродромы	-10.0024
▁де	-10.0024
▁ольг	-10.0029
▁израильски	-10.0029
▁благоустройство	-10.003
▁московской	-10.0031
▁петр	-10.0032
▁отставку	-10.0033
аз	-10.0036
▁восстановления	-10.004
▁базовы	-10.004
▁точки	-10.0042
▁медицинских	-10.0043
▁group	-10.0044
▁досрочно	-10.0044
▁качества	-10.0045
▁анапе	-10.0046
▁спектакл	-10.0052
▁торги	-10.0059
▁собственно	-10.0061
▁новую	-10.0061
▁мужчину	-10.0062
▁ленинградско	-10.0064
▁выбор	-10.0072
▁высше	-10.0074
▁фас	-10.0078
▁ударил	-10.0079
▁предыдуще	-10.0082
▁вин	-10.0085
▁уплат	-10.0094
▁зарплат	-10.01
▁регионы	-10.0103
▁съемк	-10.0105
▁кон	-10.0107
аются	-10.0112
▁обнаружени	-10.0113
▁смерть	-10.0113
▁программу	-10.0119
▁формат	-10.0121
▁вер	-10.0122
▁площадке	-10.0131
▁компаниям	-10.0133
▁вопросов	-10.0134
▁планов	-10.0134
▁результатах	-10.0141
▁указ	-10.0149
▁построи	-10.0155
нные	-10.0165
▁задержаны	-10.017
▁ответственн	-10.0171
▁национальны	-10.0174
▁решили	-10.0181
▁перебо	-10.0185
▁силов	-10.0192
ям	-10.0192
▁сотрудника	-10.0193
▁сделки	-10.0198
▁отпуск	-10.021
ле	-10.0212
▁китайски	-10.0215
службу	-10.0221
▁совершен	-10.0221
▁ввод	-10.0224
▁зелен	-10.0229
▁стол	-10.0235
▁платформ	-10.0237
▁годам	-10.0239
▁отправить	-10.024
▁управлени	-10.0272
конференции	-10.0273
▁государств	-10.0291
▁территориальн	-10.0292
▁публикаци	-10.0293
▁m	-10.03
▁рассмотр	-10.0311
яков	-10.0313
▁мошенничество	-10.0325
▁матча	-10.0334
▁вс	-10.0341
▁театр	-10.0344
▁юго	-10.0348
▁оформил	-10.035
кова	-10.0352
▁тушени	-10.0358
▁посту	-10.0359
▁необходимост	-10.0366
▁ку	-10.0375
▁выбира	-10.0381
кин	-10.0388
▁поиск	-10.039
▁районн	-10.0391
▁во	-10.0393
▁уход	-10.0405
▁проезж	-10.0413
▁оказать	-10.0421
▁прекратит	-10.0428
▁условиям	-10.0437
▁состояни	-10.0463
▁устройство	-10.0486
▁потребовал	-10.049
▁разговор	-10.0495
▁расширени	-10.0503
▁врач	-10.0511
▁ра	-10.0524
ман	-10.0524
ca	-10.053
▁делов	-10.0535
▁девелопер	-10.0537
▁использует	-10.0547
▁тур	-10.0548
▁смен	-10.0551
▁слов	-10.0551
▁денежн	-10.0553
▁пе	-10.0554
ne	-10.0554
▁зон	-10.056
очно	-10.0562
▁девяти	-10.0566
▁собственник	-10.0575
▁жалоб	-10.0582
▁административны	-10.059
тов	-10.0597
▁системе	-10.0605
рс	-10.0606
▁делает	-10.0609
▁поддержал	-10.0612
▁порт	-10.0619
al	-10.062
▁соответствующ	-10.0635
▁привлечен	-10.0642
аево	-10.0651
▁ба	-10.0661
▁хо	-10.0669
▁отделени	-10.067
▁встретил	-10.0672
▁кирилл	-10.0678
▁архитектур	-10.0681
▁выступа	-10.0684
▁набережны	-10.0686
▁спикер	-10.0689
▁поясни	-10.07
▁кар	-10.07
▁вчера	-10.0705
▁ипотек	-10.0706
▁напал	-10.0706
▁рекомендовал	-10.0706
▁соглашений	-10.0706
▁эрдоган	-10.0706
▁оксан	-10.0706
▁уборк	-10.0706
▁гибели	-10.0706
▁лукашенко	-10.0706
▁предъявлен	-10.0706
▁bent	-10.0706
▁оперштаб	-10.0706
▁учения	-10.0706
▁врио	-10.0706
▁кнр	-10.0706
▁рассказывает	-10.0706
▁образовательных	-10.0707
▁максимум	-10.0707
▁опасность	-10.0707
▁пострадавшие	-10.0707
▁принимать	-10.0707
▁начать	-10.0707
▁компанию	-10.0707
▁прирост	-10.0707
▁приостановил	-10.0708
▁зрения	-10.0708
▁наблюдения	-10.0708
▁путем	-10.0708
▁зеленский	-10.0709
▁образовательно	-10.0709
▁остальные	-10.0709
сп	-10.071
▁поисково	-10.071
▁стартовал	-10.071
▁осети	-10.0711
▁тренд	-10.0711
▁подорожал	-10.0712
▁испытания	-10.0713
▁льготы	-10.0713
▁водо	-10.0713
▁словаки	-10.0714
▁тела	-10.0715
▁публичны	-10.0715
▁задержания	-10.0716
▁пространстве	-10.0717
▁игр	-10.0717
▁сборной	-10.0718
▁городски	-10.072
▁предлагается	-10.0722
▁произошедшего	-10.0723
▁приходится	-10.0725
▁изделий	-10.0726
▁издание	-10.0727
▁экологии	-10.0727
▁возгорание	-10.0731
▁кмч	-10.0732
▁документации	-10.0735
▁направля	-10.0738
▁контент	-10.0741
▁получаю	-10.0741
▁сократился	-10.0742
▁тв	-10.0745
▁стратегии	-10.0747
▁литр	-10.075
▁звуч	-10.0752
▁юли	-10.0752
▁ген	-10.0753
▁отделение	-10.0756
▁име	-10.0756
▁сильно	-10.0757
▁субъекта	-10.0757
играл	-10.076
▁максимальны	-10.0761
▁подозреваемый	-10.0762
▁строительству	-10.0762
▁мирово	-10.0764
▁видов	-10.077
ll	-10.0776
▁владельц	-10.0777
ель	-10.0786
▁украиной	-10.0789
▁нападающи	-10.0791
▁женщину	-10.0791
▁воду	-10.0793
цифры	-10.0794
▁семена	-10.0796
▁подан	-10.0804
дать	-10.0808
▁фигурантов	-10.0817
▁утвержден	-10.0834
▁отчет	-10.0835
▁профессионально	-10.0838
ян	-10.0842
▁инстанции	-10.0844
▁села	-10.0849
▁следующем	-10.0851
ур	-10.0854
▁разработан	-10.0861
▁росприроднадзор	-10.087
▁вернул	-10.0875
▁областью	-10.0887
▁обвиняют	-10.0888
▁да	-10.0905
▁сад	-10.0921
▁сроком	-10.0929
▁определени	-10.0938
емся	-10.0948
▁петербургу	-10.095
▁повышенно	-10.0955
▁дефицита	-10.0961
▁оценил	-10.0964
▁постоянно	-10.0965
▁ракет	-10.0965
▁родил	-10.0977
▁мирны	-10.0981
▁увеличени	-10.0989
▁расширение	-10.0992
▁травм	-10.0998
▁статуса	-10.0999
▁автоматически	-10.1001
▁направ	-10.1004
ания	-10.1014
▁отопительн	-10.102
▁клуба	-10.1036
▁прогноз	-10.1043
▁сайт	-10.1051
▁сбора	-10.1059
льскохозяйственн	-10.1061
▁сельско	-10.1063
▁борт	-10.1072
▁российскими	-10.1086
снова	-10.1088
ап	-10.1092
гу	-10.1103
▁дороге	-10.1105
▁природн	-10.1108
▁люб	-10.111
▁введени	-10.1112
▁там	-10.1114
ьные	-10.1114
▁владельца	-10.1119
▁лу	-10.1123
▁строг	-10.1139
▁само	-10.1139
▁октябрьск	-10.1143
нской	-10.1168
▁челябинск	-10.1169
▁продукт	-10.1169
енные	-10.1178
▁кандидат	-10.1182
▁взят	-10.1186
▁проведение	-10.1201
щ	-10.1205
▁чемпион	-10.1214
▁опубликована	-10.1222
ге	-10.1226
▁штрафа	-10.123
▁отражени	-10.1236
▁корпус	-10.1239
▁начина	-10.124
▁установленны	-10.1241
▁сектора	-10.1242
▁транспортны	-10.1251
▁след	-10.1284
▁концепци	-10.1291
▁формировани	-10.1294
ник	-10.1295
▁задолженност	-10.1303
▁юлаев	-10.1304
▁отбор	-10.1304
чан	-10.1308
▁ходатайство	-10.1309
▁перевод	-10.1309
▁ректор	-10.1309
▁конкурент	-10.1311
▁бобров	-10.1313
▁отказать	-10.1315
mo	-10.1323
▁обмен	-10.1323
▁минимальн	-10.1327
оп	-10.1336
▁проведени	-10.1352
▁сын	-10.1355
▁популярным	-10.1358
▁ист	-10.1371
▁положительн	-10.1377
▁политик	-10.1379
▁обязанност	-10.1387
▁атаку	-10.1398
▁собран	-10.1411
▁найден	-10.1413
▁пермском	-10.1413
▁функци	-10.1422
▁дипломат	-10.1426
▁утрат	-10.1426
▁добавила	-10.1427
▁ci	-10.1427
▁лев	-10.1427
▁вол	-10.1427
▁реконструкци	-10.1436
▁снижа	-10.1437
▁кур	-10.1441
▁аудитор	-10.1446
рг	-10.1449
f	-10.145
▁точно	-10.1458
ня	-10.1462
▁эвакуаци	-10.1462
▁буду	-10.1465
▁кино	-10.1473
▁процентн	-10.1473
россельхознадзор	-10.1475
▁marton	-10.1475
▁ассамбле	-10.1475
▁бастрыкин	-10.1475
▁блокировк	-10.1475
▁взамен	-10.1475
▁гросси	-10.1475
▁многочисленны	-10.1475
▁москальков	-10.1475
▁набиуллина	-10.1475
▁повлекше	-10.1475
▁повыша	-10.1475
▁позволил	-10.1475
▁преступно	-10.1475
▁происходит	-10.1475
▁рафаэл	-10.1475
▁ребенок	-10.1475
▁статистик	-10.1475
▁строительстве	-10.1475
▁существенно	-10.1475
▁астраханск	-10.1475
▁вашингтон	-10.1475
▁европы	-10.1475
▁заверил	-10.1475
▁гавани	-10.1475
▁гуцан	-10.1475
▁дверь	-10.1475
▁кириенко	-10.1475
▁нацпроект	-10.1475
▁давление	-10.1475
прежде	-10.1475
▁авиакомпания	-10.1475
▁без	-10.1475
▁пашинян	-10.1475
▁издания	-10.1475
▁зеленским	-10.1475
▁совладельц	-10.1475
cola	-10.1475
▁бикова	-10.1475
▁согласовал	-10.1475
▁горяче	-10.1475
▁иноагентом	-10.1476
▁суток	-10.1476
▁полях	-10.1476
per	-10.1477
▁стражей	-10.1477
▁обсе	-10.1477
▁получал	-10.1477
▁инфляция	-10.1477
▁еврокомисси	-10.1478
▁наблюдается	-10.1478
▁определил	-10.1479
▁сбивать	-10.1479
▁продавать	-10.1479
▁наркотиков	-10.148
▁прогнозируют	-10.148
▁войны	-10.1482
▁альянса	-10.1482
▁предложений	-10.1483
▁баллов	-10.1483
▁домашнего	-10.1484
▁совершил	-10.1486
▁запустил	-10.1487
министра	-10.1488
▁скорее	-10.1489
▁нападения	-10.149
др	-10.1495
▁academie	-10.1497
▁продукция	-10.1497
▁спасателей	-10.1497
▁убежден	-10.1498
▁полагает	-10.1501
ну	-10.1503
▁сокращения	-10.1509
▁избрани	-10.151
▁отказался	-10.151
▁них	-10.1516
▁способству	-10.1517
▁хотят	-10.1517
▁сбербанка	-10.1522
▁цифровы	-10.1522
▁продлени	-10.1522
▁среды	-10.1523
▁запросил	-10.1524
▁дер	-10.1526
▁успел	-10.1528
▁группу	-10.1528
▁ду	-10.1532
▁потребление	-10.1536
▁ученые	-10.1538
▁согласовани	-10.1541
▁граждански	-10.1543
▁u	-10.1549
▁белого	-10.1551
▁оценку	-10.1551
▁думе	-10.1552
▁контролирует	-10.1556
▁ядерны	-10.1558
вд	-10.1563
▁инструменты	-10.1566
▁госдуму	-10.1567
▁задействован	-10.1568
▁интересы	-10.1573
▁финансирование	-10.1576
▁много	-10.1576
▁маршруты	-10.1576
▁случай	-10.1576
чный	-10.1586
▁продукты	-10.1592
▁вводили	-10.1594
▁проголосовал	-10.1596
▁платформы	-10.1598
▁судна	-10.1603
▁разработки	-10.1604
▁фондов	-10.1605
▁дат	-10.1614
▁удовлетворени	-10.1614
▁розыска	-10.1616
ро	-10.1623
▁железно	-10.1631
законодательство	-10.1641
▁торгово	-10.1643
▁странами	-10.1646
вер	-10.1647
▁информационно	-10.1662
▁земельн	-10.1683
▁исследований	-10.1687
▁задачи	-10.1688
ации	-10.1692
лин	-10.1692
▁займет	-10.1694
чат	-10.1696
▁каждом	-10.1698
▁министров	-10.1709
ирования	-10.1722
▁доли	-10.1723
стов	-10.1731
▁использовал	-10.1736
▁v	-10.1748
▁крыма	-10.1748
требуется	-10.1756
▁концу	-10.1757
ведения	-10.176
▁российским	-10.1762
▁выделено	-10.1766
▁матчей	-10.1777
▁ядерно	-10.1783
▁бюджете	-10.1784
▁введение	-10.1784
▁моста	-10.179
v	-10.179
▁судом	-10.1792
вшие	-10.1796
▁бюджету	-10.1802
▁главный	-10.1813
▁восстановление	-10.1814
▁самый	-10.1816
▁следствием	-10.1819
премьер	-10.1832
▁характер	-10.1833
▁высоки	-10.1833
бл	-10.1836
▁ц	-10.1841
▁прокурора	-10.1846
▁поддержка	-10.1857
▁инженерны	-10.187
▁заявлени	-10.1871
▁аналогичн	-10.188
▁груз	-10.1884
▁восстановлени	-10.1894
▁наук	-10.1897
южный	-10.1897
кина	-10.1901
▁расписани	-10.191
▁организованно	-10.1911
▁отск	-10.1911
▁областном	-10.1932
▁специалист	-10.1943
▁строительно	-10.1946
▁строго	-10.1946
▁современны	-10.195
▁завис	-10.1991
нд	-10.1992
▁технологическ	-10.1992
ющего	-10.1996
▁взыска	-10.1997
▁па	-10.2001
▁кас	-10.2014
▁причина	-10.2018
▁вокзал	-10.2018
▁французски	-10.2019
▁проблем	-10.2024
▁проспект	-10.2024
▁тому	-10.2024
рф	-10.2024
▁финансировани	-10.2025
▁свердловск	-10.2028
▁социальн	-10.2031
▁использовали	-10.2032
меру	-10.2038
▁карта	-10.2039
▁оснащен	-10.2049
▁четвер	-10.2049
▁наличи	-10.2055
▁этом	-10.2056
▁безопасно	-10.2057
▁администраци	-10.2069
▁запад	-10.2077
▁никит	-10.2093
▁вирус	-10.2105
▁роли	-10.2111
▁возраст	-10.2112
▁петербургск	-10.2119
▁обеспечен	-10.2123
▁лицензи	-10.2124
▁граница	-10.2124
▁журналистам	-10.2134
▁комбинат	-10.2135
▁паслер	-10.214
▁футбольны	-10.2145
▁ростов	-10.2157
▁блогер	-10.2168
▁успех	-10.2179
▁банки	-10.2182
ры	-10.2187
▁всеми	-10.2191
▁ясно	-10.2193
▁объектам	-10.2196
da	-10.221
▁плат	-10.2218
▁облада	-10.2227
▁принятие	-10.2228
▁штук	-10.2235
рик	-10.2236
▁беспилотника	-10.2238
▁обвиняем	-10.224
менеджер	-10.2241
▁первомайск	-10.2245
▁справедлив	-10.2248
▁месяце	-10.2251
▁укры	-10.2255
▁историческо	-10.2257
▁выставк	-10.226
▁рад	-10.226
ждать	-10.2263
▁уточняет	-10.2268
us	-10.2269
видом	-10.2281
▁ge	-10.2288
▁легко	-10.2288
▁быстр	-10.2295
ехал	-10.2301
▁критик	-10.2302
▁конечно	-10.2304
▁отправлен	-10.2305
▁причиненн	-10.2305
▁знак	-10.2306
▁stone	-10.2306
ках	-10.2308
ажды	-10.2308
▁заболеваний	-10.2308
▁обозр	-10.2308
▁прибрежн	-10.2308
▁хмелевски	-10.2308
фокус	-10.2308
▁auto	-10.2308
▁dream	-10.2308
▁forbes	-10.2308
▁tesla	-10.2308
▁антикоррупционн	-10.2308
▁высказал	-10.2308
▁госзакупок	-10.2308
▁закупок	-10.2308
▁заявок	-10.2308
▁инициировал	-10.2308
▁истории	-10.2308
▁кабардин	-10.2308
▁кореняко	-10.2308
▁областях	-10.2308
▁опьянения	-10.2308
▁разбирательств	-10.2308
▁сделок	-10.2308
▁форме	-10.2308
▁екатерин	-10.2308
▁наталь	-10.2308
▁наблюдателей	-10.2308
▁учащихся	-10.2308
▁межрегионально	-10.2308
▁окончани	-10.2308
▁напротив	-10.2308
▁news	-10.2308
▁мошенничестве	-10.2309
▁записке	-10.2309
▁трем	-10.2309
▁букв	-10.2309
▁обращение	-10.2309
▁спасти	-10.231
▁магистрали	-10.231
▁саратова	-10.231
▁обращений	-10.231
▁установки	-10.2311
▁смерти	-10.2311
▁установка	-10.2311
▁запесоцкий	-10.2311
▁ямал	-10.2312
▁взяток	-10.2312
▁округу	-10.2313
▁судья	-10.2316
▁вторник	-10.2316
▁сможет	-10.2317
▁инфляции	-10.2317
▁аварии	-10.2317
▁очков	-10.2317
▁владельцев	-10.2317
▁отходов	-10.2317
▁представление	-10.2318
▁возмещени	-10.2318
▁замедление	-10.2319
▁авиа	-10.232
▁группировк	-10.232
▁значимых	-10.2321
▁сбежал	-10.2322
▁общения	-10.2323
▁достижения	-10.2323
▁зарегистрировал	-10.2323
▁та	-10.2325
▁направлении	-10.2327
▁большим	-10.2329
▁победу	-10.2329
▁метро	-10.233
▁захарова	-10.233
▁небольшой	-10.2331
▁решает	-10.2332
▁благоустройства	-10.2332
▁италии	-10.2332
▁обслуживания	-10.2333
▁недвижимость	-10.2334
▁организацию	-10.2335
▁стандартам	-10.2335
▁собственников	-10.2337
▁убийстве	-10.2338
▁соединенны	-10.2339
▁зал	-10.2339
вали	-10.2341
▁интеллекта	-10.2345
петербургск	-10.2345
▁испытательны	-10.2346
▁основным	-10.2349
▁лидерами	-10.235
▁реконструкцию	-10.2353
▁границы	-10.2354
▁районов	-10.2355
▁оценкам	-10.2355
▁праздник	-10.2356
▁проводить	-10.2361
▁отелей	-10.2362
▁прогнозирует	-10.2362
▁брендов	-10.2365
▁евро	-10.2366
▁ан	-10.2366
▁интерфаксу	-10.2368
транспортных	-10.2371
▁обвиняемого	-10.2371
дне	-10.2371
▁принадлежащи	-10.2374
▁доверие	-10.2375
▁зоопарка	-10.2375
▁погода	-10.2375
▁ввп	-10.2375
▁кампании	-10.2378
▁крымом	-10.2378
▁процессуальн	-10.2379
▁нагрузки	-10.238
▁пользователей	-10.238
▁курганск	-10.2382
▁исполнения	-10.2391
▁экономике	-10.2397
▁ро	-10.2401
▁консорциума	-10.2403
▁опроса	-10.2404
▁консультации	-10.2404
▁фотографи	-10.2405
▁министерстве	-10.2405
▁инициативы	-10.241
▁проблема	-10.2411
▁встречу	-10.2413
▁кредиты	-10.2415
▁трассы	-10.2416
▁больница	-10.2423
▁терминале	-10.2425
▁красно	-10.243
▁любо	-10.2431
▁жительница	-10.2437
▁проверя	-10.2443
▁творчески	-10.2445
▁мандата	-10.2447
▁юге	-10.245
▁возможных	-10.2455
▁медицинские	-10.246
▁особы	-10.2461
▁мобильны	-10.2461
▁учебн	-10.2465
▁городских	-10.2466
▁дочер	-10.2475
▁торговли	-10.2479
▁юра	-10.2483
▁действующе	-10.2487
▁журналистами	-10.2491
▁защиту	-10.2491
▁игра	-10.2503
мария	-10.2505
▁достиг	-10.2513
▁числ	-10.2515
▁покупке	-10.2516
▁дизайн	-10.2517
▁ректора	-10.2517
пунктп	-10.2518
▁соблюдение	-10.2531
▁белгороде	-10.2548
▁отца	-10.2554
▁организова	-10.2554
▁бесплатно	-10.2555
летне	-10.2561
▁изменение	-10.2563
центр	-10.2566
▁теплоснабжающ	-10.2574
▁внесли	-10.2575
▁удара	-10.2577
▁института	-10.2579
▁потерял	-10.2582
▁реклам	-10.2583
▁специальност	-10.2584
украинск	-10.2585
▁рак	-10.26
▁верх	-10.2603
▁использовани	-10.2605
▁взыскал	-10.2605
исты	-10.2607
▁открыл	-10.2608
▁главной	-10.2608
▁объектах	-10.2617
пк	-10.2619
оз	-10.2619
▁бытовы	-10.2621
▁рабоче	-10.2623
▁отражение	-10.2634
▁полной	-10.2635
▁площадка	-10.2638
▁задача	-10.2642
▁назначение	-10.2651
▁обл	-10.2663
▁золото	-10.269
▁азовско	-10.2695
магатэ	-10.2699
▁применение	-10.2701
▁алтай	-10.2706
▁блок	-10.2709
енный	-10.2715
▁средством	-10.2717
▁завершили	-10.2717
▁исполнение	-10.2717
отск	-10.2728
▁территори	-10.273
▁возобновил	-10.2732
▁розничны	-10.2739
▁незаконном	-10.274
▁платформе	-10.2741
▁страну	-10.2747
сво	-10.2758
▁пар	-10.2759
▁французск	-10.2771
▁вред	-10.2772
▁завершен	-10.2791
▁инвест	-10.2801
▁столкновени	-10.281
▁турист	-10.2818
▁показал	-10.2823
▁бес	-10.2828
▁счету	-10.2832
▁подсудимы	-10.2833
▁покупк	-10.2849
роспотребнадзора	-10.285
▁класса	-10.2851
▁наруша	-10.2858
даст	-10.2861
▁воз	-10.2863
▁финал	-10.2864
щик	-10.2866
▁ска	-10.287
▁оп	-10.2872
▁рекорд	-10.2882
ож	-10.2886
нием	-10.2895
▁анти	-10.2895
▁подписан	-10.2898
▁акционер	-10.2898
▁открыли	-10.2899
лиги	-10.292
▁льготны	-10.2941
▁постав	-10.2941
▁популярны	-10.2942
▁информационн	-10.295
▁лучши	-10.2952
▁строительны	-10.2953
род	-10.2959
▁персонал	-10.2965
доставлены	-10.2966
кредитно	-10.2967
▁горожан	-10.2971
▁филиал	-10.2975
▁подростка	-10.2977
▁уфимск	-10.2984
энерго	-10.2985
ина	-10.2986
▁устранени	-10.2986
▁перенес	-10.2986
▁красноуфимск	-10.2987
▁подходит	-10.2992
▁войска	-10.3001
скую	-10.3011
▁приобретени	-10.3013
нова	-10.3016
кой	-10.3019
▁прошло	-10.303
▁лад	-10.3033
▁федераци	-10.3034
прав	-10.3035
▁ватикан	-10.3035
▁кроссовер	-10.3036
▁ответил	-10.3039
▁перевозк	-10.3041
▁ликвидаци	-10.3046
▁инстанци	-10.3047
▁холдинг	-10.3051
▁носков	-10.3051
▁геленджик	-10.3055
ске	-10.3059
▁лит	-10.3063
▁согласи	-10.3072
coc	-10.308
▁выявил	-10.3095
августе	-10.3101
▁интернета	-10.3104
▁способн	-10.3107
едет	-10.3108
▁окнам	-10.3114
▁окна	-10.3115
ван	-10.3118
ируется	-10.3123
▁розыск	-10.3125
ho	-10.313
▁денежны	-10.3131
▁помещения	-10.3137
летним	-10.3138
▁восточно	-10.3147
▁рук	-10.3151
▁дол	-10.3154
▁возглавля	-10.3154
▁говорит	-10.3156
▁внедрени	-10.3158
▁призна	-10.3159
▁старше	-10.3165
еватель	-10.3166
уда	-10.3171
▁ожидают	-10.3172
▁пленарно	-10.3173
▁жизнь	-10.3174
▁цель	-10.3178
▁очередно	-10.318
▁расти	-10.3197
▁часто	-10.3197
▁склад	-10.3203
▁ветер	-10.3206
▁глобально	-10.3209
▁европе	-10.3209
▁обжалова	-10.3209
▁серьезно	-10.3212
▁произведен	-10.3212
близи	-10.3214
▁тендер	-10.3217
▁атмосфер	-10.3217
▁зарубежны	-10.3217
▁кобз	-10.3217
приволжье	-10.3217
▁chery	-10.3217
▁rusprofile	-10.3217
▁авангард	-10.3217
▁ансат	-10.3217
▁валентин	-10.3217
▁минэкономики	-10.3217
▁мобилизаци	-10.3217
▁набережную	-10.3217
▁неделя	-10.3217
▁областей	-10.3217
▁осенью	-10.3217
▁осуществляет	-10.3217
▁отражает	-10.3217
▁перенаправлен	-10.3217
▁повредил	-10.3217
▁подешевел	-10.3217
▁противовоздушн	-10.3217
▁ситуацией	-10.3217
▁ставрополе	-10.3217
▁таблиц	-10.3217
▁улучшит	-10.3217
▁уралсиб	-10.3217
▁экстренно	-10.3217
▁значение	-10.3217
▁кузнецов	-10.3217
▁учебны	-10.3217
▁times	-10.3217
▁значения	-10.3217
▁капремонт	-10.3217
▁уделя	-10.3217
▁брянск	-10.3217
▁посольств	-10.3217
▁морально	-10.3217
▁молока	-10.3217
героя	-10.3217
▁шевченко	-10.3217
▁производителя	-10.3217
▁ставке	-10.3217
▁микро	-10.3217
▁пошлины	-10.3218
▁целей	-10.3218
▁марченко	-10.3218
▁нежилы	-10.3218
▁компанией	-10.3218
▁организацией	-10.3218
▁потребителей	-10.3218
▁ставок	-10.3218
▁нехватк	-10.3218
▁меж	-10.3218
▁избежать	-10.3218
▁облачность	-10.3218
предположительно	-10.3219
▁прошедши	-10.3219
▁осадков	-10.3219
▁разрешения	-10.3219
▁ускорить	-10.3219
▁енисейско	-10.3219
▁отопления	-10.3219
▁хотел	-10.322
▁приложение	-10.322
▁недавно	-10.322
▁образовательные	-10.322
▁столкнулись	-10.3221
▁израиля	-10.3221
▁субъектов	-10.3221
▁сталкива	-10.3221
▁века	-10.3221
▁должника	-10.3221
▁требуют	-10.3221
▁торгах	-10.3222
ские	-10.3222
▁учреждений	-10.3223
▁московск	-10.3223
na	-10.3223
▁подростков	-10.3223
▁четвертый	-10.3223
▁приставов	-10.3224
▁старши	-10.3225
▁электромобилей	-10.3225
электроснабжение	-10.3225
▁аналитиков	-10.3226
▁росгвардии	-10.3227
▁восстановить	-10.3228
▁вознаграждение	-10.3229
исетск	-10.3229
▁тарифов	-10.323
▁врачей	-10.323
▁безопасность	-10.3231
▁насилия	-10.3231
▁заметно	-10.3233
▁полпред	-10.3234
▁входил	-10.3234
▁поколения	-10.3235
▁транс	-10.3235
▁обнаружено	-10.3236
▁предлагал	-10.3238
▁отмечал	-10.3239
▁активность	-10.3239
▁динамику	-10.324
▁иностранным	-10.3243
▁норматив	-10.3245
▁заказчиком	-10.3245
▁метрострой	-10.3246
▁эффективность	-10.3246
▁отчетности	-10.3247
▁станови	-10.325
▁говорят	-10.3252
▁сопровожда	-10.3252
грозит	-10.3255
▁производит	-10.3255
см	-10.3257
▁самары	-10.326
▁школьников	-10.3262
▁военнослужащих	-10.3262
▁автобусов	-10.3262
▁отправк	-10.3265
▁запрещено	-10.3265
▁сло	-10.3268
дж	-10.3269
▁гражданина	-10.3272
госпитализирован	-10.3273
▁границу	-10.3276
▁задержки	-10.3277
▁остановки	-10.3277
▁мать	-10.3279
▁мирно	-10.3279
станут	-10.328
▁рассматривается	-10.3282
▁субсидий	-10.3289
▁вольера	-10.3291
▁дальше	-10.3291
▁пермь	-10.3291
▁сады	-10.3292
▁шоу	-10.3292
▁долго	-10.3293
▁вызвал	-10.3305
▁подъезда	-10.3305
▁повреждений	-10.3308
▁привлекал	-10.3308
▁природны	-10.3312
▁отменили	-10.3314
щая	-10.3315
▁зоопарке	-10.3315
▁веществ	-10.332
▁зенита	-10.3322
▁скорой	-10.3322
▁гибридн	-10.3326
▁другого	-10.3327
▁мужчины	-10.3328
▁перевел	-10.3328
▁карты	-10.3329
▁сезону	-10.3331
рас	-10.3338
совершеннолетних	-10.334
▁сбиты	-10.334
▁продал	-10.3341
▁близки	-10.3355
запад	-10.3355
▁ша	-10.3357
▁культур	-10.3358
ний	-10.3358
▁команду	-10.3361
▁рассмотрел	-10.3363
▁предупредили	-10.3364
▁иран	-10.3365
▁сотрудниками	-10.3378
▁созыве	-10.3382
▁технически	-10.339
▁вызван	-10.3396
▁признак	-10.3396
▁муниципалитетах	-10.3398
▁газов	-10.3404
аль	-10.341
▁традиционно	-10.3411
▁бумажны	-10.3411
▁холдинга	-10.3414
▁разработал	-10.3416
▁ходатайств	-10.3419
▁равно	-10.3421
исследовательски	-10.3421
▁штрафы	-10.3427
▁системой	-10.3429
▁обо	-10.3433
ши	-10.3436
▁бизнесом	-10.3439
▁мастер	-10.3448
▁приобрел	-10.3449
▁банковском	-10.345
le	-10.3453
▁базы	-10.3457
▁матери	-10.3464
▁примеру	-10.3465
▁исторически	-10.3465
▁мари	-10.3467
▁обеспечил	-10.3478
▁ди	-10.3489
▁мал	-10.349
▁руководств	-10.3492
▁групп	-10.35
▁проезда	-10.3501
рат	-10.3501
▁корпуса	-10.3501
▁центром	-10.3502
▁пи	-10.3503
▁работник	-10.3505
аж	-10.351
▁освободил	-10.3514
▁закупки	-10.352
▁семьям	-10.3522
релизе	-10.3522
▁тер	-10.3524
▁школе	-10.3533
▁объяснили	-10.3537
▁гуманитарн	-10.3541
▁чрезвычайно	-10.356
▁оценивают	-10.3563
rs	-10.3568
▁китайско	-10.3574
▁ради	-10.3576
▁научны	-10.3579
▁составлен	-10.3582
▁эл	-10.3585
▁цене	-10.3595
▁роспотребнадзор	-10.3598
▁помогл	-10.3599
▁определенны	-10.3602
▁вида	-10.3603
▁сдела	-10.3604
доступна	-10.3611
▁интерфакс	-10.3614
▁март	-10.3624
▁аэропортах	-10.3624
▁ночно	-10.3629
▁предостави	-10.363
шн	-10.3633
ника	-10.3639
▁столице	-10.3643
▁аварийно	-10.3655
аться	-10.3658
▁политически	-10.3661
овского	-10.3668
▁изъя	-10.3677
меняют	-10.3687
▁хищени	-10.3689
ками	-10.3693
▁оформи	-10.3693
▁морски	-10.3706
▁лун	-10.3714
▁атака	-10.3718
▁олимпийск	-10.3736
чиновник	-10.3737
▁хода	-10.3739
тройку	-10.3739
рост	-10.3739
▁парламент	-10.3742
▁совместны	-10.3753
▁север	-10.3756
формируется	-10.3757
▁политика	-10.3758
мошенничество	-10.3758
▁предоставлен	-10.3777
▁ноч	-10.3781
западн	-10.3783
▁профессиональны	-10.3789
▁недель	-10.3793
▁оплата	-10.3796
▁судно	-10.3797
▁собрал	-10.3798
▁следит	-10.3798
▁значительны	-10.38
▁отвеча	-10.3805
mar	-10.3805
▁деревн	-10.3813
▁масштаб	-10.3817
инский	-10.3818
▁основан	-10.3818
▁оцени	-10.3819
▁обраща	-10.3819
▁проверк	-10.382
▁поселка	-10.3824
▁участием	-10.3826
▁закону	-10.3833
▁действующи	-10.3835
▁выезд	-10.3837
▁участвова	-10.3841
▁дагестан	-10.3842
▁торговл	-10.3844
▁оценива	-10.385
инг	-10.3852
▁зелены	-10.3855
▁списка	-10.3859
▁основание	-10.3869
▁этапа	-10.3873
▁ног	-10.3876
▁оператора	-10.3879
▁каждо	-10.388
▁обстоятельств	-10.3882
промышленн	-10.3882
▁округах	-10.3884
орт	-10.3895
продемонстрирова	-10.3897
art	-10.3899
er	-10.3902
▁сер	-10.3907
рен	-10.3908
▁московски	-10.3909
▁выполня	-10.3911
▁марк	-10.3914
▁войск	-10.3929
fi	-10.393
▁правоохранители	-10.3931
▁релиз	-10.3933
▁постоянны	-10.3934
b	-10.3937
сер	-10.3939
▁реальны	-10.3945
арь	-10.3957
▁внесени	-10.396
▁холодно	-10.3962
▁повестк	-10.3962
▁дорогу	-10.3962
▁автомобиле	-10.3965
▁телефон	-10.3965
▁приобре	-10.3966
▁комплексно	-10.3975
▁уставны	-10.3976
▁создава	-10.3978
▁комментари	-10.3978
▁свобод	-10.3984
▁нанесл	-10.3986
▁крис	-10.3986
▁граждане	-10.3995
▁рен	-10.3996
▁регулятор	-10.4003
▁теле	-10.4013
▁отказыва	-10.4016
ается	-10.4021
▁мандат	-10.4025
▁границ	-10.4031
▁сторона	-10.4034
▁она	-10.4036
▁данном	-10.4036
▁обработк	-10.4039
нского	-10.4052
▁воздух	-10.4054
▁показа	-10.4058
▁резко	-10.4068
▁метод	-10.4074
▁клиентам	-10.4093
▁железнодорожно	-10.4095
▁вернули	-10.4096
нную	-10.4113
▁разрешение	-10.4123
▁влия	-10.4123
▁заключа	-10.4124
▁обслуживание	-10.4124
▁автор	-10.4126
▁десятк	-10.4126
▁академи	-10.4129
▁зарплатны	-10.413
тяжении	-10.4135
▁такси	-10.4139
куп	-10.4139
▁протест	-10.4143
западе	-10.415
▁отставк	-10.4156
▁трубопроводн	-10.4159
▁авиационн	-10.417
▁спад	-10.4172
▁кировск	-10.4173
усть	-10.4173
▁состоит	-10.4173
▁шолоховск	-10.4174
▁помощник	-10.4174
▁выброс	-10.4175
▁бактери	-10.4179
▁действительно	-10.418
▁изменил	-10.4181
▁мобильно	-10.4186
▁абонент	-10.419
▁утра	-10.4194
▁камер	-10.4198
▁госсекретар	-10.4204
▁исключен	-10.4208
▁класс	-10.4211
▁спец	-10.4216
▁politico	-10.4217
▁youtube	-10.4217
▁апрель	-10.4217
▁вднх	-10.4217
▁выбран	-10.4217
▁историю	-10.4217
▁координиру	-10.4217
▁купянск	-10.4217
▁ляйен	-10.4217
▁мансур	-10.4217
▁множеств	-10.4217
▁музея	-10.4217
▁обвинению	-10.4217
▁обыграл	-10.4217
▁оштрафовал	-10.4217
▁панкратов	-10.4217
▁письмо	-10.4217
▁помочь	-10.4217
▁реджеп	-10.4217
▁сказано	-10.4217
▁сотрудниц	-10.4217
▁степень	-10.4217
▁трибуны	-10.4217
▁эльвир	-10.4217
▁аккумулятор	-10.4217
▁полгода	-10.4217
inan	-10.4217
▁отбыва	-10.4217
▁шоссе	-10.4217
▁минпр	-10.4217
▁потребности	-10.4217
▁расшири	-10.4217
▁аэрофлот	-10.4217
▁содержит	-10.4217
▁относительно	-10.4217
▁решетников	-10.4217
▁мощности	-10.4217
▁обычны	-10.4217
▁костин	-10.4217
nie	-10.4217
▁контур	-10.4217
▁умвд	-10.4217
▁авиации	-10.4217
▁песн	-10.4217
pha	-10.4218
▁подземн	-10.4218
▁птиц	-10.4218
▁пострадавшего	-10.4218
▁заранее	-10.4218
▁ушл	-10.4218
▁витали	-10.4218
восстановительны	-10.4218
▁отряд	-10.4219
▁спортсменов	-10.4219
▁замминистра	-10.4219
▁прямо	-10.4219
перерабатывающих	-10.4219
▁air	-10.4219
▁марат	-10.4219
▁зад	-10.4219
▁сожалению	-10.422
▁володин	-10.422
▁hr	-10.422
▁решить	-10.422
▁пятый	-10.422
▁самозанятых	-10.4221
▁саратове	-10.4221
▁где	-10.4221
▁водоснабжения	-10.4221
▁апартаментов	-10.4221
▁родственников	-10.4221
▁миг	-10.4221
▁ipo	-10.4222
▁сотн	-10.4222
▁предотвращени	-10.4223
▁открытия	-10.4223
▁водителей	-10.4223
▁энергоресурсов	-10.4224
▁скрылся	-10.4225
▁далее	-10.4225
▁постановления	-10.4227
▁польша	-10.4227
▁отменить	-10.4228
▁бразилии	-10.4228
▁приостановк	-10.4228
▁исследователи	-10.4229
▁управляющего	-10.423
▁одежды	-10.4232
▁задержании	-10.4232
▁исключительн	-10.4232
▁лечения	-10.4233
▁будущи	-10.4235
▁кадры	-10.4235
▁массовы	-10.4235
▁направлениям	-10.4236
следуют	-10.4236
▁мэрия	-10.4237
▁иноагента	-10.4238
▁нас	-10.4238
▁многоквартирные	-10.4238
▁r	-10.4239
▁процедура	-10.4239
▁весной	-10.424
▁начинается	-10.4244
▁силовики	-10.4245
▁болезни	-10.4246
▁обсуждения	-10.4246
▁подсчитали	-10.4246
шки	-10.4247
▁профессии	-10.4247
▁реакци	-10.4247
▁двусторонн	-10.4247
▁отрасль	-10.4247
▁уклонени	-10.4247
▁осколочны	-10.4248
▁действовал	-10.4249
▁обвинительны	-10.4251
▁бесплатны	-10.4253
▁подозреваемого	-10.4254
▁поводу	-10.4255
вели	-10.4255
▁открытие	-10.4257
▁указал	-10.4259
▁билеты	-10.4261
▁элементы	-10.4261
▁покупать	-10.4261
▁существующе	-10.4261
▁венгрии	-10.4264
▁хранения	-10.4264
▁следующего	-10.4265
▁попада	-10.4265
▁будет	-10.4269
▁распространени	-10.427
▁провери	-10.427
▁волков	-10.4272
▁посетил	-10.4273
▁чиновников	-10.4275
▁голов	-10.4275
кар	-10.4275
▁занятия	-10.4277
▁новгороде	-10.4278
▁четверть	-10.4278
▁разработку	-10.4279
ированн	-10.428
▁больнице	-10.4281
▁случаях	-10.4285
▁миссии	-10.4286
▁заслуженны	-10.4287
▁представлял	-10.4289
▁сообщества	-10.4289
▁процедуры	-10.4292
доль	-10.4298
▁возврат	-10.4299
▁девелопмент	-10.4299
тк	-10.43
▁возобновлени	-10.4301
▁сирена	-10.4301
▁студи	-10.4302
▁нормы	-10.4303
▁арендн	-10.4304
▁маршрута	-10.4307
▁автомобилем	-10.4311
▁проводятся	-10.4311
▁бензином	-10.4313
▁резерв	-10.4318
▁сгорел	-10.4323
▁регистрации	-10.4324
▁квартире	-10.4325
▁негативно	-10.4326
▁обыски	-10.4327
▁интересах	-10.4328
▁органами	-10.4332
▁субсидии	-10.4333
▁мониторинга	-10.4333
▁установлены	-10.4338
▁эстонии	-10.434
▁прохождени	-10.4341
▁достига	-10.4343
▁мс	-10.4344
▁супруги	-10.4346
▁единственный	-10.435
▁сбера	-10.4351
анов	-10.4352
▁счета	-10.4352
▁крыму	-10.4357
▁привело	-10.4357
▁точка	-10.4358
▁предприниматели	-10.4367
▁ясн	-10.4367
▁создает	-10.4368
жан	-10.4369
▁легковы	-10.4374
▁осв	-10.4375
▁джон	-10.4376
▁доставки	-10.4379
▁сняти	-10.438
недействительным	-10.4382
▁площадк	-10.4387
▁профильны	-10.4389
ены	-10.4393
▁мсу	-10.4397
▁комфортно	-10.4398
▁заработал	-10.44
▁республиканск	-10.4401
▁привлека	-10.4401
▁документу	-10.4402
▁планы	-10.4406
▁приступил	-10.4412
▁негативны	-10.4412
▁спросом	-10.4412
▁же	-10.4416
▁польски	-10.4425
▁общественны	-10.4425
▁причинени	-10.4428
▁выявлен	-10.4432
▁персонала	-10.4437
▁топливом	-10.4446
▁торговле	-10.4449
▁четверт	-10.4451
▁первичн	-10.4452
▁средствами	-10.4452
▁обновленн	-10.4453
▁западной	-10.4453
▁майк	-10.4453
▁повторно	-10.4461
ще	-10.4465
▁оформлен	-10.4466
альной	-10.4472
▁представлять	-10.4473
анд	-10.4476
▁миру	-10.4482
мк	-10.4482
▁запрещен	-10.4488
▁искусства	-10.4492
▁запретил	-10.4509
▁осужденны	-10.4517
▁длин	-10.452
▁рай	-10.4521
▁самое	-10.4526
▁космическ	-10.4527
▁разработк	-10.453
еров	-10.4531
▁предназначен	-10.4531
▁предложен	-10.4534
▁перенос	-10.4534
▁фи	-10.4536
▁штат	-10.4537
▁берегов	-10.4539
▁нужда	-10.4556
▁челябинске	-10.4561
▁боев	-10.4566
▁ассоциации	-10.4572
▁оказали	-10.4576
▁размещение	-10.4578
тин	-10.4578
▁независимы	-10.458
фе	-10.4587
▁виновн	-10.4591
▁поддержан	-10.4592
▁бренда	-10.4592
▁переговора	-10.4593
▁оперативн	-10.4599
▁пик	-10.4601
▁судебном	-10.4605
▁саратовск	-10.4608
▁самой	-10.4611
обновление	-10.4611
су	-10.4619
▁региональных	-10.4619
▁подписани	-10.462
▁транспорте	-10.4622
▁авакяна	-10.4625
▁имуществом	-10.4627
▁дума	-10.4633
▁стабильно	-10.4644
▁ис	-10.4645
▁находя	-10.4646
ским	-10.4652
▁выступит	-10.4654
ещ	-10.4654
нина	-10.4662
▁посвящен	-10.4664
▁пято	-10.4664
▁ремонтны	-10.4666
▁долг	-10.4668
▁производством	-10.4671
▁час	-10.468
губернатор	-10.4682
de	-10.4686
▁капитальн	-10.4704
об	-10.4713
ско	-10.4713
▁p	-10.4713
ением	-10.4716
▁комплект	-10.4717
▁верховн	-10.4721
▁инициативе	-10.4728
▁вероятно	-10.4739
▁снизил	-10.474
дар	-10.4741
▁уверен	-10.4747
▁полет	-10.4749
▁мог	-10.4752
▁ограничен	-10.4755
▁народ	-10.4758
▁юридическ	-10.4768
▁технико	-10.4769
▁владимиров	-10.4783
▁укреплени	-10.4792
▁всероссийск	-10.4793
▁екатеринбург	-10.4794
уд	-10.4797
▁команде	-10.4798
▁аэродром	-10.4811
▁призывал	-10.4811
нарушение	-10.4814
▁атомны	-10.4816
оль	-10.4817
тора	-10.4824
▁вопросу	-10.4824
▁жительниц	-10.4834
▁отказал	-10.4835
так	-10.4836
▁превысит	-10.4844
▁гостиниц	-10.4844
▁отопительном	-10.4849
кавказ	-10.4853
чик	-10.4853
всу	-10.4864
▁совокупн	-10.4873
▁той	-10.4874
▁актуальны	-10.4877
▁начало	-10.4879
курорта	-10.4882
▁автоматическ	-10.4889
▁делают	-10.49
▁компаниях	-10.4901
▁проектно	-10.4906
свердловск	-10.491
▁финансово	-10.4925
▁усилени	-10.4927
▁установил	-10.4929
▁этапе	-10.4931
евский	-10.4932
▁независим	-10.4938
▁ад	-10.4943
пол	-10.4952
▁возведени	-10.4955
▁поле	-10.4974
▁ставропольском	-10.4976
▁портала	-10.5004
▁расчет	-10.5008
▁баланс	-10.501
▁потеря	-10.503
▁соблюдени	-10.5035
▁автомобильны	-10.5038
мор	-10.504
▁устойчивост	-10.5044
▁горно	-10.5045
▁зарплата	-10.5045
to	-10.5047
▁следующе	-10.505
▁парламентари	-10.5051
▁обрати	-10.5062
ними	-10.5067
▁обычно	-10.5067
▁заксобрани	-10.5086
▁инвестор	-10.509
▁потер	-10.5091
▁номера	-10.5095
чен	-10.5099
▁создал	-10.511
▁локомотив	-10.512
▁надзор	-10.5124
▁взял	-10.5135
ское	-10.5137
зор	-10.515
▁доставк	-10.5151
▁заключи	-10.5153
▁центробанк	-10.5155
▁джо	-10.5158
▁чемпионат	-10.5169
▁кажды	-10.517
▁выдач	-10.5176
▁предупредил	-10.5184
▁интереса	-10.5184
част	-10.519
▁руководителе	-10.519
▁увиде	-10.5191
▁мировы	-10.5198
▁труб	-10.5201
▁местам	-10.5207
▁замыка	-10.5214
▁профильн	-10.5216
▁инженер	-10.5229
▁вьетнам	-10.5235
▁крупным	-10.525
▁но	-10.5251
▁владельцам	-10.5256
▁голос	-10.526
▁обязан	-10.526
▁взаимодействи	-10.5268
▁пожил	-10.5274
▁сегмента	-10.5278
фо	-10.528
▁энергетическ	-10.5282
▁бланар	-10.5283
▁республика	-10.5285
▁территория	-10.5288
▁башн	-10.5291
▁слуша	-10.5291
▁брон	-10.5295
▁внутренни	-10.5296
▁арт	-10.5299
▁студент	-10.5299
▁нож	-10.53
▁глаз	-10.53
▁километр	-10.5301
▁лауреат	-10.5301
▁кремле	-10.5304
▁профсоюз	-10.5305
осторожности	-10.5305
▁решен	-10.5307
▁лист	-10.5309
▁гора	-10.5312
▁сократил	-10.5315
▁подпис	-10.5318
▁электромобил	-10.5318
йдет	-10.5319
▁съезд	-10.5319
▁мак	-10.532
▁новостройк	-10.5321
▁прилет	-10.5321
▁расположенны	-10.5323
▁эффект	-10.5328
▁балтийск	-10.5328
▁воспользова	-10.5328
▁коллектив	-10.5328
▁пономарев	-10.5328
swagen	-10.5328
балкарии	-10.5328
▁bloomberg	-10.5328
▁алиханов	-10.5328
▁демонстраци	-10.5328
▁ежедневно	-10.5328
▁зафиксировал	-10.5328
▁медведь	-10.5328
▁подсчета	-10.5328
▁подтверждает	-10.5328
▁посещени	-10.5328
▁принимал	-10.5328
▁развивать	-10.5328
▁скульптур	-10.5328
▁служебно	-10.5328
▁событие	-10.5328
▁стадион	-10.5328
▁таиланд	-10.5328
▁тайип	-10.5328
▁тайфун	-10.5328
▁туапсинско	-10.5328
▁фестиваль	-10.5328
▁фундамент	-10.5328
▁шереметьево	-10.5328
▁электропоезд	-10.5328
▁авиабаз	-10.5328
▁госпитализации	-10.5328
▁кдв	-10.5328
▁линейк	-10.5328
▁окончил	-10.5328
▁федорищев	-10.5328
▁авиакомпаний	-10.5328
▁логинов	-10.5328
▁откроет	-10.5328
▁уникальн	-10.5328
▁магнитогорск	-10.5328
▁тракт	-10.5328
▁полезны	-10.5328
▁скота	-10.5328
▁осени	-10.5329
▁катера	-10.5329
▁газеты	-10.5329
▁исключить	-10.5329
▁сегодняшни	-10.5329
▁детям	-10.5329
▁прямы	-10.5329
▁мошенничества	-10.5329
▁переведен	-10.5329
▁перешл	-10.5329
▁действие	-10.5329
удовлетворительн	-10.5329
▁шахты	-10.5329
▁отечественны	-10.533
▁положение	-10.533
▁потушили	-10.533
▁посол	-10.5331
▁жительства	-10.5331
▁подборк	-10.5331
▁концессион	-10.5331
▁приложения	-10.5331
▁nor	-10.5331
▁понимаем	-10.5331
▁решении	-10.5331
▁спг	-10.5332
▁покрытия	-10.5332
▁прибытия	-10.5333
▁автодорог	-10.5333
▁протяженность	-10.5334
▁обещал	-10.5334
▁проводились	-10.5335
▁пекин	-10.5335
▁факторов	-10.5336
▁ограничение	-10.5336
▁отметк	-10.5336
▁сыр	-10.5336
▁пациентов	-10.5336
▁портфель	-10.5336
▁соседни	-10.5336
▁кинг	-10.5336
▁назвала	-10.5336
▁заметил	-10.5336
▁активности	-10.5337
▁благо	-10.5337
▁фаз	-10.5337
▁устанавливаются	-10.5337
▁приурочен	-10.5337
▁гг	-10.5339
▁конструкций	-10.534
▁существует	-10.534
▁филармонии	-10.534
▁организаторов	-10.5342
▁уйти	-10.5342
▁правду	-10.5342
▁потребуется	-10.5343
▁нелегальн	-10.5343
▁ушел	-10.5344
▁жильцов	-10.5344
▁татнефт	-10.5344
▁снизились	-10.5345
▁прививк	-10.5345
▁неба	-10.5345
▁нарушил	-10.5346
▁наказания	-10.5347
▁слушания	-10.5347
▁оказалось	-10.5348
▁фили	-10.5349
▁эффективност	-10.5351
▁i	-10.5351
▁обнаружены	-10.5352
▁гости	-10.5353
▁дорогах	-10.5354
▁началось	-10.5354
▁хорошо	-10.5355
▁дипломатически	-10.5355
▁мотор	-10.5355
▁эвакуированы	-10.5356
▁лут	-10.5357
▁завершения	-10.5357
▁сбыт	-10.5358
▁дзержинского	-10.5361
▁желанию	-10.5361
▁путиным	-10.5361
▁поставил	-10.5361
▁digital	-10.5362
▁диапазон	-10.5362
▁инфраструктуру	-10.5362
▁пенсионерк	-10.5362
▁продлили	-10.5363
▁три	-10.5364
▁открыть	-10.5366
▁последнего	-10.5367
▁поквартирны	-10.5367
▁можем	-10.5367
▁ножом	-10.5368
▁превышени	-10.5368
▁уточняют	-10.5369
▁показателей	-10.5369
▁результатов	-10.537
▁егор	-10.537
▁экспертизы	-10.5371
▁металла	-10.5371
▁странице	-10.5371
▁ставрополья	-10.5371
▁дости	-10.5374
▁имущественн	-10.5378
▁статьям	-10.5378
▁реку	-10.5381
▁полномочиями	-10.5381
ойдут	-10.5381
▁тура	-10.5383
▁серьезным	-10.5384
▁ожидаются	-10.5385
▁говорить	-10.5388
▁террористическо	-10.5388
▁подчеркнули	-10.5388
▁уничтожени	-10.5391
▁мат	-10.5395
ующих	-10.5395
▁ижевск	-10.5397
▁завершены	-10.5399
▁показало	-10.54
▁причастност	-10.5401
▁реализован	-10.5401
▁запрета	-10.5402
▁индустрии	-10.5403
▁котельных	-10.5405
▁минимальный	-10.5409
▁бел	-10.5412
▁прогнозы	-10.5413
вского	-10.5414
нко	-10.5414
▁мар	-10.5418
▁гриппа	-10.5418
ству	-10.5419
▁оренбурга	-10.5419
▁допуска	-10.542
▁ограничи	-10.5424
▁июль	-10.5424
▁выиграл	-10.5424
▁направлений	-10.5425
▁раненых	-10.5427
▁срочно	-10.5428
▁территориях	-10.5429
▁воронеже	-10.5429
▁облигаций	-10.5432
▁бело	-10.5433
▁предполагается	-10.5437
▁долгов	-10.5439
ес	-10.5442
▁wi	-10.5445
▁сняли	-10.5446
▁борьбы	-10.5449
▁сдач	-10.5453
▁предъявил	-10.5453
▁дворе	-10.5456
▁аэропортов	-10.5457
▁господа	-10.5458
▁блока	-10.5459
▁подразделение	-10.5461
▁остальн	-10.5466
▁устанавливает	-10.5468
▁производить	-10.5476
▁школьн	-10.5482
▁экологически	-10.5491
▁виды	-10.5492
▁карту	-10.5492
▁хороши	-10.5495
▁ижевска	-10.5496
▁разведки	-10.5496
▁санитарно	-10.5497
▁тепла	-10.5498
▁металлически	-10.5501
▁кол	-10.5502
▁пла	-10.5507
▁выдачи	-10.551
▁эко	-10.5512
▁тренер	-10.5515
▁потребительски	-10.5517
фф	-10.5517
▁любы	-10.5519
▁регулятора	-10.552
▁формирования	-10.5523
▁специальн	-10.5524
▁кредитам	-10.5524
ing	-10.553
▁минувши	-10.553
▁ге	-10.5543
▁содержание	-10.5546
▁стр	-10.5554
▁окончательно	-10.5558
▁покупки	-10.5558
▁фк	-10.5561
▁разместил	-10.5561
▁московском	-10.5562
▁сервисы	-10.5563
▁заявлений	-10.5573
▁согласил	-10.5576
▁внешне	-10.5581
▁дагестане	-10.5588
▁успешны	-10.5593
▁представили	-10.5594
▁горени	-10.5599
яна	-10.5602
▁устойчив	-10.5602
овали	-10.5604
▁пассажирски	-10.5604
▁la	-10.5612
▁занимала	-10.5624
дает	-10.5625
ща	-10.5629
▁темы	-10.5636
▁сух	-10.564
▁памятника	-10.5641
▁отда	-10.5642
▁сел	-10.5662
▁сохранил	-10.5662
▁расчета	-10.5666
▁современн	-10.5667
▁предприятием	-10.5669
▁возникл	-10.567
рован	-10.5671
▁основатель	-10.5671
▁договору	-10.5674
▁количества	-10.5675
ид	-10.5682
▁тест	-10.5685
▁риски	-10.5696
▁кандидата	-10.5707
▁последних	-10.5708
▁формате	-10.571
овых	-10.5714
▁водой	-10.572
▁русск	-10.572
▁игру	-10.5722
▁хан	-10.5729
▁гол	-10.5748
▁красноярске	-10.5759
▁sa	-10.5761
▁признание	-10.5769
инского	-10.5779
▁вторы	-10.578
▁заработн	-10.5781
▁признани	-10.5787
▁тверды	-10.5809
▁уполномоченн	-10.5813
▁воде	-10.582
▁бесед	-10.5822
▁подсудим	-10.5824
ана	-10.5828
лон	-10.5828
▁самар	-10.5832
нк	-10.5835
прежнем	-10.5836
▁юрлица	-10.5838
▁реформ	-10.5844
▁am	-10.5846
▁село	-10.585
▁сигнала	-10.5865
▁седьмо	-10.5892
ью	-10.59
un	-10.5901
▁взрыва	-10.5901
енной	-10.5916
▁владельце	-10.5918
ющей	-10.5924
▁краж	-10.5924
▁располагает	-10.5927
▁аварийны	-10.5928
▁клинически	-10.5939
тель	-10.5939
▁асфальт	-10.5945
лей	-10.595
▁предпринимател	-10.5951
▁коллег	-10.5955
▁уровнем	-10.5956
▁маршруте	-10.5957
▁арестован	-10.5958
▁самовольно	-10.596
▁бор	-10.5962
▁управля	-10.5966
▁запрещенно	-10.5974
▁производственно	-10.5982
▁полос	-10.5984
▁потенциальны	-10.6
▁работника	-10.6008
ехать	-10.6009
▁краевом	-10.6013
▁правилам	-10.6024
▁резервно	-10.6026
▁юрлиц	-10.6031
▁b	-10.6033
▁уточнила	-10.6033
▁квадрат	-10.6038
▁британск	-10.6039
▁глобальны	-10.6052
▁технологически	-10.6054
▁пер	-10.6063
▁стандарт	-10.6066
чков	-10.6074
vi	-10.6076
▁льготн	-10.6086
долго	-10.6087
▁назначени	-10.6091
▁политическ	-10.6092
кпрф	-10.6093
▁вес	-10.6096
▁бирже	-10.6098
▁самом	-10.6098
руководителя	-10.6103
▁морск	-10.6108
▁наступлени	-10.6109
▁захват	-10.6121
ступает	-10.6127
▁созыв	-10.6145
▁поступ	-10.6148
▁получен	-10.615
▁навык	-10.6152
▁уменьши	-10.6158
▁информ	-10.6159
▁приговора	-10.6165
▁аналитическ	-10.6166
▁предложенны	-10.6169
▁пытал	-10.617
▁рекламны	-10.6177
▁увеличит	-10.6179
▁усилия	-10.6179
▁двор	-10.6181
суд	-10.6184
▁чиновника	-10.6185
▁эвакуировали	-10.6201
▁работающи	-10.6208
▁пояснила	-10.6217
▁встретить	-10.6228
▁титул	-10.6232
▁посеща	-10.624
▁возмести	-10.624
▁эпизод	-10.6243
ряд	-10.6244
▁ипотечны	-10.6249
▁знаком	-10.6252
▁акт	-10.6258
▁ваш	-10.6258
▁сз	-10.6259
▁средне	-10.626
▁добыч	-10.6275
▁индивидуальн	-10.6279
▁процедур	-10.628
▁аналогичном	-10.6294
▁низко	-10.6294
▁лидера	-10.6308
▁способствова	-10.6312
▁гостиничны	-10.6313
▁рассмотрени	-10.6314
re	-10.6317
елены	-10.6323
▁вторично	-10.6327
▁коп	-10.6328
th	-10.6329
▁запис	-10.6333
▁боликов	-10.6333
▁пятер	-10.6337
▁хоккейн	-10.6337
▁делегаци	-10.6347
овая	-10.6353
нок	-10.6354
▁объясняет	-10.636
▁спорт	-10.6367
▁могу	-10.6368
▁сложи	-10.6368
▁уголовны	-10.637
▁школьник	-10.637
тер	-10.6375
магазина	-10.6379
ющие	-10.6393
зов	-10.6395
▁диалог	-10.6397
▁яшин	-10.6397
▁коэффициент	-10.6405
▁готовност	-10.6413
▁сильне	-10.6415
▁ваканси	-10.6415
банка	-10.6424
▁сбер	-10.6432
at	-10.6437
▁речно	-10.6445
▁анализ	-10.6445
▁облачн	-10.6446
▁службу	-10.6459
▁реальн	-10.6465
▁поступили	-10.6466
дин	-10.6474
os	-10.6475
▁рубля	-10.6476
▁плановы	-10.6479
▁сан	-10.6484
▁кл	-10.6485
▁эр	-10.6487
▁номинаци	-10.6489
▁t	-10.6494
▁третьи	-10.6494
▁элемент	-10.6499
▁наград	-10.65
▁ссыл	-10.6508
▁шайб	-10.6509
ческой	-10.6511
▁билет	-10.6511
▁верси	-10.6516
▁соревновани	-10.6518
▁хранени	-10.6519
▁коми	-10.6522
вать	-10.6522
льд	-10.6523
▁спецслужб	-10.6527
▁умер	-10.6528
ывать	-10.6531
▁ранены	-10.6537
▁заказчик	-10.6539
▁убийства	-10.654
▁прокат	-10.654
▁поручени	-10.6541
▁избранны	-10.6543
▁установ	-10.6543
▁станов	-10.6545
▁смартфон	-10.6548
▁тольятти	-10.6549
▁хищник	-10.6551
▁сосед	-10.6554
▁обломк	-10.6556
▁генерал	-10.656
▁одобрен	-10.6561
ему	-10.6565
▁получив	-10.6566
бежал	-10.6572
▁сара	-10.6573
▁подчеркнула	-10.6574
▁трои	-10.6576
▁лифт	-10.6578
удмуртия	-10.6578
▁альфа	-10.6578
▁вадим	-10.6578
▁запущен	-10.6578
▁пакистан	-10.6578
бейкер	-10.6578
посадочн	-10.6578
черкесии	-10.6578
▁beers	-10.6578
▁абсолютно	-10.6578
▁ариант	-10.6578
▁архив	-10.6578
▁астрахани	-10.6578
▁волынец	-10.6578
▁заведений	-10.6578
▁злоупотреблени	-10.6578
▁индия	-10.6578
▁казаньоргсинтез	-10.6578
▁комментирует	-10.6578
▁коржилов	-10.6578
▁мертвым	-10.6578
▁минкульт	-10.6578
▁моделей	-10.6578
▁непосредственно	-10.6578
▁обсудят	-10.6578
▁означает	-10.6578
▁очаг	-10.6578
▁пенсионно	-10.6578
▁побег	-10.6578
▁подожгл	-10.6578
▁покончи	-10.6578
▁принимает	-10.6578
▁прототип	-10.6578
▁пятницу	-10.6578
▁ребенком	-10.6578
▁ровшан	-10.6578
▁саркози	-10.6578
▁сийярто	-10.6578
▁созинов	-10.6578
▁сотруднича	-10.6578
▁спецоперации	-10.6578
▁тенденци	-10.6578
▁тяжелы	-10.6578
▁уведомлени	-10.6578
▁учитывать	-10.6578
▁федотов	-10.6578
▁харьковско	-10.6578
▁хозяев	-10.6578
▁вциом	-10.6578
▁инфраструктура	-10.6578
▁кровли	-10.6578
▁мальчик	-10.6578
▁нефтян	-10.6578
▁осуществлять	-10.6578
▁последующе	-10.6578
▁почему	-10.6578
черкесск	-10.6578
▁набрал	-10.6578
▁стекла	-10.6578
табло	-10.6578
▁орви	-10.6578
▁европу	-10.6578
▁китае	-10.6578
▁мосгорсуд	-10.6578
▁перевез	-10.6578
▁судостроительн	-10.6578
▁схемы	-10.6578
▁урфу	-10.6578
▁выбрал	-10.6578
▁for	-10.6578
▁гайсин	-10.6578
▁дрозденко	-10.6578
▁вывоз	-10.6578
▁откладыва	-10.6578
▁пособи	-10.6578
▁титан	-10.6578
▁nasa	-10.6578
▁изданию	-10.6578
▁мнение	-10.6578
▁цеха	-10.6578
▁банды	-10.6578
▁демонтаж	-10.6578
▁закупа	-10.6578
▁пригрози	-10.6579
▁go	-10.6579
▁опци	-10.6579
▁оаэ	-10.6579
▁грузовиков	-10.6579
▁разлив	-10.6579
▁ложн	-10.6579
▁первышов	-10.6579
▁постепенно	-10.6579
▁сырье	-10.6579
▁орловской	-10.6579
▁собор	-10.6579
▁звания	-10.658
▁небе	-10.658
нке	-10.658
▁телевидени	-10.658
▁уступил	-10.658
▁линия	-10.658
▁изъяти	-10.6581
▁понять	-10.6581
▁верф	-10.6582
▁выяснил	-10.6582
▁бронирований	-10.6582
▁постройки	-10.6582
▁утверждают	-10.6582
▁перебоев	-10.6582
▁напоминает	-10.6582
▁фонтанка	-10.6583
▁находящи	-10.6583
▁русфонд	-10.6583
▁теплоснабжения	-10.6583
▁суммарн	-10.6584
▁сотрудникам	-10.6584
▁алле	-10.6584
▁сменил	-10.6584
▁работодателей	-10.6585
▁платят	-10.6585
▁вложения	-10.6585
▁крайне	-10.6585
▁арендатор	-10.6585
▁осмотрел	-10.6586
лева	-10.6586
▁истечени	-10.6587
▁государство	-10.6587
фсин	-10.6588
▁оборонны	-10.6588
▁серийны	-10.6588
▁определить	-10.6588
▁западный	-10.6588
▁знает	-10.6588
озной	-10.6588
лош	-10.6589
▁чудо	-10.659
▁просит	-10.659
▁сведений	-10.6591
▁актриса	-10.6591
▁водохранилища	-10.6591
▁совбеза	-10.6591
▁отмечен	-10.6592
▁эфиопии	-10.6592
▁потребители	-10.6592
▁придет	-10.6592
▁яв	-10.6593
шим	-10.6595
▁игроков	-10.6595
жд	-10.6596
▁фрагменты	-10.6597
▁консульство	-10.6597
▁почвы	-10.6597
лишк	-10.6598
▁полицейск	-10.6599
▁отказались	-10.6599
▁популярность	-10.6599
▁доверия	-10.6599
▁отдыхающих	-10.6601
▁обломков	-10.6603
▁ярославль	-10.6603
▁будущего	-10.6604
▁визы	-10.6604
▁ресурсы	-10.6605
▁завоевал	-10.6606
▁дже	-10.6606
▁нижегородск	-10.6606
▁поставщиками	-10.6607
троп	-10.6607
▁классов	-10.6609
бокс	-10.6611
▁подозревают	-10.6613
▁вывезен	-10.6613
▁заключени	-10.6614
▁противодействия	-10.6615
▁областями	-10.6615
лист	-10.6616
▁нахождения	-10.6616
эпидемиологическ	-10.6616
▁звезд	-10.6617
▁кольца	-10.6617
▁координирова	-10.6617
▁медицины	-10.6617
▁события	-10.6617
▁оказывать	-10.6617
▁росавиация	-10.6617
▁туроператор	-10.6617
▁музыкальн	-10.6617
▁закончил	-10.6618
▁усадьбы	-10.6619
▁стабильным	-10.662
▁весом	-10.6622
▁неустойки	-10.6622
▁обновления	-10.6624
▁полигоне	-10.6625
▁битв	-10.6625
▁стрел	-10.6625
▁прогнозам	-10.6626
▁возвращения	-10.6627
▁ученых	-10.6627
▁вызовов	-10.6628
▁мигрантов	-10.6628
▁следователя	-10.6629
▁московская	-10.6634
▁улучшени	-10.6635
▁обеспечительны	-10.6636
▁поступлений	-10.6636
▁новгорода	-10.6637
▁странам	-10.6638
▁коллегой	-10.6638
▁полноценно	-10.6638
▁инструментов	-10.6639
▁заболеваемости	-10.6639
▁детали	-10.664
▁прич	-10.6641
ром	-10.6641
▁инженеры	-10.6642
▁проводили	-10.6642
▁штаты	-10.6645
▁полосу	-10.6646
▁подвал	-10.6646
▁мусора	-10.6647
▁взаимодействия	-10.6647
▁кандидатом	-10.6647
▁грунта	-10.6648
▁повлия	-10.665
▁приводят	-10.6651
▁авторы	-10.6651
кинотеатра	-10.6651
▁фирмы	-10.6651
ката	-10.6654
▁сопровождение	-10.6655
▁лечение	-10.6655
▁штаба	-10.6656
▁подписыва	-10.6659
▁сборов	-10.6661
▁сохраняет	-10.6661
конец	-10.6662
▁телефону	-10.6663
▁конкуренции	-10.6663
▁волгограда	-10.6664
▁таможенник	-10.6665
▁несущи	-10.6666
▁вступит	-10.6667
▁нынешне	-10.6668
син	-10.6668
▁представи	-10.667
▁сохраняется	-10.6671
▁лучше	-10.6672
собрании	-10.6673
процентны	-10.6675
▁заместителей	-10.6677
▁чп	-10.6678
▁преимущественн	-10.6678
▁алкогольно	-10.668
▁турнирах	-10.668
▁языка	-10.6681
▁росстата	-10.6681
▁коридор	-10.6684
▁днр	-10.6684
▁продовольственн	-10.6684
▁производители	-10.6684
▁металлургическ	-10.6685
▁укрытие	-10.6685
▁ярославски	-10.6686
▁будущее	-10.6687
▁положения	-10.6691
▁аналогично	-10.6691
▁академическ	-10.6691
▁сервисов	-10.6696
▁жалобу	-10.6697
▁государству	-10.6701
▁принадлежал	-10.6704
▁зарплату	-10.6705
▁рогозина	-10.6705
▁дорожны	-10.6705
▁распространя	-10.6708
▁загорел	-10.671
▁качество	-10.6714
▁обсуждение	-10.6717
▁рассматривать	-10.6717
▁курская	-10.6717
▁поездки	-10.6718
▁медианн	-10.672
▁учебном	-10.6725
▁структуры	-10.6728
ацию	-10.6728
бер	-10.6729
▁пожаров	-10.6731
▁предприятиями	-10.6733
▁аварийных	-10.6734
▁фирма	-10.6735
▁сама	-10.6736
▁брать	-10.6738
▁ограничива	-10.6745
▁юга	-10.675
▁документа	-10.6751
▁коррупционны	-10.6755
▁лицам	-10.6756
▁ha	-10.6756
дон	-10.6757
▁последнее	-10.6765
▁указанны	-10.6765
ra	-10.6767
▁михайлов	-10.6768
▁признала	-10.6775
ница	-10.6775
▁стороне	-10.6776
▁военнослужащим	-10.6777
бель	-10.6783
▁зала	-10.6783
▁управляющим	-10.6785
очные	-10.6787
стат	-10.6792
дк	-10.6794
▁платежны	-10.6797
▁екатеринбургско	-10.6797
▁прод	-10.6797
▁обвинительно	-10.6802
▁завершение	-10.6803
▁определен	-10.6807
▁единственны	-10.681
▁истребителя	-10.6813
▁неза	-10.6814
▁отк	-10.6815
▁управляет	-10.6817
▁носкова	-10.682
▁представ	-10.6822
▁срзп	-10.6823
▁опубликованном	-10.6827
▁сведениям	-10.6835
▁клиентами	-10.684
▁блогера	-10.6841
▁паслера	-10.6844
бин	-10.6845
ода	-10.6848
▁знаки	-10.6857
строй	-10.6861
▁ур	-10.6866
▁науки	-10.6867
▁сына	-10.6868
▁сделан	-10.6868
▁футбольн	-10.6869
▁покупал	-10.6872
▁машина	-10.6872
▁юг	-10.6877
▁контракту	-10.6878
▁химически	-10.688
▁товара	-10.6881
▁ростова	-10.6886
▁девелопера	-10.6888
▁группе	-10.6892
▁лицами	-10.6893
енных	-10.6894
▁обрабатывающ	-10.69
овском	-10.6902
▁дизель	-10.6905
▁in	-10.6906
▁челябинска	-10.6911
▁деревня	-10.6912
▁северны	-10.6914
щут	-10.6921
▁продукта	-10.6924
▁лук	-10.6924
▁вредны	-10.6927
▁попытк	-10.693
овершеннолетнего	-10.6942
▁ци	-10.6943
▁поддержа	-10.6946
аш	-10.6964
ды	-10.6967
снять	-10.699
▁альтернативны	-10.6995
▁аукциона	-10.7009
▁дем	-10.7009
▁бизнесмена	-10.701
ающих	-10.7013
▁тему	-10.7014
▁омска	-10.7021
▁осуществление	-10.7021
▁заявка	-10.7024
▁ознакомил	-10.7029
▁пен	-10.7033
▁менеджеров	-10.7037
▁семье	-10.7037
▁тонну	-10.7037
▁намерени	-10.7039
▁усилиям	-10.704
▁желание	-10.7045
▁размера	-10.7047
▁бал	-10.7051
▁причине	-10.7054
▁александров	-10.7054
▁воронежски	-10.7054
▁бориса	-10.7057
▁цвет	-10.7063
▁принципа	-10.707
▁повышен	-10.7084
▁появ	-10.71
охране	-10.7105
▁работой	-10.7108
▁нему	-10.7108
▁наличие	-10.7109
цел	-10.7111
▁различ	-10.7112
▁население	-10.7127
▁лето	-10.7137
▁обслужива	-10.715
представительств	-10.7154
▁техническом	-10.7164
▁максима	-10.7169
▁полученно	-10.7172
▁сравнения	-10.7191
▁пилот	-10.7201
▁посредничеств	-10.7201
▁bo	-10.7203
▁рабоч	-10.7217
ении	-10.722
▁выборам	-10.7223
▁документам	-10.7239
▁логистически	-10.7241
▁расположенно	-10.7244
▁центру	-10.7249
▁губернатором	-10.7252
▁переходе	-10.7261
▁морско	-10.7273
▁ек	-10.728
нной	-10.729
▁говорили	-10.7291
▁малы	-10.7294
▁конфликте	-10.7301
▁международные	-10.7307
▁гку	-10.7309
▁включени	-10.7321
▁белы	-10.7322
▁компаниями	-10.7327
▁новост	-10.7328
▁свидетельству	-10.7335
▁заявк	-10.7344
▁гро	-10.736
▁пришли	-10.736
en	-10.7374
▁услугам	-10.7379
▁ком	-10.738
вят	-10.738
▁доказа	-10.7383
под	-10.7383
▁чу	-10.7387
▁поставлен	-10.7388
▁устойчиво	-10.7389
▁самарск	-10.7401
ii	-10.7415
▁вести	-10.7421
про	-10.7427
▁достигну	-10.7429
▁территориально	-10.7433
▁инструмент	-10.7442
▁молочн	-10.7443
щихся	-10.7446
станций	-10.7448
▁связыва	-10.7448
▁спектакле	-10.7451
▁вноси	-10.7456
ира	-10.746
▁всероссийски	-10.7461
▁разработа	-10.7468
▁вызыва	-10.7474
энергетическ	-10.7475
▁отличает	-10.7479
▁потребовала	-10.7481
хмао	-10.7483
▁необходимым	-10.7492
▁an	-10.7498
▁подписала	-10.7498
▁выдели	-10.7499
▁ареста	-10.7507
▁незаконным	-10.7511
мир	-10.7519
▁появлени	-10.752
▁точн	-10.7523
начальника	-10.7527
ящего	-10.7528
цию	-10.7528
▁стары	-10.753
стар	-10.7533
безопасности	-10.7534
июле	-10.7535
менеджеров	-10.7544
сети	-10.7545
роды	-10.755
▁сокращени	-10.7562
▁завершило	-10.7563
▁канал	-10.7574
▁единственн	-10.7575
▁справ	-10.7579
▁передан	-10.7579
хозяйственны	-10.7582
рия	-10.7591
▁лишен	-10.7593
▁выкуп	-10.7594
▁комисси	-10.7598
▁нови	-10.7611
инской	-10.7612
ники	-10.7617
▁важност	-10.7618
lt	-10.762
▁учета	-10.7625
▁выделили	-10.7625
металл	-10.763
▁фронт	-10.7637
▁принес	-10.7637
▁желани	-10.7638
крат	-10.7642
▁рубеж	-10.7645
▁продолжени	-10.7653
▁реша	-10.7658
▁мере	-10.767
стан	-10.767
росприроднадзора	-10.7675
альный	-10.7678
▁заве	-10.7683
▁аэропортам	-10.7694
овод	-10.7696
▁дорож	-10.7704
▁кир	-10.7706
▁уровн	-10.7712
▁товарны	-10.7713
чика	-10.772
▁подава	-10.7725
нь	-10.7733
▁товарн	-10.7741
▁метр	-10.7742
▁счита	-10.7742
▁рыб	-10.7742
▁эт	-10.7742
▁занима	-10.7746
▁севастопол	-10.7751
nd	-10.7751
▁значительн	-10.7754
части	-10.7759
▁расследовани	-10.7762
▁чувств	-10.7763
▁опрос	-10.7763
▁кооператив	-10.7766
▁проектах	-10.7771
▁ярославл	-10.7772
▁иркутско	-10.778
▁таганрог	-10.778
▁туалет	-10.778
an	-10.7784
▁физлиц	-10.7788
▁равн	-10.7789
▁преимуществ	-10.779
▁елен	-10.7796
▁семейны	-10.7796
▁спикера	-10.7798
▁приме	-10.7798
▁евросоюз	-10.78
▁звук	-10.78
▁прибыл	-10.7811
ции	-10.7819
▁сторон	-10.7821
▁никонов	-10.7834
тян	-10.7836
ических	-10.7839
▁мониторинг	-10.784
▁зенит	-10.7841
▁медицински	-10.7841
▁консорциум	-10.7841
▁привлеч	-10.7842
▁узна	-10.7846
▁народн	-10.785
хватил	-10.785
петербургу	-10.7853
▁спас	-10.7855
▁должностным	-10.7857
▁режиссер	-10.7858
▁требовал	-10.786
▁знакомы	-10.7871
▁эвакуирова	-10.7872
▁эстони	-10.7875
▁росте	-10.788
вает	-10.7886
▁медиа	-10.7893
▁премиальны	-10.7897
▁жел	-10.79
▁отвечающ	-10.7905
▁заболевание	-10.7908
▁случая	-10.7908
▁гарант	-10.7921
▁сельхоз	-10.7923
▁разработанны	-10.7924
▁котельны	-10.7925
▁подвес	-10.7926
▁серьезн	-10.793
▁стирк	-10.7934
знание	-10.7934
▁общежити	-10.7944
▁грант	-10.7948
▁автомат	-10.7949
▁направление	-10.7953
▁подчеркивает	-10.7956
▁восьмо	-10.7956
▁нейтральн	-10.7961
▁петро	-10.7962
▁скончал	-10.7963
▁заняли	-10.7963
▁ожидает	-10.7963
▁реализует	-10.7965
▁опрошенны	-10.7965
▁парков	-10.7966
▁отмети	-10.7967
ориентирова	-10.7969
▁запрещает	-10.7972
▁участву	-10.7974
рос	-10.7977
нимать	-10.7979
▁жизне	-10.7981
▁угрожа	-10.7984
▁недостаточно	-10.7984
▁санкция	-10.7988
▁проб	-10.7989
es	-10.7991
последстви	-10.7997
▁террорист	-10.7997
▁переработк	-10.7999
хозяйственн	-10.7999
▁тамбов	-10.8001
▁дис	-10.8002
▁техногенн	-10.8002
▁руле	-10.8003
▁технику	-10.8003
▁мод	-10.8003
▁фонтан	-10.8004
▁огромн	-10.8005
▁заряд	-10.8005
▁выплата	-10.8005
▁дешев	-10.8006
▁агро	-10.8007
▁ислентьев	-10.8007
emis	-10.8007
way	-10.8007
▁адаптиру	-10.8007
▁азербайджан	-10.8007
▁алкоголя	-10.8007
▁артамонов	-10.8007
▁баксиков	-10.8007
▁брифинге	-10.8007
▁взгляд	-10.8007
▁взяточничестве	-10.8007
▁генконсульств	-10.8007
▁гибдд	-10.8007
▁граммов	-10.8007
▁дегтярев	-10.8007
▁деклараци	-10.8007
▁джеймс	-10.8007
▁дирекци	-10.8007
▁доследственн	-10.8007
▁естественн	-10.8007
▁занятости	-10.8007
▁кабмин	-10.8007
▁киргизии	-10.8007
▁мероприятии	-10.8007
▁напитки	-10.8007
▁незначительны	-10.8007
▁отклонени	-10.8007
▁отопление	-10.8007
▁оттуда	-10.8007
▁пишут	-10.8007
▁площадок	-10.8007
▁покровительство	-10.8007
▁поправок	-10.8007
▁предупрежда	-10.8007
▁преступлений	-10.8007
▁событий	-10.8007
▁сооружения	-10.8007
▁соотношени	-10.8007
▁ставрополя	-10.8007
▁стадии	-10.8007
▁сформирован	-10.8007
▁сцене	-10.8007
▁табачн	-10.8007
▁тезис	-10.8007
▁тигром	-10.8007
▁троллейбус	-10.8007
▁турпоток	-10.8007
▁устранит	-10.8007
▁форвард	-10.8007
▁черноземья	-10.8007
▁шыхлински	-10.8007
▁юрпсо	-10.8007
▁аудио	-10.8007
▁кузбасс	-10.8007
▁пдд	-10.8007
▁развернут	-10.8007
▁сформировал	-10.8007
▁челнах	-10.8007
ненецко	-10.8007
▁вконтакте	-10.8007
▁вовсе	-10.8007
▁хартли	-10.8007
▁анталью	-10.8007
▁каникул	-10.8007
▁петропавловск	-10.8007
▁талантливы	-10.8007
▁извещени	-10.8007
▁интеллектуальн	-10.8007
▁сохранение	-10.8007
▁попов	-10.8007
▁систематически	-10.8007
▁дневно	-10.8007
▁партий	-10.8007
▁градусов	-10.8007
▁недоступны	-10.8007
▁снг	-10.8007
▁хутор	-10.8007
▁посетителей	-10.8007
▁бойко	-10.8007
▁герое	-10.8007
▁ереван	-10.8007
▁лояльности	-10.8007
▁урсул	-10.8007
▁схеме	-10.8007
▁госпрограмм	-10.8007
▁зрителей	-10.8007
▁уклони	-10.8007
▁сзфо	-10.8007
▁генсек	-10.8007
▁семер	-10.8007
▁семак	-10.8007
▁девято	-10.8007
▁обслуживанию	-10.8007
bc	-10.8008
▁существования	-10.8008
▁перечн	-10.8008
▁ввоз	-10.8008
▁коммунист	-10.8008
▁показывает	-10.8008
▁указывают	-10.8008
▁адыгеи	-10.8008
▁иноагентов	-10.8008
▁перемен	-10.8008
▁электростанции	-10.8008
▁слав	-10.8008
▁урегулировании	-10.8008
▁упомянул	-10.8008
▁неизвестные	-10.8008
▁влияния	-10.8008
▁избил	-10.8008
▁спецтехник	-10.8008
▁фильмы	-10.8008
▁by	-10.8008
▁ржд	-10.8008
▁sub	-10.8008
▁линий	-10.8009
▁автоматизаци	-10.8009
▁исправ	-10.8009
▁аренда	-10.8009
▁разбор	-10.8009
▁вырастут	-10.8009
▁брод	-10.8009
▁обороне	-10.8009
▁прочего	-10.8009
▁констатировал	-10.8009
▁пешеходов	-10.801
▁заложен	-10.801
▁добавив	-10.801
▁связям	-10.801
▁ветеринар	-10.801
of	-10.8011
▁изделия	-10.8011
▁реставрацию	-10.8011
▁поблагодарил	-10.8011
▁питание	-10.8012
▁сдал	-10.8012
▁минимизир	-10.8012
pd	-10.8012
▁серьезные	-10.8012
▁пробуд	-10.8012
▁хватает	-10.8012
▁видеонаблюдения	-10.8012
▁сбережения	-10.8012
tan	-10.8012
▁коллегам	-10.8012
▁внимания	-10.8012
▁банкротстве	-10.8012
▁футболист	-10.8013
▁каких	-10.8013
▁пенсионеров	-10.8013
▁бесцельн	-10.8013
▁ресторанов	-10.8013
▁сериал	-10.8013
▁заведения	-10.8013
▁временем	-10.8014
▁малик	-10.8014
▁пострадавший	-10.8015
▁задне	-10.8015
▁приветственны	-10.8015
▁дип	-10.8015
▁примени	-10.8015
▁новак	-10.8015
▁рассчитываем	-10.8016
▁противника	-10.8016
фтс	-10.8016
▁уверенность	-10.8016
▁учеников	-10.8016
ринг	-10.8017
▁ценности	-10.8017
▁одк	-10.8017
▁вовк	-10.8018
▁поездок	-10.8019
▁ai	-10.802
▁хозяйство	-10.802
▁производят	-10.802
▁вертолетов	-10.802
▁разместить	-10.802
жомарт	-10.8021
▁животного	-10.8021
▁армения	-10.8021
▁агрегат	-10.8022
▁всемирн	-10.8022
▁аммиака	-10.8022
▁стресса	-10.8022
▁комната	-10.8022
▁отец	-10.8022
▁юрисдикции	-10.8023
fon	-10.8023
▁путешественники	-10.8024
▁профессия	-10.8024
▁завершит	-10.8024
проче	-10.8025
хк	-10.8025
▁видно	-10.8025
▁дни	-10.8026
▁садик	-10.8026
▁страхование	-10.8027
▁стенами	-10.8027
▁галин	-10.8027
▁журналистов	-10.8028
черный	-10.8028
▁вычетов	-10.8028
▁сообществе	-10.8028
▁пензенско	-10.803
▁емкость	-10.803
▁великой	-10.803
▁пребывания	-10.8031
▁хант	-10.8031
▁выиграть	-10.8032
▁скорост	-10.8032
▁предупреждения	-10.8032
▁охлаждени	-10.8032
▁проживающи	-10.8033
▁заказа	-10.8034
▁теплов	-10.8035
▁элементов	-10.8035
▁рога	-10.8036
▁прошу	-10.8037
▁эколог	-10.8037
▁бойцов	-10.8038
▁дают	-10.8039
▁покрытие	-10.8039
▁сохранить	-10.8039
шеф	-10.804
▁текст	-10.804
▁пожарные	-10.8041
▁облдуму	-10.8043
▁взлетно	-10.8043
▁верхни	-10.8044
▁карьеру	-10.8044
▁обеспечению	-10.8044
▁двухэтажн	-10.8045
▁пушкина	-10.8047
▁организаторы	-10.8047
▁крт	-10.8047
▁анастаси	-10.8047
▁исполнительной	-10.8048
▁крупнейше	-10.8049
▁девочка	-10.8049
▁авиагавани	-10.805
▁сценарии	-10.805
▁реально	-10.8051
▁биржи	-10.8051
▁тренировки	-10.8051
▁критически	-10.8052
▁девочки	-10.8052
▁полагают	-10.8052
▁штатно	-10.8053
▁выставлен	-10.8053
▁выдано	-10.8054
▁аудиторов	-10.8054
▁протоколы	-10.8054
▁изучени	-10.8055
▁руководил	-10.8055
▁мель	-10.8057
▁платежи	-10.8058
▁ленина	-10.8059
▁помог	-10.806
▁похитил	-10.8062
▁объявлений	-10.8062
▁распространил	-10.8063
▁сессия	-10.8066
▁нападавши	-10.8067
▁основу	-10.8068
▁порыв	-10.8069
▁индексаци	-10.8069
▁переданы	-10.807
▁жертв	-10.807
▁перехвати	-10.8072
▁спецслужбы	-10.8073
▁сообщество	-10.8074
▁минпромторга	-10.8074
▁концерна	-10.8074
▁партнеров	-10.8074
▁упрощенн	-10.8075
▁квартирах	-10.8075
▁лишил	-10.8076
▁занимавш	-10.8078
▁сербии	-10.8078
▁ограничено	-10.808
▁номеров	-10.808
▁получает	-10.8081
▁продолжил	-10.8085
▁процедуру	-10.8085
▁образ	-10.8086
▁приход	-10.8087
▁камеры	-10.8089
▁республиканской	-10.8091
▁новоорск	-10.8091
берут	-10.8093
▁старшего	-10.8094
▁терапии	-10.8095
▁жк	-10.8098
гин	-10.8099
▁сервисами	-10.8104
акова	-10.8107
▁проблемой	-10.811
▁следова	-10.811
▁предоставляют	-10.8111
▁лота	-10.8112
▁экспертиз	-10.8113
▁дети	-10.8115
▁напоминаю	-10.8118
▁рисков	-10.812
▁миллион	-10.812
▁заместителями	-10.8122
▁совершенствова	-10.8122
▁парламентария	-10.8126
▁проспекту	-10.8126
▁мегафона	-10.8127
▁pol	-10.8128
▁бдипч	-10.813
▁белорусски	-10.813
▁заявля	-10.8131
▁рег	-10.8132
▁смотреть	-10.8133
нск	-10.8136
▁тюмени	-10.8138
▁взрывны	-10.8139
▁внутренних	-10.8141
▁оформление	-10.8142
ni	-10.8143
▁работам	-10.8144
▁кладов	-10.8145
▁обслуживанием	-10.8145
▁смену	-10.8145
▁нанесен	-10.8146
мп	-10.815
союза	-10.8151
бор	-10.8152
▁гнеева	-10.8154
▁цикла	-10.8156
▁увеличила	-10.8157
▁привычны	-10.8159
маш	-10.8163
▁постановки	-10.8163
▁комитетов	-10.8164
▁технологиям	-10.8165
▁системами	-10.8165
▁кемеровско	-10.817
▁библиотеки	-10.8172
▁конкретны	-10.8175
▁калининградск	-10.8178
▁называ	-10.8185
▁бак	-10.8188
▁маркетинг	-10.8189
▁увидел	-10.8189
▁опровергл	-10.8195
▁заводе	-10.8196
▁способом	-10.8196
▁узнал	-10.8198
▁слон	-10.8199
▁заводов	-10.8199
▁грузинск	-10.82
▁нагрузка	-10.82
▁использу	-10.8203
▁государством	-10.8203
▁банкет	-10.8206
▁вечера	-10.8207
▁анализа	-10.8208
▁мол	-10.8209
▁боликова	-10.8209
▁собирают	-10.821
▁попытки	-10.821
▁фнс	-10.8211
▁валово	-10.8211
▁победителя	-10.8211
▁минеральны	-10.8212
▁достижение	-10.8212
▁структуру	-10.8212
▁ft	-10.8215
вил	-10.8217
▁киров	-10.8219
▁зафиксированы	-10.8221
фт	-10.8223
▁рассмотрении	-10.8226
чески	-10.8226
▁прокуроры	-10.8233
▁ресторана	-10.8236
▁району	-10.8236
▁иль	-10.8238
дом	-10.8238
▁таганроге	-10.8239
▁туалете	-10.8239
▁установила	-10.824
▁указанно	-10.8242
▁члена	-10.8244
▁маршруту	-10.8246
▁температуры	-10.8247
▁потери	-10.8251
▁определять	-10.8251
▁голосование	-10.8254
▁длительн	-10.8254
▁метров	-10.8256
▁четвертом	-10.8257
▁техническо	-10.8258
▁комментарий	-10.8262
▁пассажирам	-10.8263
▁пропуска	-10.8264
▁стремление	-10.8266
▁предупреждение	-10.8267
▁опытом	-10.8268
ltim	-10.8272
▁вит	-10.8274
▁прочи	-10.8276
первых	-10.8282
▁ано	-10.8286
▁предоставил	-10.8286
▁мобильном	-10.8291
▁ленинском	-10.8293
▁низки	-10.8295
▁пятерк	-10.8295
▁рекомендует	-10.8301
▁контрольно	-10.8303
▁дизайна	-10.8305
▁исходя	-10.8306
▁налогам	-10.8306
▁руководи	-10.8308
▁комплексе	-10.8309
▁ответили	-10.8313
▁китайского	-10.8315
▁ювелирны	-10.8316
▁заседаниях	-10.8316
shi	-10.8322
▁сибир	-10.8322
▁платны	-10.8327
▁высокого	-10.8329
▁эпизода	-10.833
▁практика	-10.8337
▁вводит	-10.834
▁ха	-10.834
▁экономи	-10.8342
▁юлаева	-10.8344
▁отбора	-10.8344
▁персональны	-10.8348
▁акта	-10.8349
▁верн	-10.8354
▁лучшим	-10.8365
▁пляжам	-10.8367
▁гостиничн	-10.8367
▁резервны	-10.8368
▁канадск	-10.8376
▁li	-10.8378
▁корпоративн	-10.8379
▁двери	-10.8384
▁вменяет	-10.8386
▁установлени	-10.8386
▁процессы	-10.8388
▁последне	-10.8388
всего	-10.8388
▁посет	-10.8393
кратно	-10.8401
▁продолжение	-10.8422
▁морей	-10.8424
рон	-10.8426
▁аварий	-10.8432
▁победа	-10.8432
▁небольшим	-10.8433
▁планируем	-10.8436
▁пс	-10.8441
тан	-10.8442
▁границе	-10.8443
▁прода	-10.8446
упк	-10.8448
▁признанны	-10.8454
▁оказан	-10.8455
▁исследовании	-10.8464
сохран	-10.8464
▁пара	-10.8465
мут	-10.8469
▁карл	-10.8471
▁доставлен	-10.8475
▁рек	-10.8482
емых	-10.8491
▁дрона	-10.8493
оф	-10.8496
анду	-10.8497
▁продан	-10.85
▁встрети	-10.85
▁агент	-10.8504
▁предоставлении	-10.8505
зли	-10.8517
овский	-10.852
инском	-10.8522
▁техническ	-10.8525
▁делам	-10.8528
▁молдавски	-10.8529
▁домой	-10.8532
▁государственным	-10.854
▁иванов	-10.8543
▁собирал	-10.8543
▁гонконгски	-10.8548
▁появление	-10.8556
▁стара	-10.8558
ческ	-10.8559
▁установлена	-10.8571
спасательны	-10.8571
манов	-10.8574
▁реч	-10.8576
▁предел	-10.8582
▁приобретение	-10.8593
▁собственным	-10.8595
справ	-10.8598
▁терминал	-10.8599
льц	-10.8625
рика	-10.8637
▁ставрополь	-10.8643
▁препарата	-10.8651
▁справи	-10.8653
▁гб	-10.8654
▁расписание	-10.8659
▁октябрь	-10.8667
▁соперник	-10.8671
игоря	-10.8672
▁говорила	-10.8676
pi	-10.868
▁другом	-10.8682
▁мотив	-10.8682
▁канале	-10.8695
▁свидетельств	-10.8702
▁законопроекту	-10.8706
▁страной	-10.8713
зы	-10.8715
фр	-10.8716
▁туриста	-10.872
▁уральски	-10.872
▁первоначально	-10.8727
▁корпоративно	-10.8727
▁доступност	-10.8739
▁материально	-10.8741
▁безопасны	-10.8752
▁остров	-10.8759
▁проектировани	-10.8762
▁направленны	-10.8762
▁ведомств	-10.8776
▁школа	-10.8786
▁положительно	-10.8786
▁настоящ	-10.8791
▁mi	-10.8794
▁олимпийски	-10.88
▁основани	-10.8817
джи	-10.8821
▁стен	-10.883
сян	-10.8835
▁дан	-10.8837
▁бесплатн	-10.8839
ry	-10.8841
▁сложны	-10.8848
▁насчитывает	-10.8849
зм	-10.8851
▁применени	-10.8859
▁ранениям	-10.8859
▁национальном	-10.8867
цов	-10.8868
▁правительством	-10.8874
▁муниципальн	-10.8876
▁редки	-10.8876
▁фигур	-10.8882
▁подрядчика	-10.8882
▁остро	-10.8886
▁автобуса	-10.8892
▁посвященно	-10.8905
▁знаю	-10.8911
▁уголовн	-10.8914
рин	-10.8916
тельно	-10.8916
▁населени	-10.8917
емой	-10.8922
▁вуз	-10.8923
этажн	-10.8925
▁лесн	-10.8926
▁проектом	-10.8927
▁библиотек	-10.8931
▁утвержденны	-10.8932
ице	-10.8942
▁символи	-10.8944
▁кубанск	-10.8959
▁алтайско	-10.8961
▁полета	-10.8963
▁включают	-10.8975
▁зданиях	-10.898
▁обыск	-10.8983
▁прогресс	-10.8987
летнем	-10.8989
▁закупка	-10.8991
▁служит	-10.8993
иса	-10.9005
коммунально	-10.9006
▁близким	-10.9007
▁мини	-10.9015
делить	-10.9017
▁десят	-10.9017
▁син	-10.9019
▁компьютер	-10.9025
освещения	-10.9027
▁супруга	-10.9033
▁положительны	-10.904
▁дальнейшем	-10.9044
▁выделя	-10.9045
щих	-10.9063
▁аг	-10.9065
▁квартал	-10.9068
▁практик	-10.9071
▁возник	-10.9072
▁капитальны	-10.9078
▁допусти	-10.908
▁гуманитарны	-10.9085
▁собирает	-10.9089
▁молдавск	-10.909
▁инструмента	-10.9093
▁смог	-10.9095
▁производств	-10.9097
ган	-10.9106
▁произ	-10.9106
▁закрыты	-10.9113
▁тяжк	-10.9123
▁осуществлени	-10.9124
▁партнерам	-10.9126
▁заби	-10.9135
гуп	-10.9136
▁усилил	-10.9145
кажут	-10.9147
▁куйбышев	-10.9151
▁присвоен	-10.9152
▁сами	-10.9162
▁приходит	-10.9163
▁брат	-10.9165
▁разделе	-10.9169
▁пляж	-10.9172
▁лице	-10.9174
▁кос	-10.9181
▁тра	-10.9187
покушени	-10.9188
включа	-10.919
▁специализиру	-10.9191
рейс	-10.9196
систем	-10.9197
следствие	-10.9198
связи	-10.92
комитета	-10.9202
президент	-10.9202
▁террористически	-10.9205
▁массив	-10.9206
▁офисны	-10.9207
▁вылета	-10.9207
пар	-10.9212
культур	-10.9212
▁агентств	-10.9214
▁возвращени	-10.922
▁старт	-10.9222
▁аб	-10.9224
▁посетит	-10.9228
нский	-10.9229
▁муниципалитет	-10.9239
▁рассчитыва	-10.924
волга	-10.9251
строения	-10.9251
ником	-10.9253
▁регистраци	-10.9259
▁обжаловал	-10.926
▁зарегистрирова	-10.9267
▁очередн	-10.9274
▁пользовател	-10.9277
▁продвижени	-10.9278
▁ярослав	-10.9285
юсь	-10.9287
id	-10.9289
▁жестк	-10.9292
▁кубк	-10.9294
транс	-10.9296
▁объясня	-10.9298
▁офиса	-10.9307
▁подозреваем	-10.9307
▁главном	-10.9309
▁производственн	-10.9311
ович	-10.9317
▁отсутстви	-10.9321
шт	-10.9329
▁вычет	-10.9333
▁тяжело	-10.9342
▁соверш	-10.9343
▁нац	-10.9345
▁ими	-10.9346
▁хар	-10.935
▁сентябр	-10.9357
▁приказ	-10.9358
▁показател	-10.9364
▁бетон	-10.9364
▁подключени	-10.9364
▁истребител	-10.9368
лес	-10.9371
▁разрабатыва	-10.9374
▁содержани	-10.9385
▁получ	-10.939
▁сенатор	-10.9394
▁характеристик	-10.9394
льного	-10.9404
олега	-10.9408
▁книг	-10.9412
мысл	-10.9413
шир	-10.9414
▁автомобилист	-10.9415
▁технологическо	-10.9417
ga	-10.9418
▁теннисист	-10.9418
▁отц	-10.9419
▁омбудсмен	-10.9428
▁приступи	-10.9442
▁рогозин	-10.9445
▁основ	-10.9445
▁торг	-10.9446
зон	-10.9454
▁тысячи	-10.9454
▁наблюда	-10.9455
▁генпрокуратур	-10.9457
ард	-10.9463
бск	-10.9468
▁энергоблок	-10.9471
губернатора	-10.9471
▁заявлен	-10.9476
▁отдых	-10.9477
▁прекратил	-10.9483
▁нефтехим	-10.9484
▁коротко	-10.9484
▁закрыл	-10.9486
▁объединен	-10.949
▁вперед	-10.949
▁лимит	-10.9492
▁постановк	-10.9493
▁снял	-10.9496
▁разно	-10.9496
▁токаев	-10.9498
▁крест	-10.95
▁арми	-10.95
▁горсовет	-10.9501
▁гнеев	-10.9503
▁чтени	-10.9504
▁задержал	-10.9504
▁отменил	-10.9505
▁подъезд	-10.9507
шко	-10.951
▁небольши	-10.9511
▁загоре	-10.9511
▁сыгра	-10.9512
▁образов	-10.9514
▁физическо	-10.9515
▁сбалансированн	-10.9516
водились	-10.952
тельный	-10.9529
▁пу	-10.9529
▁бар	-10.9532
▁болгар	-10.9533
▁одни	-10.9536
▁устроил	-10.9536
▁интересов	-10.9536
▁нарушител	-10.9542
▁логистик	-10.9545
▁заменит	-10.9551
▁исполнитель	-10.9556
▁пром	-10.9557
▁цикл	-10.9561
▁сфера	-10.9562
▁павл	-10.9562
ину	-10.9565
бд	-10.9567
тельным	-10.9567
▁охот	-10.9574
▁журналист	-10.9575
вском	-10.9576
▁израиль	-10.9582
▁расследова	-10.9586
▁утро	-10.9586
▁тариф	-10.9587
▁бан	-10.9599
▁эк	-10.9603
▁обеспечени	-10.9604
▁огромно	-10.9607
▁профил	-10.9612
▁повод	-10.9613
▁координаци	-10.9617
▁протокол	-10.9618
▁усадьб	-10.9618
▁выясняют	-10.9623
▁выясняет	-10.9625
▁силе	-10.9626
▁показани	-10.9627
▁повтор	-10.9627
▁честь	-10.9627
иноагент	-10.9635
▁итогов	-10.9637
логистическ	-10.9642
▁букмекер	-10.9644
▁генератор	-10.9647
▁разработчик	-10.9648
▁жильц	-10.9652
▁учрежден	-10.9653
уфа	-10.9655
▁объединения	-10.9656
br	-10.9659
вшем	-10.966
▁петербургски	-10.966
участниц	-10.9661
▁девуш	-10.9662
▁свидетел	-10.9663
▁склон	-10.9664
чные	-10.9665
▁подчинен	-10.9668
▁понедельник	-10.9669
▁концесси	-10.967
бык	-10.9671
▁чуваш	-10.9671
рского	-10.9672
▁номинал	-10.9672
▁популярност	-10.9672
гвардии	-10.9673
▁компенс	-10.9673
▁стамбул	-10.9673
cial	-10.9673
дисциплин	-10.9673
спбгикит	-10.9674
▁tecno	-10.9674
▁буксир	-10.9674
▁кудрявцев	-10.9674
▁ландшафт	-10.9674
▁непрерывно	-10.9674
▁природоохранн	-10.9674
ach	-10.9674
конгресс	-10.9674
мансийско	-10.9674
фнпр	-10.9674
▁cnn	-10.9674
▁covid	-10.9674
▁pioneer	-10.9674
▁wta	-10.9674
▁аккаунт	-10.9674
▁армянско	-10.9674
▁бадранов	-10.9674
▁батареи	-10.9674
▁безусловно	-10.9674
▁ботсваны	-10.9674
▁браслет	-10.9674
▁бумаг	-10.9674
▁бурлачко	-10.9674
▁варьирова	-10.9674
▁виноградов	-10.9674
▁внимательн	-10.9674
▁вообще	-10.9674
▁выгляд	-10.9674
▁госзакупк	-10.9674
▁григорьев	-10.9674
▁джетленд	-10.9674
▁дзюдо	-10.9674
▁добровольно	-10.9674
▁домовладени	-10.9674
▁егрюл	-10.9674
▁заболевания	-10.9674
▁заморозк	-10.9674
▁избега	-10.9674
▁каждая	-10.9674
▁кластер	-10.9674
▁коммуникаций	-10.9674
▁конвенци	-10.9674
▁консолидированн	-10.9674
▁контекст	-10.9674
▁континентальн	-10.9674
▁концентраци	-10.9674
▁коттедж	-10.9674
▁кровообращения	-10.9674
▁кузяев	-10.9674
▁курджипс	-10.9674
▁лихачев	-10.9674
▁меридиан	-10.9674
▁накоплени	-10.9674
▁налади	-10.9674
▁наложил	-10.9674
▁ненависти	-10.9674
▁нефтеюганска	-10.9674
▁ноябрь	-10.9674
▁овощей	-10.9674
▁орудие	-10.9674
▁осенне	-10.9674
▁отпустили	-10.9674
▁отраслей	-10.9674
▁отслежива	-10.9674
▁павильон	-10.9674
▁подготовлен	-10.9674
▁поднимется	-10.9674
▁подросток	-10.9674
▁подчеркивают	-10.9674
▁полузащитник	-10.9674
▁популяризаци	-10.9674
▁попытал	-10.9674
▁поражение	-10.9674
▁прибывши	-10.9674
▁расположи	-10.9674
▁рыльский	-10.9674
▁секунды	-10.9674
▁сертификат	-10.9674
▁соболя	-10.9674
▁солтановский	-10.9674
▁сообщению	-10.9674
▁сооружений	-10.9674
▁спектр	-10.9674
▁счастье	-10.9674
▁съехал	-10.9674
▁сыворотк	-10.9674
▁телескоп	-10.9674
▁устранены	-10.9674
▁фенев	-10.9674
▁формы	-10.9674
▁церкви	-10.9674
▁цимлянск	-10.9674
▁черемушки	-10.9674
▁юртаев	-10.9674
изыскательски	-10.9674
▁возникновени	-10.9674
▁егэ	-10.9674
▁изменить	-10.9674
▁медведя	-10.9674
▁отразил	-10.9674
▁постановил	-10.9674
▁родители	-10.9674
▁форму	-10.9674
▁бутик	-10.9674
▁мясниковск	-10.9674
▁обогащения	-10.9674
▁петергоф	-10.9674
▁ресурсоснабжающ	-10.9674
▁прикамья	-10.9674
▁свеж	-10.9674
▁мощностей	-10.9674
▁esg	-10.9674
▁самодельн	-10.9674
▁африк	-10.9674
▁дальнейши	-10.9674
▁семян	-10.9674
▁golden	-10.9674
▁жидкостью	-10.9674
▁приватизации	-10.9674
▁терентьев	-10.9674
▁учитывают	-10.9674
▁патрон	-10.9674
▁учителей	-10.9674
▁общепит	-10.9674
▁банкнот	-10.9674
▁будович	-10.9674
▁избиени	-10.9674
▁происходяще	-10.9674
▁продолжающе	-10.9674
▁shot	-10.9674
▁власть	-10.9674
▁комсомольск	-10.9674
bit	-10.9674
▁расследует	-10.9674
▁маркса	-10.9674
▁теракт	-10.9674
▁гибель	-10.9674
▁прояснениями	-10.9674
viii	-10.9674
▁госуслуг	-10.9674
▁возникает	-10.9674
▁найма	-10.9674
▁своевременно	-10.9674
▁перекрыто	-10.9674
▁банкротом	-10.9674
orion	-10.9674
▁амур	-10.9674
▁базковск	-10.9674
▁саммит	-10.9674
▁слабее	-10.9674
▁луганск	-10.9674
▁тактик	-10.9674
▁шелков	-10.9674
▁канатн	-10.9674
▁петер	-10.9674
▁грузовика	-10.9674
▁драм	-10.9674
▁воздержа	-10.9674
▁перечисли	-10.9675
▁двигателями	-10.9675
▁драйвер	-10.9675
▁обрушени	-10.9675
▁избирателей	-10.9675
▁почты	-10.9675
▁баграм	-10.9675
▁азат	-10.9675
▁икон	-10.9675
▁авиасообщение	-10.9675
▁приложении	-10.9675
▁контр	-10.9675
▁урегулирование	-10.9675
▁техника	-10.9675
▁установку	-10.9676
повар	-10.9676
▁поселения	-10.9676
▁rt	-10.9676
▁газете	-10.9676
▁германии	-10.9676
▁вошла	-10.9676
▁генпрокурор	-10.9676
▁пьянов	-10.9676
▁доложить	-10.9676
▁упаковки	-10.9676
▁реальности	-10.9676
▁случилось	-10.9676
▁нефтехимик	-10.9677
▁изображение	-10.9677
▁сельски	-10.9677
▁наложен	-10.9677
▁факторами	-10.9677
▁поселений	-10.9677
▁присутствовал	-10.9677
▁гарантия	-10.9677
▁iii	-10.9677
can	-10.9677
▁очередности	-10.9678
▁рейд	-10.9678
mod	-10.9678
▁временный	-10.9678
▁изъяты	-10.9678
▁масло	-10.9678
язев	-10.9678
цед	-10.9678
▁фильма	-10.9679
▁слюсарь	-10.9679
▁продолжать	-10.9679
▁оформления	-10.9679
▁татарский	-10.9679
▁лекарства	-10.9679
▁бул	-10.968
▁посла	-10.968
▁муп	-10.968
▁функционируют	-10.968
молчан	-10.968
▁надежность	-10.968
▁mc	-10.968
▁подста	-10.968
▁востоке	-10.968
▁волонтеров	-10.968
▁фейков	-10.968
▁шишкин	-10.9681
▁пережи	-10.9681
▁бед	-10.9681
ологи	-10.9681
пользование	-10.9682
▁далер	-10.9682
▁ахмед	-10.9682
▁собрание	-10.9682
▁волод	-10.9683
▁теплосет	-10.9683
▁личность	-10.9683
▁исключил	-10.9683
▁подготовить	-10.9683
▁быстрее	-10.9684
▁стоил	-10.9684
камчатском	-10.9684
▁понимает	-10.9684
▁имеющих	-10.9684
▁показателем	-10.9684
▁согласиться	-10.9684
▁джим	-10.9685
▁долларов	-10.9685
▁критиковал	-10.9685
▁рынком	-10.9686
▁стабильность	-10.9687
▁паркер	-10.9688
▁кольцово	-10.9689
▁волонтеры	-10.9689
▁традициям	-10.9689
▁филиппов	-10.9689
▁выполнять	-10.969
▁другое	-10.9691
▁приостанавливал	-10.9691
▁отравления	-10.9691
▁замени	-10.9691
▁отечества	-10.9691
▁жилищны	-10.9691
▁указывает	-10.9691
▁минздрава	-10.9692
▁югры	-10.9692
▁комедии	-10.9692
▁великобритании	-10.9692
▁карточк	-10.9693
▁облигации	-10.9693
строителей	-10.9693
▁девочку	-10.9693
▁рынку	-10.9693
▁пересмотр	-10.9693
▁ночей	-10.9693
▁пределами	-10.9694
нный	-10.9696
▁конфисковал	-10.9696
▁сути	-10.9697
▁рассчитывает	-10.9697
▁прив	-10.9697
▁очереди	-10.9698
▁круглого	-10.9699
трек	-10.97
▁bren	-10.97
▁активист	-10.9701
▁заданию	-10.9701
▁свидетельствует	-10.9702
▁воздействия	-10.9702
▁одержал	-10.9703
ческий	-10.9703
заповедник	-10.9705
снабжения	-10.9706
▁смягчени	-10.9706
нежило	-10.9708
руга	-10.9709
▁обман	-10.971
▁пароходство	-10.971
▁бриллиантов	-10.9711
▁продавц	-10.9711
▁карьеры	-10.9711
▁шестер	-10.9713
ительного	-10.9714
снабжение	-10.9714
▁конкурентны	-10.9714
▁штатов	-10.9714
▁продуктами	-10.9714
▁похищени	-10.9716
▁освободи	-10.9716
подбор	-10.9717
▁договоренности	-10.9718
▁разрушения	-10.9718
▁балицкий	-10.9722
▁мозга	-10.9722
сек	-10.9722
▁достигнуты	-10.9723
▁профессий	-10.9723
▁энгельса	-10.9723
ложен	-10.9723
цар	-10.9724
▁методологии	-10.9725
▁бронз	-10.9725
▁говорю	-10.9727
▁бутыл	-10.9727
▁uefa	-10.9727
▁информацией	-10.9727
▁убыток	-10.9727
▁флота	-10.9727
▁fashion	-10.9727
▁свжд	-10.9727
▁рынки	-10.9727
▁нпз	-10.9728
▁перенесен	-10.9729
▁отменены	-10.9729
гуфссп	-10.973
▁выполняться	-10.973
▁предстоящем	-10.973
▁водоканал	-10.973
▁проник	-10.973
▁потребления	-10.973
▁принесли	-10.973
▁растительн	-10.973
▁дипломатов	-10.973
▁сенаторы	-10.9732
▁презентаци	-10.9732
▁продать	-10.9732
▁обследования	-10.9733
▁пересекал	-10.9733
▁угля	-10.9733
▁привлекательн	-10.9734
▁прилегающе	-10.9735
▁привлечение	-10.9736
▁сообщник	-10.9737
▁отсутствия	-10.9738
действительности	-10.9739
▁употреблени	-10.9739
▁операцию	-10.974
▁закрытия	-10.9741
▁врачам	-10.9741
▁сф	-10.9742
▁последствиями	-10.9742
▁семенов	-10.9742
▁оск	-10.9743
иртышско	-10.9744
▁предло	-10.9746
▁операторов	-10.9747
▁ускорени	-10.9747
▁косн	-10.9748
▁организациями	-10.9752
▁перц	-10.9753
▁экспертизу	-10.9753
▁заинтересованн	-10.9753
▁разрешен	-10.9753
▁байдена	-10.9754
▁прописан	-10.9755
▁кац	-10.9756
ойдет	-10.9757
▁устранению	-10.9757
▁соревнования	-10.9758
▁наркотики	-10.9759
▁бизнесменов	-10.9759
низ	-10.9759
▁совещании	-10.9759
▁удмуртско	-10.9759
▁транспортировки	-10.9761
▁попытку	-10.9762
▁менеджера	-10.9763
▁инвесторы	-10.9763
кор	-10.9764
▁участвующи	-10.9765
▁неизвестно	-10.9766
▁каком	-10.9766
▁башкирск	-10.9766
▁уверены	-10.9767
▁часы	-10.9767
▁трасса	-10.9767
▁нейтральным	-10.9768
интеграция	-10.9768
▁sta	-10.9769
▁общим	-10.9771
кан	-10.9772
▁службами	-10.9772
▁допустим	-10.9773
▁обладающи	-10.9777
▁готовящи	-10.9777
▁дежурны	-10.9778
▁доходность	-10.9778
▁тюрьме	-10.978
▁мобильного	-10.978
▁касающи	-10.9781
кив	-10.9784
▁вариантов	-10.9785
▁миронова	-10.9785
▁болтона	-10.9785
▁пароходства	-10.9786
▁хищения	-10.9786
▁обре	-10.9787
▁парижско	-10.9787
▁прорыв	-10.9791
мрот	-10.9791
▁присоединил	-10.9794
▁автоматизирован	-10.9796
▁обь	-10.9797
▁минь	-10.9798
▁широко	-10.9798
▁думать	-10.9799
▁платы	-10.98
▁колледжа	-10.98
▁поворота	-10.9801
падают	-10.9804
▁прибытие	-10.9805
▁парламентски	-10.9806
▁планет	-10.9809
▁рассчитывают	-10.981
▁мух	-10.981
▁бюджетной	-10.981
фз	-10.9812
▁заметны	-10.9813
▁приоритетом	-10.9813
▁платежа	-10.9814
▁код	-10.9815
эль	-10.9816
▁местным	-10.9818
▁исковы	-10.9819
▁аэро	-10.9821
▁психиатрическ	-10.9821
▁солнечн	-10.9821
йорка	-10.9821
▁плату	-10.9822
▁ti	-10.9822
▁кронштадте	-10.9823
▁дарь	-10.9824
▁сотрудничестве	-10.9826
▁обстановки	-10.9826
▁стабилизаци	-10.9827
▁утверждается	-10.9828
▁страхования	-10.9829
▁отличил	-10.9829
▁динамике	-10.983
▁поднебесн	-10.9833
▁предприятии	-10.9833
сбалансированный	-10.9834
▁большинстве	-10.9834
▁многодетны	-10.9837
▁рязанск	-10.9838
▁сыграл	-10.9838
▁газон	-10.984
▁призван	-10.9848
▁горсовета	-10.985
▁настаивал	-10.9851
▁даниил	-10.9853
югра	-10.9854
▁помогут	-10.9855
▁умеренны	-10.986
▁впереди	-10.9861
▁сохранит	-10.9861
▁помещение	-10.9862
▁применять	-10.9865
здо	-10.9866
▁приоритеты	-10.9867
▁исход	-10.9867
▁комнате	-10.987
▁климата	-10.9873
▁государственном	-10.9876
▁никонова	-10.9882
▁оснований	-10.9882
▁рт	-10.9885
▁контрактов	-10.9886
▁вражески	-10.9892
том	-10.9894
рева	-10.9896
▁применяют	-10.9896
▁уч	-10.9898
▁многом	-10.9898
▁представит	-10.9898
▁площадках	-10.9899
▁адресу	-10.99
▁получателе	-10.9902
▁потратил	-10.9904
▁коэффициента	-10.9914
▁полковник	-10.9918
инга	-10.992
▁библиотеке	-10.9921
▁украину	-10.9924
кавказском	-10.9926
▁судим	-10.9927
▁спора	-10.9928
▁угл	-10.9931
▁происшествие	-10.9933
▁разной	-10.9934
эм	-10.9942
▁тамбове	-10.9945
▁центробанка	-10.9947
▁датски	-10.9949
▁выдал	-10.9953
▁велики	-10.9955
▁реализовал	-10.9958
▁назначи	-10.9959
▁прокомментирова	-10.9959
▁поездк	-10.996
▁заксобрании	-10.9966
▁личных	-10.9967
▁ум	-10.9971
▁бесплатный	-10.9979
▁гостевы	-10.9979
▁разрабатывает	-10.9982
ur	-10.9986
ьного	-10.999
▁управляющих	-10.999
▁игров	-10.9991
▁районами	-10.9992
▁выделенны	-10.9996
▁обработки	-10.9999
▁гар	-10.9999
▁повестки	-11.0001
▁называл	-11.0002
▁размещени	-11.0002
▁льговско	-11.0003
▁маркетплейса	-11.0008
▁водител	-11.0012
▁качественно	-11.0013
▁ндфл	-11.0016
▁работники	-11.002
▁театральны	-11.0022
зем	-11.0023
уви	-11.0025
▁показала	-11.0028
▁волн	-11.0034
▁перевозки	-11.0034
▁татарстану	-11.0039
ивать	-11.0039
▁руки	-11.0039
▁укрыв	-11.0041
шь	-11.0042
▁запасы	-11.0044
▁традиционны	-11.0045
▁комбината	-11.0045
▁способствовал	-11.0049
▁карантинны	-11.0054
▁решат	-11.0061
▁оценка	-11.0062
▁иски	-11.0065
опт	-11.0067
▁лицензии	-11.0069
▁жестко	-11.007
▁прояви	-11.0071
▁нашим	-11.0071
▁художественны	-11.0072
▁имел	-11.0074
▁выстрели	-11.0076
▁супруг	-11.0077
▁обмена	-11.0078
▁приходили	-11.0083
▁контракты	-11.0086
▁западно	-11.0086
▁южны	-11.0088
ia	-11.0089
ших	-11.0096
▁закрыти	-11.0096
▁неки	-11.0097
▁странах	-11.0099
▁добыче	-11.0102
имон	-11.0104
▁концепции	-11.0104
▁широки	-11.0109
▁платить	-11.0109
роде	-11.0109
▁игрок	-11.0114
▁корпоративны	-11.0115
▁повторное	-11.0119
▁патри	-11.012
▁иркутска	-11.0124
▁конкурсно	-11.0124
▁грузи	-11.0126
▁красноуфимске	-11.0128
▁обеспечив	-11.0141
▁защитника	-11.0146
▁ужасн	-11.015
▁старту	-11.0153
▁профессиональн	-11.0154
▁рам	-11.016
чих	-11.0165
▁ap	-11.0166
▁считается	-11.0167
▁ленинградск	-11.0169
аренд	-11.0172
▁науке	-11.0181
▁станциям	-11.0183
▁уст	-11.0189
▁квалифицирован	-11.0191
▁месяцы	-11.0191
▁юф	-11.0193
▁красноярска	-11.0193
вакцины	-11.02
ческого	-11.0201
▁перевозчика	-11.0203
▁выполнял	-11.0205
намеренно	-11.0206
слан	-11.0206
▁включение	-11.021
раст	-11.0215
▁пода	-11.0218
▁присвоени	-11.0224
▁отменен	-11.0229
▁сообщи	-11.0232
▁комплексы	-11.0236
▁отправи	-11.0244
▁возвращение	-11.0249
▁последовательно	-11.0255
▁разговоре	-11.0261
▁ni	-11.027
▁pa	-11.0275
вных	-11.0281
▁квартиру	-11.0284
▁нормам	-11.0285
▁распределен	-11.0288
▁курортн	-11.0293
▁адмирал	-11.0295
носить	-11.0296
▁стандартно	-11.0303
▁головно	-11.0313
кф	-11.0313
▁установление	-11.0315
▁столкнул	-11.0319
▁взятк	-11.0321
▁пород	-11.0324
вк	-11.033
▁ii	-11.033
▁выявлени	-11.0331
▁учредителе	-11.0337
▁выделят	-11.034
▁эксперта	-11.034
ber	-11.0346
▁готовят	-11.0349
▁управлял	-11.035
▁лицом	-11.0353
▁скор	-11.0355
нки	-11.0356
▁зависи	-11.0366
▁энергетически	-11.0371
▁лицо	-11.0376
▁причинам	-11.0378
▁гал	-11.0379
cl	-11.0383
▁конкурсе	-11.0385
▁призов	-11.0398
▁служ	-11.0398
этажны	-11.0401
▁рассмотрен	-11.0402
▁дополнительное	-11.0408
▁канала	-11.0411
▁престиж	-11.0411
▁ограничил	-11.0413
▁минувше	-11.0414
▁задат	-11.0416
▁железнодорожн	-11.0417
▁статьи	-11.0418
▁техническим	-11.0429
▁важный	-11.0432
▁повлиял	-11.0442
▁подобн	-11.0447
▁собрали	-11.0448
▁исламск	-11.0449
выезде	-11.045
▁госдуме	-11.0453
▁министерств	-11.0454
▁квадратны	-11.046
▁стена	-11.0462
ительной	-11.0476
скому	-11.048
▁финляндск	-11.0484
кавказск	-11.0491
▁минувш	-11.0502
▁холодн	-11.0502
нер	-11.0507
▁глобальн	-11.0513
мана	-11.0514
▁турнира	-11.0516
илось	-11.0523
▁утверждал	-11.0523
▁правильн	-11.0524
▁вопроса	-11.0526
▁британски	-11.0529
▁черно	-11.0541
▁клиента	-11.0545
▁парке	-11.0548
▁кат	-11.0561
▁падени	-11.0563
▁сменит	-11.0564
▁мусорн	-11.0568
▁наде	-11.057
▁насчитыва	-11.0573
▁крымски	-11.0596
асе	-11.06
сб	-11.0614
▁формата	-11.062
▁госсовете	-11.0628
▁сухо	-11.0642
▁модульны	-11.0643
▁скоро	-11.0645
вой	-11.0645
хранилищам	-11.0646
паспорта	-11.0648
▁наход	-11.0652
▁краем	-11.0652
▁розничн	-11.0653
▁ho	-11.0654
уже	-11.0658
▁звуча	-11.0661
чья	-11.0666
▁финансовом	-11.0667
▁коз	-11.0674
▁би	-11.0682
евой	-11.0689
▁брачны	-11.0697
▁избирает	-11.0703
▁привлек	-11.0703
▁совершение	-11.071
ально	-11.0722
▁колес	-11.0724
▁выдан	-11.0728
ложения	-11.0736
вин	-11.074
▁магатэ	-11.0743
▁формирует	-11.0744
▁трампом	-11.0749
▁острова	-11.0761
▁привлеченны	-11.0763
▁раскрыва	-11.0769
звонить	-11.0778
лок	-11.0792
▁налоги	-11.0793
над	-11.0799
▁мерам	-11.0799
носил	-11.0805
▁сообщала	-11.0806
ких	-11.0809
▁действующим	-11.0816
▁молодежн	-11.0819
▁полномоч	-11.0831
▁бре	-11.0834
▁очередном	-11.0838
▁календарн	-11.0845
▁изменени	-11.0854
▁изучи	-11.086
стью	-11.0863
▁обоснованн	-11.0866
▁трехлетне	-11.0874
▁ши	-11.088
▁июлем	-11.0881
▁ленинград	-11.0882
своему	-11.0886
ейской	-11.089
ожд	-11.0892
▁уменьшени	-11.0904
▁принцип	-11.0905
▁последним	-11.0932
▁нужд	-11.0937
▁вызва	-11.0952
▁призовы	-11.0954
оставление	-11.0956
▁вакцин	-11.0958
▁проверит	-11.0964
▁черномор	-11.0983
▁консультаци	-11.0986
▁человеком	-11.0992
▁дворов	-11.1006
▁задержива	-11.101
▁итальянск	-11.101
ьян	-11.101
▁возвращен	-11.1018
кб	-11.1024
▁станция	-11.1025
▁теплоснабжающи	-11.1026
▁знака	-11.1027
▁воль	-11.1028
▁азов	-11.1028
▁широк	-11.1032
▁предприяти	-11.1033
▁выручки	-11.1035
▁and	-11.1044
▁выпускник	-11.1052
▁наибольш	-11.1059
▁энергетик	-11.1059
▁валют	-11.106
▁удержива	-11.106
▁противо	-11.1066
альных	-11.1071
▁обсуждали	-11.1077
▁открыва	-11.1079
▁перспектив	-11.1093
▁искусств	-11.1094
сон	-11.11
▁относи	-11.1111
▁нар	-11.1115
тур	-11.1117
буд	-11.1121
коммуникационн	-11.1124
компания	-11.1125
▁госконтракт	-11.113
умышленно	-11.1131
▁конкурсны	-11.1136
▁сумм	-11.1138
▁дли	-11.1139
заде	-11.114
ute	-11.1141
▁обновлени	-11.1142
▁муниципальным	-11.1143
редко	-11.1148
▁игрока	-11.1149
▁оправда	-11.1149
▁размеща	-11.1156
▁зав	-11.1158
теракт	-11.116
▁обрабатыва	-11.116
двери	-11.1166
ун	-11.117
▁ракетны	-11.1171
там	-11.1171
нева	-11.1175
позиции	-11.1177
▁москв	-11.1177
нят	-11.1179
групп	-11.118
yb	-11.1182
принадлеж	-11.1184
la	-11.1185
▁распространи	-11.1186
владе	-11.1189
▁ше	-11.1191
спбгуп	-11.1192
оборудования	-11.1195
строительн	-11.1195
строят	-11.1196
сентябре	-11.1196
▁запреща	-11.1198
новороссийск	-11.1199
▁комнат	-11.12
проект	-11.1201
часа	-11.1203
▁реализова	-11.1205
▁возмож	-11.1206
иков	-11.1206
спорт	-11.1206
co	-11.1208
▁первично	-11.121
▁показателям	-11.121
▁космически	-11.1211
▁yan	-11.1212
носит	-11.1215
оба	-11.1216
ty	-11.1224
▁небольш	-11.1226
ованно	-11.1226
▁организатор	-11.1232
▁межрайонн	-11.1235
▁соответствующим	-11.1236
▁плав	-11.1243
▁существенны	-11.1247
енность	-11.1249
▁нагрузк	-11.1251
ьянов	-11.1252
остей	-11.1255
▁газе	-11.1259
▁дочерн	-11.126
карт	-11.1263
▁незаконн	-11.1263
тели	-11.1271
▁военнослужащи	-11.1275
▁публик	-11.1279
арова	-11.1281
йорк	-11.1283
▁лаврова	-11.1284
▁зоопарк	-11.1284
▁льгов	-11.1286
▁поднял	-11.1287
▁субсиди	-11.1287
технически	-11.1293
▁заключал	-11.1294
▁фирм	-11.1295
▁акватория	-11.1296
▁едином	-11.1297
валось	-11.1297
▁удовлетворен	-11.1298
▁выстав	-11.131
▁нежела	-11.1312
каналов	-11.1312
вшая	-11.1318
▁вызова	-11.1318
▁работодател	-11.1322
ысокопоставленны	-11.1323
рыва	-11.1323
▁легки	-11.1326
▁муж	-11.133
ob	-11.1339
чев	-11.134
▁прежни	-11.1341
▁салон	-11.1342
▁вечер	-11.1354
▁доста	-11.1356
▁вовлечен	-11.1365
загрязнени	-11.1367
▁преступник	-11.1373
as	-11.1378
▁задни	-11.1379
▁порог	-11.138
▁производи	-11.1384
▁двигател	-11.1386
▁обсуждени	-11.1388
▁пешеходн	-11.1389
жин	-11.1395
▁экономик	-11.1396
▁указан	-11.1398
ностью	-11.1398
седьмого	-11.14
▁вырази	-11.1416
▁проход	-11.1418
▁увеличили	-11.1425
▁пляжа	-11.1426
▁союзник	-11.1426
чс	-11.1426
▁рассмотре	-11.1429
▁требу	-11.1431
верх	-11.1431
▁климат	-11.1432
образ	-11.1432
▁кампани	-11.1434
▁писали	-11.1435
ot	-11.1438
але	-11.1439
пан	-11.144
ические	-11.144
восточн	-11.1441
▁профессионал	-11.1441
▁полуостров	-11.1443
▁сезонны	-11.1447
▁коммунальн	-11.1447
вшимся	-11.1453
▁сирен	-11.1453
стер	-11.1459
▁технология	-11.146
▁артиста	-11.1463
▁остави	-11.1463
▁народно	-11.1468
▁выигра	-11.1469
▁глэмпинг	-11.1472
▁ошибк	-11.1472
щен	-11.1475
ведет	-11.148
▁длительно	-11.1482
▁вероятн	-11.1483
▁тайсон	-11.1483
▁ссор	-11.1484
▁соц	-11.1484
▁пакета	-11.1484
▁тип	-11.1486
▁властям	-11.1487
▁применя	-11.1487
▁финансист	-11.1489
▁заработа	-11.149
▁обстановк	-11.149
▁кож	-11.1491
▁люд	-11.1492
▁перерыв	-11.1492
▁терроризм	-11.1492
▁использован	-11.1496
▁мегафон	-11.1503
▁оренбург	-11.1503
▁росстат	-11.1506
▁палестин	-11.1512
▁стратегическо	-11.1521
▁таги	-11.1521
▁вредит	-11.1523
▁юни	-11.1523
▁экстремистски	-11.1524
▁выходе	-11.1529
▁произошедше	-11.1534
▁снос	-11.1541
▁памят	-11.1544
▁путешестви	-11.1547
▁заняти	-11.1549
политической	-11.1553
▁выработк	-11.1554
▁существу	-11.1554
▁проекту	-11.1555
▁свер	-11.1557
валы	-11.1558
▁экологическ	-11.1561
▁эффективно	-11.1565
▁содержа	-11.1569
▁сбит	-11.1569
▁электричеств	-11.157
▁антимонопольно	-11.157
▁отрасля	-11.157
теля	-11.157
▁мирном	-11.157
▁язык	-11.157
ьев	-11.1571
зу	-11.1572
▁стиле	-11.1573
me	-11.1575
более	-11.1578
▁игрово	-11.158
винов	-11.1586
▁премьера	-11.1593
сен	-11.1594
▁посвященны	-11.1595
▁гострудинспекци	-11.1597
▁составив	-11.16
▁стрельб	-11.1601
iv	-11.1601
▁польск	-11.1603
ток	-11.1606
▁лидиру	-11.1607
правоохранителей	-11.1607
пов	-11.161
▁дзержинск	-11.1612
▁нахождени	-11.1613
▁мед	-11.1614
▁взрывно	-11.1616
ционный	-11.1616
▁прекращ	-11.1616
▁текс	-11.1616
▁подъем	-11.1617
▁масштабны	-11.1619
▁форма	-11.162
▁обследовани	-11.162
▁посел	-11.1625
нуть	-11.1628
▁цик	-11.1628
▁минэк	-11.1629
▁герман	-11.1629
▁минюст	-11.1632
▁пострадавш	-11.1634
▁награжден	-11.1634
▁пита	-11.1637
меньши	-11.1639
▁пензе	-11.1641
▁предлагает	-11.1642
▁отход	-11.1643
▁аналог	-11.1643
смерт	-11.1644
▁жа	-11.1645
▁заемщик	-11.1646
▁кисл	-11.1646
льную	-11.1647
▁электрокар	-11.1648
▁уваж	-11.1651
▁анн	-11.1653
▁имен	-11.1653
▁разместит	-11.1654
▁говоря	-11.1656
летия	-11.1657
▁противодействи	-11.1658
фикации	-11.1661
комнатны	-11.1662
▁отеля	-11.1662
▁клиник	-11.1663
суточно	-11.1664
▁надежно	-11.1664
▁кап	-11.1665
внедрен	-11.1665
регистр	-11.1666
▁серноводск	-11.1668
держек	-11.1669
▁отражаю	-11.167
▁оборудован	-11.1671
▁квалифицир	-11.1671
▁осуществлял	-11.1671
▁гео	-11.1672
▁мошенник	-11.1672
▁шиш	-11.1672
rbu	-11.1672
ice	-11.1673
▁напря	-11.1673
▁совладел	-11.1673
▁подопечн	-11.1674
▁сжиженн	-11.1674
▁азиатско	-11.1674
▁альметьевск	-11.1674
▁недостоверн	-11.1674
▁профессор	-11.1674
▁экскаватор	-11.1674
hli	-11.1674
mobil	-11.1674
ournal	-11.1674
бывают	-11.1674
единоросс	-11.1674
инэкономразвития	-11.1674
компетентн	-11.1674
нобелевск	-11.1674
опользованию	-11.1674
▁airlines	-11.1674
▁apple	-11.1674
▁business	-11.1674
▁cartier	-11.1674
▁mash	-11.1674
▁whatsapp	-11.1674
▁архыз	-11.1674
▁аттракцион	-11.1674
▁байрактар	-11.1674
▁бегинин	-11.1674
▁безнадзорн	-11.1674
▁брюссел	-11.1674
▁бузмаков	-11.1674
▁главврач	-11.1674
▁гостагаевской	-11.1674
▁демографическ	-11.1674
▁джурич	-11.1674
▁диагональ	-11.1674
▁дискуссии	-11.1674
▁дискуссия	-11.1674
▁добросовестно	-11.1674
▁ежемесячно	-11.1674
▁журавлев	-11.1674
▁здоровье	-11.1674
▁издержки	-11.1674
▁индию	-11.1674
▁инициатор	-11.1674
▁интенсивн	-11.1674
▁инфраструктуре	-11.1674
▁историй	-11.1674
▁картаполов	-11.1674
▁кишинев	-11.1674
▁компетенци	-11.1674
▁краеведческ	-11.1674
▁креативн	-11.1674
▁кровля	-11.1674
▁курумоч	-11.1674
▁макрорегион	-11.1674
▁медучреждение	-11.1674
▁местонахождени	-11.1674
▁минтруд	-11.1674
▁молодежь	-11.1674
▁мьянмы	-11.1674
▁накопленны	-11.1674
▁наоборот	-11.1674
▁напитков	-11.1674
▁наставник	-11.1674
▁начвин	-11.1674
▁нейросет	-11.1674
▁неограниченно	-11.1674
▁неработающе	-11.1674
▁новоселов	-11.1674
▁овчинников	-11.1674
▁опрокинул	-11.1674
▁осуществи	-11.1674
▁отклонил	-11.1674
▁отстранени	-11.1674
▁охарактеризова	-11.1674
▁перевозок	-11.1674
▁переориентаци	-11.1674
▁пересечени	-11.1674
▁площадей	-11.1674
▁подводн	-11.1674
▁потребностей	-11.1674
▁поульсен	-11.1674
▁похищал	-11.1674
▁пошлинами	-11.1674
▁поясняет	-11.1674
▁превентивн	-11.1674
▁предоплат	-11.1674
▁предостережени	-11.1674
▁предусмотрел	-11.1674
▁президиум	-11.1674
▁преступление	-11.1674
▁прибавил	-11.1674
▁приглашени	-11.1674
▁приготовлени	-11.1674
▁приграничь	-11.1674
▁принудительн	-11.1674
▁происходил	-11.1674
▁происхождения	-11.1674
▁пропаганд	-11.1674
▁процентов	-11.1674
▁психологически	-11.1674
▁развивается	-11.1674
▁развивают	-11.1674
▁развожаев	-11.1674
▁развязк	-11.1674
▁разработок	-11.1674
▁распоряжа	-11.1674
▁расширяе	-11.1674
▁регламент	-11.1674
▁республикой	-11.1674
▁розниц	-11.1674
▁росгосстрах	-11.1674
▁сбежавши	-11.1674
▁сгенерированн	-11.1674
▁сговору	-11.1674
▁сеннерборге	-11.1674
▁ситуаций	-11.1674
▁соболезнования	-11.1674
▁сообщений	-11.1674
▁сохранению	-11.1674
▁сочета	-11.1674
▁спартак	-11.1674
▁спокойствия	-11.1674
▁ссср	-11.1674
▁стипенди	-11.1674
▁тегеран	-11.1674
▁улучшил	-11.1674
▁фиктивны	-11.1674
▁фьючерс	-11.1674
▁хвостов	-11.1674
▁хлопок	-11.1674
▁чинават	-11.1674
▁энергоносителей	-11.1674
▁эсбьерге	-11.1674
▁эскиз	-11.1674
▁японии	-11.1674
легенд	-11.1674
разыскны	-11.1674
▁audi	-11.1674
▁вэнс	-11.1674
▁дождь	-11.1674
▁заканчива	-11.1674
▁защищен	-11.1674
▁исполнил	-11.1674
▁консульск	-11.1674
▁масел	-11.1674
▁напарник	-11.1674
▁наружн	-11.1674
▁отверг	-11.1674
▁патрулировани	-11.1674
▁поджог	-11.1674
▁приближа	-11.1674
▁проверочны	-11.1674
▁расторжени	-11.1674
▁реагирования	-11.1674
▁служебны	-11.1674
▁собянин	-11.1674
▁сосредоточ	-11.1674
▁субсидировани	-11.1674
▁условны	-11.1674
▁училищ	-11.1674
▁ушаков	-11.1674
▁фильтр	-11.1674
▁хабиров	-11.1674
▁шотландск	-11.1674
▁жюри	-11.1674
▁контролирова	-11.1674
▁митвол	-11.1674
▁немецки	-11.1674
▁предотврати	-11.1674
▁растрат	-11.1674
▁роберт	-11.1674
▁сахалин	-11.1674
▁чехии	-11.1674
▁энергосистем	-11.1674
▁возможностей	-11.1674
▁запер	-11.1674
▁петроградск	-11.1674
▁погибшего	-11.1674
▁провинци	-11.1674
▁форос	-11.1674
нспк	-11.1674
провайдер	-11.1674
▁антироссийск	-11.1674
▁миллеровск	-11.1674
▁офлайн	-11.1674
▁партия	-11.1674
▁поэтапно	-11.1674
▁сенсор	-11.1674
▁табак	-11.1674
▁фанат	-11.1674
▁эпох	-11.1674
▁доктор	-11.1674
▁маскировочны	-11.1674
▁поступало	-11.1674
▁проработа	-11.1674
▁ростехнадзор	-11.1674
▁специфик	-11.1674
▁утраченны	-11.1674
▁бороться	-11.1674
▁выдвинул	-11.1674
▁гороха	-11.1674
▁натали	-11.1674
▁растут	-11.1674
диспле	-11.1674
▁social	-11.1674
▁вектор	-11.1674
▁сохранения	-11.1674
▁поменя	-11.1674
▁верхнедонск	-11.1674
▁геолокации	-11.1674
▁друзья	-11.1674
▁зерновых	-11.1674
▁медскан	-11.1674
▁юбиле	-11.1674
▁запах	-11.1674
stre	-11.1674
▁клячин	-11.1674
▁надежны	-11.1674
▁покупателей	-11.1674
▁себя	-11.1674
▁седан	-11.1674
▁поддельн	-11.1674
▁покупателя	-11.1674
▁среднероссийск	-11.1674
нбки	-11.1674
▁вишнев	-11.1674
▁предписан	-11.1674
▁напряженности	-11.1674
▁отложил	-11.1674
▁двоих	-11.1674
▁наметкин	-11.1674
▁сливочно	-11.1674
льные	-11.1674
одиноч	-11.1674
▁певц	-11.1674
▁согласовать	-11.1674
▁медленн	-11.1674
▁питьево	-11.1674
▁детьми	-11.1674
▁нецензурн	-11.1674
▁произойдет	-11.1674
▁боксер	-11.1674
▁премию	-11.1674
▁администрирова	-11.1674
▁людмил	-11.1674
▁петон	-11.1674
▁эксклюзивн	-11.1674
▁пензы	-11.1674
▁плем	-11.1674
▁ветра	-11.1674
▁спецпроект	-11.1674
▁иммун	-11.1674
▁вещи	-11.1674
▁значимость	-11.1674
▁мкд	-11.1674
▁экосистем	-11.1674
▁набрав	-11.1674
▁нацизма	-11.1674
▁родион	-11.1674
▁ближне	-11.1674
▁стикер	-11.1674
▁ввс	-11.1674
▁гарантийны	-11.1674
▁сегодняшне	-11.1674
▁фишер	-11.1674
▁гайдара	-11.1674
прикамье	-11.1674
▁масян	-11.1674
▁meta	-11.1674
▁отремонтировать	-11.1674
▁оптик	-11.1674
▁орле	-11.1674
▁осторожность	-11.1674
▁растительности	-11.1674
навигационн	-11.1674
▁анонсировал	-11.1674
▁меша	-11.1675
▁атакован	-11.1675
▁бдт	-11.1675
▁дешевле	-11.1675
▁бронзовы	-11.1675
phi	-11.1675
▁парковке	-11.1675
ella	-11.1675
▁поступивши	-11.1675
▁установке	-11.1675
▁вечерне	-11.1675
atp	-11.1675
смирнов	-11.1675
▁относят	-11.1675
▁животные	-11.1675
▁стиль	-11.1675
▁гостя	-11.1675
▁стольк	-11.1676
▁неизвестный	-11.1676
▁номинальн	-11.1676
▁никитенко	-11.1676
жечь	-11.1676
▁увидят	-11.1676
▁атла	-11.1676
▁артур	-11.1676
▁убит	-11.1676
▁покида	-11.1676
▁дэн	-11.1676
▁америки	-11.1676
▁кремль	-11.1676
▁занять	-11.1676
▁нецелево	-11.1676
▁продолжительно	-11.1676
▁перегородки	-11.1676
бьют	-11.1676
▁серебра	-11.1676
▁сетев	-11.1676
▁взаимодейству	-11.1677
▁боеприпасов	-11.1677
▁вооружения	-11.1677
сеев	-11.1677
▁голубым	-11.1677
▁ниш	-11.1677
▁известия	-11.1677
▁куратора	-11.1677
our	-11.1677
▁опг	-11.1678
▁северсталь	-11.1678
▁замысл	-11.1678
▁узбекистана	-11.1678
▁гарантии	-11.1678
▁пищево	-11.1678
▁округов	-11.1678
▁однокомнатны	-11.1678
▁какое	-11.1678
брос	-11.1679
▁бур	-11.1679
▁невест	-11.1679
▁островского	-11.1679
▁раскаялся	-11.1679
▁нижний	-11.168
очным	-11.168
▁сводк	-11.168
▁sun	-11.168
▁хранить	-11.168
▁алань	-11.168
▁реут	-11.168
▁понимают	-11.1681
▁калужской	-11.1681
▁установок	-11.1681
▁роско	-11.1681
eri	-11.1681
▁записки	-11.1681
▁марок	-11.1681
▁ожирения	-11.1681
▁выехал	-11.1681
▁собрать	-11.1681
▁замедления	-11.1682
▁заложников	-11.1682
▁облсовет	-11.1682
▁абортов	-11.1682
▁разгон	-11.1683
▁тюмен	-11.1683
▁учебы	-11.1683
▁сознания	-11.1684
▁четко	-11.1684
▁опер	-11.1684
▁ранений	-11.1684
▁небо	-11.1684
▁упаковка	-11.1685
▁достигне	-11.1685
▁аренде	-11.1685
▁направлению	-11.1686
▁грипп	-11.1686
▁свидетелей	-11.1687
▁называемо	-11.1687
▁настаивает	-11.1687
▁отметив	-11.1687
▁заэс	-11.1687
ныне	-11.1687
▁постоянн	-11.1688
▁говорилось	-11.1688
▁кардинал	-11.1688
▁постановлению	-11.1689
▁профессию	-11.1689
▁произвел	-11.1689
нхл	-11.1689
▁нижнекамск	-11.1689
▁предложить	-11.169
▁новостройках	-11.1691
янкин	-11.1692
▁адресам	-11.1692
▁отказывается	-11.1692
▁ухудшени	-11.1693
▁опасно	-11.1693
▁хоти	-11.1693
▁свеклы	-11.1693
▁очевидцы	-11.1693
▁апартаменты	-11.1693
▁педагогов	-11.1693
▁фигурист	-11.1693
▁тверско	-11.1693
▁шри	-11.1693
▁апк	-11.1694
▁ветеранов	-11.1694
▁двигатель	-11.1694
▁отдали	-11.1695
▁амбулаторно	-11.1695
▁стенд	-11.1695
▁залив	-11.1695
▁диагностик	-11.1695
▁фермер	-11.1695
▁кто	-11.1696
▁инвестирования	-11.1696
носят	-11.1696
▁тестирования	-11.1696
▁перегон	-11.1696
днепр	-11.1697
▁сброс	-11.1697
▁конфискации	-11.1697
▁имеющие	-11.1697
▁автопер	-11.1697
▁ведомости	-11.1697
▁фактором	-11.1697
▁признают	-11.1697
▁тайник	-11.1698
▁царск	-11.1698
▁софинансировани	-11.1698
▁войной	-11.1698
▁лондона	-11.1698
▁казачинско	-11.1699
▁радиостанци	-11.17
▁судьи	-11.17
▁полон	-11.17
▁состоялось	-11.17
▁сокращается	-11.17
▁сравнива	-11.17
▁аста	-11.1701
▁целы	-11.1701
▁администрацией	-11.1701
▁защищать	-11.1702
▁газпромбанк	-11.1702
▁техно	-11.1702
▁зонах	-11.1702
▁самолете	-11.1703
▁остекление	-11.1703
▁минздраве	-11.1703
▁онко	-11.1704
▁опубликования	-11.1704
▁смес	-11.1704
диспетчеры	-11.1705
▁пережива	-11.1705
▁махачкалы	-11.1706
▁муниципалитетов	-11.1706
▁лондоне	-11.1706
▁угрожает	-11.1706
▁эрн	-11.1707
▁финансам	-11.1707
▁любовь	-11.1708
▁разрыв	-11.1708
▁вала	-11.1709
▁инаугурация	-11.1709
▁оренбуржья	-11.1709
▁называется	-11.1709
▁совещания	-11.1709
▁трагедия	-11.1709
▁зимни	-11.1709
▁горького	-11.171
▁территориями	-11.171
▁серийно	-11.1711
▁мясо	-11.1711
▁кристи	-11.1712
▁спортсменк	-11.1712
▁исключение	-11.1713
▁постройка	-11.1714
▁джессик	-11.1715
▁мсп	-11.1715
▁поднимать	-11.1716
▁состоялись	-11.1716
▁схватил	-11.1717
▁лили	-11.1717
▁пансиона	-11.1718
▁груд	-11.1718
▁идею	-11.1721
▁десятилети	-11.1721
▁актов	-11.1721
▁выходные	-11.1722
▁позиция	-11.1725
▁беспилотниками	-11.1725
▁сенатором	-11.1726
▁волейболу	-11.1726
▁признает	-11.1727
▁истц	-11.1727
▁перерабатыва	-11.1728
кокс	-11.1728
▁климатическ	-11.1729
▁трубопровод	-11.173
▁футболу	-11.173
▁дронами	-11.1731
рюк	-11.1731
космонавтов	-11.1731
▁палестины	-11.1732
▁эм	-11.1732
▁снижается	-11.1734
▁удовлетворены	-11.1734
▁нилова	-11.1734
▁калинюка	-11.1734
▁испытаний	-11.1734
▁масла	-11.1734
▁совершал	-11.1735
▁стратегий	-11.1735
▁блоков	-11.1736
▁передавал	-11.1736
▁предельны	-11.1736
▁нужды	-11.1737
▁мосбиржи	-11.1738
▁профилактики	-11.1738
▁убили	-11.1738
▁кампания	-11.1738
▁коррупции	-11.1738
▁просьба	-11.1738
▁восточны	-11.1738
▁война	-11.1739
▁отмывани	-11.1739
▁родственники	-11.1739
▁восстановили	-11.1739
▁биологическ	-11.1739
▁антимонопольн	-11.174
▁любов	-11.174
▁оценен	-11.174
▁тогда	-11.174
▁экран	-11.174
▁организм	-11.174
▁погодны	-11.1741
▁останки	-11.1741
▁камчатско	-11.1741
▁пользования	-11.1741
▁служил	-11.1742
▁пробег	-11.1742
▁утверждения	-11.1743
▁дым	-11.1744
▁криминалист	-11.1744
▁тарифы	-11.1744
▁ограждения	-11.1745
▁бион	-11.1745
▁реализуется	-11.1745
▁троицк	-11.1745
▁корпусов	-11.1746
▁рогозиной	-11.1747
тяж	-11.1747
дова	-11.1747
▁залог	-11.1748
▁дочк	-11.1748
▁образований	-11.1749
▁нужны	-11.175
▁тестов	-11.175
▁спикеров	-11.1751
▁таком	-11.1753
tv	-11.1754
▁назначена	-11.1755
▁ограждение	-11.1755
▁подписать	-11.1756
▁рыбы	-11.1758
▁юноша	-11.1758
▁ярки	-11.1759
▁визов	-11.1759
▁поведение	-11.1759
▁грантов	-11.1759
▁оптимизирова	-11.176
▁рейтингово	-11.176
▁масс	-11.1761
▁турция	-11.1762
▁юриста	-11.1762
▁библиотеку	-11.1763
распространения	-11.1763
▁балл	-11.1764
▁моды	-11.1764
▁подозреваемы	-11.1764
▁васильевско	-11.1764
▁прилегающи	-11.1764
▁общежития	-11.1765
▁сочински	-11.1765
▁подтверждающи	-11.1766
▁присутстви	-11.1766
▁машинист	-11.1768
▁осмотр	-11.1769
▁определены	-11.1769
▁коробк	-11.177
знач	-11.177
▁выявленны	-11.1772
▁стены	-11.1772
▁куйбышевски	-11.1773
▁бульвара	-11.1773
▁доллара	-11.1773
▁полосы	-11.1773
▁торта	-11.1773
▁приостановлена	-11.1774
▁бассейнов	-11.1774
▁рыбинске	-11.1775
▁жизнью	-11.1776
▁партнерства	-11.1776
▁прочно	-11.1777
▁подписки	-11.1778
рублев	-11.1779
▁прогулк	-11.1779
▁тревоги	-11.1779
▁потерпевших	-11.1781
▁сообща	-11.1781
▁легких	-11.1781
▁подростки	-11.1782
жил	-11.1784
▁способности	-11.1788
lin	-11.1791
качественн	-11.1791
ооб	-11.1791
▁связанно	-11.1792
▁ограниченным	-11.1797
▁головы	-11.1798
▁поручения	-11.1799
▁реабилитаци	-11.1801
▁белов	-11.1803
гордуму	-11.1804
▁потерпевши	-11.1804
▁маршрутов	-11.1806
▁вызвало	-11.1807
вооружение	-11.1807
▁пожарных	-11.1808
▁посвященн	-11.1808
чики	-11.181
▁допроса	-11.1813
▁изоляторе	-11.1813
▁кризиса	-11.1813
▁формирование	-11.1815
▁клубов	-11.1815
▁локальны	-11.1815
▁направлением	-11.1816
▁пары	-11.1819
▁каменск	-11.1819
▁повреждени	-11.182
▁гастрономически	-11.182
▁футбола	-11.1821
▁дав	-11.1821
▁внедрения	-11.1821
оспособности	-11.1822
▁теря	-11.1823
▁справедливой	-11.1824
▁воронежа	-11.1825
▁посылк	-11.1825
▁исполнению	-11.183
▁руководству	-11.1831
▁облачно	-11.1831
▁страховым	-11.1832
▁премиальн	-11.1834
▁предлагать	-11.1835
может	-11.1837
▁чистый	-11.1839
▁первомайского	-11.184
▁категорию	-11.1841
▁входяще	-11.1844
▁пятого	-11.1846
▁противоправны	-11.1846
▁привлечено	-11.1848
▁жалобы	-11.1849
▁номером	-11.1854
▁миац	-11.1857
▁оказывает	-11.1857
▁урфо	-11.1858
▁ольборге	-11.1859
▁туле	-11.1861
▁существующи	-11.1862
платформа	-11.1863
▁политику	-11.1864
▁зарядки	-11.1864
▁властями	-11.1864
▁фиксируют	-11.1865
▁заменен	-11.1866
▁петербургско	-11.1866
▁октябрьского	-11.1866
▁тар	-11.1866
▁выезжал	-11.1867
▁современными	-11.1867
аивать	-11.187
▁состояния	-11.1872
▁высоты	-11.1874
▁менять	-11.1874
▁выпускники	-11.1875
▁фасада	-11.1875
▁крыша	-11.1876
▁вузов	-11.1876
▁спектакля	-11.1877
▁разрешением	-11.1879
▁отменена	-11.1883
▁чеченски	-11.1883
▁статья	-11.1884
▁имена	-11.1887
▁предметы	-11.1887
▁лаборатории	-11.189
▁утверждали	-11.189
▁токаева	-11.1893
▁креста	-11.1893
▁вашим	-11.1899
▁ата	-11.1899
▁входящи	-11.1904
▁закрыли	-11.1908
▁книги	-11.1909
▁банке	-11.1909
▁клиентом	-11.1911
▁полуострове	-11.1913
▁произошедшем	-11.1913
ion	-11.1916
▁расположенн	-11.1918
▁избиркома	-11.1919
речи	-11.1919
▁процессов	-11.1921
▁перспективе	-11.1922
▁сумме	-11.1922
▁искусственны	-11.1924
▁рекордным	-11.1924
▁нападение	-11.1926
▁секретно	-11.1926
▁лучших	-11.1927
▁помогал	-11.1933
▁боб	-11.1935
▁сосла	-11.1936
▁приводится	-11.1936
▁наблюдал	-11.1936
▁сотруднику	-11.1938
▁комиссий	-11.1938
▁сток	-11.1939
▁крыше	-11.1941
▁указа	-11.1945
▁дополня	-11.1946
▁порта	-11.1947
▁спасен	-11.1949
действовать	-11.195
▁газом	-11.1953
▁пескова	-11.1954
▁интерактивны	-11.1956
▁регионом	-11.1957
▁районы	-11.1965
▁различным	-11.1965
кум	-11.1966
▁сложн	-11.1968
▁истека	-11.1972
▁теракте	-11.1972
▁самб	-11.1974
▁ритейлер	-11.1974
▁ходом	-11.1975
▁пал	-11.1976
▁заблокирован	-11.1976
▁монтаж	-11.1979
▁координат	-11.1979
▁омбудсмена	-11.1981
▁двора	-11.1984
▁тренерски	-11.1985
▁общин	-11.1985
▁остры	-11.1988
рнау	-11.1988
▁кадастровы	-11.1991
дано	-11.1991
▁подтвердило	-11.1994
▁школьники	-11.1995
▁библиотека	-11.1997
▁иде	-11.1997
▁положенны	-11.1998
▁отмене	-11.1998
▁ненадлежаще	-11.2003
▁ресурса	-11.2005
▁конференци	-11.2005
▁воински	-11.2009
▁шу	-11.2011
▁художественн	-11.2012
▁кредиту	-11.2018
▁салона	-11.2019
▁севастополе	-11.2022
▁ярославлем	-11.2024
▁сдачи	-11.2024
▁кооператива	-11.2031
▁бюджетов	-11.2038
гры	-11.2038
▁месяцем	-11.2039
чиков	-11.2042
▁запрещена	-11.2042
енс	-11.2045
есно	-11.2047
▁есть	-11.2051
▁демонтировал	-11.2054
▁контролем	-11.2056
▁пешеходны	-11.2056
▁долги	-11.2057
▁мариинск	-11.2061
▁дагестана	-11.2064
▁фигурантк	-11.2069
▁созданны	-11.207
▁операционны	-11.2071
кину	-11.2071
▁убийством	-11.2071
▁вычета	-11.2074
▁платным	-11.2077
▁киев	-11.2087
▁деревни	-11.209
▁коллеге	-11.2093
▁объявлены	-11.2093
▁этажа	-11.2093
▁погашени	-11.2094
▁топливны	-11.2098
▁поврежденны	-11.2098
▁хоккейно	-11.2098
▁yo	-11.2099
▁дальне	-11.2099
зв	-11.2107
▁держать	-11.2113
▁предполага	-11.2115
▁веко	-11.2125
▁устранении	-11.2126
▁времен	-11.2138
▁красноярском	-11.2138
▁специалистам	-11.214
▁вр	-11.214
▁вируса	-11.2144
▁резки	-11.2145
▁удобно	-11.2148
▁законе	-11.2149
ящих	-11.2149
▁казанском	-11.2151
▁инт	-11.2152
уше	-11.216
▁dr	-11.216
▁тарасовск	-11.2162
платить	-11.2163
▁запада	-11.2164
▁возвращенны	-11.2167
▁гибридны	-11.2169
▁разнице	-11.2172
▁отключение	-11.2173
▁утверждени	-11.2175
▁достигал	-11.2177
▁комплексом	-11.218
▁направлениях	-11.2187
▁выгодны	-11.2187
▁кладбища	-11.2188
▁голове	-11.2189
▁дум	-11.2189
▁распространяет	-11.219
▁повреждение	-11.2191
ичностью	-11.2195
▁парламенте	-11.2199
▁темно	-11.22
▁праздн	-11.2204
инспекции	-11.2207
дисциплинарны	-11.2213
▁клиентск	-11.2215
нное	-11.2215
▁чер	-11.2216
▁минэнерг	-11.2219
▁близкие	-11.222
▁вводил	-11.2221
каналах	-11.2221
▁редко	-11.2228
▁ким	-11.2229
▁европейским	-11.2229
▁публикаций	-11.2231
▁материал	-11.2235
▁уфим	-11.2239
▁хороше	-11.2243
▁ипотечн	-11.2245
▁никитин	-11.2247
чили	-11.2255
▁организациях	-11.2261
▁созданно	-11.2264
▁категория	-11.2267
▁каналов	-11.2268
▁инвестиру	-11.227
фер	-11.2272
▁хорош	-11.2278
ологически	-11.2282
▁мел	-11.2283
жига	-11.2284
▁единовременн	-11.2284
▁оф	-11.2288
рич	-11.2289
▁спектакли	-11.229
▁выставке	-11.2291
ировал	-11.2294
▁плохи	-11.2295
куплен	-11.2301
▁кан	-11.2304
ство	-11.231
▁перебоя	-11.2314
▁жительнице	-11.2324
▁заводах	-11.2325
▁копи	-11.2328
▁потратит	-11.2329
▁возводит	-11.233
▁собственн	-11.2331
▁охват	-11.2332
▁следовавш	-11.2333
▁уровнях	-11.2334
▁обыска	-11.2337
▁процессу	-11.234
▁мон	-11.2343
▁спрятать	-11.2343
ig	-11.2345
ковой	-11.2347
▁проходили	-11.2349
ениях	-11.235
▁последн	-11.2352
павших	-11.2352
эк	-11.2353
▁отправлять	-11.2353
▁оставля	-11.2357
рот	-11.2363
▁освещения	-11.2374
▁отр	-11.2376
данных	-11.238
родемонстрировал	-11.2383
формируют	-11.239
▁тяжки	-11.239
аналитически	-11.2398
▁выда	-11.2398
▁оснащени	-11.2399
▁подел	-11.2404
▁аби	-11.2414
▁поставщика	-11.2416
▁фронта	-11.2419
нис	-11.2422
петербургско	-11.2425
▁плохо	-11.2426
▁подробно	-11.2429
ar	-11.2431
▁оборота	-11.2434
▁как	-11.2434
▁ивановско	-11.2448
▁точк	-11.2448
▁ремонту	-11.245
▁представителям	-11.245
▁сложно	-11.2456
бай	-11.2462
ta	-11.2463
▁котика	-11.2472
▁уходе	-11.2479
▁рассматривал	-11.248
▁оценивал	-11.2481
▁хмао	-11.2486
▁эвакуирован	-11.2487
▁карп	-11.2495
▁критическо	-11.2503
▁включат	-11.2507
▁кондратьева	-11.252
▁выступ	-11.2525
▁лар	-11.2527
▁напомнили	-11.2529
▁ra	-11.2537
▁сложил	-11.2538
чной	-11.2543
техническо	-11.2544
▁известн	-11.2548
▁ранен	-11.2559
▁городу	-11.2561
тной	-11.2565
▁градостроитель	-11.2568
▁реальном	-11.2568
▁уменьшение	-11.2574
▁транспортным	-11.2576
▁молодежно	-11.2608
▁уступа	-11.2614
листов	-11.2618
▁биржев	-11.2619
▁морском	-11.2625
▁купил	-11.263
▁времена	-11.2637
▁плох	-11.2638
▁позволяющи	-11.2639
▁курса	-11.264
▁ян	-11.2642
лле	-11.2661
▁ситуациях	-11.2664
▁передава	-11.2669
▁исполнительн	-11.267
▁пятилетни	-11.2672
▁способны	-11.268
▁центры	-11.2682
▁цену	-11.2683
▁бензиновы	-11.2685
▁кули	-11.2685
▁учреждениях	-11.2687
▁кого	-11.2688
ине	-11.269
▁столкновение	-11.2691
кер	-11.2692
▁поиска	-11.2695
усов	-11.2696
▁подтвердила	-11.2702
▁легков	-11.2712
▁пят	-11.2728
ройте	-11.2731
▁харитонов	-11.2748
adi	-11.2748
▁театре	-11.2755
нность	-11.276
▁столкну	-11.2763
▁русско	-11.2785
▁отлича	-11.2788
▁жив	-11.279
▁зар	-11.2795
▁квот	-11.2795
▁полив	-11.2797
жо	-11.2805
тушения	-11.2809
▁услуга	-11.2814
ящие	-11.2815
▁посты	-11.2818
рной	-11.2818
▁паспорт	-11.2825
▁регулярном	-11.2826
▁тамбовск	-11.2834
▁минфине	-11.2842
▁рыночн	-11.2843
▁живу	-11.2846
изированны	-11.2855
▁уничтожение	-11.286
▁располага	-11.286
бирают	-11.286
▁цвета	-11.2864
▁избира	-11.2872
нцев	-11.2873
▁рода	-11.2889
▁проводила	-11.2896
▁финансовым	-11.2897
сн	-11.2907
▁укрепление	-11.2912
▁усили	-11.2917
▁секрет	-11.2919
цовс	-11.292
▁обслуживать	-11.2927
▁рыночны	-11.2928
▁приобретен	-11.2936
▁риска	-11.2937
▁райсуде	-11.294
окн	-11.2959
▁оптимально	-11.2959
▁кемеров	-11.2965
▁честно	-11.2969
▁правом	-11.2969
▁ускор	-11.2974
▁мотивиров	-11.2974
fe	-11.2978
евым	-11.2991
завод	-11.2996
ждет	-11.3013
▁отношениям	-11.3017
программист	-11.3025
бов	-11.305
▁налоговым	-11.3054
участника	-11.3059
анный	-11.3064
▁повторны	-11.3065
▁матер	-11.3066
▁подряда	-11.3067
▁ислам	-11.3068
▁построил	-11.3069
▁украинским	-11.3075
ступят	-11.3084
еры	-11.3098
▁тверд	-11.31
▁держа	-11.3105
▁международным	-11.3106
▁основа	-11.3121
▁контрактник	-11.3126
▁разным	-11.3127
аясь	-11.3134
▁убедили	-11.3136
▁кабинета	-11.3141
▁выставля	-11.3141
▁сид	-11.3144
ult	-11.3144
▁переговор	-11.3148
▁требовани	-11.3149
▁подня	-11.315
дс	-11.3152
▁обновлен	-11.3154
▁предела	-11.3156
▁кассационн	-11.3168
▁переходит	-11.317
▁рынках	-11.317
▁раздел	-11.3173
▁обвиняемые	-11.3175
▁обустройств	-11.3178
▁пап	-11.3181
▁документе	-11.3192
служб	-11.3198
▁займ	-11.3199
осе	-11.3213
нача	-11.3213
▁предназначенны	-11.3221
▁руководит	-11.3229
ub	-11.3231
▁очистк	-11.3233
▁котик	-11.3236
▁большинств	-11.3236
▁добав	-11.324
овская	-11.3242
▁побед	-11.3248
▁административн	-11.3253
▁его	-11.3256
▁тим	-11.3274
енным	-11.3282
▁яблок	-11.3283
▁снят	-11.3287
▁структура	-11.3291
ny	-11.3294
аты	-11.3294
кк	-11.3298
▁волгоград	-11.333
сул	-11.3335
▁предприятиях	-11.3362
▁воронеж	-11.3362
▁отделк	-11.3365
▁машине	-11.3367
▁депозит	-11.337
смены	-11.337
▁обстрел	-11.3374
▁губернаторы	-11.338
хан	-11.3384
рок	-11.3388
анка	-11.339
нного	-11.3396
▁дове	-11.3402
▁позвони	-11.3421
▁отзыв	-11.3423
▁этаж	-11.3425
▁планируемы	-11.3427
▁корм	-11.3428
шие	-11.3443
▁мастера	-11.345
▁победител	-11.3452
спикер	-11.3453
▁упа	-11.3456
▁сум	-11.3463
▁потребовали	-11.3466
конференци	-11.3474
▁создают	-11.3489
комплекс	-11.3491
речное	-11.3491
▁минимальны	-11.3494
eum	-11.3495
▁брендам	-11.3498
▁повысил	-11.3507
ut	-11.3507
▁заражен	-11.3513
▁настро	-11.3516
▁he	-11.3518
▁липецки	-11.3521
▁краткосрочны	-11.3542
▁буд	-11.3542
▁волжско	-11.3545
▁футбол	-11.3547
▁необходима	-11.3547
▁продолжи	-11.3548
▁происшестви	-11.3559
▁химическ	-11.3559
думу	-11.356
▁ищ	-11.3562
▁динамик	-11.3562
ологическ	-11.3565
▁продав	-11.3568
▁предполагал	-11.3569
▁желез	-11.3572
▁случил	-11.3572
▁саб	-11.3579
ированный	-11.3584
▁спор	-11.3591
▁параметр	-11.3593
▁дизельны	-11.3594
▁крыш	-11.3596
два	-11.3598
ндрю	-11.3605
▁назва	-11.3606
▁земл	-11.3607
▁американ	-11.3609
▁маркетплейс	-11.3609
учиться	-11.3611
исследовательск	-11.3612
▁извест	-11.3613
▁зиме	-11.3619
▁покупа	-11.3624
сбыт	-11.3624
▁историческ	-11.3625
▁разместили	-11.3634
▁республикански	-11.3646
▁выпустил	-11.3651
очередном	-11.3656
пен	-11.3657
▁извинил	-11.3657
▁эффективны	-11.3659
ндфл	-11.3659
▁погашен	-11.3659
тюмен	-11.3661
yo	-11.3669
▁сотов	-11.3669
срзп	-11.3671
▁демократическ	-11.3673
рейтинга	-11.3674
тихо	-11.3675
▁женск	-11.3675
дня	-11.3677
инвест	-11.3683
▁карьер	-11.3685
▁обнаружен	-11.3687
модели	-11.369
правово	-11.369
▁семейн	-11.3691
продуктов	-11.3691
второ	-11.3691
индекс	-11.3692
кхл	-11.3693
▁провод	-11.3696
ющим	-11.3699
рынка	-11.3699
бизнес	-11.3699
▁демонтирова	-11.37
председателя	-11.37
дорож	-11.3702
сша	-11.3702
(	-11.3703
ированию	-11.3706
член	-11.3706
▁разниц	-11.3707
▁результативны	-11.3712
смерть	-11.3712
▁хозяйстве	-11.3713
▁позици	-11.3713
▁увеличен	-11.3718
▁беспилотник	-11.3719
▁золот	-11.3721
▁анап	-11.3721
▁гонконгск	-11.3723
▁сотрудничеств	-11.3724
▁россияне	-11.3726
главы	-11.3726
машин	-11.3729
▁флагманск	-11.3732
кавказско	-11.3733
▁воронежск	-11.3734
▁лог	-11.3736
▁сайта	-11.3745
▁комфортн	-11.375
▁цифр	-11.3751
▁четверто	-11.3756
▁возбуди	-11.3758
▁задержана	-11.376
▁творческ	-11.376
▁будуще	-11.3761
▁мисси	-11.3765
▁бойц	-11.3768
местно	-11.3772
▁конкретно	-11.3774
▁курьер	-11.3781
▁эконом	-11.3781
глава	-11.3782
▁активирова	-11.3782
валов	-11.3786
▁заблокирова	-11.3798
▁трудност	-11.3802
▁аналитик	-11.3804
▁спонсор	-11.3807
пп	-11.3807
▁оформля	-11.3809
▁бас	-11.381
ad	-11.3814
структура	-11.3816
▁собира	-11.3817
▁периодическо	-11.3819
мэра	-11.3825
ационной	-11.3829
▁упаков	-11.384
▁вывес	-11.3843
▁строя	-11.3844
▁може	-11.3844
▁экзамен	-11.3851
спикера	-11.3853
▁лиш	-11.3861
▁учены	-11.3866
▁палат	-11.3866
▁вещества	-11.3873
тельных	-11.3874
pri	-11.3877
▁фотограф	-11.3879
▁утверди	-11.388
▁разрушени	-11.3881
▁земля	-11.3894
▁хирург	-11.3895
▁жител	-11.3897
▁массо	-11.3903
▁столиц	-11.3911
еш	-11.3912
елями	-11.3913
зывают	-11.3926
▁белорусси	-11.3933
▁адлер	-11.3933
▁отключен	-11.3937
▁видеоролик	-11.3938
▁туризм	-11.3938
▁росатом	-11.3938
телей	-11.394
▁ольборг	-11.394
▁кронштадт	-11.3944
▁бру	-11.3948
▁пароходств	-11.3952
▁кризис	-11.3952
▁маск	-11.3953
▁древ	-11.3955
▁укрыти	-11.3957
▁обвиняли	-11.3963
▁дилер	-11.3965
▁дет	-11.3968
боль	-11.3969
▁вооруж	-11.3976
рных	-11.3977
▁молдов	-11.3978
▁инфекци	-11.3981
▁жених	-11.3982
▁индустри	-11.3982
▁метрополитен	-11.3984
▁киммел	-11.3984
▁десант	-11.3984
ируются	-11.3984
▁исполнител	-11.3984
▁нововоронеж	-11.3985
▁связа	-11.3986
▁поликлиник	-11.3986
▁лаборатори	-11.3987
горела	-11.3987
▁завтра	-11.3988
▁посыл	-11.3989
▁избирал	-11.3991
▁сельсовет	-11.3993
▁курбанов	-11.3993
▁новоуральск	-11.3994
▁привилеги	-11.3994
▁конкуренци	-11.3994
▁уран	-11.3997
▁задержк	-11.3998
▁допрос	-11.3998
мости	-11.3999
▁остановк	-11.4
▁разведк	-11.4
▁болтон	-11.4001
▁полугод	-11.4001
▁объектив	-11.4002
▁do	-11.4004
▁отеле	-11.401
▁сбербанк	-11.401
▁производителе	-11.4012
маркет	-11.4015
▁россиянам	-11.4018
tri	-11.402
▁остановили	-11.4021
оспособност	-11.4022
▁обруши	-11.4023
▁огне	-11.4033
▁силам	-11.4037
▁шар	-11.4038
фссп	-11.4041
▁рассказ	-11.4042
▁праздника	-11.4044
▁разруш	-11.4045
▁бассейн	-11.4046
▁ювелирно	-11.4046
▁удал	-11.405
▁выражен	-11.405
▁кандидатур	-11.4054
▁бытов	-11.4054
▁удобств	-11.4055
▁физическим	-11.4055
▁кадастр	-11.4056
▁снабжен	-11.4059
▁задани	-11.4065
▁гроз	-11.4066
▁тул	-11.4068
▁тат	-11.4068
▁ресурс	-11.4069
ярский	-11.407
▁отмеч	-11.408
▁миронов	-11.4082
▁удовлетвор	-11.4083
енном	-11.4085
▁портфел	-11.4087
опасн	-11.4091
▁биологи	-11.4092
▁сравн	-11.4092
▁участвую	-11.4093
толкач	-11.4097
▁подорож	-11.4099
▁уточн	-11.4101
ive	-11.4102
▁экологичн	-11.4106
▁волейбол	-11.4106
▁ключе	-11.4106
▁облдум	-11.4108
▁объясн	-11.4109
служащих	-11.4109
саратов	-11.411
▁яхт	-11.4111
▁тротуар	-11.4112
▁мур	-11.4114
обеща	-11.4114
▁взлет	-11.4114
▁обуч	-11.4117
▁коров	-11.4117
печат	-11.4119
заказ	-11.4119
мнадзор	-11.4123
▁крымск	-11.4123
▁музыкант	-11.4124
▁системно	-11.4125
▁дирижер	-11.4125
▁затрону	-11.4125
сф	-11.4125
ьского	-11.4125
▁фиксирова	-11.4126
▁воспитани	-11.4127
▁роснефт	-11.4128
▁миллиард	-11.4131
▁самоуправлени	-11.4131
▁восстанов	-11.4131
▁вас	-11.4132
поведник	-11.4132
ssi	-11.4135
▁мото	-11.4136
▁защища	-11.4138
эб	-11.414
▁традици	-11.4144
▁ассистент	-11.4144
▁филипп	-11.4144
▁священник	-11.4144
▁кибер	-11.4145
▁покин	-11.4146
миллионник	-11.4146
▁вклад	-11.4146
▁педагог	-11.4147
▁wo	-11.4147
▁балкон	-11.4148
▁алмаз	-11.4148
▁вертолет	-11.4149
▁био	-11.4149
▁мигрант	-11.4149
▁термо	-11.4153
▁предложит	-11.4154
ывает	-11.4154
▁стоят	-11.4155
▁двига	-11.4156
▁отремонтир	-11.4158
▁близ	-11.4159
звани	-11.416
плательщиков	-11.416
▁теннис	-11.4161
▁определит	-11.4161
▁багаж	-11.4162
▁музее	-11.4162
▁представленны	-11.4162
▁запесоцк	-11.4163
▁демократ	-11.4163
фильм	-11.4164
▁функциониру	-11.4164
▁очко	-11.4164
▁возобнови	-11.4164
▁баллончик	-11.4165
кампус	-11.4165
банкротств	-11.4165
▁распредели	-11.4166
▁миллиардер	-11.4167
▁урегулирова	-11.4167
▁взаим	-11.4167
▁заказы	-11.4168
ведомственно	-11.4168
▁прогре	-11.4169
▁анонс	-11.4169
▁орджоникидзе	-11.4169
▁географи	-11.4169
▁краснов	-11.417
спутник	-11.417
▁град	-11.417
коллекци	-11.417
зрител	-11.4171
▁метеор	-11.4171
▁новостро	-11.4171
▁иностранц	-11.4171
делия	-11.4172
▁жуков	-11.4172
▁флаг	-11.4172
▁петербурж	-11.4173
▁журнал	-11.4173
тфуд	-11.4173
коррект	-11.4173
▁арбитр	-11.4173
ляция	-11.4173
▁упраздн	-11.4173
нанс	-11.4173
диспансер	-11.4173
▁хранил	-11.4173
радиотелевизионн	-11.4174
▁окрестн	-11.4174
▁аффилированны	-11.4174
▁газохимическ	-11.4174
▁драматическ	-11.4174
▁начисля	-11.4174
▁объезд	-11.4174
▁онкологическ	-11.4174
▁познаком	-11.4174
▁преступны	-11.4174
▁симферопол	-11.4174
award	-11.4174
bab	-11.4174
fifa	-11.4174
moscow	-11.4174
аутсорсинг	-11.4174
граунд	-11.4174
ейскзернопродукт	-11.4174
исполком	-11.4174
коммуникациям	-11.4174
льхозпредприятий	-11.4174
макроэкономическ	-11.4174
марафон	-11.4174
милиционер	-11.4174
персонаж	-11.4174
прослуш	-11.4174
ранхигс	-11.4174
художник	-11.4174
черноземно	-11.4174
▁aerospace	-11.4174
▁caterpillar	-11.4174
▁evervess	-11.4174
▁faw	-11.4174
▁guardian	-11.4174
▁microsoft	-11.4174
▁notanotherone	-11.4174
▁porsche	-11.4174
▁post	-11.4174
▁sbw	-11.4174
▁turenscape	-11.4174
▁автозаправок	-11.4174
▁автозаправочны	-11.4174
▁аграри	-11.4174
▁англии	-11.4174
▁апелляции	-11.4174
▁апраксин	-11.4174
▁архиепископ	-11.4174
▁асламов	-11.4174
▁бангкок	-11.4174
▁баррель	-11.4174
▁басилашвили	-11.4174
▁бесперебойн	-11.4174
▁биньямин	-11.4174
▁благотворительн	-11.4174
▁брикс	-11.4174
▁бронепоезд	-11.4174
▁ведерников	-11.4174
▁верблюда	-11.4174
▁внебюджетны	-11.4174
▁возражали	-11.4174
▁волгодонск	-11.4174
▁встретят	-11.4174
▁выдворени	-11.4174
▁гентингтона	-11.4174
▁госкорпораци	-11.4174
▁госуниверситет	-11.4174
▁градуса	-11.4174
▁григори	-11.4174
▁григорьянц	-11.4174
▁григорян	-11.4174
▁двадцат	-11.4174
▁декабрь	-11.4174
▁демпфер	-11.4174
▁диаспоры	-11.4174
▁дивизион	-11.4174
▁дихлофос	-11.4174
▁дошкольны	-11.4174
▁драгоценны	-11.4174
▁драматург	-11.4174
▁енисейлогистика	-11.4174
▁жаловань	-11.4174
▁закупочн	-11.4174
▁заплатил	-11.4174
▁запчастей	-11.4174
▁инсцениров	-11.4174
▁испытыва	-11.4174
▁история	-11.4174
▁исчерпан	-11.4174
▁кибератак	-11.4174
▁килограмм	-11.4174
▁клепиков	-11.4174
▁комбинированн	-11.4174
▁комендант	-11.4174
▁коронавирус	-11.4174
▁кочеров	-11.4174
▁красот	-11.4174
▁кровлю	-11.4174
▁круглогодичн	-11.4174
▁ласточка	-11.4174
▁легализаци	-11.4174
▁ливийск	-11.4174
▁лизинг	-11.4174
▁лэп	-11.4174
▁маневр	-11.4174
▁махинаци	-11.4174
▁мебели	-11.4174
▁мечел	-11.4174
▁миннигулов	-11.4174
▁молдавию	-11.4174
▁морозова	-11.4174
▁надлежаще	-11.4174
▁наурская	-11.4174
▁недалеко	-11.4174
▁немедленно	-11.4174
▁неофициальны	-11.4174
▁несовместим	-11.4174
▁несогласованны	-11.4174
▁нетаньяху	-11.4174
▁новокольцовский	-11.4174
▁нулю	-11.4174
▁обусловлен	-11.4174
▁овощи	-11.4174
▁овсянников	-11.4174
▁одномандатны	-11.4174
▁опухоле	-11.4174
▁орбита	-11.4174
▁оркестр	-11.4174
▁особей	-11.4174
▁отвоевать	-11.4174
▁отсыпа	-11.4174
▁оценок	-11.4174
▁очевидн	-11.4174
▁памфилов	-11.4174
▁пенсионны	-11.4174
▁першенков	-11.4174
▁планировании	-11.4174
▁плахотнюк	-11.4174
▁побольше	-11.4174
▁повседневн	-11.4174
▁похолодание	-11.4174
▁похоронно	-11.4174
▁преврати	-11.4174
▁прекрасн	-11.4174
▁преподавателей	-11.4174
▁преступлении	-11.4174
▁прокопьевск	-11.4174
▁просроченн	-11.4174
▁реализовывать	-11.4174
▁регулярны	-11.4174
▁редкоземельны	-11.4174
▁репутаци	-11.4174
▁риторик	-11.4174
▁ройзман	-11.4174
▁росэнергоатом	-11.4174
▁рудских	-11.4174
▁рюмкин	-11.4174
▁сарапульцев	-11.4174
▁саудовск	-11.4174
▁сахабутдинова	-11.4174
▁сбоев	-11.4174
▁свадьбу	-11.4174
▁свердлова	-11.4174
▁светофор	-11.4174
▁сигарет	-11.4174
▁синтетическ	-11.4174
▁спасателям	-11.4174
▁спасибо	-11.4174
▁стекло	-11.4174
▁сэкономит	-11.4174
▁таврида	-11.4174
▁телесуфлер	-11.4174
▁трамвае	-11.4174
▁транза	-11.4174
▁тремасов	-11.4174
▁уваров	-11.4174
▁увольнени	-11.4174
▁угодий	-11.4174
▁урожен	-11.4174
▁условии	-11.4174
▁физкультур	-11.4174
▁франчайз	-11.4174
▁хайруллин	-11.4174
▁херсонск	-11.4174
▁хмелевского	-11.4174
▁хохлома	-11.4174
▁целенаправленн	-11.4174
▁эвакуиру	-11.4174
▁экстремальны	-11.4174
▁электросамокат	-11.4174
▁энергией	-11.4174
▁энергия	-11.4174
▁эскалатор	-11.4174
▁эскалации	-11.4174
▁эффективная	-11.4174
▁юстиции	-11.4174
лесоохран	-11.4174
▁агидол	-11.4174
▁акцент	-11.4174
▁баллотирова	-11.4174
▁белорусско	-11.4174
▁величин	-11.4174
▁гранит	-11.4174
▁гряз	-11.4174
▁демонстрирова	-11.4174
▁динозавр	-11.4174
▁кнопк	-11.4174
▁консультант	-11.4174
▁легально	-11.4174
▁легендарн	-11.4174
▁моисеев	-11.4174
▁наезд	-11.4174
▁неожиданн	-11.4174
▁огэ	-11.4174
▁олви	-11.4174
▁осипов	-11.4174
▁пенсию	-11.4174
▁перераспределен	-11.4174
▁переславл	-11.4174
▁письма	-11.4174
▁поклон	-11.4174
▁полянский	-11.4174
▁предназнача	-11.4174
▁преоблада	-11.4174
▁прилага	-11.4174
▁проверок	-11.4174
▁свеза	-11.4174
▁студенческ	-11.4174
▁такиэддин	-11.4174
▁уайатт	-11.4174
▁учитывая	-11.4174
▁хабаровск	-11.4174
▁храма	-11.4174
sci	-11.4174
литровы	-11.4174
модифицированн	-11.4174
растущи	-11.4174
▁выпал	-11.4174
▁глеб	-11.4174
▁котиров	-11.4174
▁облцентре	-11.4174
▁ожидаемо	-11.4174
▁орлан	-11.4174
▁осложнений	-11.4174
▁пересматрива	-11.4174
▁позициониру	-11.4174
▁приземли	-11.4174
▁проанализирова	-11.4174
▁пьес	-11.4174
▁ребят	-11.4174
▁смягчи	-11.4174
▁справоросс	-11.4174
▁учений	-11.4174
▁куваев	-11.4174
▁лебедев	-11.4174
▁опусти	-11.4174
▁яцкин	-11.4174
шаттл	-11.4174
шлема	-11.4174
▁авторитет	-11.4174
▁гимн	-11.4174
▁зарубин	-11.4174
▁клеток	-11.4174
▁насосн	-11.4174
▁сердечн	-11.4174
▁чкалов	-11.4174
▁value	-11.4174
▁заставля	-11.4174
▁здорово	-11.4174
▁иначе	-11.4174
▁карелин	-11.4174
▁перенаправи	-11.4174
▁сбермобайл	-11.4174
полосн	-11.4174
▁горячи	-11.4174
▁доверя	-11.4174
▁земства	-11.4174
▁копытны	-11.4174
▁кстати	-11.4174
▁майкопско	-11.4174
▁можгинк	-11.4174
▁орден	-11.4174
▁шторм	-11.4174
▁диод	-11.4174
▁погибшими	-11.4174
▁ситников	-11.4174
▁случаи	-11.4174
предшественник	-11.4174
▁июнь	-11.4174
возможностями	-11.4174
▁выгул	-11.4174
▁башен	-11.4174
▁сказать	-11.4174
▁ходоровско	-11.4174
▁понесен	-11.4174
over	-11.4174
лексик	-11.4174
▁дожди	-11.4174
▁набросил	-11.4174
▁осудил	-11.4174
▁рутинны	-11.4174
▁спуск	-11.4174
▁удостоенны	-11.4174
камчатк	-11.4174
tech	-11.4174
рзин	-11.4174
штурм	-11.4174
▁орске	-11.4174
▁телевизор	-11.4174
▁потребность	-11.4174
▁разбойн	-11.4174
▁сортов	-11.4174
▁посев	-11.4174
▁азот	-11.4174
▁вкус	-11.4174
▁мозаик	-11.4174
▁организуе	-11.4174
кустарников	-11.4174
▁дверей	-11.4174
▁патоген	-11.4174
▁ямкин	-11.4174
glo	-11.4174
▁правительству	-11.4174
▁сложностей	-11.4174
▁громки	-11.4174
▁росхим	-11.4174
▁латви	-11.4174
терпение	-11.4174
▁самозанятости	-11.4174
▁томатов	-11.4174
▁информировал	-11.4174
▁отсутствует	-11.4174
логотип	-11.4174
rie	-11.4174
▁нестеренко	-11.4174
▁смольн	-11.4174
▁изменя	-11.4174
▁умерших	-11.4174
влажн	-11.4174
▁медве	-11.4174
▁обознач	-11.4174
▁dma	-11.4174
▁чаши	-11.4174
▁мартинес	-11.4174
▁медаль	-11.4174
▁расскажет	-11.4174
▁выкладыва	-11.4174
▁инвестпроект	-11.4174
▁обращению	-11.4174
▁новочеркасск	-11.4174
▁заклад	-11.4174
▁литератур	-11.4174
▁написан	-11.4174
▁mari	-11.4174
▁велосипедист	-11.4174
▁продлева	-11.4174
▁резин	-11.4174
▁принципиальн	-11.4174
▁халид	-11.4174
▁дубай	-11.4174
▁шаркс	-11.4174
▁ali	-11.4174
▁наделил	-11.4174
▁были	-11.4174
▁животными	-11.4174
▁шоки	-11.4174
тографи	-11.4174
▁скридструп	-11.4174
▁яковлев	-11.4174
▁тейлор	-11.4174
скандал	-11.4174
▁горелых	-11.4174
▁упаковке	-11.4174
▁шестнадцат	-11.4174
▁слитк	-11.4174
▁пентагон	-11.4174
▁возложен	-11.4174
▁щит	-11.4174
отрез	-11.4174
▁схема	-11.4175
▁дозаправки	-11.4175
▁подлежит	-11.4175
▁привокзальн	-11.4175
▁гидроизоляци	-11.4175
▁необычн	-11.4175
▁maga	-11.4175
▁передовы	-11.4175
▁разрешению	-11.4175
▁руслан	-11.4175
▁цитиру	-11.4175
▁содов	-11.4175
▁кузов	-11.4175
▁мошеннически	-11.4175
▁медали	-11.4175
▁видеосервис	-11.4175
▁ломо	-11.4175
▁нефтепродукты	-11.4175
▁погибшие	-11.4175
▁прохладн	-11.4175
▁губерн	-11.4175
▁песен	-11.4175
▁очкам	-11.4175
▁бывает	-11.4175
▁добры	-11.4175
▁упаковку	-11.4175
▁заброшенн	-11.4175
▁резолю	-11.4175
▁автозаправках	-11.4175
▁займут	-11.4175
▁отборочно	-11.4175
▁соцсетей	-11.4175
▁придержива	-11.4175
▁коробок	-11.4175
▁куликов	-11.4175
▁ранением	-11.4175
▁ветеран	-11.4176
▁car	-11.4176
▁соединений	-11.4176
узлов	-11.4176
▁hrm	-11.4176
▁пятиэтажно	-11.4176
учтен	-11.4176
▁аминов	-11.4176
▁ошибочны	-11.4176
ерской	-11.4176
вложений	-11.4176
▁украшения	-11.4176
▁путев	-11.4176
▁арсен	-11.4176
▁электромотор	-11.4176
▁аудиторию	-11.4176
▁встал	-11.4176
▁веще	-11.4176
▁зерно	-11.4176
▁черепанов	-11.4176
▁основател	-11.4177
ушки	-11.4177
▁заказу	-11.4177
▁давности	-11.4177
▁инвестициям	-11.4177
▁следовало	-11.4177
▁звер	-11.4177
▁беларусь	-11.4177
▁бактериями	-11.4177
▁бронирования	-11.4177
▁обязательным	-11.4177
▁близко	-11.4177
▁спуститься	-11.4177
▁курения	-11.4177
▁религи	-11.4177
маркетолог	-11.4177
▁цокольн	-11.4177
▁инфо	-11.4177
прыг	-11.4177
▁радости	-11.4178
▁джин	-11.4178
▁укрепить	-11.4178
▁выяснить	-11.4178
▁планирования	-11.4178
▁гармони	-11.4178
▁киль	-11.4178
▁глубок	-11.4178
▁ужин	-11.4178
▁давно	-11.4178
derm	-11.4178
▁претендентов	-11.4178
▁полуфинал	-11.4178
фомс	-11.4178
▁квалификационн	-11.4178
▁благоустро	-11.4178
▁раскрываются	-11.4178
▁учреждении	-11.4179
▁филиппин	-11.4179
fis	-11.4179
▁пользова	-11.4179
когда	-11.4179
led	-11.4179
▁бомб	-11.4179
▁загс	-11.4179
▁дистанци	-11.4179
▁простит	-11.4179
▁элитн	-11.418
▁озерной	-11.418
просмотр	-11.418
щил	-11.418
▁пандемии	-11.418
▁подкуп	-11.418
▁серноводское	-11.418
▁возьм	-11.418
▁почувствовал	-11.418
▁набор	-11.418
▁назар	-11.418
▁расчи	-11.418
dan	-11.418
▁знакомому	-11.4181
▁ag	-11.4181
▁девушки	-11.4181
▁расторгнут	-11.4181
▁случивше	-11.4181
▁конструкцию	-11.4181
▁страхованию	-11.4181
▁минус	-11.4181
ламы	-11.4181
▁посредником	-11.4181
ios	-11.4181
▁осло	-11.4181
▁ранне	-11.4181
▁бога	-11.4181
шахт	-11.4181
▁почте	-11.4181
▁сетям	-11.4181
▁парковок	-11.4181
▁информационным	-11.4182
ашкин	-11.4182
▁кампуса	-11.4182
ношен	-11.4182
▁люк	-11.4182
▁хроническ	-11.4182
▁украшений	-11.4182
▁парковки	-11.4182
▁березниковск	-11.4182
авления	-11.4182
▁лидерства	-11.4183
▁крепк	-11.4183
▁арендованно	-11.4183
▁присоединени	-11.4183
▁фур	-11.4183
▁соседки	-11.4183
▁датчик	-11.4183
емость	-11.4184
▁спортсмены	-11.4184
▁умерла	-11.4184
крови	-11.4184
dia	-11.4184
▁востока	-11.4184
▁бит	-11.4184
▁документация	-11.4184
▁руче	-11.4184
▁звание	-11.4184
прозрачность	-11.4184
▁новорожденн	-11.4185
▁замедля	-11.4185
▁особенности	-11.4185
▁путей	-11.4185
океан	-11.4185
▁степанов	-11.4185
▁взносов	-11.4185
▁произведения	-11.4185
онного	-11.4185
▁достойн	-11.4185
▁застрелил	-11.4185
▁кабанов	-11.4185
▁кад	-11.4185
▁аудитория	-11.4185
▁дебют	-11.4185
риф	-11.4185
▁багажник	-11.4186
▁трансформаци	-11.4186
▁современное	-11.4186
▁формальн	-11.4186
▁передне	-11.4186
▁загрязнении	-11.4186
цид	-11.4186
▁материалах	-11.4186
▁дистанционно	-11.4186
▁возникающи	-11.4186
▁быстрым	-11.4186
▁коков	-11.4187
▁предполагают	-11.4187
▁быка	-11.4187
▁отрицал	-11.4187
▁перевал	-11.4188
▁броск	-11.4188
▁гибридов	-11.4188
▁пострадавшей	-11.4188
ets	-11.4188
▁старинн	-11.4188
налогоплательщик	-11.4188
▁куль	-11.4188
итета	-11.4188
▁смс	-11.4188
хнул	-11.4188
▁призер	-11.4189
▁жена	-11.4189
▁ручно	-11.4189
▁россиянина	-11.4189
▁аксайском	-11.4189
▁содеянном	-11.4189
▁штам	-11.419
▁контролируем	-11.419
▁зарабатывать	-11.419
▁насекомых	-11.4191
тельную	-11.4191
▁лыс	-11.4191
▁предельно	-11.4191
▁желающих	-11.4192
гараж	-11.4192
▁нарушен	-11.4192
▁болельщиков	-11.4192
▁талантов	-11.4192
▁ишим	-11.4192
▁авиарейсов	-11.4193
▁объясняли	-11.4193
▁наций	-11.4193
нько	-11.4193
▁отста	-11.4194
▁необ	-11.4194
▁стоять	-11.4194
▁допускается	-11.4194
▁бил	-11.4194
▁заявленных	-11.4194
▁увеличиваться	-11.4195
▁дипломатическо	-11.4196
▁облако	-11.4196
▁каким	-11.4196
▁оспор	-11.4196
▁регулированию	-11.4196
▁одноименн	-11.4196
▁лотов	-11.4197
▁правонарушени	-11.4197
▁соседей	-11.4197
▁вымогательств	-11.4197
▁криминальн	-11.4198
▁туев	-11.4198
▁замечен	-11.4198
▁понимание	-11.4198
помех	-11.4199
▁вспыхнул	-11.4199
▁претендова	-11.4199
▁отчит	-11.4199
▁серебро	-11.4199
▁спецодежды	-11.4199
▁дворц	-11.4199
▁алмазов	-11.42
катав	-11.42
▁балконов	-11.42
паллет	-11.42
▁архангельской	-11.42
▁захаровой	-11.42
электроснабжения	-11.42
▁экзаменов	-11.42
▁дилеров	-11.42
▁подписей	-11.42
▁работодатель	-11.4201
▁ставит	-11.4201
▁отель	-11.4202
▁дубровского	-11.4202
▁афганистана	-11.4203
▁градоначальника	-11.4203
▁первенства	-11.4203
▁рагаса	-11.4203
▁жданова	-11.4203
▁королева	-11.4203
▁животноводства	-11.4203
▁боко	-11.4203
▁минимущества	-11.4203
▁канады	-11.4203
▁лекарствами	-11.4203
тнес	-11.4203
▁присягу	-11.4204
ден	-11.4204
▁станцию	-11.4204
▁фабрик	-11.4204
▁неприязни	-11.4204
▁румынии	-11.4204
▁фасады	-11.4205
▁вкладов	-11.4205
младший	-11.4206
▁вероятность	-11.4206
▁мартин	-11.4206
▁мошенников	-11.4207
▁виз	-11.4208
▁пригородн	-11.4208
▁бен	-11.4209
денко	-11.4209
▁груст	-11.4209
▁снижает	-11.4209
▁дошл	-11.4209
▁родин	-11.4209
▁проинформирова	-11.421
▁реставрации	-11.421
оотечественников	-11.4211
▁трансформатор	-11.4211
▁угличе	-11.4212
▁начинает	-11.4213
жапа	-11.4213
▁имеюще	-11.4213
▁аккредитова	-11.4213
▁разработчиков	-11.4214
▁сал	-11.4215
▁рассматриваем	-11.4215
▁крылья	-11.4216
▁приостановлено	-11.4216
▁исполня	-11.4216
▁сохраняются	-11.4217
▁партнерство	-11.4217
▁названи	-11.4218
▁прибега	-11.4218
▁лат	-11.4219
▁воронежская	-11.4219
▁диан	-11.422
▁санатория	-11.422
▁урожая	-11.422
ami	-11.422
▁погибла	-11.4221
▁прозвучал	-11.4221
▁зна	-11.4222
▁строение	-11.4223
▁крылов	-11.4223
▁тамбовская	-11.4223
▁давал	-11.4225
▁приставы	-11.4225
▁взносам	-11.4227
▁привод	-11.4228
▁минюстом	-11.4229
▁мессенджерах	-11.4229
▁родственникам	-11.4229
▁готовит	-11.4229
▁агропромышленн	-11.423
▁пометк	-11.423
▁финалист	-11.4231
▁организатором	-11.4231
▁балет	-11.4231
▁реабилитацию	-11.4231
▁швейн	-11.4232
▁алис	-11.4233
▁тайно	-11.4233
▁яхты	-11.4233
▁создателя	-11.4233
▁кандидатуры	-11.4233
вшегося	-11.4234
▁исково	-11.4235
▁хаб	-11.4235
▁тольяттинск	-11.4236
вич	-11.4236
▁горнол	-11.4237
▁штенгеловых	-11.4237
▁завершает	-11.4237
▁госслужащи	-11.4237
▁мос	-11.4237
энд	-11.4237
▁микрорайона	-11.4238
▁правонарушения	-11.4238
▁локомотивов	-11.4238
▁инженеров	-11.4238
▁погрузк	-11.4238
▁сняты	-11.4239
▁расчетов	-11.4239
граф	-11.4241
▁победил	-11.4241
▁верующи	-11.4242
▁признавал	-11.4242
▁аси	-11.4243
▁обещан	-11.4244
▁перекрестк	-11.4244
▁разделя	-11.4245
▁методов	-11.4245
▁уай	-11.4245
▁мандатов	-11.4245
▁частот	-11.4246
аккредитаци	-11.4246
▁завершени	-11.4248
▁отправят	-11.4248
▁чьи	-11.4248
▁баллы	-11.4248
▁воспринимают	-11.4249
центра	-11.425
финансируют	-11.425
▁выясняется	-11.425
▁толка	-11.4251
▁месторождений	-11.4251
▁наличных	-11.4252
▁наименований	-11.4253
▁преодолел	-11.4253
▁гражданства	-11.4253
▁комнаты	-11.4253
▁североуральска	-11.4253
▁сомнений	-11.4253
ование	-11.4253
▁конева	-11.4255
▁евросоюзом	-11.4255
гуля	-11.4255
▁парад	-11.4255
▁знаменитост	-11.4256
▁авторов	-11.4257
▁движени	-11.4257
▁осужденн	-11.4258
▁господдержки	-11.4258
▁дипмиссии	-11.4258
▁экскурсии	-11.4258
▁электропередачи	-11.4258
▁трубопроводны	-11.4258
▁швейцарии	-11.4259
▁дискуссий	-11.4262
▁лнр	-11.4262
▁гуандун	-11.4262
▁тсж	-11.4262
▁правда	-11.4262
▁сырья	-11.4262
▁разбира	-11.4263
▁ворота	-11.4263
▁определят	-11.4264
▁низк	-11.4264
▁башням	-11.4266
▁нападении	-11.4267
награждения	-11.427
▁карман	-11.4272
▁ежегодны	-11.4272
▁огнем	-11.4274
▁обучения	-11.4274
▁деб	-11.4274
▁победителей	-11.4274
▁секретаря	-11.4274
▁территориальном	-11.4275
▁остановил	-11.4276
▁управленчески	-11.4276
▁выгодно	-11.4277
▁освоени	-11.4279
▁регистрация	-11.4279
▁кот	-11.4279
▁содействие	-11.4279
▁тестирование	-11.4279
▁электрических	-11.4279
▁протапливание	-11.428
▁отравление	-11.428
▁стартов	-11.428
▁устанавливающи	-11.4281
▁переписк	-11.4282
образовательны	-11.4283
▁односторонн	-11.4283
▁жертвы	-11.4284
▁образц	-11.4284
сесть	-11.4284
▁пробы	-11.4285
▁подробностей	-11.4285
▁аква	-11.4286
пун	-11.4287
остях	-11.4289
▁помощником	-11.429
▁шолоховском	-11.429
▁швейцария	-11.4291
▁используем	-11.4291
разум	-11.4296
▁проживани	-11.4296
▁интересно	-11.4296
▁играть	-11.4299
удобства	-11.4299
таш	-11.43
▁электричеством	-11.43
бот	-11.4301
оров	-11.4302
▁публиковал	-11.4302
▁прост	-11.4302
▁шум	-11.4302
▁переработку	-11.4304
▁въезда	-11.4305
▁гидрометцентра	-11.4305
▁надежда	-11.4306
▁обнаружила	-11.4307
▁мура	-11.4307
▁выступаю	-11.4308
▁фг	-11.4309
▁возглавит	-11.431
▁сезонов	-11.4313
▁корректировки	-11.4313
▁цифровизации	-11.4314
▁гонконга	-11.4314
▁трагедии	-11.4314
▁версия	-11.4315
▁расселени	-11.4316
▁эксперимента	-11.4317
▁отправлял	-11.4318
▁трубы	-11.4319
▁станциях	-11.4321
▁шайбу	-11.4324
▁современным	-11.4325
▁преимуществом	-11.4325
▁подключат	-11.4326
▁петровско	-11.4326
▁открыта	-11.4326
▁сим	-11.4328
▁стандарту	-11.4332
▁кражу	-11.4333
▁выступающи	-11.4334
янао	-11.4334
▁облачным	-11.4336
▁приехал	-11.4337
спла	-11.4337
ждаться	-11.4337
▁участками	-11.4341
▁сергеев	-11.4341
▁спикером	-11.4341
▁суверенитета	-11.4342
▁замкну	-11.4345
▁пед	-11.4346
▁универсальны	-11.4347
▁подозреваемых	-11.4348
▁конфликтов	-11.4349
▁электродвигател	-11.4349
▁раунде	-11.4349
▁израиле	-11.435
▁закрытым	-11.4351
ителей	-11.4352
▁транспортировке	-11.4352
▁аварийного	-11.4353
▁результатом	-11.4353
аэс	-11.4353
▁складыва	-11.4354
▁недвижимо	-11.4355
просветительски	-11.4356
▁привилегий	-11.4356
▁шеин	-11.4357
▁идеальны	-11.4358
▁курбанова	-11.4358
▁новоуральска	-11.4358
▁сельсовета	-11.4358
▁выделени	-11.4358
▁маска	-11.4358
▁урана	-11.4359
▁заболеванием	-11.4359
▁палата	-11.436
▁воспринимает	-11.4361
▁маски	-11.4361
▁позиций	-11.4362
лежа	-11.4362
▁анапа	-11.4363
▁просвещени	-11.4363
ara	-11.4364
▁повестку	-11.4367
▁демократически	-11.4369
▁женихи	-11.4369
▁инфекции	-11.4369
▁железнодорожник	-11.4374
▁знаков	-11.4374
▁тагил	-11.4377
▁ценность	-11.4377
▁корпоративных	-11.4377
▁авиационным	-11.4378
▁приволжском	-11.4378
▁введенны	-11.438
емые	-11.4382
▁шеи	-11.4382
▁дилерски	-11.4382
▁образован	-11.4383
▁комнатах	-11.4385
▁добива	-11.4386
есной	-11.4387
атором	-11.4387
▁записа	-11.439
▁убедить	-11.439
▁востребованным	-11.4391
▁стремит	-11.4391
▁чек	-11.4395
▁пешеходном	-11.4395
▁киева	-11.4396
▁калини	-11.4396
▁отличие	-11.4399
▁резервных	-11.4401
▁укладк	-11.4405
агентов	-11.4409
▁путешествий	-11.441
▁приют	-11.4411
▁терроризма	-11.4411
▁балла	-11.4413
▁порога	-11.4413
▁ночны	-11.4414
тической	-11.4414
▁блокад	-11.4415
▁перерыва	-11.4415
▁подрыва	-11.4416
ступают	-11.4416
▁несоблюдени	-11.4417
▁медицина	-11.4417
▁nbc	-11.4417
▁целево	-11.4417
▁знал	-11.4418
▁ценных	-11.4418
горский	-11.4419
перевозчиков	-11.4419
▁адлере	-11.442
▁разрушение	-11.4422
▁угрозой	-11.4424
▁выработки	-11.4425
тинского	-11.4427
▁указана	-11.4428
▁услугах	-11.443
▁предположи	-11.4432
▁переходом	-11.4434
▁прогнозу	-11.4434
▁волгограде	-11.4435
▁травму	-11.4435
▁замороженны	-11.4436
▁столов	-11.4439
▁уходит	-11.4439
давать	-11.4442
▁сторонник	-11.4445
▁бельгийск	-11.4446
▁неприемлемым	-11.4447
онг	-11.4448
▁макроном	-11.4453
▁нынешни	-11.4453
▁зас	-11.4453
▁чужи	-11.4455
пик	-11.4456
▁генераторов	-11.4459
▁течени	-11.4459
льс	-11.4459
▁другая	-11.4462
▁логистика	-11.4464
▁лимита	-11.4464
▁водители	-11.4465
▁ориентирован	-11.4467
колор	-11.4468
чева	-11.4468
▁силами	-11.447
▁центральным	-11.4471
▁кажется	-11.4471
▁школу	-11.4472
▁займа	-11.4474
▁документах	-11.4475
▁выплатах	-11.4478
▁пут	-11.448
▁прекратили	-11.4484
▁pr	-11.4485
павшего	-11.4488
▁методам	-11.4491
▁исполняюще	-11.4494
кейсов	-11.4494
▁публикация	-11.4498
▁посредника	-11.4498
▁энергетике	-11.4503
▁иванова	-11.4504
▁правило	-11.4506
восток	-11.4509
▁демократическим	-11.4509
▁пропустит	-11.451
сформировать	-11.4512
месячны	-11.4513
▁выплачивает	-11.4513
▁предполагаемо	-11.4515
крти	-11.4519
tra	-11.4519
▁институтам	-11.452
▁нату	-11.4521
▁романов	-11.4526
▁выводу	-11.4528
▁бака	-11.4529
▁преступника	-11.4532
победитель	-11.4533
▁стату	-11.454
▁ужесточение	-11.4543
▁изменениями	-11.4544
▁надзорны	-11.4545
▁задействова	-11.4546
▁бойца	-11.455
▁закрытие	-11.4552
▁важн	-11.4553
▁органам	-11.4553
▁представило	-11.4554
▁надзорным	-11.4557
▁подвижн	-11.4558
▁распоряжения	-11.4559
▁оплачива	-11.456
▁сильны	-11.4563
▁тяжелое	-11.4566
▁диалога	-11.4572
овала	-11.4574
▁глуб	-11.4574
▁яшина	-11.4574
трейдер	-11.4577
чка	-11.4578
▁оэз	-11.4579
вный	-11.4579
▁минуты	-11.4582
▁магазин	-11.4583
▁верховном	-11.4584
▁лабораторны	-11.4585
▁легкие	-11.4586
▁камне	-11.4587
▁практики	-11.4588
▁наступательны	-11.4591
▁зим	-11.4592
смысл	-11.4592
уральском	-11.4593
вской	-11.4595
▁теннисистк	-11.46
▁дорогой	-11.4601
▁фасадны	-11.4609
▁тренера	-11.4609
▁многоэтажны	-11.461
▁объявля	-11.4611
▁самара	-11.4611
▁рассчитывал	-11.4612
▁собственникам	-11.4612
▁чебоксара	-11.4613
▁автомобилиста	-11.4614
▁следам	-11.4614
фил	-11.4616
▁прежним	-11.4616
▁полугодия	-11.4619
▁похожа	-11.462
восточном	-11.4624
▁ba	-11.4625
▁стабильны	-11.4626
▁бабушки	-11.4626
▁сбыта	-11.4626
▁задним	-11.4626
▁локомотива	-11.4628
▁членам	-11.4629
▁нг	-11.4631
▁обновил	-11.4632
▁связал	-11.4637
▁авторски	-11.464
▁ваши	-11.4644
▁допускают	-11.4646
▁пятигорск	-11.4648
отор	-11.465
▁минуту	-11.4655
▁взяли	-11.4656
▁долевом	-11.4656
▁инцидентам	-11.4657
▁тепличны	-11.4659
▁марии	-11.4662
▁колонк	-11.4663
эн	-11.4667
учать	-11.4668
▁фиксирует	-11.4674
▁ноги	-11.468
▁боя	-11.4681
гс	-11.4681
▁делегация	-11.4685
▁трамвайн	-11.4685
▁стабильной	-11.4687
▁третья	-11.469
украинском	-11.4694
боте	-11.4695
▁гола	-11.4705
четной	-11.4709
льва	-11.4718
▁кро	-11.472
▁столичн	-11.4721
показы	-11.4722
киринско	-11.4722
щика	-11.4731
▁ватикана	-11.4737
▁кроссовера	-11.4737
екс	-11.474
▁учиться	-11.4747
расим	-11.4747
ide	-11.4749
▁стенк	-11.4751
▁завершена	-11.4751
тки	-11.4752
▁стрем	-11.4756
▁явление	-11.4758
две	-11.4761
▁пассажира	-11.4764
▁межрайонны	-11.4766
▁забо	-11.4766
▁отношениях	-11.4772
▁культура	-11.4775
▁регулирующ	-11.4776
▁самовыдвиженц	-11.4782
▁конкретном	-11.4783
щики	-11.4785
▁машину	-11.4787
▁банком	-11.4788
▁прожива	-11.4788
▁мерой	-11.4789
▁фондом	-11.4789
▁металло	-11.4792
▁открывает	-11.4797
time	-11.4798
▁отказывал	-11.48
▁врача	-11.4805
▁атакой	-11.4809
▁движением	-11.4812
▁квартала	-11.4813
▁программах	-11.4822
пера	-11.4826
▁окнами	-11.4828
ven	-11.483
▁обычном	-11.4833
▁достал	-11.4836
▁краткосрочн	-11.4847
▁показания	-11.4848
▁приоритетн	-11.4853
▁оригинальны	-11.4855
▁альтернативн	-11.4857
▁избраны	-11.4861
видят	-11.4866
аева	-11.4867
▁единств	-11.4874
консультационн	-11.4878
▁рубежа	-11.4889
▁городом	-11.4889
▁оправдан	-11.489
▁газо	-11.4894
▁удерживал	-11.4896
▁рекордны	-11.4897
▁муниципалитетам	-11.4899
▁меня	-11.4901
▁рейсах	-11.4909
▁объемов	-11.4914
▁умышленно	-11.4915
метростроя	-11.4916
▁метра	-11.4917
▁кам	-11.4921
▁торжественно	-11.4922
▁законов	-11.4932
обно	-11.4934
▁интерфаксе	-11.4935
ликвидировано	-11.494
резиденты	-11.4942
сия	-11.4947
▁подключение	-11.4959
национализирован	-11.4959
▁подтверждена	-11.4962
▁эд	-11.4962
▁потенциала	-11.497
▁фиксированны	-11.4971
▁депутатам	-11.4971
▁итоговы	-11.4974
ования	-11.4975
▁театрально	-11.4976
▁культуре	-11.4982
▁индустриальны	-11.4982
▁госконтракта	-11.4996
▁частном	-11.4997
▁квт	-11.5006
ица	-11.5017
▁собеседника	-11.5019
▁потока	-11.5019
▁изменениям	-11.5027
▁выпусти	-11.5027
▁прогноза	-11.503
избрания	-11.5031
▁задерживают	-11.5032
▁политической	-11.5036
▁идее	-11.5037
▁нева	-11.5042
▁зло	-11.5043
▁балансе	-11.505
нес	-11.5055
▁продвижение	-11.5059
точные	-11.5062
чане	-11.5062
▁курирова	-11.5066
▁расп	-11.5067
▁представляющ	-11.5068
▁стоящи	-11.5069
▁инвестирова	-11.5077
▁пару	-11.5079
▁результативным	-11.508
▁конс	-11.5089
реми	-11.5091
▁кредита	-11.5096
▁меняет	-11.51
▁подведен	-11.511
▁депутатски	-11.5111
▁огранич	-11.512
инске	-11.5125
▁хорошев	-11.513
▁друга	-11.513
▁отраслев	-11.5131
▁уменьшил	-11.5137
▁высокими	-11.5139
▁основанны	-11.5144
гус	-11.5146
навыков	-11.5147
▁берега	-11.5152
▁доходах	-11.5154
▁скач	-11.5156
▁заявляли	-11.5158
▁угольны	-11.5164
▁создател	-11.5166
▁участках	-11.5166
нков	-11.5169
ложить	-11.5169
▁пристав	-11.5169
▁итальянски	-11.5182
зер	-11.5187
▁выполнил	-11.5189
▁античн	-11.5192
▁передачей	-11.5193
пут	-11.5195
▁заде	-11.5198
▁изуч	-11.5215
▁превыси	-11.5217
▁учредител	-11.5219
▁обоснован	-11.5222
▁подросткам	-11.5226
▁томска	-11.5233
▁черноморско	-11.5233
▁секретны	-11.5238
▁признав	-11.5239
▁лос	-11.5242
▁наступление	-11.5253
▁дворовы	-11.5254
▁приступит	-11.5271
▁обустройство	-11.5279
▁компьютерно	-11.5281
▁гражданами	-11.5283
▁комфорт	-11.5289
▁кассационны	-11.5292
▁физические	-11.5296
obl	-11.5309
▁прекрат	-11.5312
▁бюджеты	-11.5316
▁топливн	-11.5317
▁совместн	-11.5317
▁привлекают	-11.5332
▁университете	-11.5339
▁минфина	-11.534
▁разделен	-11.5359
▁предоставит	-11.5364
▁безопасн	-11.5365
▁реестра	-11.5371
▁грунт	-11.5374
▁популярн	-11.5384
▁аэродрома	-11.539
▁возведение	-11.5393
▁инн	-11.5394
▁мясно	-11.5395
▁усиление	-11.5397
▁символ	-11.5403
кредитн	-11.5405
▁приоритетам	-11.5409
▁водопроводн	-11.5412
▁нп	-11.5418
▁сделке	-11.5422
▁корма	-11.5431
▁снизит	-11.5437
ляет	-11.544
▁обсуждать	-11.5442
▁шага	-11.5443
▁построени	-11.5455
▁знамен	-11.5458
▁предоставля	-11.5467
▁продажам	-11.547
▁легково	-11.5473
▁переименова	-11.5477
ститель	-11.5478
программирования	-11.5479
▁стерлитамак	-11.5481
▁кн	-11.5483
ицы	-11.5484
▁приноси	-11.5485
дающих	-11.5494
▁лот	-11.5497
▁региональным	-11.5498
▁лука	-11.5505
имся	-11.5508
▁дата	-11.551
▁утвержда	-11.5512
▁казахстане	-11.5514
▁заход	-11.5521
▁фигуриру	-11.5524
▁клиентк	-11.553
онам	-11.5534
▁духовно	-11.5536
занятых	-11.554
▁уверенны	-11.5547
должник	-11.5554
▁чиновникам	-11.5565
▁отложен	-11.5573
▁альтернатив	-11.5573
▁мусор	-11.5579
▁победительница	-11.5581
▁борта	-11.5595
точку	-11.5596
▁завал	-11.5612
▁автобусе	-11.5622
▁инновационны	-11.5635
ческо	-11.5638
▁кадр	-11.564
▁приговорен	-11.5649
▁хищение	-11.5656
tor	-11.5657
▁активаци	-11.5669
▁кадра	-11.568
▁наносит	-11.5686
▁населенн	-11.5687
▁видам	-11.5696
полнения	-11.571
▁колеса	-11.5711
▁шла	-11.5728
▁честн	-11.5747
▁переизбран	-11.5777
▁проводил	-11.5787
ite	-11.5788
▁ярославском	-11.5792
▁возобнов	-11.5792
ssa	-11.5793
▁диагностическ	-11.5795
комплектов	-11.5795
▁инженерно	-11.58
классы	-11.5801
▁арестованно	-11.5804
▁игор	-11.5804
ляр	-11.5806
▁арбитраж	-11.5809
чук	-11.581
разов	-11.5812
▁харитоновск	-11.5835
▁запустит	-11.5846
сайтов	-11.5852
ического	-11.5855
▁сообщало	-11.5871
▁is	-11.5881
ллин	-11.5888
▁белгород	-11.589
▁нек	-11.5898
▁запуст	-11.5901
дизайнер	-11.5937
▁соперника	-11.594
изова	-11.5943
энергетики	-11.5944
щий	-11.5955
черном	-11.5956
▁прежне	-11.5966
▁мяс	-11.5969
▁вос	-11.5977
ивановск	-11.5978
▁многим	-11.5979
агентом	-11.5996
▁потрати	-11.5998
нная	-11.6002
▁водопровод	-11.6003
законным	-11.6006
абет	-11.6022
▁домашним	-11.6042
▁нич	-11.6058
▁обязательн	-11.6067
▁рождени	-11.6071
▁сохрани	-11.6072
▁выл	-11.6079
▁градостроительн	-11.609
чку	-11.6095
▁стройк	-11.6096
▁перевозчик	-11.6123
te	-11.613
живают	-11.6135
▁внесенны	-11.6139
▁пришло	-11.615
▁художественно	-11.6156
евец	-11.6162
▁назнач	-11.6165
▁непо	-11.6167
▁озер	-11.6179
▁кондитер	-11.6182
росо	-11.6199
▁оле	-11.6207
нять	-11.6209
▁консервативн	-11.6209
▁бензинов	-11.6215
складско	-11.6223
▁программировани	-11.623
▁миш	-11.6236
▁отправля	-11.6241
▁маломерн	-11.6258
▁прош	-11.6259
▁актуально	-11.6267
▁освободит	-11.6277
▁камен	-11.6282
▁уголь	-11.6285
мента	-11.6289
вержен	-11.6297
▁распространен	-11.6301
▁думаю	-11.631
▁казахстанск	-11.6313
▁черн	-11.6322
▁иранск	-11.6325
ступен	-11.6327
бытово	-11.6333
▁оптов	-11.6334
▁медик	-11.6335
▁отпускны	-11.6336
af	-11.6355
▁кредитном	-11.6361
▁карпен	-11.6367
▁рассматривали	-11.6369
▁штрафов	-11.6391
▁спрята	-11.6412
ором	-11.6413
▁ювелир	-11.6419
▁потенциально	-11.6421
▁отменя	-11.6425
даче	-11.6433
▁удобн	-11.6483
ладки	-11.6484
▁огнестрельно	-11.6496
▁провал	-11.6496
▁индустриальн	-11.6496
▁бывш	-11.6499
▁единовременно	-11.6501
▁австри	-11.6505
▁резидент	-11.6517
кт	-11.6521
▁рассматрива	-11.6527
▁нижегород	-11.6529
▁ликвидирован	-11.6529
производителей	-11.6533
цко	-11.6546
▁возвраща	-11.655
▁модернизирова	-11.6571
▁потребительск	-11.6572
▁санитар	-11.6583
ud	-11.6585
▁оформленны	-11.6585
омест	-11.6589
▁изготовлен	-11.6602
▁фра	-11.6608
ent	-11.661
▁дисциплинарн	-11.6611
▁планам	-11.6629
▁предполагаем	-11.663
▁гонконг	-11.6636
▁определя	-11.664
▁выполненны	-11.664
▁оригинальн	-11.664
▁выгод	-11.6643
вались	-11.6646
▁кладбищ	-11.665
▁внешн	-11.6652
▁тэ	-11.6661
▁больниц	-11.6663
руб	-11.6664
товым	-11.6676
▁уве	-11.668
ванных	-11.6682
▁земельным	-11.6715
гкб	-11.6717
▁краевы	-11.6717
▁карантин	-11.6725
▁тарасов	-11.6727
▁бумажн	-11.6741
▁достижени	-11.6746
политическ	-11.6759
▁оконны	-11.6761
ляются	-11.6763
▁венгерск	-11.6773
писку	-11.6774
▁изолятор	-11.6785
▁конфискован	-11.6789
▁пациент	-11.679
▁телефонно	-11.6797
▁предупреждени	-11.6806
▁столично	-11.6807
бирает	-11.6809
▁француз	-11.681
▁проще	-11.6811
▁назван	-11.6827
▁иг	-11.6833
▁киевск	-11.6837
мэр	-11.6856
▁ввез	-11.6858
крывать	-11.6858
▁операционн	-11.6863
▁пат	-11.6864
▁стремлени	-11.687
▁продуктивн	-11.6872
▁применяли	-11.6873
▁завершат	-11.6874
визовы	-11.688
веряют	-11.6887
▁велик	-11.6888
▁нашем	-11.6889
▁калининград	-11.689
▁дальн	-11.6896
▁семен	-11.6897
ивается	-11.6898
▁участк	-11.6899
▁обяз	-11.6903
▁обнови	-11.6903
▁мело	-11.6908
ec	-11.6911
метров	-11.693
▁многоэтаж	-11.6932
▁продвига	-11.6935
▁охватыва	-11.6935
▁изучив	-11.6936
▁металлическ	-11.695
ресурс	-11.6951
зан	-11.6951
▁тон	-11.6951
▁трет	-11.6955
▁массированно	-11.6956
станции	-11.6958
▁положен	-11.6958
▁предпринима	-11.6959
▁доступно	-11.6962
▁высш	-11.6962
▁голосовани	-11.6965
объект	-11.6965
▁знаменит	-11.6966
нефть	-11.6968
глуб	-11.6969
оэз	-11.6969
ируем	-11.6972
совета	-11.6972
привод	-11.6972
▁заседани	-11.6984
монтаж	-11.6984
российско	-11.6985
обеспечения	-11.6985
компании	-11.6986
▁удержани	-11.6986
полковник	-11.6994
фнс	-11.6998
китайского	-11.7001
▁призва	-11.7002
маркетинг	-11.7002
▁угарн	-11.7003
▁истек	-11.7005
пакет	-11.7007
ft	-11.7007
экспертиз	-11.7008
▁кейс	-11.7009
верси	-11.7011
▁прорабатыва	-11.7012
▁долево	-11.7012
филиал	-11.7016
института	-11.7017
вирус	-11.7018
фонда	-11.7018
▁подразделени	-11.7019
физически	-11.702
фас	-11.702
съемк	-11.7022
случай	-11.7022
памятник	-11.7023
результат	-11.7023
пространство	-11.7025
ившим	-11.7027
▁подростк	-11.7028
форума	-11.7028
pro	-11.7028
продукции	-11.7028
организация	-11.7028
европейск	-11.7029
сигнал	-11.703
октябре	-11.703
агентство	-11.7031
порядк	-11.7031
гендиректор	-11.7031
замглавы	-11.7031
черного	-11.7032
готовности	-11.7032
размер	-11.7033
сервис	-11.7033
▁миграционн	-11.7035
июля	-11.7035
специалистов	-11.7038
▁опроверг	-11.7039
направленной	-11.704
ахмат	-11.7041
ктк	-11.7043
▁сегмент	-11.7043
лидер	-11.7043
▁вкладыва	-11.7044
ino	-11.7049
▁предлага	-11.7049
сайт	-11.7049
хождения	-11.7051
[...]
