<unk>	0
<s>	0
</s>	0
▁	-2.99538
.	-3.09448
,	-3.31516
num	-3.64108
<	-3.64119
е	-3.70044
>	-3.72509
а	-3.73509
и	-3.83869
й	-4.29661
м	-4.55349
-	-4.61755
х	-4.69668
у	-4.72685
ы	-4.88543
я	-4.96887
о	-4.99965
ого	-5.27394
го	-5.34152
ов	-5.343
ой	-5.36436
ом	-5.36894
ю	-5.45127
▁-	-5.47119
▁(	-5.53558
ся	-5.66637
▁года	-5.67741
л	-5.71874
в	-5.79653
с	-5.80532
ть	-5.80972
ая	-5.83848
▁руб	-5.84408
▁с	-5.85634
т	-5.88634
ет	-5.89131
:	-6.00932
ь	-6.02856
ли	-6.10707
д	-6.18876
п	-6.1918
▁также	-6.22407
▁россии	-6.22546
ую	-6.25536
▁тыс	-6.27986
▁сентября	-6.28436
ми	-6.29396
▁области	-6.31279
ч	-6.40612
р	-6.41545
ых	-6.4257
▁году	-6.44756
▁пресс	-6.45122
)	-6.46747
ем	-6.48555
▁млн	-6.50689
ных	-6.51298
▁в	-6.56534
▁ъ	-6.56662
▁фото	-6.57174
б	-6.57946
>-	-6.58563
к	-6.59792
▁рф	-6.60101
ла	-6.63692
▁по	-6.65949
▁это	-6.68661
).	-6.69782
ют	-6.69807
▁господин	-6.70879
ах	-6.73044
▁суд	-6.74517
ами	-6.75895
ий	-6.77383
ей	-6.78931
н	-6.82035
ц	-6.83404
но	-6.83582
ной	-6.8456
▁сообщает	-6.85615
ен	-6.87518
,-	-6.89038
ка	-6.89164
за	-6.89757
ки	-6.90062
служба	-6.91835
ного	-6.92822
з	-6.93026
▁про	-6.93752
ам	-6.94462
▁млрд	-6.94759
ст	-6.95026
▁ранее	-6.95343
на	-6.95548
▁не	-6.96592
ется	-6.97363
ра	-6.99044
▁ст	-6.99304
ный	-7.03587
▁данным	-7.06718
ый	-7.07806
ит	-7.09755
▁общество	-7.09917
▁м	-7.11146
▁сообщил	-7.11822
▁из	-7.12509
ные	-7.13118
▁лет	-7.14947
ж	-7.14988
▁о	-7.16067
их	-7.18909
▁время	-7.18993
▁словам	-7.19114
▁президент	-7.20417
▁компании	-7.22339
▁п	-7.2396
ло	-7.24037
i	-7.26778
ор	-7.27075
ф	-7.27278
ия	-7.27928
▁заявил	-7.28039
▁за	-7.29127
▁ук	-7.30146
он	-7.30382
ок	-7.30509
▁на	-7.30885
ш	-7.31092
ер	-7.32183
▁сообщили	-7.34095
▁региона	-7.34818
ться	-7.35975
им	-7.36018
ым	-7.3615
да	-7.36941
г	-7.37018
▁при	-7.37303
▁сша	-7.37416
ить	-7.39401
щ	-7.39976
та	-7.40908
ые	-7.41224
▁сред	-7.42605
▁год	-7.43196
га	-7.4431
▁города	-7.44709
▁глава	-7.44781
▁т	-7.4505
ни	-7.4518
▁которые	-7.45223
▁ч	-7.46274
ва	-7.4632
лась	-7.464
лись	-7.46656
▁александр	-7.47578
),	-7.50604
ое	-7.51158
ев	-7.51198
коло	-7.51251
▁получил	-7.5155
▁края	-7.52068
ная	-7.53232
ку	-7.5345
▁составил	-7.55818
▁работы	-7.56529
▁который	-7.5681
▁российски	-7.56896
▁ответственность	-7.57283
ти	-7.57985
не	-7.59882
▁пере	-7.60572
▁компания	-7.60959
▁уголовно	-7.61908
e	-7.62697
ре	-7.63527
ным	-7.63904
▁против	-7.63924
▁стал	-7.65032
▁человек	-7.6561
ского	-7.65731
▁серге	-7.6625
▁проект	-7.67361
▁решение	-7.67433
a	-7.67725
▁рост	-7.67752
му	-7.68306
▁под	-7.69324
▁ограниченно	-7.69693
▁дело	-7.69984
ский	-7.70576
▁территории	-7.70593
▁числе	-7.70614
▁сочи	-7.70639
ин	-7.70767
▁кв	-7.71497
▁telegram	-7.71673
▁вы	-7.71862
o	-7.72186
▁новы	-7.73637
▁власти	-7.75459
▁от	-7.76103
▁будут	-7.76127
▁владимир	-7.76827
ят	-7.77387
лось	-7.78724
▁одно	-7.79011
▁президента	-7.79012
t	-7.79405
ную	-7.79486
ской	-7.8007
▁отметил	-7.80247
▁страны	-7.806
▁сказал	-7.81091
ат	-7.82606
или	-7.82743
▁период	-7.83062
ков	-7.83372
▁трамп	-7.83897
▁результате	-7.84006
▁управления	-7.84259
▁ко	-7.84423
ном	-7.84767
от	-7.86077
ль	-7.86176
▁ведомства	-7.86475
▁безопасности	-7.86566
ются	-7.86769
▁губернатор	-7.88407
▁двух	-7.88488
▁дмитри	-7.88491
▁дела	-7.8857
канале	-7.88983
лся	-7.89174
▁согласн	-7.89226
▁отношени	-7.89639
▁д	-7.90477
того	-7.9104
▁министр	-7.91146
▁андре	-7.91466
▁жителей	-7.92229
▁материале	-7.9242
чи	-7.93003
▁акционерно	-7.93108
r	-7.93461
лен	-7.93474
ко	-7.93494
▁краснодарск	-7.93768
ил	-7.93858
ск	-7.93881
▁котор	-7.94472
▁ф	-7.94483
d	-7.94757
▁средств	-7.95332
ому	-7.95588
▁ка	-7.95769
▁районе	-7.96088
▁однако	-7.96105
▁сегодня	-7.9689
могут	-7.97159
▁закон	-7.97288
си	-7.97337
▁сообщила	-7.97684
▁республики	-7.97692
гр	-7.98823
▁дома	-7.99187
▁кром	-7.99337
кр	-7.99413
▁атаки	-7.99483
▁россия	-8.00308
ри	-8.00388
то	-8.0039
во	-8.01125
▁своем	-8.01698
би	-8.01992
ут	-8.0211
▁до	-8.02564
ан	-8.02746
▁оон	-8.02852
▁су	-8.02944
ше	-8.03281
▁объем	-8.03567
▁августе	-8.03594
из	-8.03835
▁суда	-8.04106
▁ростовской	-8.04467
▁нескольк	-8.05219
▁том	-8.05914
▁информации	-8.06066
▁организации	-8.06066
▁счет	-8.0607
▁пол	-8.06119
▁скр	-8.06636
▁алексе	-8.06943
▁гу	-8.07618
▁начал	-8.0872
▁граждан	-8.08796
s	-8.08809
▁включа	-8.0895
▁дональд	-8.0902
▁пост	-8.09395
p	-8.09762
▁б	-8.09786
▁обще	-8.09842
ек	-8.10088
службе	-8.10387
▁писал	-8.10531
ова	-8.10697
▁администрации	-8.10867
бр	-8.10913
▁бпла	-8.11448
▁санк	-8.11451
▁являет	-8.11601
стр	-8.12113
▁бюджет	-8.12454
вал	-8.12594
▁главы	-8.13072
▁ограничения	-8.13334
▁стран	-8.13455
▁раз	-8.14005
▁ш	-8.14083
ро	-8.14371
ения	-8.14911
▁октября	-8.15204
ны	-8.15238
тор	-8.15627
▁правительства	-8.16166
▁цен	-8.16606
▁работа	-8.16707
▁вопрос	-8.16733
до	-8.16807
ров	-8.16922
h	-8.1698
об	-8.17084
▁сообщал	-8.17131
▁компаний	-8.17137
▁сво	-8.17796
ус	-8.17801
▁принял	-8.18119
▁связи	-8.18404
▁лиц	-8.18412
вести	-8.18551
▁центр	-8.18825
ши	-8.18967
▁г	-8.19033
ел	-8.19735
▁заседании	-8.20166
▁часть	-8.20175
ру	-8.20418
▁иск	-8.21006
▁итога	-8.21023
▁директор	-8.21284
▁начала	-8.21348
▁оста	-8.21839
▁к	-8.22105
тов	-8.22346
▁ссылк	-8.22366
▁место	-8.2263
▁общ	-8.23222
▁признал	-8.23347
▁глав	-8.2356
сти	-8.24294
▁направлен	-8.24506
▁то	-8.24534
ись	-8.25324
▁прокуратура	-8.2533
▁которых	-8.25496
▁подробн	-8.25526
ющих	-8.26077
▁рамк	-8.26346
▁об	-8.26401
▁района	-8.26536
▁системы	-8.26913
ке	-8.27145
▁человека	-8.27504
▁рас	-8.27612
выше	-8.27779
c	-8.28227
▁развития	-8.28489
▁говорится	-8.2853
спб	-8.28656
▁объектов	-8.2875
пи	-8.29152
ности	-8.2916
▁перв	-8.29209
ги	-8.2957
▁других	-8.29641
ба	-8.29669
ное	-8.30654
▁деятельности	-8.30699
▁месяцев	-8.3075
аль	-8.30962
▁га	-8.31409
ями	-8.31657
▁рассказал	-8.31733
ну	-8.32358
▁фигурант	-8.32358
▁сотрудники	-8.32399
▁совета	-8.32442
▁беспилотников	-8.32996
де	-8.33833
▁тасс	-8.34109
▁средства	-8.34267
▁размере	-8.34471
▁прошлого	-8.34625
▁прошл	-8.34654
▁доход	-8.34734
овой	-8.34774
ства	-8.34778
▁стоимость	-8.34833
▁ре	-8.34858
▁э	-8.35127
▁следствия	-8.35293
ение	-8.35448
вер	-8.36203
течение	-8.36446
▁меры	-8.37005
▁момент	-8.37608
▁сумму	-8.37745
>),	-8.38713
ать	-8.38827
▁интернет	-8.38843
▁находит	-8.39012
▁депутаты	-8.39389
э	-8.39437
▁мин	-8.39479
▁комплекс	-8.3985
жи	-8.39948
▁банк	-8.39979
▁следует	-8.40065
▁рублей	-8.40069
▁сравнени	-8.40085
▁заместител	-8.40318
▁бюджета	-8.40701
ными	-8.40823
b	-8.40928
▁месте	-8.40956
▁российско	-8.41471
ыми	-8.41665
ском	-8.41679
▁свои	-8.4197
▁комитета	-8.41996
▁таки	-8.42021
▁количество	-8.42469
▁сообщении	-8.42549
▁округа	-8.42615
▁так	-8.4264
▁совет	-8.42747
▁предприятия	-8.42822
▁работ	-8.4304
▁улице	-8.43111
нов	-8.43194
ец	-8.4359
▁версии	-8.43813
жд	-8.43994
▁экс	-8.44017
▁срок	-8.44186
оз	-8.44219
▁един	-8.44354
ость	-8.44614
▁со	-8.4498
▁коммерсантъ	-8.45095
▁ск	-8.45108
▁запрет	-8.45572
▁службы	-8.45796
тель	-8.4586
▁ле	-8.45992
▁работу	-8.46001
ния	-8.46099
▁подчеркнул	-8.46394
▁детей	-8.46395
▁пять	-8.46402
▁должность	-8.46406
▁руководител	-8.46931
▁проекта	-8.47583
▁мчс	-8.47712
▁пострадавших	-8.47729
про	-8.47764
▁сотрудников	-8.47859
▁председатель	-8.47926
▁пострадали	-8.48284
ож	-8.4849
>).	-8.48537
▁украине	-8.48704
ась	-8.48875
должен	-8.49035
▁городе	-8.492
▁число	-8.49313
▁участие	-8.50078
▁р	-8.50149
▁систем	-8.50182
▁бо	-8.50356
▁законопроект	-8.50394
▁помощь	-8.50394
▁судов	-8.50429
▁месяц	-8.50704
▁банка	-8.50753
▁состав	-8.50778
▁свердловско	-8.50828
▁российск	-8.51133
▁назначен	-8.51546
▁квартир	-8.52373
по	-8.525
▁регионально	-8.52537
▁дел	-8.53096
▁город	-8.53125
▁кор	-8.53132
▁гор	-8.53281
▁мест	-8.53446
▁июле	-8.53636
n	-8.53667
▁добавил	-8.5377
▁первый	-8.53852
род	-8.5414
▁действия	-8.54426
▁евгени	-8.54561
▁ос	-8.54636
▁дом	-8.54706
▁бывше	-8.54733
▁украины	-8.54885
▁ин	-8.55272
▁бизнес	-8.553
▁региональн	-8.55716
бу	-8.55871
y	-8.55976
▁песков	-8.5599
▁назвал	-8.56343
▁пожар	-8.56425
▁перво	-8.56531
▁больш	-8.56616
▁сайте	-8.56714
▁составля	-8.56995
▁ул	-8.57128
▁шест	-8.57193
▁оперативны	-8.57439
▁строительство	-8.57439
ская	-8.57457
ность	-8.57641
урал	-8.57855
▁ди	-8.57947
канал	-8.57962
▁тем	-8.58254
▁режим	-8.58254
▁городск	-8.58278
▁конц	-8.58354
▁новороссийске	-8.58368
ние	-8.5842
▁введен	-8.58768
▁a	-8.58775
▁государства	-8.58815
▁штраф	-8.5891
▁января	-8.5891
▁госпож	-8.5891
▁минобороны	-8.5891
▁доля	-8.58916
>)	-8.58929
▁свободы	-8.5904
ходе	-8.59353
▁пока	-8.59356
▁арбитражны	-8.59623
▁пояснил	-8.59667
▁завод	-8.5992
▁лишени	-8.60023
ста	-8.60051
▁игр	-8.6036
▁мир	-8.60378
▁возбужден	-8.60402
▁маршрут	-8.60402
▁штаб	-8.60403
▁дней	-8.60432
али	-8.60642
▁топ	-8.60773
▁стали	-8.60844
▁четыре	-8.60982
▁председателя	-8.6104
m	-8.61195
нт	-8.61386
▁конфликта	-8.61881
▁сохраня	-8.61934
▁новороссийск	-8.61985
лов	-8.62182
▁местн	-8.62729
▁представитель	-8.62957
▁составит	-8.63062
ис	-8.63119
▁воздушно	-8.63456
▁правительство	-8.63456
▁здание	-8.63456
летнего	-8.63642
лет	-8.63643
▁задержали	-8.63646
▁планируется	-8.63683
▁увеличил	-8.6371
▁рынка	-8.63745
▁уровне	-8.63953
▁трампа	-8.64104
гу	-8.64143
g	-8.64628
▁зам	-8.64688
▁регионе	-8.6486
анов	-8.64863
▁ход	-8.64961
▁здания	-8.65018
▁позволя	-8.65018
▁июля	-8.65018
▁августа	-8.65168
▁временно	-8.65198
▁производства	-8.65281
▁иностранны	-8.65527
▁домов	-8.65584
▁военно	-8.66101
▁вид	-8.6622
▁лидер	-8.6648
▁сократи	-8.66567
▁мвд	-8.6661
▁решения	-8.66618
▁избран	-8.66646
▁артем	-8.6671
▁мер	-8.66782
▁бывши	-8.67046
▁сервис	-8.6705
▁федерации	-8.67051
городской	-8.673
▁раза	-8.674
▁опубликован	-8.67941
▁места	-8.68006
ному	-8.68118
▁ж	-8.68129
▁день	-8.68203
▁рынке	-8.68219
ца	-8.6847
▁процесс	-8.68762
▁считает	-8.68764
тр	-8.68998
▁первом	-8.69011
▁данные	-8.69152
сп	-8.69213
ских	-8.69301
▁мэр	-8.69684
▁трех	-8.69813
▁reuters	-8.69858
▁накануне	-8.69858
▁части	-8.69965
▁крае	-8.70139
▁должны	-8.70232
▁получени	-8.70612
▁оп	-8.70617
▁премьер	-8.70872
уд	-8.7091
▁депутат	-8.71018
▁поставк	-8.71072
▁область	-8.71078
▁семь	-8.71206
▁авто	-8.71328
ников	-8.71355
▁катеров	-8.71525
▁тонн	-8.71528
▁днем	-8.71551
▁деньги	-8.71552
▁чист	-8.71619
▁возможность	-8.71638
▁поступил	-8.7168
ось	-8.71849
▁социальны	-8.7193
▁ведомство	-8.71957
▁следствие	-8.72277
▁задержан	-8.72303
▁выпуск	-8.72377
▁контракт	-8.72512
▁делу	-8.72604
▁план	-8.72787
▁сил	-8.72863
ду	-8.72947
оставляет	-8.73018
▁причин	-8.7308
ур	-8.73112
цитат	-8.7322
▁полностью	-8.73222
▁прибыль	-8.73247
▁де	-8.73319
u	-8.73561
▁аэропорт	-8.73623
▁всем	-8.74257
кс	-8.74306
▁увеличи	-8.74381
новых	-8.74391
▁услуг	-8.74494
▁финансов	-8.74503
ком	-8.7494
▁восемь	-8.74944
▁михаил	-8.74944
▁развитие	-8.74944
▁топлива	-8.74944
▁думы	-8.74949
▁договор	-8.74967
▁москве	-8.75153
нии	-8.75158
▁выход	-8.75188
▁представител	-8.75198
▁отметили	-8.75358
▁стороны	-8.75406
прав	-8.75634
др	-8.75806
ческ	-8.75854
рен	-8.75915
▁спрос	-8.76079
▁путин	-8.76253
▁случае	-8.76392
уз	-8.76622
▁сфере	-8.76701
▁занял	-8.76714
▁баз	-8.76733
▁прокуратуры	-8.76734
▁очень	-8.76741
▁сети	-8.7684
▁вместе	-8.76897
▁известно	-8.76985
▁права	-8.76985
▁данных	-8.77127
▁пре	-8.77324
▁нового	-8.77685
▁атак	-8.77692
▁ремонт	-8.77776
▁видео	-8.77908
▁котором	-8.78094
▁продаж	-8.78336
▁произоше	-8.78485
▁годом	-8.78524
▁установлен	-8.78612
▁продукции	-8.78725
▁ведомстве	-8.78759
министр	-8.78846
▁км	-8.78878
▁качестве	-8.7904
ник	-8.79098
▁аэропорту	-8.79405
▁ново	-8.7945
▁которой	-8.79609
▁которого	-8.797
вые	-8.79801
▁арест	-8.80164
▁нет	-8.802
▁пишет	-8.80302
▁моря	-8.80311
▁тысяч	-8.80335
▁погибли	-8.80487
▁юри	-8.80538
▁мск	-8.80618
▁участников	-8.80647
▁карт	-8.80682
ний	-8.80737
няя	-8.8123
аж	-8.81326
v	-8.81416
▁провел	-8.8167
стало	-8.81892
част	-8.81894
тся	-8.81991
▁руководителя	-8.82057
▁ноября	-8.82154
▁менее	-8.82155
▁фонд	-8.82179
▁мид	-8.82475
▁факту	-8.82586
▁намерен	-8.82616
вать	-8.82919
▁прошлом	-8.83033
чески	-8.83083
▁приговор	-8.83135
▁производство	-8.83179
▁дорог	-8.83304
овать	-8.83654
▁занимал	-8.83678
▁аэропорта	-8.83686
▁размер	-8.83703
▁газ	-8.83783
ство	-8.83964
▁лавров	-8.8404
▁внимание	-8.84041
▁портал	-8.84058
▁крупны	-8.84058
▁москвы	-8.8411
кин	-8.84153
▁связан	-8.84162
фо	-8.84609
▁занимает	-8.84616
▁созда	-8.84632
▁правоохранител	-8.84665
▁прием	-8.84823
▁второ	-8.84908
рос	-8.85004
▁ак	-8.85012
летний	-8.85443
▁проведен	-8.85678
l	-8.85756
▁сбор	-8.85855
▁проверку	-8.86137
▁жил	-8.86233
▁учет	-8.86236
▁регионов	-8.86303
▁необходимо	-8.86524
▁состоянии	-8.86769
▁краснодарском	-8.87149
▁бизнеса	-8.8727
▁всу	-8.87295
▁пред	-8.87323
▁ущерб	-8.87482
▁нов	-8.87505
▁пяти	-8.87526
▁друг	-8.87588
идет	-8.87699
оп	-8.87861
секретарь	-8.87915
▁жилы	-8.87919
▁безэкипажны	-8.87924
▁сессии	-8.87924
▁опыт	-8.87933
▁публично	-8.87959
▁дня	-8.87967
петербурга	-8.88029
▁пример	-8.88077
▁белгородской	-8.88096
▁па	-8.88196
зарегистрировано	-8.88251
▁самолет	-8.88256
▁группы	-8.88272
▁з	-8.88308
▁само	-8.88357
▁районны	-8.8837
▁имущество	-8.88445
ru	-8.88449
пол	-8.88457
▁детск	-8.88701
лон	-8.88781
▁нем	-8.88918
▁машин	-8.89002
ян	-8.89119
▁площадь	-8.8949
▁россиян	-8.89494
▁управление	-8.89537
▁доме	-8.89659
▁среду	-8.89755
▁наибол	-8.89922
▁действий	-8.89924
▁написал	-8.89924
▁организаций	-8.89924
▁предложил	-8.89924
▁особо	-8.89927
▁единиц	-8.89933
▁роста	-8.89947
▁другие	-8.8998
▁этап	-8.9003
▁курской	-8.90281
▁проверки	-8.90367
▁возбудил	-8.90551
▁вол	-8.90738
ировать	-8.90948
▁во	-8.91011
▁объект	-8.9125
ng	-8.91408
▁социально	-8.91456
▁комитет	-8.91628
▁губернатора	-8.9172
▁следственны	-8.9185
▁административно	-8.91965
▁говорил	-8.91965
▁информацию	-8.91965
▁информация	-8.91965
▁строительства	-8.91965
▁назначил	-8.91966
▁призвал	-8.91966
▁обратил	-8.91966
▁нарушения	-8.91972
▁жителям	-8.91975
▁использование	-8.92026
▁жителя	-8.92054
▁часов	-8.92242
▁обеспечения	-8.92275
шел	-8.92337
нных	-8.92346
▁завершил	-8.92467
▁плат	-8.92654
▁культурн	-8.92827
▁воз	-8.92835
риа	-8.92872
▁сам	-8.92983
▁открыт	-8.93231
▁вер	-8.93307
▁гос	-8.93674
ятся	-8.93717
ника	-8.9372
▁татарстана	-8.93776
▁уч	-8.93972
енко	-8.93984
ации	-8.93994
▁признан	-8.94034
▁животных	-8.94049
▁некоторы	-8.94049
кубань	-8.9405
▁частности	-8.94056
▁водитель	-8.94098
▁крым	-8.94164
▁имущества	-8.94194
▁выплат	-8.94235
▁прав	-8.9428
▁работают	-8.94326
▁люб	-8.94413
▁виде	-8.94424
▁надзорно	-8.94548
▁центра	-8.94604
▁депутатов	-8.94654
▁кон	-8.94781
сер	-8.94926
▁право	-8.9518
ложен	-8.95514
вин	-8.95543
▁нато	-8.95672
▁аппарат	-8.95682
▁цены	-8.95709
▁цена	-8.9578
▁доступ	-8.9583
▁способ	-8.95896
▁мира	-8.95928
▁работе	-8.96102
ман	-8.96124
▁вячеслав	-8.96176
▁клуб	-8.96178
▁подписал	-8.96179
станет	-8.9631
▁происшествия	-8.96328
▁показатель	-8.96353
▁основно	-8.96421
ющий	-8.96529
▁электро	-8.96581
▁новости	-8.96745
▁пермск	-8.96839
оль	-8.96953
очно	-8.97037
▁документ	-8.97058
de	-8.97142
ям	-8.97206
▁система	-8.97326
▁мо	-8.97567
▁две	-8.97644
▁мужчина	-8.97745
йте	-8.98214
▁запас	-8.98315
▁прокурор	-8.9835
▁республике	-8.9835
▁рынок	-8.9835
▁ситуация	-8.9835
▁планируют	-8.98361
▁людей	-8.98365
▁предложения	-8.98371
▁екатеринбурга	-8.98375
▁вылет	-8.9842
▁федеральн	-8.98425
▁оказал	-8.98465
▁атомно	-8.98478
▁экономическ	-8.98515
▁обнаружили	-8.98673
▁ту	-8.98711
▁площадью	-8.98825
▁выше	-8.98998
▁центральн	-8.99009
▁сми	-8.99077
ости	-8.9908
▁газа	-8.99115
▁директора	-8.99139
ван	-8.99257
кой	-8.99339
▁труда	-8.99392
сть	-8.99491
▁защит	-8.9952
▁явля	-8.9961
▁незаконно	-8.99611
▁конце	-8.99849
▁прогноз	-8.99883
▁режима	-8.9999
▁последни	-9.00212
▁вмест	-9.0032
цев	-9.00348
▁объявлен	-9.00397
▁выросл	-9.00415
ции	-9.00475
▁владельц	-9.0051
▁жизни	-9.00572
▁wa	-9.00572
▁н	-9.00577
▁техники	-9.0058
▁лично	-9.00616
▁цб	-9.00634
▁нужно	-9.00689
▁северо	-9.00785
специалисты	-9.00909
▁больше	-9.00922
▁контроль	-9.00993
▁соответствующи	-9.01015
▁август	-9.01105
ены	-9.01159
▁автомобилей	-9.01184
▁остан	-9.0128
ель	-9.01434
▁чиновник	-9.01735
▁закрыт	-9.01772
▁те	-9.01869
▁ввел	-9.0195
▁отмен	-9.01962
▁основны	-9.02207
▁заместителя	-9.02368
▁член	-9.02564
▁фон	-9.02604
▁погиб	-9.02614
▁выручк	-9.02845
▁позволит	-9.02845
▁ситуации	-9.02845
▁олег	-9.02846
▁партии	-9.02846
▁норм	-9.02847
▁жилья	-9.02855
▁речь	-9.02862
▁учреждения	-9.02864
▁создан	-9.02893
▁ставропольск	-9.02924
▁обеспечи	-9.02935
▁уточнил	-9.02966
аще	-9.02975
▁курорта	-9.03062
петербург	-9.03098
▁эти	-9.03142
▁необходимы	-9.03187
▁работал	-9.03199
▁областн	-9.03314
▁министра	-9.03358
▁возможно	-9.03415
▁изменения	-9.03546
▁силу	-9.04061
овод	-9.04143
▁матч	-9.04205
▁местны	-9.0422
▁годы	-9.04295
▁дональда	-9.04389
▁месяца	-9.04531
▁ес	-9.04544
▁сезон	-9.04659
▁интерес	-9.04676
f	-9.04813
▁чер	-9.04953
▁мед	-9.05169
▁ребенка	-9.05171
▁офис	-9.05171
▁турнир	-9.05171
▁отправил	-9.05172
▁благодар	-9.05173
▁удмуртии	-9.05173
▁гостей	-9.05182
▁пи	-9.05225
▁получить	-9.05266
▁требований	-9.05301
ca	-9.05311
▁туристов	-9.05371
ee	-9.054
▁ночью	-9.05422
▁произошло	-9.05553
▁госдумы	-9.056
▁име	-9.05646
▁он	-9.05828
▁дороги	-9.05923
▁транспорт	-9.0594
▁парламента	-9.05976
▁бел	-9.06016
▁аналогичны	-9.06123
▁ран	-9.06464
▁времени	-9.06495
бл	-9.06604
ня	-9.06623
el	-9.06728
▁владимира	-9.06771
▁поддержк	-9.06907
▁государственно	-9.06915
орт	-9.07288
▁объекта	-9.07327
цию	-9.07334
▁крупнейши	-9.07552
▁официально	-9.07552
▁помощи	-9.07552
▁текуще	-9.07552
либо	-9.07571
▁пройдет	-9.0759
▁бензин	-9.0759
▁принято	-9.07742
▁удар	-9.07751
стан	-9.07753
▁s	-9.07779
▁пво	-9.07803
▁национально	-9.07984
▁район	-9.08025
▁областной	-9.08058
▁органы	-9.08123
▁программы	-9.08164
▁нижегородско	-9.08462
▁встречи	-9.08566
ении	-9.08695
er	-9.0881
▁пожара	-9.09102
▁переход	-9.09152
▁могл	-9.09475
▁клиент	-9.095
▁проектов	-9.09531
▁свое	-9.096
▁планирует	-9.09644
▁обл	-9.09728
▁снижение	-9.09906
▁многоквартирн	-9.09908
▁меньше	-9.09991
▁площади	-9.09991
▁приоритет	-9.09991
▁татьян	-9.09991
▁денис	-9.09991
▁антон	-9.09993
▁ответственности	-9.09995
▁нью	-9.10009
▁движения	-9.10055
▁номер	-9.10075
▁черного	-9.10095
▁команд	-9.1027
▁готовности	-9.10386
▁участи	-9.10572
▁кредит	-9.1068
▁таким	-9.113
▁аи	-9.11327
запад	-9.11422
▁границ	-9.11716
▁требования	-9.11807
▁дополнительны	-9.11869
▁бренд	-9.11983
▁лу	-9.11987
▁знак	-9.12229
▁медицинск	-9.12337
▁кар	-9.12357
▁школ	-9.12408
▁угроза	-9.12461
▁неделе	-9.12491
▁шуматов	-9.12491
▁июне	-9.12493
▁затем	-9.12494
▁целом	-9.12499
▁задач	-9.12505
▁культуры	-9.12514
▁вину	-9.12556
▁все	-9.12664
ходит	-9.12686
▁вечером	-9.12691
мимо	-9.12694
▁объявил	-9.12824
▁подал	-9.12953
ьных	-9.12974
▁министерство	-9.13014
▁расследование	-9.13041
кар	-9.13049
▁документов	-9.13058
▁услуги	-9.13142
▁эксперты	-9.13197
▁международны	-9.13235
▁служб	-9.13355
▁сумма	-9.13355
▁инцидент	-9.13657
▁комплекса	-9.13695
▁сп	-9.13716
▁участник	-9.13917
▁автомобиль	-9.13939
▁четырех	-9.14062
▁политики	-9.14096
▁предприятие	-9.14126
▁международн	-9.14145
▁налог	-9.14416
аз	-9.14651
▁самы	-9.1472
▁структур	-9.14742
▁татарстане	-9.14813
▁транспорта	-9.15016
▁онлайн	-9.15055
▁экономики	-9.15055
▁участка	-9.15055
▁недвижимости	-9.15057
▁дтп	-9.15057
▁краю	-9.15058
▁подрядчик	-9.15061
▁попал	-9.15066
вице	-9.15074
▁ставки	-9.15086
▁двое	-9.15123
▁государств	-9.1513
▁размещения	-9.15131
нова	-9.15314
▁жители	-9.15379
▁приняти	-9.15453
▁агентства	-9.15457
▁рубио	-9.1546
▁предприятий	-9.15469
банк	-9.15592
▁настояще	-9.15698
атор	-9.15719
инг	-9.15738
▁исследования	-9.15764
тер	-9.16023
олог	-9.16101
▁готов	-9.16288
▁рейтинг	-9.16773
an	-9.16889
▁наше	-9.16899
▁ид	-9.16939
▁состоя	-9.17134
▁московск	-9.17196
▁итог	-9.17215
▁подробност	-9.17242
▁отказ	-9.17301
куп	-9.174
▁этим	-9.17476
▁рассказали	-9.17499
▁призна	-9.17501
▁край	-9.17637
▁впер	-9.17683
▁воздушны	-9.17686
▁оперативно	-9.17686
▁пользу	-9.17686
▁предусмотрен	-9.17686
▁процедур	-9.17686
▁уровень	-9.17686
▁больницу	-9.17686
▁вошли	-9.17686
▁вновь	-9.17687
▁ann	-9.17687
▁статус	-9.17687
▁закупк	-9.17689
▁обороны	-9.1769
▁удалось	-9.17694
▁специалистов	-9.17699
▁виновным	-9.17756
▁международно	-9.17843
▁утром	-9.17847
▁риск	-9.17895
▁соответстви	-9.17933
▁которое	-9.17935
▁создани	-9.17957
>:	-9.18004
▁сигнал	-9.18044
▁пар	-9.18085
йти	-9.1819
▁европейски	-9.18282
▁операции	-9.1833
тельной	-9.18405
▁документы	-9.18629
▁действу	-9.18767
▁направил	-9.1884
▁министерства	-9.18879
▁находят	-9.18929
▁университета	-9.18978
▁федерально	-9.19014
▁новороссийска	-9.19243
российской	-9.19316
▁стране	-9.19317
▁тер	-9.19342
овых	-9.19403
вший	-9.1945
лин	-9.19475
▁детски	-9.19483
▁ключев	-9.19694
▁заявление	-9.197
▁вопросы	-9.19801
▁предварительно	-9.19894
▁ку	-9.19904
▁парк	-9.19993
▁максим	-9.19996
▁напомни	-9.20124
ания	-9.20244
▁артеми	-9.2032
▁участок	-9.20389
▁инвестиционн	-9.20389
▁франции	-9.20389
▁назад	-9.20391
▁колонии	-9.20394
▁должности	-9.20416
▁пресечения	-9.20438
▁американски	-9.20524
▁двор	-9.20535
▁направления	-9.20705
▁среднем	-9.20707
▁эксперт	-9.20846
нд	-9.20956
▁тех	-9.20957
▁татарстан	-9.21
▁проверка	-9.21054
▁регион	-9.21098
▁депутата	-9.21156
▁мост	-9.21182
▁втор	-9.21192
▁защиты	-9.21329
▁заявили	-9.21383
▁наш	-9.21671
ился	-9.21808
▁оплат	-9.21871
▁челябинско	-9.21905
▁соответствующе	-9.22167
▁стар	-9.22241
▁высок	-9.22442
▁исследовани	-9.2245
▁находи	-9.22525
▁американск	-9.22708
▁ряд	-9.22825
▁размещен	-9.22901
▁ду	-9.23036
▁зданий	-9.23167
▁интервью	-9.23167
▁красноярск	-9.23167
▁январе	-9.23167
▁казани	-9.23167
▁полномочия	-9.23186
▁беспилотны	-9.23186
▁промышленности	-9.23191
▁сообщалось	-9.23218
▁конфликт	-9.23233
on	-9.23307
▁полици	-9.23362
▁что	-9.23415
▁семи	-9.23431
▁стать	-9.2347
▁организация	-9.23546
зов	-9.23595
▁проходит	-9.23613
▁представил	-9.2366
▁различны	-9.2371
▁регионах	-9.23815
▁индивидуальны	-9.23816
дут	-9.24093
▁ру	-9.24135
▁сторон	-9.24355
▁нарушение	-9.24467
имени	-9.24585
чен	-9.24779
▁рос	-9.24946
▁встреча	-9.2497
▁поврежден	-9.25014
▁переда	-9.25097
▁класс	-9.25142
▁отдел	-9.2523
▁пр	-9.25346
▁составе	-9.25507
▁автобус	-9.25522
рат	-9.25579
▁водо	-9.25807
смотря	-9.25976
▁виктор	-9.26024
▁декабря	-9.26024
▁дефицит	-9.26024
▁инфраструктуры	-9.26024
▁кравченко	-9.26024
▁температур	-9.26024
▁трлн	-9.26024
▁замглавы	-9.26024
▁сообщение	-9.26034
▁предложение	-9.26043
▁аренды	-9.26045
▁ранения	-9.26061
▁крупно	-9.2608
▁подтвердил	-9.26134
▁просто	-9.26139
▁одним	-9.2628
▁пункт	-9.26416
▁порядк	-9.2642
▁пассажиров	-9.26461
▁армении	-9.26576
▁продажи	-9.26636
▁пакет	-9.26725
▁взрыв	-9.26774
▁привел	-9.26776
▁комиссии	-9.26777
▁школы	-9.26904
▁ба	-9.26955
▁конкурс	-9.26963
▁работать	-9.27012
▁атаке	-9.27191
ещ	-9.2726
▁наши	-9.27445
▁кур	-9.27728
▁региональны	-9.27742
ится	-9.27847
▁специально	-9.28013
▁председател	-9.28016
▁проблем	-9.28196
▁лица	-9.2823
▁фонда	-9.2829
▁полиции	-9.28295
нь	-9.28321
▁китай	-9.28322
▁дв	-9.28399
дин	-9.28412
ya	-9.28555
▁курорт	-9.28696
▁житель	-9.28902
▁вступил	-9.28965
▁запланирован	-9.28965
▁облкоммунэнерго	-9.28965
▁превыша	-9.28965
▁мнению	-9.28965
▁отрасли	-9.28965
▁россию	-9.28965
▁mercury	-9.28966
▁жкх	-9.28968
▁следующи	-9.28969
▁образования	-9.29002
▁округе	-9.29053
▁отказа	-9.29096
▁программ	-9.29131
▁главны	-9.29213
▁опубликовал	-9.29246
▁зарплат	-9.29287
▁кг	-9.29316
▁гендиректор	-9.29367
▁дронов	-9.2941
▁рядом	-9.29494
▁земельны	-9.29495
▁совместно	-9.2956
▁включен	-9.29577
дар	-9.29668
▁бал	-9.29725
▁повреждены	-9.29763
▁создание	-9.29786
▁передает	-9.29907
▁главно	-9.29936
ске	-9.30151
ировал	-9.30182
▁сентябре	-9.3019
вали	-9.30241
et	-9.3025
▁значительно	-9.30288
▁закона	-9.30327
▁много	-9.30371
▁краснодара	-9.30462
▁центре	-9.3048
▁публикации	-9.30483
▁e	-9.30546
▁нам	-9.30571
▁снизи	-9.30755
▁фи	-9.30829
ские	-9.30945
▁источники	-9.30955
ге	-9.3099
▁расположен	-9.31059
▁достиг	-9.31075
▁f	-9.31256
▁исполнени	-9.31274
▁краево	-9.31522
рас	-9.31523
▁первым	-9.31622
▁подход	-9.31748
кор	-9.31807
▁штат	-9.31838
▁нес	-9.31956
▁авакян	-9.31995
▁автомобиля	-9.31995
▁долгосрочн	-9.31995
▁использовать	-9.31995
▁неделю	-9.31995
▁участке	-9.31995
менеджер	-9.31995
▁круг	-9.31997
▁бизнесмен	-9.31999
▁оператор	-9.32002
▁ндс	-9.32013
▁коап	-9.32017
▁окон	-9.32029
▁взятки	-9.32055
▁уровня	-9.32144
▁считают	-9.32284
▁другим	-9.32293
▁генассамбле	-9.32325
▁покину	-9.32383
▁голов	-9.32419
ведут	-9.32529
▁курск	-9.32826
▁южно	-9.32954
▁региону	-9.32995
нском	-9.33015
▁имеет	-9.33161
▁муниципалитета	-9.33188
нию	-9.33219
▁матче	-9.33371
▁обстоятельства	-9.33506
▁ростовск	-9.33713
▁марте	-9.33764
▁актив	-9.3381
▁ниже	-9.33935
▁партнер	-9.33976
ским	-9.34122
▁инициатив	-9.3413
ростов	-9.34232
▁участвовал	-9.34236
▁зафиксирован	-9.34425
▁коллег	-9.34547
сь	-9.34644
еров	-9.34674
ированн	-9.34896
▁вод	-9.34992
ует	-9.35101
▁мероприятий	-9.3512
▁особенно	-9.3512
▁правительстве	-9.3512
▁спектакл	-9.3512
▁феврале	-9.3512
▁экспорт	-9.35121
▁станции	-9.35121
▁берег	-9.35122
▁поставщик	-9.35124
▁покупк	-9.35127
▁списк	-9.35135
▁вооруженны	-9.35151
▁селе	-9.3516
▁минут	-9.35215
шки	-9.35235
▁остаются	-9.35243
▁формат	-9.35262
▁предприниматель	-9.35272
▁эко	-9.35294
▁вопросам	-9.35508
▁угрозы	-9.35584
вели	-9.35684
рот	-9.36053
▁числа	-9.36129
▁агентство	-9.36158
дж	-9.36271
▁орган	-9.36278
▁пассажир	-9.36378
▁обвиняемы	-9.36414
▁марко	-9.36471
▁начальн	-9.36475
▁результат	-9.36633
транс	-9.36765
▁шести	-9.36766
▁созыва	-9.37006
ra	-9.37308
▁объединенн	-9.37366
▁конференции	-9.37439
чик	-9.37475
▁коммерчески	-9.37817
▁дрон	-9.37872
▁торговл	-9.37941
▁отмечает	-9.37988
▁никола	-9.38079
▁получат	-9.38101
▁ша	-9.38132
ники	-9.3816
именно	-9.38329
▁вариант	-9.38346
▁константин	-9.38346
▁попросил	-9.38346
▁уфсб	-9.38346
▁хорош	-9.38346
▁лишь	-9.38346
▁пыта	-9.38352
▁роман	-9.38357
the	-9.38359
▁блок	-9.38362
▁ограничений	-9.38454
▁самарской	-9.38466
писок	-9.38483
▁морск	-9.38483
▁материалов	-9.38513
▁смен	-9.38521
▁мар	-9.38545
▁проведения	-9.38564
▁приш	-9.3865
дк	-9.38654
▁вынес	-9.38673
▁пространства	-9.38679
▁рейсов	-9.38708
▁октябре	-9.38788
▁отдыха	-9.38794
▁источник	-9.38866
ируют	-9.39036
▁ущерба	-9.39083
▁активы	-9.39148
▁оборудования	-9.39153
▁генеральн	-9.39157
эк	-9.3938
▁заключил	-9.39381
▁категори	-9.39439
▁реализаци	-9.39463
▁украин	-9.39509
▁поддержку	-9.39565
▁оказа	-9.39716
ющие	-9.39964
▁спикер	-9.40028
▁позиции	-9.40075
▁промышленно	-9.40171
▁стро	-9.40263
▁нас	-9.40461
▁систему	-9.40478
▁находил	-9.40543
▁управляющи	-9.40568
▁выполнени	-9.40722
al	-9.40778
эс	-9.40813
▁должн	-9.40832
▁пути	-9.40949
▁куб	-9.40983
▁проб	-9.40989
▁зал	-9.41045
▁кандидат	-9.41171
▁генассамблее	-9.41317
▁тепло	-9.41428
▁заключен	-9.41447
▁аналогичн	-9.41516
▁представлен	-9.41631
интерфакс	-9.41634
▁пер	-9.41653
▁професси	-9.41677
▁адрес	-9.41679
▁выступил	-9.41679
▁мероприятия	-9.41679
▁поэтому	-9.41679
▁расходы	-9.41679
▁яндекс	-9.41679
▁минфин	-9.4168
▁отмечают	-9.4168
▁топливо	-9.4168
▁продлил	-9.4168
▁рбк	-9.4168
▁клиническ	-9.41681
▁соответственно	-9.41681
▁половин	-9.41684
▁приводит	-9.41706
▁огонь	-9.41709
▁возможности	-9.41726
▁муниципальны	-9.41754
▁заключения	-9.41771
▁спорта	-9.41776
▁дал	-9.4178
▁сбил	-9.41811
▁m	-9.4182
▁первы	-9.41833
▁общественно	-9.41945
▁сбер	-9.41952
▁заксобрания	-9.4203
▁каждый	-9.42088
▁объяснил	-9.42152
▁вес	-9.42169
пан	-9.42244
▁военны	-9.42345
▁частны	-9.42384
▁голосов	-9.4247
▁условиях	-9.42489
▁сектор	-9.42628
▁обязанности	-9.42631
▁федеральном	-9.42661
нского	-9.42751
▁заявки	-9.42787
▁юг	-9.42832
▁выполнен	-9.42938
▁сообщается	-9.42947
▁самолеты	-9.4299
вшего	-9.43031
▁внесен	-9.43083
ода	-9.43113
ках	-9.43254
▁контракта	-9.43377
▁которым	-9.43404
август	-9.43508
дону	-9.43712
прокомментировал	-9.43717
▁политик	-9.43884
▁повышение	-9.43974
▁режиме	-9.44095
▁вырос	-9.44304
▁обеспечива	-9.44334
кова	-9.44391
▁украински	-9.44452
▁радио	-9.44465
▁важны	-9.44524
знач	-9.44547
▁отдела	-9.44565
▁треть	-9.44581
▁курс	-9.44594
нк	-9.44787
▁авиа	-9.44828
ясь	-9.44869
▁районах	-9.44886
цы	-9.44948
▁субсиди	-9.45127
▁ассоциаци	-9.45128
▁библиотек	-9.45128
▁девять	-9.45128
▁корпораци	-9.45128
▁наследия	-9.45128
▁позже	-9.45128
▁потребовал	-9.45128
▁регулярно	-9.45128
▁стоимости	-9.45128
▁участков	-9.45128
▁январь	-9.45128
▁корпус	-9.45128
▁рассчитыва	-9.45128
▁борис	-9.45128
▁проезд	-9.45128
▁нефти	-9.45128
▁минимальн	-9.45131
▁образом	-9.45148
ъем	-9.4515
▁екатеринбурге	-9.4517
▁вызов	-9.45193
шн	-9.4527
ярославль	-9.45274
▁генпрокуратуры	-9.45281
la	-9.45281
▁сведения	-9.45301
анна	-9.45331
▁готовы	-9.45366
▁иван	-9.4541
▁представителей	-9.45424
▁федеральны	-9.45535
▁средней	-9.45585
▁выборы	-9.45653
▁органов	-9.45659
▁прекращени	-9.45665
▁активов	-9.45673
▁капитал	-9.45681
▁результаты	-9.45931
▁укры	-9.46029
рик	-9.46112
▁региональном	-9.4617
▁начальник	-9.46301
▁мае	-9.46314
▁подготовк	-9.46451
▁стоимостью	-9.46452
▁род	-9.46498
▁госпитализирова	-9.46504
▁втором	-9.46524
▁семей	-9.46632
▁гк	-9.46858
▁обвиня	-9.46868
▁su	-9.4693
▁налоговы	-9.47008
нием	-9.47009
▁подобны	-9.47014
▁передач	-9.47014
аются	-9.47077
метр	-9.47441
▁реализации	-9.47475
▁периодом	-9.47579
нный	-9.47673
▁семья	-9.48251
▁хо	-9.48294
▁поддержки	-9.48332
▁цифров	-9.48482
низ	-9.48497
▁поезд	-9.48592
▁крупн	-9.48596
скольк	-9.48612
▁краев	-9.48682
▁аудитор	-9.48699
▁башкирии	-9.48699
▁борьб	-9.48699
▁госсовет	-9.48699
▁зоопарк	-9.48699
▁организатор	-9.48699
▁официальны	-9.48699
▁полугоди	-9.48699
▁преступления	-9.48699
▁салават	-9.48699
▁спокойствие	-9.48699
▁стражу	-9.48699
▁обсужда	-9.48699
▁поселк	-9.48699
▁райсуд	-9.48699
▁расходов	-9.48699
▁акций	-9.48699
▁расширени	-9.48699
▁подверг	-9.487
▁двум	-9.48711
▁полномочий	-9.48724
▁последствия	-9.48738
▁удовлетворил	-9.48747
▁предсто	-9.48793
▁мало	-9.48806
▁перми	-9.4893
▁суммы	-9.48979
▁полетов	-9.48981
▁предполагает	-9.49035
▁населения	-9.4905
▁кредитны	-9.49075
▁отмечается	-9.491
ma	-9.49163
▁производственны	-9.49247
▁взыскани	-9.49286
▁случаев	-9.49331
▁устройства	-9.49714
▁проекты	-9.49742
един	-9.49814
▁времен	-9.49817
▁следователи	-9.4984
▁остро	-9.49843
▁регистраций	-9.49861
▁казахстан	-9.49925
дне	-9.49943
▁показателя	-9.49965
▁завершен	-9.49996
▁спроса	-9.50009
▁объекты	-9.50092
▁достигл	-9.50098
▁полно	-9.5011
▁зна	-9.50143
▁доходов	-9.50223
йдут	-9.50284
▁вне	-9.50332
челябинск	-9.50351
▁силы	-9.50355
▁мэра	-9.50441
ики	-9.50771
▁форуме	-9.50897
▁продукт	-9.50901
▁платформ	-9.51034
▁транспортно	-9.51444
▁ответ	-9.51542
чан	-9.51671
▁специальны	-9.51699
▁банков	-9.51719
парк	-9.51797
▁активно	-9.51875
▁порядке	-9.51894
▁тако	-9.51992
▁появи	-9.51995
▁внесл	-9.52073
▁законодательств	-9.52112
▁дорожн	-9.5213
пк	-9.52179
▁красн	-9.52298
▁ste	-9.52403
▁аукцион	-9.52403
▁корреспондент	-9.52403
▁ситуацию	-9.52403
▁жалоб	-9.52403
▁супруг	-9.52403
▁формировани	-9.52403
▁макрон	-9.52403
▁санкций	-9.52404
▁июня	-9.52404
▁просьб	-9.52404
▁отчет	-9.52406
▁мощность	-9.52411
▁ответчик	-9.52414
▁тур	-9.5242
▁акции	-9.52428
▁рассмотрение	-9.52458
▁борт	-9.52472
▁заседания	-9.52475
▁сообщило	-9.52475
▁временные	-9.52482
▁ведет	-9.52494
▁начальника	-9.52519
▁повреждения	-9.52525
рин	-9.52586
▁количеств	-9.52638
▁слова	-9.52658
▁материалы	-9.52707
ками	-9.52732
▁налогов	-9.52751
▁работников	-9.52904
▁принадлеж	-9.52922
▁пунктов	-9.53031
▁исполнител	-9.53062
щая	-9.53063
▁угл	-9.53144
▁следственно	-9.5323
▁технологическ	-9.53414
иться	-9.5352
▁иска	-9.5355
▁помога	-9.53556
▁обо	-9.53562
▁занима	-9.53619
▁изъял	-9.5362
щик	-9.53631
▁городов	-9.5373
▁сокращение	-9.5374
теля	-9.53742
▁обслужива	-9.53821
▁быстро	-9.53911
чь	-9.53926
западн	-9.54011
▁зад	-9.54092
▁директоров	-9.54224
тур	-9.54338
▁отношения	-9.54463
▁ярославско	-9.54564
▁ключевым	-9.54618
▁включ	-9.54726
▁как	-9.54781
▁боевы	-9.54916
▁товар	-9.55004
уют	-9.55087
сочи	-9.55119
▁туристическ	-9.55152
▁ради	-9.55245
▁липецк	-9.55756
▁установ	-9.55757
▁деятельность	-9.55805
▁военн	-9.55852
▁соответству	-9.55907
▁продолжают	-9.55935
▁основан	-9.55943
▁провед	-9.56124
▁заявила	-9.56186
▁завода	-9.56198
▁нижне	-9.56249
▁кондратьев	-9.56249
▁ленобласти	-9.56249
▁набережной	-9.56249
▁поддержива	-9.56249
▁развитию	-9.56249
▁собственны	-9.56249
▁соцсетях	-9.56249
▁сразу	-9.56249
▁картотек	-9.56249
▁положительн	-9.56249
▁мандат	-9.56249
▁комнат	-9.56249
▁телефон	-9.56249
▁фракци	-9.56249
▁mercedes	-9.56249
▁восьми	-9.5625
▁возгорания	-9.56252
▁реестр	-9.56252
▁решению	-9.56252
▁домашни	-9.56254
▁построен	-9.56255
▁нарушении	-9.56256
▁должностны	-9.56259
кобы	-9.56259
▁последствий	-9.56267
▁чита	-9.56299
▁жительниц	-9.56359
заказ	-9.56392
▁очередь	-9.56408
▁заключение	-9.56422
▁среднего	-9.56428
▁выполня	-9.5647
▁наук	-9.56472
▁завершить	-9.56491
▁территориальн	-9.56502
▁барс	-9.56524
▁условия	-9.56538
▁нашли	-9.56579
▁кл	-9.56602
▁практически	-9.56618
▁факт	-9.56637
▁ленинск	-9.56679
▁омск	-9.56766
▁последние	-9.56805
▁прибыли	-9.56825
▁показал	-9.56892
▁предварительны	-9.56898
▁движение	-9.56928
▁рейсы	-9.56934
▁парков	-9.5704
▁дохода	-9.57064
▁новосибирск	-9.57166
▁утвердил	-9.57184
йорке	-9.57317
бер	-9.57333
▁ан	-9.57372
▁инженер	-9.57402
▁боброва	-9.57475
▁правил	-9.57514
▁пен	-9.57598
▁внутренне	-9.57602
▁связано	-9.57666
▁установили	-9.57679
емых	-9.5791
▁нанес	-9.57988
▁годов	-9.58128
▁приговорил	-9.58139
дать	-9.58271
▁встрече	-9.58395
▁судей	-9.58746
▁пункта	-9.58872
▁трудов	-9.59009
▁договора	-9.59039
▁налога	-9.59118
фер	-9.59141
▁автор	-9.59145
службы	-9.59184
▁полу	-9.59252
фр	-9.59256
▁привлечен	-9.59257
▁новосибирско	-9.59304
▁разны	-9.5941
▁охран	-9.59463
▁восстановлени	-9.59536
▁природ	-9.59675
▁vo	-9.59772
▁итоге	-9.59825
рован	-9.59917
▁судебно	-9.59988
▁банковски	-9.6002
▁ночь	-9.60021
▁рейса	-9.60086
▁называ	-9.60121
▁часа	-9.60122
образ	-9.60195
мошенничество	-9.60249
▁авиакомпании	-9.60249
▁властей	-9.60249
▁дальнейше	-9.60249
▁импорт	-9.60249
▁использовал	-9.60249
▁мессенджер	-9.60249
▁распоряжени	-9.60249
▁кабинет	-9.60249
▁элемент	-9.60249
▁питания	-9.60249
▁отражени	-9.60249
▁газпром	-9.6025
▁многи	-9.6025
▁погибших	-9.6025
▁успешно	-9.6025
▁вывод	-9.60252
▁вернуть	-9.60253
▁трети	-9.60253
▁премии	-9.6026
▁позднее	-9.60261
▁частично	-9.60264
▁ректор	-9.6027
спасательн	-9.60274
▁линии	-9.60283
▁сентябрь	-9.60307
▁хозяйства	-9.60312
▁ожидается	-9.60345
▁потер	-9.60412
елена	-9.60416
▁море	-9.60447
▁продолжается	-9.60568
▁объявлена	-9.60574
▁увеличение	-9.60622
▁сеть	-9.60623
▁работник	-9.60633
▁помещениях	-9.60656
летне	-9.60706
▁москва	-9.60727
▁улицы	-9.60754
▁товаров	-9.60761
▁атом	-9.60774
ческого	-9.60781
▁судебны	-9.60892
▁туризма	-9.60912
▁памятник	-9.61025
▁ликвидации	-9.61217
▁воды	-9.61248
под	-9.61422
▁страна	-9.61468
▁одном	-9.61586
▁груз	-9.61694
▁вход	-9.61849
стов	-9.6206
▁требование	-9.62062
▁кол	-9.62148
▁незаконны	-9.62292
▁дат	-9.6233
▁утвержден	-9.62474
▁co	-9.62534
культур	-9.62622
▁госдум	-9.62724
▁уральск	-9.63033
▁no	-9.63104
▁частн	-9.63126
▁форум	-9.63195
юю	-9.63359
▁май	-9.63403
▁новом	-9.63406
▁предоставлени	-9.63559
▁трасс	-9.63628
▁инструмент	-9.63629
▁произошл	-9.63728
▁сотрудник	-9.63847
▁иску	-9.63877
▁вс	-9.63881
вшей	-9.63914
вших	-9.63992
▁объеме	-9.6401
округ	-9.64015
вшие	-9.64125
▁буде	-9.64149
▁строг	-9.64212
дом	-9.64218
▁уточнили	-9.6424
▁страхов	-9.64243
▁врач	-9.64286
▁бензина	-9.64347
▁pro	-9.64416
▁апреля	-9.64416
▁внутри	-9.64416
▁дагестан	-9.64416
▁декабре	-9.64416
▁инвестиций	-9.64416
▁нагрузк	-9.64416
▁наказание	-9.64416
▁препарат	-9.64416
▁росреестра	-9.64416
▁терминал	-9.64416
▁снижа	-9.64416
▁французск	-9.64416
▁собира	-9.64416
▁отбор	-9.64417
▁перевод	-9.64418
▁фирм	-9.64419
▁сложн	-9.64424
▁втб	-9.64425
▁оборот	-9.64427
▁дании	-9.64429
▁модель	-9.64429
▁vol	-9.64431
▁полос	-9.64434
▁оборудование	-9.64434
▁газета	-9.64434
▁подряд	-9.64447
▁собрания	-9.64482
▁сизо	-9.64492
▁десять	-9.64493
▁рассматрива	-9.64513
▁здравоохранения	-9.64553
▁запуск	-9.6458
▁петр	-9.64591
▁уточняется	-9.64593
▁центральный	-9.64617
▁территорию	-9.64628
▁доби	-9.64647
▁тамбовской	-9.64653
▁переговоров	-9.64697
▁вернул	-9.64709
▁дополнительно	-9.64801
▁заседание	-9.64839
▁люди	-9.64849
▁переговоры	-9.64859
▁конкурса	-9.64863
▁администрация	-9.6493
▁физически	-9.64994
▁лес	-9.65025
▁северно	-9.65068
▁бар	-9.65083
▁возглавлял	-9.65089
▁сезона	-9.65169
▁действовать	-9.65314
▁команда	-9.65323
▁утверждает	-9.65384
▁изменений	-9.65406
▁снижени	-9.65505
▁аб	-9.65551
▁оплаты	-9.65599
▁причиной	-9.65632
отск	-9.65658
▁требует	-9.65685
▁команды	-9.65736
▁семьи	-9.65778
▁выросло	-9.65834
спорт	-9.66025
▁машины	-9.66064
▁законодательно	-9.66154
▁энергетики	-9.66175
▁театра	-9.6619
▁ист	-9.66243
▁ограничен	-9.66393
▁руководство	-9.66398
▁пляж	-9.66407
▁журналистам	-9.66461
▁акватории	-9.66495
▁мая	-9.6654
▁продажу	-9.66561
▁публикаци	-9.66576
mo	-9.66726
▁замен	-9.66831
▁отметила	-9.66947
▁c	-9.67015
▁быстр	-9.67023
муниципального	-9.67039
▁уход	-9.67136
▁групп	-9.67173
строй	-9.67273
▁регистраци	-9.67366
▁форума	-9.674
▁ma	-9.67424
сек	-9.67529
▁государственн	-9.6753
▁политике	-9.67561
сят	-9.67756
стью	-9.67788
▁управля	-9.67949
падение	-9.68088
▁готова	-9.68229
ирует	-9.68284
▁мера	-9.68314
стат	-9.68384
▁финансовы	-9.68638
▁эта	-9.68718
▁секрет	-9.68755
▁апреле	-9.68764
▁ведущи	-9.68764
▁вениамин	-9.68764
▁ежегодно	-9.68764
▁злоумышленник	-9.68764
▁контроле	-9.68764
▁корпоративн	-9.68764
▁например	-9.68764
▁обсуждени	-9.68764
▁попытк	-9.68764
▁превысил	-9.68764
▁продукцию	-9.68764
▁развитии	-9.68764
▁росавиации	-9.68764
▁соглашение	-9.68764
▁убийство	-9.68764
▁лучши	-9.68764
▁минимум	-9.68764
▁мобильно	-9.68764
▁оставаться	-9.68764
▁затрат	-9.68764
▁открыл	-9.68764
игорь	-9.68764
вшись	-9.68764
▁деревн	-9.68765
▁недели	-9.68765
▁достаточно	-9.68765
▁собак	-9.68766
▁сутки	-9.68767
▁повышени	-9.68774
▁сообщения	-9.68782
▁трое	-9.68783
▁собственности	-9.68786
▁статье	-9.6879
▁поставок	-9.68808
ству	-9.68816
▁респондентов	-9.68819
▁телеканал	-9.68823
▁вуза	-9.68824
▁артист	-9.68829
▁ремонта	-9.68882
▁избирательн	-9.68898
▁подач	-9.68935
▁акт	-9.68975
▁ставка	-9.68979
▁производству	-9.69021
▁сервиса	-9.69075
бэк	-9.69125
▁петербургск	-9.69165
▁группа	-9.69232
▁рейс	-9.69274
▁белоруссии	-9.69417
▁территорий	-9.69475
▁коммерческ	-9.69486
▁зону	-9.69543
▁зарегистрирован	-9.69552
▁правила	-9.69609
▁охраны	-9.69612
ехал	-9.69644
энерго	-9.6971
▁своего	-9.6972
▁самолета	-9.69727
▁сотрудничества	-9.69829
▁органах	-9.69871
▁геленджика	-9.69933
скую	-9.69961
▁инициативу	-9.70044
▁постановление	-9.70086
▁сын	-9.7011
▁третьем	-9.7022
энергетическ	-9.7023
▁территория	-9.70377
▁данны	-9.70397
▁экономически	-9.70418
▁летом	-9.70507
▁планов	-9.7066
▁рабочи	-9.70803
нные	-9.70814
▁акватори	-9.71084
▁гостиница	-9.71255
▁привлечени	-9.71284
▁смогл	-9.71291
▁южн	-9.71407
▁внес	-9.7151
▁срока	-9.71545
▁необходим	-9.71643
▁метро	-9.71916
ne	-9.7216
▁полном	-9.72189
нина	-9.72244
▁союз	-9.72302
нят	-9.72325
▁персонал	-9.72333
▁ал	-9.72338
▁программе	-9.72567
▁запрос	-9.72588
▁удовлетворен	-9.72651
▁самым	-9.72677
альной	-9.72816
▁женщина	-9.72868
▁органа	-9.72913
нер	-9.72926
▁продолжает	-9.72982
петербурге	-9.73007
es	-9.73022
▁метод	-9.73159
▁сельско	-9.73226
▁звуч	-9.73282
▁возрасте	-9.73283
▁начнут	-9.73309
▁регулятор	-9.73309
черноземье	-9.73309
▁ближайше	-9.73309
▁гордумы	-9.73309
▁девелопер	-9.73309
▁конкурент	-9.73309
▁обвинение	-9.73309
▁прошунин	-9.73309
▁расписани	-9.73309
▁устранени	-9.73309
▁холдинг	-9.73309
▁церемони	-9.73309
▁кампани	-9.73309
▁жилищно	-9.73309
▁научно	-9.7331
▁пообещал	-9.73311
▁расчет	-9.73312
технически	-9.73314
▁казанск	-9.73315
▁упал	-9.73315
ben	-9.73317
▁предмет	-9.73317
▁отдельно	-9.73318
▁патриот	-9.73321
▁выраст	-9.73322
▁автономно	-9.73324
▁запис	-9.73331
▁близки	-9.73347
▁опрос	-9.73354
▁достави	-9.73355
▁решений	-9.73366
▁использования	-9.7337
сбыт	-9.7338
▁основе	-9.73384
▁цели	-9.73389
▁отсутствие	-9.73397
▁никит	-9.73412
енные	-9.73448
▁аэс	-9.73481
▁ракет	-9.73491
▁москву	-9.73511
▁институт	-9.73521
▁личны	-9.73533
▁расследования	-9.73536
▁опрошенных	-9.73597
▁искусственн	-9.73597
чень	-9.7362
▁кандидатуру	-9.73628
▁гостиницы	-9.73635
▁генеральны	-9.73683
▁комиссия	-9.73701
ющего	-9.73746
▁городах	-9.73759
▁напомнил	-9.7376
▁саратовско	-9.73809
▁пор	-9.73882
▁беспилотники	-9.74011
▁павлов	-9.74023
▁высоко	-9.74081
ган	-9.74162
▁улица	-9.74186
▁должно	-9.74212
▁чемпионата	-9.74301
▁зафиксировано	-9.74337
▁рабочих	-9.74382
▁торгов	-9.74389
рг	-9.74435
▁предоставля	-9.74501
▁этому	-9.74539
▁задолженности	-9.74628
дон	-9.74648
▁показател	-9.74682
▁ии	-9.74685
▁начали	-9.74699
▁оценк	-9.74778
▁новым	-9.74853
вает	-9.74854
▁большой	-9.74894
▁государственны	-9.74894
▁ген	-9.74961
▁выплаты	-9.75021
чат	-9.7505
▁купи	-9.75183
ряд	-9.7519
бин	-9.75207
▁порт	-9.7534
▁сотрудника	-9.75357
▁оценки	-9.75503
▁продуктов	-9.75593
летн	-9.75645
▁гол	-9.75672
лес	-9.75723
▁сделк	-9.75818
▁долг	-9.75854
▁связанны	-9.76031
▁краснодарски	-9.76042
▁мире	-9.7613
▁аналогичным	-9.76357
▁заявлени	-9.76422
▁сделал	-9.76471
▁представ	-9.76537
▁сроки	-9.76691
▁российском	-9.76741
▁согласи	-9.76741
▁стабильн	-9.76754
▁желани	-9.76908
▁краснодар	-9.7699
▁программа	-9.77131
▁третье	-9.77252
▁le	-9.77383
раст	-9.77422
▁покинул	-9.77463
▁периода	-9.77615
▁применя	-9.7783
▁обсуди	-9.77841
нской	-9.77888
яков	-9.77971
▁арт	-9.77987
▁одна	-9.78039
▁востребован	-9.78071
▁вынужден	-9.78071
▁модернизаци	-9.78071
▁росприроднадзор	-9.78071
▁самостоятельно	-9.78071
▁соблюдени	-9.78071
▁текущи	-9.78071
▁тяжести	-9.78071
▁условий	-9.78071
▁больницы	-9.78071
▁каспийск	-9.78071
▁повыси	-9.78071
▁предостави	-9.78071
▁соблюда	-9.78071
▁эфир	-9.78071
▁экстренны	-9.78071
▁новгород	-9.78071
▁поправки	-9.78071
▁тренер	-9.78072
▁мусор	-9.78072
▁высот	-9.78072
▁одну	-9.78072
▁валери	-9.78073
▁кадров	-9.78074
читыва	-9.78074
▁обыск	-9.78074
▁компенсации	-9.78075
▁спуст	-9.78075
▁станиц	-9.78083
▁кафе	-9.78083
▁ярославле	-9.78087
▁обучение	-9.78087
▁поиск	-9.78093
▁оренбургской	-9.78098
▁документа	-9.78107
▁соглашения	-9.78124
▁собственность	-9.7814
▁последн	-9.78152
▁обеспечение	-9.78155
▁жив	-9.78187
▁подписан	-9.78189
▁стол	-9.78202
▁мэрии	-9.78213
▁сообщают	-9.78233
▁состоится	-9.78239
▁составлял	-9.78258
▁проходил	-9.78285
▁выступает	-9.78366
▁максимально	-9.78388
▁ввод	-9.78463
▁республиканск	-9.78517
▁фигурантка	-9.78532
▁тяжелом	-9.78583
▁четверт	-9.78586
▁передаче	-9.78609
▁столицы	-9.78694
▁индекс	-9.78702
▁защитник	-9.78704
▁имеют	-9.78748
▁женщины	-9.78775
▁кандидатов	-9.7878
▁современны	-9.78788
▁зоны	-9.78803
кина	-9.78843
▁заявлял	-9.78962
▁принят	-9.79004
▁чтении	-9.79011
▁ноч	-9.79022
▁типа	-9.79058
▁указан	-9.79094
▁членов	-9.79121
▁выявили	-9.79234
▁самолетов	-9.79276
▁учебн	-9.79325
▁проблемы	-9.79341
щен	-9.79343
▁раздел	-9.79349
▁финансовой	-9.79457
службу	-9.79647
▁военных	-9.79655
▁ирана	-9.7973
▁разработк	-9.80066
▁возл	-9.80192
▁представителя	-9.80262
▁тра	-9.80384
▁северн	-9.80396
▁сказала	-9.80459
▁матери	-9.80525
▁сайт	-9.80575
▁университет	-9.80633
▁исполняющи	-9.80647
▁понима	-9.80874
▁пострадал	-9.80878
▁совершени	-9.80953
▁предпринимателя	-9.80961
син	-9.81011
овском	-9.81258
▁u	-9.81331
ических	-9.81338
▁общественн	-9.81507
ирования	-9.81553
▁будуще	-9.81634
▁автомобиле	-9.81689
зон	-9.81693
▁труд	-9.81705
▁потенциал	-9.81989
▁занимать	-9.82145
▁выступа	-9.82149
специалист	-9.82282
▁травм	-9.82302
▁темп	-9.82343
▁выбор	-9.82487
▁указ	-9.82492
▁полученны	-9.82499
▁отношений	-9.82567
▁проводят	-9.8274
▁информационны	-9.82781
▁отсутств	-9.82974
▁эвакуирова	-9.83039
▁ip	-9.83044
▁lamborghini	-9.83071
▁блогер	-9.83071
▁комментари	-9.83071
▁кремля	-9.83071
▁молдавии	-9.83071
▁одновременно	-9.83071
▁одобрил	-9.83071
▁оружия	-9.83071
▁паслер	-9.83071
▁повестк	-9.83071
▁разговор	-9.83071
▁собеседник	-9.83071
▁спасатели	-9.83071
▁технологий	-9.83071
▁условно	-9.83071
▁экипаж	-9.83071
▁ожидают	-9.83071
▁хищени	-9.83071
▁свидетельств	-9.83071
▁случившегося	-9.83071
▁рекорд	-9.83071
▁начнет	-9.83071
▁vig	-9.83072
▁зависимост	-9.83072
▁перебо	-9.83072
▁юлаев	-9.83072
▁карьер	-9.83072
▁фсб	-9.83074
▁мастер	-9.83074
▁выражении	-9.83076
▁никто	-9.83076
▁светлан	-9.83077
▁нужд	-9.83077
▁стратегически	-9.83079
▁оставил	-9.8308
▁собой	-9.83082
▁ветер	-9.83085
▁поток	-9.83096
▁производитель	-9.83104
▁эксплуатацию	-9.83106
▁вышл	-9.8312
▁свет	-9.83124
▁дума	-9.83182
начала	-9.83189
▁ирин	-9.83258
▁обход	-9.83276
▁высоким	-9.83289
▁анапы	-9.83379
▁данн	-9.83397
▁минувш	-9.83399
сибирь	-9.83402
▁производит	-9.83414
▁проводится	-9.83425
▁актер	-9.8344
▁сери	-9.83482
тельно	-9.83517
▁финансирования	-9.83517
▁выборов	-9.83562
▁никол	-9.83574
▁массово	-9.83594
▁промышленны	-9.83614
ar	-9.83624
▁след	-9.83631
▁применения	-9.83712
гин	-9.83748
носит	-9.83787
▁предупредил	-9.83868
▁владел	-9.83893
аренд	-9.83996
▁владе	-9.84056
▁дон	-9.84249
▁встреч	-9.84252
▁опер	-9.84314
▁государственных	-9.84314
▁шаг	-9.84319
жил	-9.8451
▁депутатом	-9.84551
▁рабоч	-9.84706
▁земель	-9.84812
стер	-9.85004
▁угроз	-9.85039
▁передал	-9.85138
▁центрально	-9.85183
▁созыв	-9.85204
▁двигател	-9.85232
▁населенны	-9.8525
▁призыв	-9.85358
ющей	-9.85408
▁результата	-9.85514
▁рассмотрен	-9.85683
исты	-9.85703
▁проспект	-9.85754
▁мог	-9.85877
▁возвращени	-9.8611
▁оформлен	-9.86213
▁поступ	-9.86257
▁электронны	-9.86316
▁большинство	-9.86395
▁устойчив	-9.8641
▁обе	-9.86427
▁процесса	-9.86474
▁внутренн	-9.865
▁устав	-9.86526
▁генерально	-9.86613
▁облада	-9.86688
▁мат	-9.86736
суд	-9.86757
▁женщин	-9.87155
▁организовал	-9.87218
▁бес	-9.87297
▁предпринимател	-9.87352
▁плана	-9.8737
▁собран	-9.8739
▁банковск	-9.87653
▁театр	-9.87747
▁выпуска	-9.878
▁проводит	-9.87807
▁дипломат	-9.87842
▁бак	-9.88005
▁состояни	-9.88102
▁взят	-9.88169
▁легко	-9.88232
▁беспилотн	-9.88238
▁начина	-9.88248
▁волгоград	-9.88292
▁уверен	-9.88318
▁внешн	-9.88333
▁адвокат	-9.88334
▁анатоли	-9.88334
▁апелляционн	-9.88334
▁здоровью	-9.88334
▁консорциум	-9.88334
▁мероприятие	-9.88334
▁мишустин	-9.88334
▁ноябре	-9.88334
▁обжалова	-9.88334
▁платежей	-9.88334
▁подтвержден	-9.88334
▁полицейские	-9.88334
▁рассчитан	-9.88334
▁рогозин	-9.88334
▁справедлив	-9.88334
▁степени	-9.88334
▁февраля	-9.88334
▁казань	-9.88334
▁практик	-9.88334
▁россией	-9.88334
▁выполни	-9.88334
▁уничтожил	-9.88334
▁железнодорожны	-9.88334
▁летательны	-9.88335
▁носков	-9.88335
▁середин	-9.88335
▁hong	-9.88336
теракт	-9.88336
▁график	-9.88336
▁концепци	-9.88339
▁обмен	-9.88342
▁кредитования	-9.88345
▁доставк	-9.88346
▁микро	-9.88349
политическ	-9.88349
▁растет	-9.88355
▁нарушений	-9.88362
▁it	-9.88363
▁отказыва	-9.88369
▁фас	-9.8837
▁азс	-9.88373
▁гар	-9.88375
▁волгоградской	-9.88376
▁образование	-9.88399
▁скорость	-9.88422
▁пострадавшим	-9.88433
▁момента	-9.88478
▁выступления	-9.88509
▁обязательств	-9.88517
▁пройти	-9.88558
▁хоч	-9.88587
▁октябрьск	-9.88587
▁ростове	-9.88669
▁черных	-9.88681
▁прокуратуре	-9.887
▁получать	-9.88746
▁воронежской	-9.88748
скоре	-9.88759
▁стоит	-9.88789
▁водителя	-9.88804
▁сельского	-9.88876
▁силов	-9.88898
▁отделения	-9.88925
▁снят	-9.8895
▁гражданам	-9.88992
▁полеты	-9.88995
▁липецкой	-9.89017
▁победы	-9.89038
▁организован	-9.89075
▁указано	-9.89085
us	-9.89136
▁пространство	-9.89143
▁открыто	-9.89147
▁увеличить	-9.89181
▁дополнительн	-9.89212
▁беспилотника	-9.89216
▁петербурге	-9.89222
▁разработка	-9.89253
ьные	-9.89254
ho	-9.89327
ждать	-9.89379
▁ударов	-9.89427
▁вся	-9.8951
to	-9.89542
▁вред	-9.89562
▁дизайн	-9.89569
нести	-9.89606
▁земли	-9.89682
▁отдельны	-9.89691
▁зон	-9.89809
▁доступны	-9.89824
▁договоров	-9.89868
▁руководи	-9.90006
▁представля	-9.90021
▁поддержали	-9.90058
▁министерств	-9.90239
▁допустил	-9.90437
▁департамента	-9.90591
▁приход	-9.90787
nd	-9.91076
▁компаниям	-9.91085
▁пляжи	-9.91087
▁посвящен	-9.91094
▁игры	-9.91109
▁призыва	-9.91127
▁краснодаре	-9.91205
▁грузов	-9.91228
▁инцидента	-9.91307
дорож	-9.91358
▁центральном	-9.91423
▁рук	-9.91731
▁прошлы	-9.91794
▁спортивны	-9.9194
▁марки	-9.91948
играл	-9.91949
▁огранич	-9.92009
▁направи	-9.9202
▁местах	-9.92103
da	-9.92301
▁март	-9.9232
▁аварийны	-9.92389
▁оказани	-9.92392
лева	-9.92443
▁пермски	-9.92465
▁провод	-9.92471
▁реально	-9.92479
▁подозрева	-9.92616
▁миров	-9.92805
▁деле	-9.92871
▁нефте	-9.92923
▁без	-9.93069
инский	-9.93161
▁применени	-9.93181
▁садов	-9.9329
▁стандарт	-9.93324
▁судебн	-9.93381
▁небольш	-9.93389
▁собственник	-9.93389
▁инвестор	-9.93397
жан	-9.93409
шко	-9.93413
▁европейск	-9.93467
строить	-9.93468
▁таможенн	-9.93479
▁автомобили	-9.93536
▁очередно	-9.93545
▁сосед	-9.93641
▁турист	-9.93673
▁функци	-9.93692
▁обеспечен	-9.93698
▁победител	-9.9376
▁собственно	-9.93779
▁единственн	-9.9379
▁ярослав	-9.93819
▁правов	-9.93822
▁доле	-9.93847
▁гладков	-9.9389
▁гонконг	-9.9389
▁единогласно	-9.9389
▁заключа	-9.9389
▁застройщик	-9.9389
▁инвестиции	-9.9389
▁комбинат	-9.9389
▁лдпр	-9.9389
▁момотов	-9.9389
▁оповещения	-9.9389
▁отечественно	-9.9389
▁отпуск	-9.9389
▁последующи	-9.9389
▁предыдущи	-9.9389
▁технологии	-9.9389
▁туапсе	-9.9389
▁энергии	-9.9389
▁авито	-9.9389
▁ижевск	-9.9389
▁принимают	-9.9389
▁ульяновск	-9.9389
tis	-9.9389
▁встретил	-9.9389
▁раньше	-9.9389
▁лицензи	-9.9389
▁зенит	-9.9389
▁цвет	-9.93891
▁боликов	-9.93891
▁завис	-9.93892
▁ктк	-9.93892
▁сферы	-9.93893
▁вычет	-9.93895
▁высказывания	-9.93896
▁труб	-9.93896
▁выдач	-9.93896
▁резк	-9.93898
llan	-9.93899
▁сложности	-9.93907
▁фасад	-9.93909
▁кхл	-9.93911
▁пользоваться	-9.93926
▁брак	-9.93927
▁зеленского	-9.93929
▁учреждение	-9.93929
▁аналитики	-9.93937
▁входят	-9.93954
▁старше	-9.93963
▁провери	-9.93991
▁рассмотрения	-9.94011
веден	-9.94031
▁тюменско	-9.94041
▁выборах	-9.94049
▁красно	-9.94073
▁источника	-9.94079
▁пляжей	-9.94084
▁билетов	-9.94104
▁филиала	-9.94104
▁нож	-9.94122
▁профсоюзов	-9.9413
▁материалам	-9.94144
▁обсудили	-9.94166
▁каждого	-9.94168
▁высокий	-9.94169
▁федеральным	-9.94274
▁жел	-9.94338
▁подразделения	-9.94364
▁предлагают	-9.94519
признан	-9.94538
кавказск	-9.94539
▁группой	-9.94539
▁руководителей	-9.9456
структур	-9.94582
vo	-9.94683
▁предел	-9.9474
▁источников	-9.94742
▁рассказала	-9.94763
▁десяти	-9.94787
▁заявления	-9.94793
госавтоинспекции	-9.94854
▁рек	-9.94887
▁денежно	-9.94941
▁модели	-9.94988
▁хан	-9.95015
▁товары	-9.95026
▁построи	-9.95031
fi	-9.95055
▁кредитов	-9.95141
▁ответил	-9.95198
▁информационной	-9.952
▁вирус	-9.95328
▁участникам	-9.95346
▁отлич	-9.95359
▁зарплаты	-9.95365
▁домах	-9.95437
ur	-9.95475
▁строительно	-9.95513
▁кир	-9.95516
▁местном	-9.95607
ченко	-9.95711
▁управлении	-9.95714
▁ленинградско	-9.95727
промышленн	-9.95817
▁молод	-9.95862
▁спортивн	-9.95878
ально	-9.95996
▁приобретени	-9.96008
▁установлено	-9.96026
▁продаже	-9.96043
▁дер	-9.96092
▁характера	-9.96134
▁муниципально	-9.96154
▁своим	-9.96182
▁кпрф	-9.9624
▁путина	-9.96282
▁украинск	-9.96485
чев	-9.96521
вского	-9.96527
hon	-9.96549
▁показатели	-9.96558
▁изменени	-9.96579
рыва	-9.96594
▁реки	-9.96646
▁состояние	-9.96688
▁старт	-9.96727
▁зоне	-9.96743
▁сенатор	-9.96772
▁администраци	-9.96856
▁перенес	-9.9697
▁руководств	-9.97016
▁выступал	-9.97068
▁благоустройств	-9.9709
▁определен	-9.9709
экономическо	-9.97116
▁реша	-9.97202
▁добавили	-9.97244
▁сегмент	-9.97278
▁департамент	-9.97301
инвест	-9.97574
▁оценива	-9.97596
очные	-9.97662
▁молоды	-9.97722
ывать	-9.97723
▁юридически	-9.97776
▁категории	-9.97783
▁кредитн	-9.97936
▁побед	-9.98014
▁рус	-9.98072
▁секторе	-9.98101
способност	-9.98324
ia	-9.98344
▁дизельно	-9.98361
овского	-9.98407
▁торговы	-9.98413
▁средни	-9.98457
▁масс	-9.98526
▁отда	-9.98633
▁объясн	-9.98781
▁продолжит	-9.98822
вят	-9.98882
ющим	-9.98994
▁столиц	-9.99009
▁транспортны	-9.99025
▁рассмотр	-9.99078
▁консультаци	-9.99088
▁брат	-9.99138
▁белгородск	-9.99288
▁вечер	-9.99295
▁очеред	-9.99303
▁доста	-9.99356
▁оба	-9.99415
овали	-9.99473
▁служ	-9.99487
▁получит	-9.99527
▁важно	-9.99608
▁доклад	-9.99635
▁возможны	-9.99639
▁рекоменду	-9.99665
этажн	-9.99708
▁мужчин	-9.9975
сво	-9.99764
▁клиентам	-9.99764
ll	-9.99769
▁окружающ	-9.99772
group	-9.99772
магатэ	-9.99772
▁архитектур	-9.99772
▁взаимодействи	-9.99772
▁владислав	-9.99772
▁возглавил	-9.99772
▁гуманитарн	-9.99772
▁евраев	-9.99772
▁здании	-9.99772
▁конструкции	-9.99772
▁контакт	-9.99772
▁контроля	-9.99772
▁красноуфимск	-9.99772
▁ликвидировали	-9.99772
▁локомотив	-9.99772
▁механизм	-9.99772
▁мониторинг	-9.99772
▁набережны	-9.99772
▁обвинения	-9.99772
▁обращении	-9.99772
▁пациент	-9.99772
▁подъезд	-9.99772
▁поручил	-9.99772
▁предназначен	-9.99772
▁раскритиковал	-9.99772
▁сириус	-9.99772
▁случая	-9.99772
▁соцсети	-9.99772
▁спбгуп	-9.99772
▁теплоснабжающ	-9.99772
▁экономика	-9.99772
▁юрлиц	-9.99772
▁изначально	-9.99772
▁компенсацию	-9.99772
▁конкретн	-9.99772
▁медведев	-9.99772
▁оснащен	-9.99772
▁перевозк	-9.99772
▁порядок	-9.99772
▁поступления	-9.99772
▁предупреждени	-9.99772
▁эмманюэл	-9.99772
▁денег	-9.99772
▁наруша	-9.99772
▁сирены	-9.99772
▁цикл	-9.99772
▁эстони	-9.99772
▁вчера	-9.99772
▁настаива	-9.99772
▁топливно	-9.99772
▁павел	-9.99772
максимальная	-9.99772
▁девяти	-9.99772
▁обратить	-9.99773
▁кирилл	-9.99773
▁дочер	-9.99773
▁урегулированию	-9.99775
▁направля	-9.99775
▁динамика	-9.99776
▁китая	-9.99776
▁широк	-9.99776
▁было	-9.99777
▁примут	-9.99779
▁камер	-9.9978
▁глаз	-9.99781
▁произведен	-9.99781
▁профессионально	-9.99783
▁первомайск	-9.9979
▁почв	-9.99791
▁планировал	-9.99805
▁жилье	-9.99805
▁экстремистской	-9.99806
▁путь	-9.99822
▁роль	-9.99863
▁зампред	-9.99871
▁помещений	-9.99874
▁установить	-9.9988
▁удал	-9.99892
▁просил	-9.99895
▁парламентари	-9.99897
▁сад	-9.99897
▁влияние	-9.99902
снова	-9.99915
▁самоуправления	-9.99926
▁обязал	-9.99938
▁никак	-9.99951
▁победителем	-9.99964
▁национальны	-9.99968
▁эксплуатации	-9.99983
▁тело	-10.0001
▁сезоне	-10.0003
▁основн	-10.0007
▁ольг	-10.0009
▁видим	-10.001
▁электроэнергии	-10.0012
▁привлека	-10.0013
электронн	-10.0014
▁зим	-10.0018
подпис	-10.002
▁стс	-10.0022
▁весь	-10.0022
▁палаты	-10.0027
▁урала	-10.0028
вшихся	-10.0029
▁обслуживание	-10.0031
▁продолжаются	-10.0034
▁действиям	-10.0035
▁всероссийск	-10.0037
▁ранены	-10.0042
▁трат	-10.0045
▁атаковал	-10.0048
▁ваш	-10.0059
▁происшествий	-10.0061
▁генпрокуратура	-10.0062
▁ge	-10.0064
▁турции	-10.0068
▁травмы	-10.007
▁проходя	-10.0071
▁допуск	-10.0084
▁экспертов	-10.0087
▁годовом	-10.0093
▁тест	-10.0095
▁аппаратов	-10.0118
▁тв	-10.0119
▁воздуха	-10.0123
▁улиц	-10.0126
▁площадка	-10.0133
▁выставк	-10.0154
▁площадки	-10.0156
▁покушени	-10.016
▁одному	-10.0165
▁советник	-10.0167
▁требованиям	-10.0167
▁сторону	-10.017
▁удары	-10.0171
▁туристически	-10.0177
арь	-10.0194
▁отменен	-10.0202
телей	-10.0205
▁бело	-10.0247
▁аэропорты	-10.0249
▁вреда	-10.0249
▁долга	-10.0255
▁коммунальны	-10.0255
▁подан	-10.0264
▁проспекте	-10.0275
оно	-10.0279
▁рад	-10.0283
▁привлекл	-10.0296
▁журналист	-10.0303
▁рейтинга	-10.0305
▁дорожно	-10.0309
▁регионами	-10.0318
▁установил	-10.0324
▁уголовн	-10.0326
▁управлением	-10.0329
▁предлага	-10.0338
▁законодательн	-10.0344
▁совершенно	-10.0345
▁кас	-10.0352
▁характер	-10.0355
ведения	-10.0361
▁решил	-10.0378
▁казахстана	-10.0388
йдет	-10.0392
▁китайско	-10.0393
▁используют	-10.0395
свердловск	-10.0399
▁ключевы	-10.041
▁чс	-10.0428
▁уполномоченны	-10.0437
чный	-10.0448
ское	-10.0448
at	-10.045
▁инициатива	-10.046
▁приведе	-10.048
шир	-10.0485
хватил	-10.0498
законодательства	-10.051
▁объявили	-10.0522
над	-10.0522
▁ним	-10.0534
▁теле	-10.0549
▁выявлен	-10.0554
илья	-10.0567
▁безопасно	-10.0567
▁пострадавш	-10.0574
▁использован	-10.0575
▁устройств	-10.0577
▁обязательства	-10.058
тюмен	-10.0585
▁добав	-10.0593
▁чемпион	-10.0596
▁случи	-10.0596
строительству	-10.0602
▁гибридн	-10.0602
▁специализирова	-10.0602
случай	-10.0602
▁toyota	-10.0602
▁ближайши	-10.0602
▁бригад	-10.0602
▁вступлени	-10.0602
▁жизнь	-10.0602
▁невозможно	-10.0602
▁неоднократно	-10.0602
▁обработк	-10.0602
▁окружно	-10.0602
▁оружие	-10.0602
▁параллельно	-10.0602
▁пароходств	-10.0602
▁подозрени	-10.0602
▁ресторан	-10.0602
▁связь	-10.0602
▁сейчас	-10.0602
▁столкновени	-10.0602
▁фестиваля	-10.0602
▁хинштейн	-10.0602
▁доказательств	-10.0602
▁плюс	-10.0602
▁увиде	-10.0602
▁повлия	-10.0602
▁целях	-10.0602
▁правления	-10.0602
▁найден	-10.0602
▁бактери	-10.0602
▁усилия	-10.0602
▁обвинил	-10.0602
▁польши	-10.0602
▁изменил	-10.0602
▁верхне	-10.0602
▁потерпевш	-10.0602
▁собрал	-10.0602
▁нефть	-10.0603
▁избрал	-10.0603
▁войну	-10.0603
▁час	-10.0603
▁выяснилось	-10.0603
▁нефтепродуктов	-10.0603
▁hr	-10.0603
▁масл	-10.0604
▁котельны	-10.0604
▁сетей	-10.0605
▁шило	-10.0606
▁растительн	-10.0607
▁праздник	-10.0608
▁внедрени	-10.061
▁запорожской	-10.061
▁аренду	-10.061
▁снизился	-10.0611
▁обломк	-10.0611
▁санкции	-10.0611
▁оборонно	-10.0612
▁воронежск	-10.0616
▁рождения	-10.0619
▁находились	-10.0621
▁четверг	-10.0621
▁госсекретарь	-10.0622
▁восьмого	-10.0623
▁сделать	-10.0624
▁название	-10.0624
▁агро	-10.0625
▁склад	-10.0625
▁крис	-10.0629
▁финал	-10.063
▁целью	-10.0632
▁марин	-10.0634
▁студентов	-10.0636
▁штатном	-10.0636
▁волга	-10.0636
▁назначения	-10.0642
▁арестовал	-10.0644
▁постоянно	-10.0656
▁получив	-10.0658
▁исполнительны	-10.0669
▁содержания	-10.0671
▁вакансий	-10.0672
▁установило	-10.0675
▁деятельностью	-10.0676
un	-10.068
▁пято	-10.0683
▁армии	-10.0683
▁необходимость	-10.069
▁капитальн	-10.0694
▁уничтожен	-10.0701
▁операций	-10.0702
▁полицию	-10.0704
▁re	-10.0709
▁производителей	-10.0726
▁клиентов	-10.0732
▁выразил	-10.0743
центр	-10.0746
▁занимают	-10.0748
губернатор	-10.0754
лиги	-10.0755
▁квартале	-10.0764
▁повторно	-10.0764
▁пространстве	-10.0767
▁консульства	-10.0769
▁евросоюза	-10.0774
▁полет	-10.0774
▁этаже	-10.0776
▁возраста	-10.079
▁изготовлени	-10.08
ница	-10.0801
▁бесплатны	-10.0839
▁золота	-10.0843
экспертиз	-10.0844
▁вызвал	-10.0845
▁снизить	-10.0851
▁бюджетны	-10.086
▁транспортн	-10.0879
▁лит	-10.0881
le	-10.0888
▁земле	-10.0898
▁наибольши	-10.09
▁брон	-10.09
▁производстве	-10.0907
▁включил	-10.0908
▁парламент	-10.091
▁запуска	-10.0918
▁угрозе	-10.0921
▁сегменте	-10.0929
▁сенатора	-10.0932
▁запрещен	-10.0934
▁арбитражн	-10.0944
▁атомн	-10.0945
▁лев	-10.0951
металл	-10.0964
▁квартиры	-10.097
▁настоящи	-10.0971
предпринимателей	-10.0971
нное	-10.0974
▁показали	-10.0984
ско	-10.0986
▁приняты	-10.1006
▁финансирование	-10.1006
▁обвиняем	-10.1006
▁подготовки	-10.1014
▁каса	-10.1015
петербургск	-10.1016
▁возник	-10.1024
▁заявк	-10.1048
▁иностранн	-10.1049
долго	-10.1052
▁делов	-10.107
▁соверш	-10.108
оф	-10.1086
▁обязательно	-10.1087
▁отвеча	-10.1099
▁оценивает	-10.1112
рост	-10.1157
▁рассматривают	-10.1191
▁капитала	-10.1193
▁школьн	-10.1198
▁заксобрани	-10.1198
▁следовател	-10.1213
ируется	-10.1218
▁искусств	-10.1227
▁верховны	-10.1231
аево	-10.1231
▁хотя	-10.1241
▁гражданско	-10.1243
▁избира	-10.1248
комнатны	-10.1249
▁спас	-10.1255
льц	-10.126
▁интеллект	-10.1269
цел	-10.1269
потребление	-10.1269
▁авария	-10.1269
▁административны	-10.1269
▁архитектор	-10.1269
▁болезн	-10.1269
▁ватикан	-10.1269
▁веществ	-10.1269
▁вмешательств	-10.1269
▁глобально	-10.1269
▁демонстриру	-10.1269
▁здоровья	-10.1269
▁историческо	-10.1269
▁качества	-10.1269
▁контент	-10.1269
▁кроссовер	-10.1269
▁обращения	-10.1269
▁ожидания	-10.1269
▁осуществлен	-10.1269
▁подготовил	-10.1269
▁поможет	-10.1269
▁предыдуще	-10.1269
▁севастопол	-10.1269
▁станция	-10.1269
▁убытк	-10.1269
▁учредител	-10.1269
▁эвакуаци	-10.1269
▁аксенов	-10.1269
▁вдвое	-10.1269
▁задержк	-10.1269
▁исключен	-10.1269
▁распространя	-10.1269
▁тендер	-10.1269
▁баланс	-10.1269
▁огня	-10.1269
▁отправлен	-10.1269
▁падения	-10.1269
▁телеграм	-10.1269
▁участки	-10.1269
▁выбира	-10.1269
▁девуш	-10.1269
▁опасности	-10.1269
▁центробанк	-10.1269
▁штук	-10.1269
▁железнодорожно	-10.1269
▁партию	-10.1269
▁турецк	-10.1269
▁индии	-10.1269
▁молодежи	-10.1269
▁поручен	-10.1269
▁бюро	-10.1269
▁огне	-10.1269
▁обратно	-10.1269
▁точки	-10.1269
▁анализ	-10.1269
▁высше	-10.1269
▁сетях	-10.1269
▁огромн	-10.1269
▁визит	-10.1269
▁пятер	-10.1269
▁отправить	-10.1269
исследовательск	-10.1269
▁принес	-10.1269
▁прекратит	-10.1269
▁кубани	-10.1269
▁квтч	-10.1269
▁уфы	-10.1269
▁первичн	-10.127
▁смерть	-10.127
▁продлит	-10.127
▁вокзал	-10.127
▁проверя	-10.127
▁торги	-10.127
▁урегулирования	-10.127
▁чувашии	-10.1271
ley	-10.1271
евский	-10.1271
▁ресурсов	-10.1271
▁рыб	-10.1271
▁карач	-10.1271
▁голосования	-10.1271
▁васили	-10.1271
▁банкротства	-10.1272
▁ставку	-10.1273
▁fm	-10.1273
▁бойц	-10.1274
▁меж	-10.1275
▁снял	-10.1276
граф	-10.1276
▁фактически	-10.1276
▁колес	-10.1276
▁роли	-10.1278
▁рассматривает	-10.1278
▁запасны	-10.128
▁совершен	-10.1281
▁разрешение	-10.1281
▁какие	-10.1281
▁ci	-10.1283
мысл	-10.1284
▁скончался	-10.1285
▁общества	-10.1288
▁предусматривает	-10.129
▁медицинских	-10.1296
▁успех	-10.13
▁спецслужб	-10.1302
▁длин	-10.1304
▁содержани	-10.1304
▁позицию	-10.1308
▁получаю	-10.1311
▁известны	-10.1315
▁утрат	-10.1315
▁сотрудничество	-10.1316
▁польск	-10.1323
▁инвесторов	-10.1329
▁израильски	-10.1329
▁отставку	-10.1329
▁института	-10.1332
▁пришел	-10.1336
▁аэродромы	-10.1337
▁полный	-10.1342
▁часто	-10.1344
▁новую	-10.1347
▁сада	-10.1355
▁русск	-10.136
▁мужчину	-10.1373
▁обнаружени	-10.139
▁восстановления	-10.1391
▁коллеги	-10.1394
▁базовы	-10.1395
▁московской	-10.1397
▁мод	-10.1405
▁анапе	-10.1407
▁открыты	-10.1408
▁управлени	-10.1411
▁определ	-10.1412
▁in	-10.1426
▁иль	-10.1427
▁ответственн	-10.1428
▁результатах	-10.1431
na	-10.1433
▁постав	-10.1439
украинск	-10.1456
ошел	-10.146
▁регионы	-10.1465
▁будущем	-10.1466
▁север	-10.147
▁тушени	-10.1476
▁программу	-10.148
глав	-10.1481
▁эр	-10.1498
▁выдели	-10.1503
▁площадке	-10.1504
▁уплат	-10.1516
▁решили	-10.1516
mar	-10.1517
▁окнам	-10.1527
▁зелен	-10.1529
▁ядерно	-10.1554
▁ударил	-10.1561
▁соответствующ	-10.1568
ляет	-10.1569
▁благоустройство	-10.1583
▁задержаны	-10.1591
ард	-10.1596
▁сделки	-10.1596
▁закрыто	-10.1598
конференции	-10.16
▁поясни	-10.1613
азовско	-10.1613
▁вопросов	-10.1625
▁мел	-10.1633
▁мирово	-10.1636
▁китайски	-10.1651
vi	-10.1658
▁подростка	-10.1675
▁отделени	-10.1681
▁отр	-10.1685
остей	-10.169
▁допусти	-10.1702
очным	-10.1717
▁сообщ	-10.1725
строительн	-10.1734
альный	-10.1739
▁изъя	-10.174
▁иран	-10.1742
▁анти	-10.1746
▁коп	-10.175
▁аг	-10.1752
▁условиям	-10.1755
▁устройство	-10.1809
▁проезж	-10.1817
▁иванов	-10.1823
▁необходимост	-10.1828
▁переговор	-10.1858
▁следственн	-10.1864
▁разработан	-10.1864
▁сло	-10.1864
▁преимуществ	-10.1888
▁аварийно	-10.1893
▁отключен	-10.1895
▁предполага	-10.1897
▁мур	-10.1899
▁слов	-10.1912
▁населени	-10.1912
▁нападени	-10.1931
▁тариф	-10.1933
▁оказать	-10.1936
▁направ	-10.1937
▁ядерн	-10.1942
▁оформил	-10.1948
▁показа	-10.1953
филиал	-10.1956
техническо	-10.1964
▁присутств	-10.1967
▁работодател	-10.1968
крат	-10.1968
▁влия	-10.1973
▁поддержал	-10.1977
▁публик	-10.1978
▁экстремист	-10.1979
▁оренбург	-10.1979
фильм	-10.1981
▁процентн	-10.1983
▁нынешн	-10.1983
▁помощник	-10.1983
▁таганрог	-10.1983
▁художественн	-10.1983
цифры	-10.1983
▁stone	-10.1983
▁британск	-10.1983
▁возгорание	-10.1983
▁дзержинск	-10.1983
▁добыч	-10.1983
▁изделий	-10.1983
▁ипотек	-10.1983
▁истребител	-10.1983
▁квадрат	-10.1983
▁компанию	-10.1983
▁коэффициент	-10.1983
▁лукашенко	-10.1983
▁льготы	-10.1983
▁оперштаб	-10.1983
▁пешеходн	-10.1983
▁потребительск	-10.1983
▁приостановил	-10.1983
▁распространи	-10.1983
▁рассказывает	-10.1983
▁рекомендовал	-10.1983
▁совещани	-10.1983
▁соглашений	-10.1983
▁соревновани	-10.1983
▁уборк	-10.1983
▁усадьб	-10.1983
▁филипп	-10.1983
▁шолоховск	-10.1983
▁эрдоган	-10.1983
▁выделя	-10.1983
▁доллар	-10.1983
▁конечно	-10.1983
▁подозреваемый	-10.1983
▁потрати	-10.1983
▁фронт	-10.1983
▁легки	-10.1983
▁зрения	-10.1983
▁подорожал	-10.1983
▁опасность	-10.1983
▁напал	-10.1983
▁издание	-10.1983
▁новостройк	-10.1983
▁путем	-10.1983
▁кнр	-10.1983
▁туалет	-10.1983
▁оксан	-10.1983
▁способствова	-10.1983
▁крыш	-10.1983
▁начать	-10.1983
▁тренд	-10.1983
▁bent	-10.1984
▁образовательно	-10.1984
▁книг	-10.1984
▁гибели	-10.1984
восток	-10.1984
▁появлени	-10.1984
близи	-10.1984
▁произошедшего	-10.1984
сообщества	-10.1984
▁врио	-10.1984
▁образовательных	-10.1984
▁приходится	-10.1985
▁продолжени	-10.1985
▁особы	-10.1985
▁предъявлен	-10.1985
▁узна	-10.1985
▁максимум	-10.1986
▁экологии	-10.1987
▁сдач	-10.1987
▁стартовал	-10.1988
▁зеленский	-10.1988
▁остальные	-10.1988
▁принимать	-10.1989
▁осети	-10.1989
▁пострадавшие	-10.199
▁документации	-10.199
▁оскол	-10.199
▁разрушени	-10.199
▁вознаграждени	-10.199
▁прирост	-10.1991
ндр	-10.1992
▁публичны	-10.1993
процессуальн	-10.1993
▁учения	-10.1994
▁предлагается	-10.1995
▁петербургу	-10.1998
▁гро	-10.1999
▁юго	-10.2
▁сократился	-10.2001
▁поисково	-10.2004
▁словаки	-10.2005
▁загоре	-10.2007
▁образован	-10.201
▁кино	-10.2014
▁наблюдения	-10.2018
▁села	-10.202
▁задержания	-10.202
▁авиационн	-10.2021
▁испытания	-10.2022
▁верховн	-10.2024
▁сильно	-10.2025
▁сборной	-10.2025
▁пожарно	-10.2028
▁цифровы	-10.2028
▁укреплени	-10.2028
▁гиб	-10.2034
▁тела	-10.2038
▁максимальны	-10.2039
▁кмч	-10.2055
▁извест	-10.2055
▁состоял	-10.2059
▁ног	-10.2066
▁субъекта	-10.207
▁делает	-10.2077
марта	-10.2088
▁украиной	-10.2094
ft	-10.2101
ni	-10.2108
▁женщину	-10.211
▁нападающи	-10.2117
ii	-10.2117
▁литр	-10.2123
▁площадк	-10.213
▁следующем	-10.2131
▁юли	-10.2135
▁стратегии	-10.2146
▁сыр	-10.2156
▁инстанции	-10.2162
контролирует	-10.2174
▁действующи	-10.2175
▁предоставлен	-10.2179
▁областью	-10.2182
▁обязательн	-10.2183
▁белого	-10.2188
анду	-10.2194
▁воду	-10.2208
уральск	-10.2232
пользователей	-10.2235
завод	-10.2235
▁дове	-10.2238
ката	-10.2239
▁популярност	-10.2241
▁команду	-10.2258
▁способн	-10.2259
▁сроком	-10.2269
▁обвиняют	-10.2291
▁приобре	-10.2292
▁российскими	-10.2295
▁фигурантов	-10.2309
▁сид	-10.2312
▁отопительн	-10.2316
▁лад	-10.2325
▁увеличени	-10.2327
льного	-10.233
▁видов	-10.2339
▁отделение	-10.2353
▁ходатайство	-10.2363
▁семена	-10.2394
▁там	-10.2399
▁рак	-10.2406
▁передан	-10.2416
▁следова	-10.2431
▁автоматически	-10.2435
▁повышенно	-10.2438
▁точно	-10.2458
▁создава	-10.2461
▁осв	-10.2474
▁ядерны	-10.2475
▁позици	-10.2485
▁войска	-10.2494
▁бобров	-10.2507
едет	-10.2517
▁задолженност	-10.2533
▁федераци	-10.2533
▁атаку	-10.2533
нков	-10.2534
▁тамбов	-10.2536
▁пользовател	-10.2539
▁резерв	-10.2549
▁золото	-10.2573
▁оценил	-10.2621
требуется	-10.2621
▁акционер	-10.2626
▁уничтожени	-10.2631
▁индустри	-10.2633
▁современн	-10.2636
▁денежн	-10.2641
▁обязанност	-10.265
▁достижени	-10.267
▁займ	-10.2673
▁аэродром	-10.2674
▁самар	-10.2685
▁популярным	-10.2689
▁восстанов	-10.2699
▁реконструкци	-10.2708
▁наход	-10.2721
▁буду	-10.2724
▁использует	-10.2727
▁школьник	-10.2728
▁распространен	-10.2729
▁пермском	-10.2735
▁мол	-10.2738
▁оцени	-10.2738
розыск	-10.274
ресурс	-10.2746
▁принцип	-10.2751
▁marton	-10.2752
▁абонент	-10.2752
▁альянса	-10.2752
▁антимонопольн	-10.2752
▁ассамбле	-10.2752
▁бастрыкин	-10.2752
▁бирже	-10.2752
▁давление	-10.2752
▁домашнего	-10.2752
▁еврокомисси	-10.2752
▁екатерин	-10.2752
▁инфляция	-10.2752
▁ипотечн	-10.2752
▁маркетплейс	-10.2752
▁многочисленны	-10.2752
▁молдавск	-10.2752
▁набиуллина	-10.2752
▁пашинян	-10.2752
▁перспектив	-10.2752
▁повлекше	-10.2752
▁позволил	-10.2752
▁преступно	-10.2752
▁проголосовал	-10.2752
▁продукция	-10.2752
▁протокол	-10.2752
▁разместил	-10.2752
▁распредел	-10.2752
▁рафаэл	-10.2752
▁ребенок	-10.2752
▁согласовал	-10.2752
▁сопровожда	-10.2752
▁статистик	-10.2752
▁стражей	-10.2752
▁строительстве	-10.2752
▁существенно	-10.2752
▁убежден	-10.2752
▁хоккейн	-10.2752
реабилитаци	-10.2752
россельхознадзор	-10.2752
▁астраханск	-10.2752
▁блокировк	-10.2752
▁вашингтон	-10.2752
▁взамен	-10.2752
▁москальков	-10.2752
▁нацпроект	-10.2752
▁неустойк	-10.2752
▁одобрен	-10.2752
▁отремонтир	-10.2752
▁палестин	-10.2752
▁повыша	-10.2752
▁происходит	-10.2752
▁соперник	-10.2752
▁спасателей	-10.2752
▁транспортировк	-10.2752
▁холодно	-10.2752
▁гросси	-10.2752
▁горожан	-10.2752
▁выброс	-10.2752
▁кириенко	-10.2752
▁полагает	-10.2752
▁продавать	-10.2752
▁продлени	-10.2752
▁усилени	-10.2752
▁гнеев	-10.2752
▁получал	-10.2752
▁сбивать	-10.2752
▁совладельц	-10.2752
▁никонов	-10.2752
▁обычно	-10.2752
▁сбербанка	-10.2752
▁издания	-10.2752
▁горяче	-10.2752
▁европы	-10.2753
▁взял	-10.2753
▁заверил	-10.2753
▁гавани	-10.2753
▁дверь	-10.2753
▁гуцан	-10.2753
▁авиакомпания	-10.2753
▁тверд	-10.2753
▁суток	-10.2753
зор	-10.2753
▁бикова	-10.2753
▁постановк	-10.2753
▁войны	-10.2753
▁ученые	-10.2753
▁зеленским	-10.2753
▁иноагентом	-10.2753
▁краж	-10.2754
▁росстат	-10.2754
▁основател	-10.2755
cola	-10.2755
▁способству	-10.2755
▁прогнозируют	-10.2755
▁башн	-10.2756
▁плав	-10.2756
фнс	-10.2757
▁спад	-10.2757
прежде	-10.2758
▁обсе	-10.2758
▁полях	-10.2759
▁разведк	-10.276
▁наблюдается	-10.2761
▁думе	-10.2761
▁родил	-10.2762
▁отказался	-10.2763
▁выдан	-10.2763
per	-10.2763
▁предложений	-10.2763
▁розыска	-10.2765
▁нейтральн	-10.2766
ируем	-10.2766
▁знакомы	-10.2767
▁марк	-10.2768
bc	-10.2769
▁скорее	-10.2771
▁поездк	-10.2776
▁инноваци	-10.2782
▁хотят	-10.2786
▁исход	-10.2786
os	-10.2786
▁наркотиков	-10.2786
▁такси	-10.2786
▁станови	-10.2789
меняют	-10.2793
▁сокращения	-10.28
▁баллов	-10.2804
▁информационно	-10.2807
носят	-10.2808
▁строительны	-10.2811
▁запустил	-10.2812
▁совершил	-10.2816
▁сохранит	-10.2825
▁причиненн	-10.2836
▁задани	-10.2839
кредитно	-10.284
▁торгово	-10.2848
южный	-10.2857
▁успел	-10.2858
нко	-10.2863
▁запросил	-10.2878
▁них	-10.2881
▁согласовани	-10.2882
нева	-10.2896
▁задействован	-10.2903
▁странами	-10.2903
основ	-10.2907
▁оценку	-10.2909
▁возведени	-10.2917
▁нахождени	-10.2918
▁счита	-10.2919
▁группу	-10.2923
▁госдуму	-10.2929
▁нападения	-10.2933
▁взыска	-10.2935
▁общественны	-10.2937
▁дизель	-10.2942
▁определил	-10.2953
▁комфорт	-10.2969
▁инструменты	-10.297
▁стабильно	-10.2972
▁каждом	-10.2974
▁платформы	-10.299
▁лун	-10.2994
▁продукты	-10.2999
▁финансировани	-10.3007
▁роспотребнадзор	-10.3023
▁интересы	-10.3025
▁мак	-10.3037
▁организованно	-10.3043
▁трубопроводн	-10.3044
нимать	-10.3062
премьер	-10.3069
мария	-10.3088
▁разработки	-10.3099
▁десятк	-10.3099
▁судна	-10.3109
▁использу	-10.3119
▁фондов	-10.313
▁сложи	-10.313
▁выделено	-10.3148
▁железно	-10.3193
смотреть	-10.3214
горел	-10.322
слан	-10.3221
▁областном	-10.3233
▁горно	-10.3237
▁детал	-10.3242
справ	-10.3243
▁муниципалитет	-10.3256
пар	-10.3261
▁выигра	-10.3263
▁мирно	-10.3287
▁комисси	-10.3292
ящего	-10.3319
платить	-10.332
маш	-10.3338
▁организова	-10.3339
▁возраст	-10.3345
▁ясно	-10.3359
▁энергетик	-10.3363
▁повтор	-10.3372
▁четвер	-10.3376
▁признак	-10.3387
тройку	-10.3388
▁определени	-10.339
▁футбольны	-10.3392
▁умер	-10.34
нную	-10.3402
доступна	-10.341
▁лук	-10.3412
глуб	-10.342
▁любо	-10.3438
хозяйственн	-10.3443
▁подключ	-10.3449
▁став	-10.3453
lt	-10.3469
опасн	-10.3481
▁отмети	-10.3503
▁свобод	-10.351
▁подразделени	-10.3514
▁зарегистрировал	-10.3523
▁утра	-10.3534
доставлены	-10.3539
▁традици	-10.3544
▁денежны	-10.3548
▁уточняет	-10.355
обеща	-10.3562
преда	-10.3562
▁помещен	-10.3563
обновление	-10.3565
▁предприяти	-10.357
▁критик	-10.3577
▁столкну	-10.358
▁родственни	-10.3581
▁слуша	-10.3583
▁обуч	-10.3585
▁произошедш	-10.3585
▁auto	-10.3586
▁news	-10.3586
▁антикоррупционн	-10.3586
▁высказал	-10.3586
▁заболеваний	-10.3586
▁кабардин	-10.3586
▁конкуренци	-10.3586
▁обращение	-10.3586
▁ограждени	-10.3586
▁прибрежн	-10.3586
▁технология	-10.3586
▁трагеди	-10.3586
▁угрожа	-10.3586
девелопмент	-10.3586
загрязнени	-10.3586
переработк	-10.3586
▁dream	-10.3586
▁forbes	-10.3586
▁tesla	-10.3586
▁аварии	-10.3586
▁бланар	-10.3586
▁возмещени	-10.3586
▁горсовет	-10.3586
▁госзакупок	-10.3586
▁замедление	-10.3586
▁захарова	-10.3586
▁заявок	-10.3586
▁инициировал	-10.3586
▁инфляции	-10.3586
▁испытательны	-10.3586
▁километр	-10.3586
▁кооператив	-10.3586
▁кореняко	-10.3586
▁кризис	-10.3586
▁куйбышев	-10.3586
▁лауреат	-10.3586
▁мегафон	-10.3586
▁межрегионально	-10.3586
▁минздрав	-10.3586
▁мобильны	-10.3586
▁мошенничестве	-10.3586
▁напротив	-10.3586
▁областях	-10.3586
▁обраща	-10.3586
▁обращений	-10.3586
▁опьянения	-10.3586
▁организацию	-10.3586
▁пленарно	-10.3586
▁приостановлен	-10.3586
▁разрабатыва	-10.3586
▁сделок	-10.3586
▁совокупн	-10.3586
▁тольятти	-10.3586
▁удержива	-10.3586
▁учащихся	-10.3586
▁хмелевски	-10.3586
▁штенгелов	-10.3586
▁экономике	-10.3586
▁грунт	-10.3586
▁группировк	-10.3586
▁диалог	-10.3586
▁истории	-10.3586
▁мигрант	-10.3586
▁общежити	-10.3586
▁символ	-10.3586
▁сможет	-10.3586
▁соединенны	-10.3586
▁букв	-10.3586
▁герман	-10.3586
▁закупок	-10.3586
▁отравлени	-10.3586
▁премиальн	-10.3586
▁протест	-10.3586
▁разбирательств	-10.3586
▁форме	-10.3586
▁бытовы	-10.3586
▁принадлежащи	-10.3586
срзп	-10.3586
▁жестк	-10.3586
▁отправля	-10.3586
камчатско	-10.3586
▁обозр	-10.3586
▁делегаци	-10.3586
▁италии	-10.3586
▁грант	-10.3586
▁сыгра	-10.3586
▁анонс	-10.3586
▁разместит	-10.3586
▁больница	-10.3586
▁доверие	-10.3586
▁наталь	-10.3586
▁очков	-10.3586
фокус	-10.3586
▁курганск	-10.3586
▁наступлени	-10.3586
▁наблюдателей	-10.3586
▁открыва	-10.3586
▁окончани	-10.3586
▁фотографи	-10.3586
маркетинг	-10.3587
▁электричеств	-10.3587
▁яшин	-10.3587
▁лимит	-10.3587
▁недвижимость	-10.3587
▁присвоен	-10.3587
▁вперед	-10.3587
▁длительн	-10.3588
▁дилер	-10.3588
еватель	-10.3588
▁химическ	-10.3588
▁уменьши	-10.3588
▁саратова	-10.359
▁шайб	-10.359
▁запесоцкий	-10.359
хмао	-10.3591
▁магистрали	-10.3591
▁записке	-10.3591
▁творчески	-10.3592
▁трем	-10.3593
▁достигну	-10.3593
▁округу	-10.3595
▁потерял	-10.3596
▁смерти	-10.3596
▁арестован	-10.3597
▁взяток	-10.3597
▁интерфаксу	-10.3598
▁металлическ	-10.3599
▁речно	-10.36
▁демократическ	-10.3601
▁спасти	-10.3601
▁отелей	-10.3602
▁судья	-10.3602
ждение	-10.3603
▁медицинские	-10.3605
▁представление	-10.3607
▁оценкам	-10.3608
▁установки	-10.361
▁установка	-10.361
▁владельцев	-10.3611
▁реклам	-10.3613
▁вероятно	-10.3614
▁сбежал	-10.3615
▁дальн	-10.3615
▁кредитор	-10.3617
▁вторник	-10.3618
▁отходов	-10.3618
▁балл	-10.3619
▁руле	-10.3622
▁значимых	-10.3624
▁прилет	-10.3625
▁направлении	-10.3626
▁подсчитал	-10.3627
▁общения	-10.3633
▁маск	-10.3633
▁реконструкцию	-10.3635
rs	-10.3639
чук	-10.364
▁эл	-10.3643
ажды	-10.3648
▁большим	-10.3649
▁теплоснабжени	-10.3653
▁городских	-10.3654
▁лидерами	-10.3655
▁обвиняемого	-10.3656
▁собственников	-10.3662
▁небольшой	-10.3662
▁возобновил	-10.3669
▁назначение	-10.367
▁евро	-10.3671
▁стандартам	-10.3672
▁заработ	-10.3673
▁ямал	-10.3675
▁достижения	-10.3676
возобновлени	-10.3687
▁территори	-10.369
▁производственно	-10.3699
▁займет	-10.3718
▁продолжи	-10.3718
▁победу	-10.3721
▁театральн	-10.3723
▁возможных	-10.3731
▁направление	-10.3739
▁встречу	-10.374
▁трассы	-10.3749
▁объектам	-10.3759
▁районов	-10.3759
▁брендов	-10.3762
▁числ	-10.3763
законодательство	-10.378
▁крымом	-10.3781
двери	-10.3783
▁алтай	-10.3786
проче	-10.3787
▁исполнения	-10.3792
ажен	-10.3794
▁проводить	-10.38
▁инициативы	-10.3805
ot	-10.3807
▁юра	-10.3809
▁бесплатно	-10.3827
транспортных	-10.3831
▁основным	-10.3836
▁граждански	-10.3842
▁земл	-10.3851
▁прогнозирует	-10.3853
▁кредиты	-10.3855
▁границы	-10.3856
▁киев	-10.3857
▁действующе	-10.3861
кан	-10.3875
▁сан	-10.3879
▁долгов	-10.3893
▁партнерств	-10.3906
▁майк	-10.3937
▁боев	-10.3938
систем	-10.3971
ga	-10.3975
▁специальност	-10.3979
рф	-10.3981
▁розничны	-10.4016
▁земельн	-10.4017
льниц	-10.4032
▁бан	-10.4036
▁народ	-10.4055
▁народн	-10.4058
▁сдела	-10.412
▁операци	-10.4126
▁взыскал	-10.4132
▁новост	-10.4161
▁окна	-10.4162
▁актуальны	-10.4165
▁реализует	-10.4175
▁льготны	-10.4193
▁поддержан	-10.4204
▁инженерны	-10.422
▁реализова	-10.4229
восточн	-10.4235
▁участву	-10.4235
▁евросоюз	-10.4246
▁геленджик	-10.4249
▁подсудимы	-10.4251
▁консульств	-10.4254
▁информационн	-10.4269
▁выявил	-10.4272
▁ликвидаци	-10.4273
▁индивидуальн	-10.4279
▁инстанци	-10.4296
авлен	-10.4306
▁различ	-10.4314
йорк	-10.4323
me	-10.4331
▁возглавля	-10.4346
▁джо	-10.4366
▁содержа	-10.4377
сохран	-10.4387
воронеж	-10.4387
кавказ	-10.4388
▁уфимск	-10.4402
▁республика	-10.4408
▁помещения	-10.441
▁природны	-10.441
освещения	-10.4413
▁климат	-10.4413
▁палат	-10.4418
реш	-10.4421
ориентирова	-10.4421
▁популярны	-10.4423
ing	-10.4433
▁говорит	-10.4434
▁студент	-10.4445
▁вооруж	-10.4445
летним	-10.4451
▁цель	-10.4455
▁спец	-10.446
бежал	-10.4463
▁сокращ	-10.4469
пера	-10.4478
▁европе	-10.4485
▁наблюда	-10.4485
▁убеди	-10.4494
грозит	-10.4494
▁путешеств	-10.4495
▁свидетел	-10.4495
▁талант	-10.4495
логистик	-10.4495
▁rusprofile	-10.4495
▁асфальт	-10.4495
▁вертолет	-10.4495
▁демонтирова	-10.4495
▁изолятор	-10.4495
▁кремле	-10.4495
▁съезд	-10.4495
▁фрагмент	-10.4495
недействительным	-10.4495
облигаций	-10.4495
предположительно	-10.4495
приволжье	-10.4495
▁chery	-10.4495
▁авангард	-10.4495
▁атмосфер	-10.4495
▁валентин	-10.4495
▁возвраща	-10.4495
▁возмести	-10.4495
▁вольера	-10.4495
▁заболеваемост	-10.4495
▁заболевание	-10.4495
▁задержива	-10.4495
▁зарубежны	-10.4495
▁избежать	-10.4495
▁израиля	-10.4495
▁капремонт	-10.4495
▁компанией	-10.4495
▁кузнецов	-10.4495
▁минэкономики	-10.4495
▁михайлов	-10.4495
▁мобилизаци	-10.4495
▁набережную	-10.4495
▁недавно	-10.4495
▁неделя	-10.4495
▁нехватк	-10.4495
▁областей	-10.4495
▁облачность	-10.4495
▁обстановк	-10.4495
▁омбудсмен	-10.4495
▁организацией	-10.4495
▁осадков	-10.4495
▁осенью	-10.4495
▁осуществляет	-10.4495
▁отражает	-10.4495
▁педагог	-10.4495
▁перенаправлен	-10.4495
▁повредил	-10.4495
▁подешевел	-10.4495
▁поколения	-10.4495
▁потребителей	-10.4495
▁пошлины	-10.4495
▁превысит	-10.4495
▁преступник	-10.4495
▁противовоздушн	-10.4495
▁ситуацией	-10.4495
▁сопровождени	-10.4495
▁ставрополе	-10.4495
▁таблиц	-10.4495
▁улучшит	-10.4495
▁уралсиб	-10.4495
▁чрезвычайно	-10.4495
▁шевченко	-10.4495
▁экстренно	-10.4495
▁энгельс	-10.4495
▁наград	-10.4495
▁номинаци	-10.4495
▁посеща	-10.4495
слыша	-10.4495
▁уделя	-10.4495
▁хищник	-10.4495
▁исторически	-10.4495
▁приложение	-10.4495
▁звук	-10.4495
▁торгах	-10.4495
▁times	-10.4495
▁закрыл	-10.4495
▁постоянны	-10.4495
▁украшен	-10.4495
▁ансат	-10.4495
▁сбиты	-10.4495
▁динамику	-10.4495
▁насилия	-10.4495
▁недель	-10.4495
▁раскрыва	-10.4495
▁традиционно	-10.4495
▁обнаружено	-10.4495
▁фиксиру	-10.4495
▁вызыва	-10.4495
▁кобз	-10.4495
▁токаев	-10.4495
▁посольств	-10.4495
▁удобн	-10.4495
▁молока	-10.4495
▁облдум	-10.4495
▁брянск	-10.4495
▁значение	-10.4495
▁лифт	-10.4495
▁морально	-10.4495
▁значения	-10.4495
▁росгвардии	-10.4495
▁замыка	-10.4495
героя	-10.4495
▁военнослужащих	-10.4495
тяжении	-10.4495
▁заметно	-10.4496
▁производителя	-10.4496
▁скорой	-10.4496
▁целей	-10.4496
▁текст	-10.4496
▁сталкива	-10.4496
▁крест	-10.4496
▁отправк	-10.4496
▁метрострой	-10.4496
▁находящи	-10.4496
▁марченко	-10.4496
▁аналитиков	-10.4497
▁планируем	-10.4497
▁отопления	-10.4498
▁нежилы	-10.4498
▁научны	-10.4498
▁ставке	-10.4498
▁тяжк	-10.4498
целево	-10.4499
▁образовательные	-10.4499
▁ускорить	-10.4499
▁енисейско	-10.45
▁прошедши	-10.45
▁столкнулись	-10.4501
▁хотел	-10.4502
▁шоу	-10.4502
▁субъектов	-10.4503
▁ставок	-10.4503
▁требуют	-10.4503
▁порог	-10.4505
▁продал	-10.4505
▁разрешения	-10.4505
печат	-10.4507
▁старши	-10.4507
▁электромобилей	-10.4507
▁говорят	-10.4507
▁учреждений	-10.4508
▁должника	-10.4508
ob	-10.4511
▁века	-10.4514
▁четвертый	-10.4514
электроснабжение	-10.4514
▁легковы	-10.4515
▁рубеж	-10.4515
▁рубля	-10.4519
ехать	-10.4519
▁профессиональны	-10.452
▁пожил	-10.4521
▁рассмотрел	-10.4522
▁отмечал	-10.4523
▁обследовани	-10.4526
coc	-10.4526
▁эффективность	-10.4528
▁врачей	-10.4529
▁заказчиком	-10.453
▁приставов	-10.4531
пунктп	-10.4532
▁подростков	-10.4533
▁активность	-10.4537
▁оформи	-10.4541
▁назван	-10.4542
▁повреждений	-10.4544
▁прокат	-10.4545
даст	-10.4548
▁входил	-10.4552
▁заверш	-10.4554
▁школьников	-10.4555
▁безопасность	-10.4556
▁тестировани	-10.4556
▁отказать	-10.4558
▁восстановить	-10.4558
▁тарифов	-10.456
▁политически	-10.4563
▁материал	-10.4564
▁расти	-10.4565
▁рассматривается	-10.4568
▁сотрудниками	-10.4568
исетск	-10.457
▁основание	-10.4579
▁кировск	-10.458
▁соц	-10.4585
▁самары	-10.459
▁запрещено	-10.4595
совершеннолетних	-10.4601
▁инвестирова	-10.4616
▁сады	-10.4618
▁мужчины	-10.4619
смерт	-10.4619
продемонстрирова	-10.4643
▁мирны	-10.4643
▁автобусов	-10.4661
конец	-10.4663
▁подходит	-10.4664
▁комплект	-10.4677
▁мать	-10.468
кратно	-10.4691
▁тамбовск	-10.4704
▁bo	-10.4707
▁равно	-10.4717
▁банковском	-10.4723
▁бумажны	-10.4731
хозяйственны	-10.4741
▁масштаб	-10.4753
▁районн	-10.4754
▁природн	-10.4761
▁участвова	-10.4765
▁вызван	-10.477
▁предлагал	-10.4774
релизе	-10.4807
аева	-10.481
▁войск	-10.4813
▁вводили	-10.4814
▁составлен	-10.4818
эль	-10.4842
▁большинств	-10.4846
бель	-10.4851
▁семен	-10.4852
▁серьезно	-10.4862
тян	-10.4888
▁совместны	-10.4891
▁миг	-10.4894
▁возвращен	-10.4899
▁заявлен	-10.4918
▁приступи	-10.4923
▁разработал	-10.4926
▁проверк	-10.4934
nie	-10.4942
▁перевел	-10.4949
чиновник	-10.4968
▁сумм	-10.4968
спикер	-10.4974
▁ходатайств	-10.4979
проект	-10.4991
▁обстоятельств	-10.4995
▁выезд	-10.4996
▁серьезн	-10.4999
▁юни	-10.5058
▁нп	-10.5069
▁приобрел	-10.5072
▁значительны	-10.5087
▁настро	-10.5098
▁зелены	-10.5099
▁установленны	-10.5102
▁утверждал	-10.5138
▁помогл	-10.5141
▁выпускник	-10.5146
▁релиз	-10.5161
▁каждо	-10.5171
▁сотрудничеств	-10.5177
▁сделан	-10.5182
yo	-10.5214
▁стратеги	-10.5216
▁комфортно	-10.5217
▁учебны	-10.523
▁квартал	-10.5236
▁данном	-10.5238
▁воздух	-10.5247
art	-10.5264
▁оценивают	-10.5265
pi	-10.5272
▁происшестви	-10.5279
▁нар	-10.5287
▁восточно	-10.5301
▁прожива	-10.5313
▁гео	-10.5321
фф	-10.5332
▁прекращ	-10.5336
▁пользова	-10.5341
▁разреш	-10.5355
▁водител	-10.5365
▁подвес	-10.5372
▁тяжело	-10.5385
станций	-10.5403
▁отставк	-10.5403
▁важн	-10.5412
▁академи	-10.5419
▁освободил	-10.543
▁действительно	-10.5433
▁реальны	-10.544
екатеринбург	-10.5455
▁состоит	-10.5459
▁учрежден	-10.5464
▁госсекретар	-10.547
▁виновн	-10.5472
▁am	-10.5472
следуют	-10.5486
▁дополн	-10.5489
▁сельхоз	-10.5493
музыка	-10.5493
▁координиру	-10.5495
космонавт	-10.5495
металлургическ	-10.5495
продовольственн	-10.5495
▁politico	-10.5495
▁youtube	-10.5495
▁аккумулятор	-10.5495
▁апрель	-10.5495
▁аэрофлот	-10.5495
▁болтон	-10.5495
▁бразилии	-10.5495
▁великобритани	-10.5495
▁венгрии	-10.5495
▁видеоролик	-10.5495
▁выступит	-10.5495
▁заранее	-10.5495
▁исключительн	-10.5495
▁историю	-10.5495
▁кронштадт	-10.5495
▁купянск	-10.5495
▁мансур	-10.5495
▁миллиард	-10.5495
▁минпромторг	-10.5495
▁миссии	-10.5495
▁множеств	-10.5495
▁негативно	-10.5495
▁негативны	-10.5495
▁обвинению	-10.5495
▁обвинительны	-10.5495
▁областям	-10.5495
▁обыграл	-10.5495
▁опроверг	-10.5495
▁осужденны	-10.5495
▁очевидц	-10.5495
▁оштрафовал	-10.5495
▁панкратов	-10.5495
▁полуостров	-10.5495
▁помочь	-10.5495
▁потребности	-10.5495
▁пребывани	-10.5495
▁предотвращени	-10.5495
▁разработчик	-10.5495
▁реджеп	-10.5495
▁решетников	-10.5495
▁связыва	-10.5495
▁сказано	-10.5495
▁смартфон	-10.5495
▁сожалению	-10.5495
▁сотрудниц	-10.5495
▁спортсменов	-10.5495
▁степень	-10.5495
▁стремлени	-10.5495
▁трибуны	-10.5495
▁удостовер	-10.5495
▁улучшен	-10.5495
▁уменьшени	-10.5495
▁шоссе	-10.5495
▁эльвир	-10.5495
поведник	-10.5495
▁вднх	-10.5495
▁властям	-10.5495
▁компьютер	-10.5495
▁ляйен	-10.5495
▁отрасль	-10.5495
▁письмо	-10.5495
▁подчеркивает	-10.5495
▁покупать	-10.5495
▁польша	-10.5495
▁приостановк	-10.5495
▁содержит	-10.5495
▁умвд	-10.5495
pha	-10.5495
▁музея	-10.5495
▁прекратил	-10.5495
▁надежд	-10.5495
▁обоснованн	-10.5495
восстановительны	-10.5495
▁исследователи	-10.5495
▁выбран	-10.5495
▁лечения	-10.5495
▁больнице	-10.5495
▁технику	-10.5495
▁титул	-10.5495
ндфл	-10.5495
▁подземн	-10.5495
▁вступит	-10.5495
▁пятый	-10.5495
▁инфекци	-10.5495
▁урожа	-10.5495
▁витали	-10.5495
▁молодежн	-10.5495
▁подозреваемого	-10.5495
▁росатом	-10.5495
▁кадры	-10.5495
▁санкция	-10.5495
▁замминистра	-10.5495
▁скрылся	-10.5495
▁песн	-10.5495
▁пилот	-10.5495
inan	-10.5495
▁уваж	-10.5495
▁относительно	-10.5495
▁полгода	-10.5495
▁технико	-10.5495
▁самозанятых	-10.5495
▁костин	-10.5495
▁функциониру	-10.5495
▁решить	-10.5495
▁авиарейс	-10.5495
▁обычны	-10.5495
▁рыбинск	-10.5495
▁будущи	-10.5496
▁отбыва	-10.5496
▁стирк	-10.5496
▁расшири	-10.5496
▁фиксирова	-10.5496
▁мощности	-10.5496
▁минпр	-10.5496
▁go	-10.5496
▁птиц	-10.5497
редко	-10.5497
▁пострадавшего	-10.5497
▁управляющего	-10.5497
▁силовики	-10.5497
▁реакци	-10.5497
shi	-10.5497
▁володин	-10.5498
квалифицирован	-10.5498
▁прямо	-10.5498
▁теннисист	-10.5498
▁контур	-10.5499
▁авиации	-10.5499
▁концерн	-10.5499
▁салон	-10.55
▁саратове	-10.55
▁честн	-10.55
перерабатывающих	-10.55
▁родственников	-10.55
▁выясняет	-10.55
▁остановил	-10.55
▁air	-10.5501
вержен	-10.5501
▁яхт	-10.5502
▁продвижени	-10.5503
▁социальн	-10.5503
▁интер	-10.5503
▁ipo	-10.5504
▁поставлен	-10.5505
▁ушл	-10.5506
▁отряд	-10.5507
▁сохранил	-10.5508
br	-10.5508
▁знамен	-10.5509
▁эколог	-10.551
▁сотн	-10.551
▁водителей	-10.551
▁единственный	-10.5513
▁начинается	-10.5514
▁выкуп	-10.5514
▁далее	-10.5515
▁марат	-10.5515
▁шар	-10.5516
▁уран	-10.5517
▁логистически	-10.5519
производители	-10.552
▁указал	-10.552
▁существующе	-10.5521
▁sa	-10.5521
▁предполагаем	-10.5522
▁водоснабжения	-10.5523
▁энергоресурсов	-10.5524
▁задержании	-10.5525
▁иноагента	-10.5527
▁отменить	-10.5528
▁весной	-10.5529
▁апартаментов	-10.5529
▁многоквартирные	-10.553
▁где	-10.5531
▁перенос	-10.5535
▁сгорел	-10.5536
▁волков	-10.5537
▁открытия	-10.5538
▁одежды	-10.5541
▁следующего	-10.5541
цед	-10.5544
▁постановления	-10.5547
▁мэрия	-10.555
▁хранения	-10.5553
▁предложен	-10.5554
▁позвон	-10.5555
▁заработал	-10.5557
▁билеты	-10.5558
▁освободи	-10.556
▁автомобилист	-10.556
▁интересах	-10.5561
нцев	-10.5561
▁мсу	-10.5563
▁размещение	-10.5563
▁бур	-10.5565
▁профильны	-10.5566
▁будет	-10.5568
▁проводятся	-10.5574
▁пеш	-10.558
щут	-10.5584
▁занятия	-10.5586
▁органами	-10.5588
▁четверть	-10.5589
▁массовы	-10.5602
▁разрешен	-10.5605
▁заслуженны	-10.5612
▁появ	-10.5617
▁заби	-10.5621
▁справи	-10.5622
▁посетил	-10.5626
тнес	-10.5631
▁резервны	-10.564
▁представлял	-10.5663
лишк	-10.5668
▁прохождени	-10.5683
▁независимы	-10.5692
▁обеспечил	-10.5694
▁показани	-10.5698
▁американ	-10.5702
▁подключени	-10.5707
▁определенны	-10.571
▁подава	-10.5724
формируется	-10.5735
▁ночно	-10.5751
▁подня	-10.5756
▁привлекал	-10.5758
доль	-10.5766
▁модул	-10.5773
станут	-10.5792
▁надзор	-10.5792
▁джон	-10.5795
▁перевозчик	-10.5823
▁попада	-10.5825
▁представлять	-10.5834
▁средне	-10.5847
▁nor	-10.5849
▁юридическ	-10.5851
▁ясн	-10.5854
▁вакцин	-10.5857
тической	-10.5866
▁атомны	-10.5869
en	-10.5872
▁уставны	-10.5876
▁устанавлива	-10.5879
бык	-10.5896
▁гостиниц	-10.5899
санитарно	-10.5926
▁автоматическ	-10.5945
▁следит	-10.5982
▁арендн	-10.5985
▁решает	-10.6019
тели	-10.6023
▁запрещает	-10.6065
нарушение	-10.6072
театр	-10.608
▁реальн	-10.6097
▁отопительном	-10.6099
▁приступил	-10.6101
мэр	-10.6116
всу	-10.6122
▁пассажирски	-10.6139
госпитализирован	-10.6158
▁запретил	-10.6182
роспотребнадзора	-10.6221
▁подел	-10.6222
▁заключи	-10.6243
ними	-10.6244
▁замени	-10.625
▁причинени	-10.6254
▁характеристик	-10.6274
стар	-10.6285
видом	-10.6292
▁этаж	-10.6318
▁захват	-10.6318
▁следующе	-10.6326
▁голос	-10.6333
▁чемпионат	-10.6371
конференци	-10.638
▁армени	-10.6385
▁независим	-10.639
▁чтени	-10.6403
водились	-10.6424
▁обязан	-10.6437
▁заряд	-10.6467
▁кажды	-10.6473
▁мировы	-10.6484
▁производи	-10.6491
снабжения	-10.6493
▁конфисков	-10.6506
▁саратовск	-10.652
ционный	-10.6524
▁образов	-10.6548
▁наркотик	-10.6556
▁профсоюз	-10.6557
▁автомат	-10.6561
▁дости	-10.6568
▁профильн	-10.6569
осторожности	-10.6572
▁решен	-10.6574
фикации	-10.6582
▁уточн	-10.659
▁электромобил	-10.6591
поселени	-10.6602
▁благо	-10.6604
▁коррупци	-10.6605
▁выраж	-10.6605
▁посол	-10.6606
▁эффект	-10.6606
пограничн	-10.6606
▁бассейн	-10.6606
▁бриллиант	-10.6606
▁волейбол	-10.6606
▁итальянск	-10.6606
▁коллектив	-10.6606
▁нелегальн	-10.6606
▁ольборг	-10.6606
▁терроризм	-10.6606
▁туапсинско	-10.6606
▁фестиваль	-10.6606
▁фундамент	-10.6606
▁электропоезд	-10.6606
swagen	-10.6606
балкарии	-10.6606
белорусски	-10.6606
прежнем	-10.6606
умышленно	-10.6606
▁bloomberg	-10.6606
▁digital	-10.6606
▁авиакомпаний	-10.6606
▁байден	-10.6606
▁болгар	-10.6606
▁воздействи	-10.6606
▁воспользова	-10.6606
▁выработк	-10.6606
▁глобальны	-10.6606
▁госпитализации	-10.6606
▁действие	-10.6606
▁демонстраци	-10.6606
▁депозит	-10.6606
▁ежедневно	-10.6606
▁заблокирова	-10.6606
▁завтра	-10.6606
▁зафиксировал	-10.6606
▁защища	-10.6606
▁исключить	-10.6606
▁конструкций	-10.6606
▁координаци	-10.6606
▁логинов	-10.6606
▁магнитогорск	-10.6606
▁межрайонн	-10.6606
▁мошенник	-10.6606
▁мошенничества	-10.6606
▁наказания	-10.6606
▁нарушил	-10.6606
▁недостаточно	-10.6606
▁отечественны	-10.6606
▁пенсионерк	-10.6606
▁подсчета	-10.6606
▁подтверждает	-10.6606
▁покрытия	-10.6606
▁поликлиник	-10.6606
▁понедельник	-10.6606
▁пономарев	-10.6606
▁посещени	-10.6606
▁потушили	-10.6606
▁прибытия	-10.6606
▁прививк	-10.6606
▁приурочен	-10.6606
▁прогресс	-10.6606
▁протяженность	-10.6606
▁развивать	-10.6606
▁скульптур	-10.6606
▁событие	-10.6606
▁специализиру	-10.6606
▁спонсор	-10.6606
▁стадион	-10.6606
▁таиланд	-10.6606
▁тайфун	-10.6606
▁татнефт	-10.6606
▁устроил	-10.6606
▁федорищев	-10.6606
▁физлиц	-10.6606
▁чувств	-10.6606
▁шереметьево	-10.6606
▁энергоблок	-10.6606
▁автодорог	-10.6606
▁алиханов	-10.6606
▁принимал	-10.6606
▁размеща	-10.6606
▁рыночн	-10.6606
▁серноводск	-10.6606
▁тайип	-10.6606
▁татарск	-10.6606
▁шахты	-10.6606
▁встретить	-10.6606
▁самовольно	-10.6606
▁медведь	-10.6606
▁техногенн	-10.6606
ображен	-10.6606
▁жизне	-10.6606
▁затрон	-10.6606
▁служебно	-10.6606
▁уникальн	-10.6606
▁балтийск	-10.6606
▁странице	-10.6606
▁погашен	-10.6606
▁положение	-10.6606
▁вторично	-10.6606
▁сильне	-10.6606
▁авиабаз	-10.6606
▁допрос	-10.6606
▁детям	-10.6606
▁окончил	-10.6606
▁доказа	-10.6606
▁линейк	-10.6606
▁факторов	-10.6606
▁сомнени	-10.6606
▁тепла	-10.6606
▁коротко	-10.6606
▁черномор	-10.6606
▁отметк	-10.6606
▁прежни	-10.6606
▁можем	-10.6606
▁срочно	-10.6606
▁полезны	-10.6606
▁успешны	-10.6606
▁господа	-10.6606
▁откроет	-10.6606
▁оправда	-10.6606
▁подготовит	-10.6607
▁июль	-10.6607
▁режиссер	-10.6607
полковник	-10.6607
надцат	-10.6607
▁прямы	-10.6607
▁кдв	-10.6607
▁редки	-10.6607
▁обнаружены	-10.6607
▁заметил	-10.6607
▁газеты	-10.6607
▁тракт	-10.6607
зрител	-10.6608
▁уточняют	-10.6608
▁минюст	-10.6608
▁выясняют	-10.6608
▁сегодняшни	-10.6608
▁охот	-10.6608
▁скота	-10.6608
▁котик	-10.6608
аэро	-10.6609
удовлетворительн	-10.6609
▁ставрополья	-10.6609
▁госконтракт	-10.6609
▁последнего	-10.6609
▁катера	-10.6609
▁слушания	-10.6609
▁осени	-10.6609
▁массив	-10.661
кажется	-10.661
▁устанавливаются	-10.661
▁биологи	-10.661
▁решении	-10.6611
▁малы	-10.6612
▁приложения	-10.6612
▁попов	-10.6612
▁сфера	-10.6612
▁низко	-10.6612
▁пекин	-10.6613
▁экспертизы	-10.6613
▁эвакуированы	-10.6613
▁подборк	-10.6614
▁кубанск	-10.6614
▁статьям	-10.6615
▁концессион	-10.6615
▁гриппа	-10.6616
▁жительства	-10.6616
▁переведен	-10.6617
▁правду	-10.6617
▁проводились	-10.6617
▁перешл	-10.662
берут	-10.6621
▁воронеже	-10.6622
▁исправ	-10.6623
▁экологически	-10.6624
▁мотор	-10.6624
▁остальн	-10.6625
▁активности	-10.6625
▁портфель	-10.6626
▁существует	-10.6626
▁потребуется	-10.6626
▁уйти	-10.6629
▁снизились	-10.6629
▁началось	-10.663
▁оказалось	-10.6631
мента	-10.6632
▁ушел	-10.6633
▁кинг	-10.6633
▁объясняет	-10.6636
▁ограничение	-10.6636
▁завершения	-10.6637
▁обновлен	-10.6638
▁говорить	-10.6638
▁жильцов	-10.6639
▁спг	-10.664
▁имущественн	-10.6641
▁честь	-10.6642
месячн	-10.6644
▁активист	-10.6645
елены	-10.6649
▁фаз	-10.6649
▁егор	-10.6649
▁понимаем	-10.665
▁обещал	-10.665
▁пригородн	-10.6654
▁гостиничны	-10.6655
▁эффективност	-10.6656
▁разниц	-10.6656
▁село	-10.6656
▁соседни	-10.6657
▁призывал	-10.6664
▁освобождени	-10.6665
▁путиным	-10.6674
▁получен	-10.6678
▁гости	-10.6685
▁динам	-10.669
куратор	-10.669
▁гг	-10.6693
▁дорогах	-10.6696
▁террористическо	-10.67
▁поставил	-10.6704
▁дже	-10.6709
▁дипломатически	-10.6712
▁серьезным	-10.672
▁предъявил	-10.6721
знание	-10.6724
▁металла	-10.6738
▁задни	-10.6774
▁перерыв	-10.6789
▁нанесл	-10.68
▁три	-10.6812
▁потенциальны	-10.6848
▁окончательно	-10.685
▁бул	-10.6851
▁союзник	-10.6876
видят	-10.6903
▁кредитам	-10.6908
▁техно	-10.6913
▁уполномоченн	-10.6914
▁подсудим	-10.6915
▁предложит	-10.6921
разд	-10.6933
▁реализован	-10.6944
▁бесед	-10.6945
▁льготн	-10.6992
ступает	-10.6995
ложить	-10.7018
▁устойчивост	-10.7038
▁ремонтны	-10.7048
▁навык	-10.7055
▁подростк	-10.7066
▁выиграл	-10.707
▁платны	-10.7073
cl	-10.708
оформление	-10.7083
▁аналитическ	-10.7122
▁автомобильны	-10.7127
▁магазин	-10.7155
▁посетит	-10.7168
▁расположенны	-10.7187
th	-10.7224
▁умеренн	-10.7224
▁создател	-10.7254
▁поведени	-10.7264
ъ	-10.7323
кпрф	-10.7329
▁реформ	-10.7334
руководителя	-10.734
комитета	-10.7341
объект	-10.7352
▁зарплатны	-10.7383
▁присоедин	-10.7407
▁ленинград	-10.744
▁проход	-10.7443
▁выстав	-10.7448
▁устанавливает	-10.7493
▁повышен	-10.7511
▁анап	-10.7521
▁располагает	-10.7527
▁ссыл	-10.7565
▁отк	-10.7579
▁экзамен	-10.7584
▁точн	-10.7602
▁расположенно	-10.7625
остях	-10.7678
▁обновленн	-10.7691
▁реставр	-10.7691
нанс	-10.7706
▁ваканси	-10.7713
▁билет	-10.7729
▁предложенны	-10.7752
▁кандидатур	-10.7773
▁хранени	-10.7783
снабжение	-10.7787
▁нужн	-10.7788
октябрь	-10.7794
▁вклад	-10.7797
вшая	-10.7798
▁пристав	-10.7806
▁отход	-10.7806
▁заказчик	-10.7807
▁рекламны	-10.7815
▁надежно	-10.7829
звани	-10.7831
ent	-10.7838
аналитик	-10.7842
▁близ	-10.7847
▁сара	-10.7847
▁генерал	-10.7849
▁нефтехим	-10.785
вшем	-10.7853
▁верн	-10.7853
монтаж	-10.7854
▁конституци	-10.7856
▁вывезен	-10.7856
▁пенсионно	-10.7856
▁последующе	-10.7856
▁харитонов	-10.7856
консалт	-10.7856
▁nasa	-10.7856
▁абсолютно	-10.7856
▁вражеск	-10.7856
▁выпусти	-10.7856
▁звезд	-10.7856
▁казаньоргсинтез	-10.7856
▁кассационн	-10.7856
▁кладбищ	-10.7856
▁конструктив	-10.7856
▁краткосрочн	-10.7856
▁обустройств	-10.7856
▁ознакомил	-10.7856
▁осторожн	-10.7856
▁откладыва	-10.7856
▁ребенком	-10.7856
▁сельсовет	-10.7856
▁спрята	-10.7856
▁существенны	-10.7856
▁тайсон	-10.7856
▁федотов	-10.7856
бейкер	-10.7856
психиатрическ	-10.7856
солнечн	-10.7856
удмуртия	-10.7856
узбекистан	-10.7856
черкесии	-10.7856
черкесск	-10.7856
эпидемиологическ	-10.7856
▁beers	-10.7856
▁адлер	-10.7856
▁актриса	-10.7856
▁архангельск	-10.7856
▁архив	-10.7856
▁астрахани	-10.7856
▁букмекер	-10.7856
▁бульвар	-10.7856
▁видеонаблюдени	-10.7856
▁волынец	-10.7856
▁выплачива	-10.7856
▁глэмпинг	-10.7856
▁дрозденко	-10.7856
▁единовременн	-10.7856
▁запущен	-10.7856
▁злоупотреблени	-10.7856
▁инаугураци	-10.7856
▁инфраструктура	-10.7856
▁иркутско	-10.7856
▁колледж	-10.7856
▁комментирует	-10.7856
▁конфискаци	-10.7856
▁локальны	-10.7856
▁махачкал	-10.7856
▁мертвым	-10.7856
▁минкульт	-10.7856
▁мосгорсуд	-10.7856
▁напоминает	-10.7856
▁непосредственно	-10.7856
▁нефтян	-10.7856
▁обвинительно	-10.7856
▁обсудят	-10.7856
▁означает	-10.7856
▁оказывать	-10.7856
▁оренбуржь	-10.7856
▁орловской	-10.7856
▁осмотрел	-10.7856
▁отрасля	-10.7856
▁подожгл	-10.7856
▁покончи	-10.7856
▁потребители	-10.7856
▁привилеги	-10.7856
▁принимает	-10.7856
▁продолжат	-10.7856
▁прототип	-10.7856
▁пятницу	-10.7856
▁ровшан	-10.7856
▁росавиация	-10.7856
▁русфонд	-10.7856
▁саркози	-10.7856
▁сийярто	-10.7856
▁слюсар	-10.7856
▁совбеза	-10.7856
▁сотруднича	-10.7856
▁спецоперации	-10.7856
▁стамбул	-10.7856
▁телевидени	-10.7856
▁тенденци	-10.7856
▁тревог	-10.7856
▁туроператор	-10.7856
▁уведомлени	-10.7856
▁уступил	-10.7856
▁финансист	-10.7856
▁харьковско	-10.7856
▁хозяев	-10.7856
▁языка	-10.7856
посадочн	-10.7856
▁for	-10.7856
▁завоевал	-10.7856
▁мальчик	-10.7856
▁моделей	-10.7856
▁осуществлять	-10.7856
▁ошибк	-10.7856
▁пакистан	-10.7856
▁созинов	-10.7856
▁тяжелы	-10.7856
кампус	-10.7856
▁ариант	-10.7856
▁градостроитель	-10.7856
▁изданию	-10.7856
▁перевез	-10.7856
▁подчинен	-10.7856
▁престиж	-10.7856
dis	-10.7856
▁багаж	-10.7856
▁заведений	-10.7856
▁курбанов	-10.7856
▁пособи	-10.7856
▁почему	-10.7856
участниц	-10.7856
▁постройки	-10.7856
▁учитывать	-10.7856
▁заемщик	-10.7856
кинотеатра	-10.7856
▁вадим	-10.7856
▁урфу	-10.7856
▁вциом	-10.7856
▁сведений	-10.7856
▁альфа	-10.7856
▁доверия	-10.7856
▁жених	-10.7856
▁коржилов	-10.7856
▁платежны	-10.7856
▁побег	-10.7856
▁арендатор	-10.7856
▁судостроительн	-10.7856
▁алмаз	-10.7856
▁очаг	-10.7856
▁схемы	-10.7856
▁гайсин	-10.7856
▁кровли	-10.7856
▁грузовиков	-10.7856
▁первышов	-10.7856
▁индия	-10.7856
▁кольца	-10.7856
▁стекла	-10.7856
▁титан	-10.7856
▁стрельб	-10.7856
▁банды	-10.7856
▁европу	-10.7856
▁результативны	-10.7856
галере	-10.7856
▁набрал	-10.7856
▁понять	-10.7856
▁цеха	-10.7856
заправки	-10.7856
▁собор	-10.7856
▁игроков	-10.7856
▁китае	-10.7856
▁балкон	-10.7857
▁медианн	-10.7857
▁выбрал	-10.7857
табло	-10.7857
▁бетон	-10.7857
▁вывоз	-10.7857
▁покупал	-10.7857
▁простит	-10.7857
▁мнение	-10.7857
▁пригрози	-10.7857
▁обеспечительны	-10.7857
▁орви	-10.7857
▁коррупционны	-10.7857
человеч	-10.7858
павших	-10.7858
▁постепенно	-10.7858
▁музыкальн	-10.7858
▁демонтаж	-10.7858
▁визы	-10.7858
▁истечени	-10.7858
▁алле	-10.7859
▁закупа	-10.7859
▁сырье	-10.7859
▁новоуральск	-10.7859
▁оаэ	-10.7859
▁ссор	-10.786
▁звания	-10.786
▁rt	-10.786
▁договоренност	-10.786
▁битв	-10.786
▁разлив	-10.786
▁молочн	-10.786
▁западный	-10.786
▁груд	-10.7861
франц	-10.7862
▁утверждают	-10.7862
▁приводят	-10.7863
▁ресурсы	-10.7863
▁мощн	-10.7863
▁противодействия	-10.7863
▁подписыва	-10.7865
▁валют	-10.7866
▁фонтанка	-10.7866
▁электрокар	-10.7866
▁обновления	-10.7866
▁трои	-10.7866
▁проводили	-10.7866
▁опци	-10.7867
▁изъяти	-10.7868
▁бронирований	-10.7868
▁объединения	-10.7869
▁определить	-10.787
▁положения	-10.787
▁муж	-10.787
▁линия	-10.7871
▁серийны	-10.7871
▁воинск	-10.7871
▁правонарушени	-10.7873
▁вложения	-10.7873
▁небе	-10.7873
▁перебоев	-10.7873
▁ложн	-10.7873
▁екатеринбургско	-10.7875
▁стиле	-10.7875
▁ломо	-10.7875
▁ограничива	-10.7875
▁обман	-10.7875
▁склон	-10.7876
ложения	-10.7877
▁истек	-10.7882
▁отказались	-10.7883
▁операционн	-10.7884
▁работодателей	-10.7884
▁забо	-10.7885
▁крайне	-10.7885
▁платят	-10.7886
▁оборонны	-10.7886
▁суммарн	-10.7888
▁чудо	-10.7888
▁выяснил	-10.789
▁продан	-10.789
▁техническом	-10.7892
▁отмечен	-10.7894
▁сменил	-10.79
▁верф	-10.7907
▁завершение	-10.791
страхования	-10.791
▁подписк	-10.791
учиться	-10.7911
pd	-10.7911
▁привлекательн	-10.7921
▁закончил	-10.7927
фсин	-10.7931
▁стрел	-10.7934
▁просит	-10.7935
▁специальн	-10.7942
нность	-10.7947
▁таможенник	-10.7952
▁академическ	-10.7953
маркет	-10.7976
▁картин	-10.798
▁стремит	-10.7985
▁отличает	-10.7992
▁принадлежал	-10.7996
▁резервно	-10.8016
▁придет	-10.802
▁вас	-10.8023
стабилизаци	-10.8027
▁преимущественн	-10.803
▁создал	-10.8035
▁полноценно	-10.8039
ивается	-10.8039
▁мотив	-10.8052
овершеннолетнего	-10.8054
распространени	-10.8063
собрании	-10.8071
нзи	-10.8074
бокс	-10.8082
▁алкогольно	-10.8093
▁li	-10.8109
▁подозревают	-10.8159
▁футбольн	-10.816
▁лесн	-10.8185
▁лишен	-10.8201
▁согласил	-10.8229
▁опубликованном	-10.8271
первых	-10.8273
горский	-10.8289
▁металло	-10.8295
▁кубк	-10.8316
▁посредничеств	-10.8332
держать	-10.834
▁разработа	-10.8351
▁горени	-10.8367
▁аварий	-10.8385
▁сухо	-10.8385
▁запрещенно	-10.8388
▁ярославски	-10.8404
▁прокомментирова	-10.841
▁десят	-10.8411
▁возникл	-10.8412
▁посет	-10.8425
▁альтернативны	-10.8439
▁увеличен	-10.8477
▁вноси	-10.8487
восточном	-10.8493
▁запреща	-10.8506
lin	-10.8514
ступят	-10.8516
▁надзорны	-10.8523
▁посвященно	-10.8539
▁поддержа	-10.8574
▁обрабатывающ	-10.865
▁альтернатив	-10.8652
▁санитар	-10.8686
▁полученно	-10.8689
потребления	-10.8701
▁сокращени	-10.8711
▁уровн	-10.8735
▁приобретен	-10.8738
владе	-10.8759
передач	-10.8763
начальника	-10.8763
сервис	-10.8765
представительств	-10.8766
▁постановлени	-10.8767
безопасности	-10.8772
июле	-10.8773
носил	-10.8773
факт	-10.8777
▁беспилотник	-10.8783
ltim	-10.8817
падают	-10.8822
▁назва	-10.884
рюк	-10.886
▁масштабны	-10.8882
модуль	-10.8898
▁контролиру	-10.89
▁профессионал	-10.8914
▁привлеч	-10.8936
▁равн	-10.8972
▁визов	-10.8974
рейс	-10.8993
▁ускор	-10.8997
▁двига	-10.9004
ive	-10.9007
▁расследовани	-10.9027
▁прибыл	-10.9038
▁туризм	-10.904
▁указанны	-10.904
▁выборам	-10.9045
▁требу	-10.9046
▁белорусси	-10.9062
▁выделен	-10.9068
▁регулировани	-10.9101
▁обнаружил	-10.9113
▁предъяв	-10.9132
▁возобнов	-10.9136
▁запуст	-10.9171
▁сибир	-10.9186
▁опрошенны	-10.919
▁работающи	-10.9193
▁тип	-10.9196
▁испытани	-10.9204
хозяйств	-10.9211
▁наблюдени	-10.9212
▁помог	-10.9215
▁значительн	-10.9218
гостиничн	-10.9221
▁турци	-10.9223
фссп	-10.9227
ставрополь	-10.9228
снять	-10.923
▁выясн	-10.9233
▁апартамент	-10.9234
▁вероятн	-10.9234
▁восьмо	-10.9236
▁обяз	-10.9239
▁скончал	-10.9248
▁ожидает	-10.9249
▁портфел	-10.9259
▁скорост	-10.9261
последстви	-10.9261
привод	-10.9268
грипп	-10.9272
▁праздн	-10.9273
экологическ	-10.9275
▁фонтан	-10.9275
оказывает	-10.9276
всего	-10.928
меньши	-10.928
▁рассказ	-10.9281
▁электрич	-10.9282
▁приветств	-10.9283
▁компенс	-10.9283
▁террорист	-10.9283
▁дешев	-10.9284
▁аналог	-10.9284
▁арбитр	-10.9284
▁доследственн	-10.9284
▁естественн	-10.9284
▁калинюк	-10.9284
▁ненадлежащ	-10.9284
▁упрощенн	-10.9284
emis	-10.9284
fashion	-10.9284
держек	-10.9284
избиркома	-10.9284
информацией	-10.9284
ненецко	-10.9284
презентаци	-10.9284
прибытие	-10.9284
формируют	-10.9284
ысокопоставленны	-10.9284
▁адыгеи	-10.9284
▁азербайджан	-10.9284
▁алкоголя	-10.9284
▁аммиака	-10.9284
▁анастаси	-10.9284
▁анталью	-10.9284
▁артамонов	-10.9284
▁бесцельн	-10.9284
▁биржи	-10.9284
▁болельщик	-10.9284
▁брифинге	-10.9284
▁взяточничестве	-10.9284
▁вконтакте	-10.9284
▁внимания	-10.9284
▁водопровод	-10.9284
▁воспитани	-10.9284
▁въезд	-10.9284
▁выезжа	-10.9284
▁генконсульств	-10.9284
▁гидрометцентр	-10.9284
▁градусов	-10.9284
▁граммов	-10.9284
▁дегтярев	-10.9284
▁деклараци	-10.9284
▁дирекци	-10.9284
▁занятости	-10.9284
▁извещени	-10.9284
▁изделия	-10.9284
▁иностранц	-10.9284
▁интегр	-10.9284
▁ислентьев	-10.9284
▁каникул	-10.9284
▁киргизии	-10.9284
▁коммунист	-10.9284
▁констатировал	-10.9284
▁корректировк	-10.9284
▁кузбасс	-10.9284
▁лояльности	-10.9284
▁мероприятии	-10.9284
▁метрополитен	-10.9284
▁мосбирж	-10.9284
▁напитки	-10.9284
▁нарушител	-10.9284
▁недоступны	-10.9284
▁незначительны	-10.9284
▁неизвестные	-10.9284
▁осуществлял	-10.9284
▁отопление	-10.9284
▁оттуда	-10.9284
▁оформля	-10.9284
▁первоначально	-10.9284
▁пешеходов	-10.9284
▁площадок	-10.9284
▁поблагодарил	-10.9284
▁покровительство	-10.9284
▁преступлений	-10.9284
▁профилактик	-10.9284
▁путешественники	-10.9284
▁пушкина	-10.9284
▁связям	-10.9284
▁событий	-10.9284
▁сообществе	-10.9284
▁соотношени	-10.9284
▁спецтехник	-10.9284
▁ставрополя	-10.9284
▁стресса	-10.9284
▁сформировал	-10.9284
▁сформирован	-10.9284
▁сценарии	-10.9284
▁табачн	-10.9284
▁троллейбус	-10.9284
▁турпоток	-10.9284
▁указывают	-10.9284
▁упомянул	-10.9284
▁устранит	-10.9284
▁форвард	-10.9284
▁футболист	-10.9284
▁хватает	-10.9284
▁челнах	-10.9284
▁черноземья	-10.9284
▁эксперимент	-10.9284
▁ювелирны	-10.9284
▁юрпсо	-10.9284
stre	-10.9284
коллекци	-10.9284
▁баксиков	-10.9284
▁баллончик	-10.9284
▁ветеринар	-10.9284
▁взгляд	-10.9284
▁госпрограмм	-10.9284
▁десант	-10.9284
▁животного	-10.9284
▁интерактивн	-10.9284
▁киммел	-10.9284
▁критически	-10.9284
▁маленьк	-10.9284
▁петербурж	-10.9284
▁петропавловск	-10.9284
▁побережь	-10.9284
▁покрытие	-10.9284
▁последовательн	-10.9284
▁предупрежда	-10.9284
▁привычны	-10.9284
▁производят	-10.9284
▁развернут	-10.9284
▁сооружения	-10.9284
▁тезис	-10.9284
▁тротуар	-10.9284
▁урсул	-10.9284
▁физическо	-10.9284
▁шыхлински	-10.9284
▁ювелирно	-10.9284
▁автоматизаци	-10.9285
▁адаптиру	-10.9285
▁взлетно	-10.9285
▁джеймс	-10.9285
▁кабмин	-10.9285
▁крупнейше	-10.9285
▁отзыв	-10.9285
▁пишут	-10.9285
▁посетителей	-10.9285
▁роснефт	-10.9285
▁аудио	-10.9285
▁вменяет	-10.9285
▁обстрел	-10.9285
▁похитил	-10.9285
▁стадии	-10.9285
▁австри	-10.9285
▁минимизир	-10.9285
▁разбира	-10.9285
▁раунд	-10.9285
▁реставрацию	-10.9285
▁совершенствова	-10.9285
▁тигром	-10.9285
пандеми	-10.9285
▁отклонени	-10.9285
▁талантливы	-10.9285
▁хартли	-10.9285
▁заражен	-10.9285
▁сцене	-10.9285
▁цифровизаци	-10.9285
▁питание	-10.9285
▁поправок	-10.9285
▁сообщество	-10.9285
▁гибдд	-10.9285
▁изучени	-10.9285
▁ереван	-10.9285
▁получает	-10.9285
▁параметр	-10.9285
▁сочета	-10.9285
▁чеченск	-10.9285
▁разбор	-10.9285
▁страхование	-10.9285
▁флагманск	-10.9285
▁сохранение	-10.9285
▁юнош	-10.9285
▁санатори	-10.9285
▁систематически	-10.9285
▁сзфо	-10.9285
▁гострудинспекци	-10.9285
▁вовсе	-10.9285
▁интеллектуальн	-10.9285
▁плодо	-10.9285
▁герое	-10.9285
▁сосла	-10.9285
▁партий	-10.9285
▁наличны	-10.9285
игоря	-10.9285
▁схеме	-10.9285
▁молдов	-10.9285
▁стенами	-10.9285
▁хутор	-10.9285
▁дневно	-10.9285
▁пережива	-10.9285
▁существования	-10.9285
▁бойко	-10.9285
▁зрителей	-10.9286
▁снг	-10.9286
▁by	-10.9286
▁приветственны	-10.9286
▁урегулировании	-10.9286
▁добавив	-10.9286
▁канадск	-10.9286
▁крыло	-10.9286
▁всемирн	-10.9286
▁усилил	-10.9286
▁пдд	-10.9286
оэз	-10.9287
▁иноагентов	-10.9287
▁клиник	-10.9287
▁генсек	-10.9287
▁хранит	-10.9287
▁уклони	-10.9287
▁нововоронеж	-10.9287
▁обеспечению	-10.9287
▁электростанции	-10.9287
▁приказ	-10.9287
паспорта	-10.9287
жомарт	-10.9287
▁лишил	-10.9288
▁прошу	-10.9288
▁многоэтаж	-10.9288
▁девято	-10.9288
▁семак	-10.9288
▁обслуживанию	-10.9288
▁услугам	-10.9288
▁перемен	-10.9288
▁семер	-10.9288
▁новоорск	-10.9289
▁прочего	-10.9289
▁влияния	-10.9289
▁ввоз	-10.929
▁столичн	-10.929
▁образц	-10.929
▁уверенность	-10.929
▁верхни	-10.929
▁отражаю	-10.929
▁девочки	-10.929
▁девочка	-10.9291
спутник	-10.9291
▁географи	-10.9291
▁малик	-10.9291
▁банкротстве	-10.9292
▁обороне	-10.9292
▁тренировки	-10.9292
▁выставлен	-10.9292
▁ленина	-10.9293
▁фильмы	-10.9293
▁показывает	-10.9293
▁основу	-10.9294
▁перечн	-10.9294
▁sub	-10.9295
▁двухэтажн	-10.9295
▁извини	-10.9296
▁кухн	-10.9296
▁террористически	-10.9296
▁убил	-10.9296
▁противодейств	-10.9297
▁вырастут	-10.9297
кажут	-10.9297
▁определять	-10.9297
▁серьезные	-10.9298
▁ярк	-10.9299
▁ремн	-10.9299
▁сериал	-10.9299
▁линий	-10.9299
▁примени	-10.93
баум	-10.93
▁слав	-10.93
▁оппозици	-10.9302
▁избил	-10.9302
▁заведения	-10.9304
▁безопасны	-10.9312
▁садик	-10.9314
▁дают	-10.9317
фтс	-10.9318
▁галин	-10.9318
▁творчес	-10.9319
▁ржд	-10.932
▁женск	-10.932
▁хозяйство	-10.9321
fon	-10.9324
▁новак	-10.9324
▁брод	-10.9326
▁пензенско	-10.9329
▁функционал	-10.9337
▁локализова	-10.9342
▁объединен	-10.9343
ичностью	-10.9347
▁вовк	-10.9348
▁долево	-10.9357
▁производств	-10.9366
▁самарск	-10.9371
▁относи	-10.9372
▁ужесточени	-10.9376
▁индексаци	-10.9378
▁сдал	-10.9379
▁валово	-10.9382
▁заявля	-10.9383
▁недвижим	-10.9394
▁выявленны	-10.94
▁вовлечен	-10.9404
▁родин	-10.9407
▁оригинальн	-10.9409
▁перехвати	-10.9412
▁климатическ	-10.9419
очередном	-10.9435
▁приме	-10.9443
черный	-10.9445
▁трудност	-10.9445
▁грузинск	-10.9472
▁агент	-10.9476
зарядки	-10.9495
▁порыв	-10.9506
▁сильны	-10.9511
▁индустриальн	-10.9517
▁трансформ	-10.9534
▁кемеровско	-10.9546
▁проживающи	-10.9557
▁завершит	-10.9595
троп	-10.9606
▁персональны	-10.9614
▁швейцари	-10.9674
▁настоящ	-10.9719
▁смог	-10.9739
▁важност	-10.9755
▁вредны	-10.981
▁реализу	-10.9823
▁актуальн	-10.9842
▁разработанны	-10.9847
▁бесплатн	-10.9858
▁ведомств	-10.9869
формировать	-10.9875
▁готовност	-10.9982
▁калининградск	-11.0002
▁желез	-11.0019
▁хар	-11.0047
▁бронирован	-11.0155
магазина	-11.0158
▁калининград	-11.0165
коммунально	-11.02
▁семейны	-11.0213
▁проектировани	-11.0258
▁генератор	-11.0261
▁фигур	-11.0277
комплекс	-11.0284
▁трубопровод	-11.0319
▁отличил	-11.033
прес	-11.0373
▁агентств	-11.0388
▁изготовлен	-11.0415
покушени	-11.0423
продуктов	-11.0427
следствие	-11.0428
связи	-11.0437
президент	-11.0438
включа	-11.0441
▁зарегистрирова	-11.0474
▁вводит	-11.0489
▁алтайско	-11.0546
дизайнер	-11.0548
▁сентябр	-11.0558
национальн	-11.0575
▁обнаруж	-11.0577
должник	-11.0588
▁жител	-11.0604
▁популярн	-11.0613
▁существу	-11.0617
▁генпрокуратур	-11.0625
▁оказан	-11.0666
▁заработн	-11.0667
строят	-11.0686
▁мотивиров	-11.069
▁павл	-11.0695
▁отдых	-11.0708
▁арми	-11.073
▁задержал	-11.0732
▁сбалансированн	-11.0744
▁расследова	-11.0779
▁одни	-11.0793
▁израиль	-11.0794
строения	-11.08
▁лаборатори	-11.0812
▁прозвуч	-11.0824
▁утро	-11.0847
звонить	-11.0847
▁форма	-11.085
ительного	-11.0854
▁одежд	-11.0872
▁подтверд	-11.0883
▁профил	-11.0888
иноагент	-11.0891
▁энергоресурс	-11.0901
▁жильц	-11.0903
логистическ	-11.091
ющее	-11.0914
нижение	-11.0921
▁кадастр	-11.0924
▁тарас	-11.0924
▁предпринима	-11.0932
▁концесси	-11.0938
ведомственно	-11.0941
▁енисе	-11.0941
▁урегулирова	-11.0944
подбор	-11.0946
▁чуваш	-11.0946
▁номинал	-11.0947
регистр	-11.095
гвардии	-11.095
tech	-11.0951
дисциплин	-11.0951
▁расположи	-11.0951
миллионник	-11.0951
▁tecno	-11.0951
▁австрали	-11.0951
▁адмирал	-11.0951
▁армянско	-11.0951
▁башкирск	-11.0951
▁буксир	-11.0951
▁виртуальн	-11.0951
▁дирижер	-11.0951
▁заинтересованн	-11.0951
▁коттедж	-11.0951
▁модернизирова	-11.0951
▁стимулирова	-11.0951
▁чебоксар	-11.0951
cial	-11.0951
orion	-11.0951
гастрономически	-11.0951
изыскательски	-11.0951
интеграция	-11.0951
иртышско	-11.0951
конгресс	-11.0951
криминалист	-11.0951
медицина	-11.0951
несоблюдени	-11.0951
отмывани	-11.0951
просветительск	-11.0951
спбгикит	-11.0951
▁cnn	-11.0951
▁golden	-11.0951
▁pioneer	-11.0951
▁shot	-11.0951
▁авиасообщение	-11.0951
▁автокредит	-11.0951
▁аккаунт	-11.0951
▁бадранов	-11.0951
▁батареи	-11.0951
▁безусловно	-11.0951
▁ботсваны	-11.0951
▁браслет	-11.0951
▁будович	-11.0951
▁бурлачко	-11.0951
▁венгерск	-11.0951
▁виноградов	-11.0951
▁внимательн	-11.0951
▁вообще	-11.0951
▁выгляд	-11.0951
▁выстрели	-11.0951
▁газопровод	-11.0951
▁гарантия	-11.0951
▁генпрокурор	-11.0951
▁госзакупк	-11.0951
▁господдержк	-11.0951
▁госуслуг	-11.0951
▁григорьев	-11.0951
▁дежурны	-11.0951
▁джетленд	-11.0951
▁дзюдо	-11.0951
▁дипмисси	-11.0951
▁добровольно	-11.0951
▁домовладени	-11.0951
▁драйвер	-11.0951
▁егрюл	-11.0951
▁жидкостью	-11.0951
▁заболевания	-11.0951
▁заморозк	-11.0951
▁зарабатыва	-11.0951
▁затрудн	-11.0951
▁захоронени	-11.0951
▁избега	-11.0951
▁инспектор	-11.0951
▁исключил	-11.0951
▁календарн	-11.0951
▁кольцово	-11.0951
▁комедии	-11.0951
▁коммуникаций	-11.0951
▁комсомольск	-11.0951
▁конвенци	-11.0951
▁консервативн	-11.0951
▁консолидированн	-11.0951
▁контекст	-11.0951
▁контрабанд	-11.0951
▁концентраци	-11.0951
▁копенгаген	-11.0951
▁космос	-11.0951
▁кровообращения	-11.0951
▁кудрявцев	-11.0951
▁кузяев	-11.0951
▁курджипс	-11.0951
▁лабораторн	-11.0951
▁ландшафт	-11.0951
▁лихачев	-11.0951
▁меридиан	-11.0951
▁методологии	-11.0951
▁минсельхоз	-11.0951
▁мясниковск	-11.0951
▁наименовани	-11.0951
▁накоплени	-11.0951
▁ненависти	-11.0951
▁непрерывно	-11.0951
▁неприемлемы	-11.0951
▁нефтеюганска	-11.0951
▁ноябрь	-11.0951
▁обогащения	-11.0951
▁обрушени	-11.0951
▁овощей	-11.0951
▁одержал	-11.0951
▁орджоникидзе	-11.0951
▁орудие	-11.0951
▁остеклени	-11.0951
▁отпустили	-11.0951
▁отраслев	-11.0951
▁отраслей	-11.0951
▁отслежива	-11.0951
▁отстрани	-11.0951
▁павильон	-11.0951
▁перекрыто	-11.0951
▁пересмотр	-11.0951
▁перечисли	-11.0951
▁пневм	-11.0951
▁подготовлен	-11.0951
▁поднебесн	-11.0951
▁поднимется	-11.0951
▁подчеркивают	-11.0951
▁поздрав	-11.0951
▁полузащитник	-11.0951
▁популяризаци	-11.0951
▁похищени	-11.0951
▁предпочтени	-11.0951
▁преодоле	-11.0951
▁претенденто	-11.0951
▁претензи	-11.0951
▁приватизации	-11.0951
▁прикамья	-11.0951
▁природоохранн	-11.0951
▁продавц	-11.0951
▁прописан	-11.0951
▁протапливани	-11.0951
▁прояснениями	-11.0951
▁пьянов	-11.0951
▁разглашени	-11.0951
▁расследует	-11.0951
▁рыльский	-11.0951
▁рынки	-11.0951
▁рынком	-11.0951
▁рынку	-11.0951
▁своевременно	-11.0951
▁священник	-11.0951
▁секунды	-11.0951
▁сертификат	-11.0951
▁слабее	-11.0951
▁смягчени	-11.0951
▁соболя	-11.0951
▁содействи	-11.0951
▁солтановский	-11.0951
▁сооружений	-11.0951
▁спектр	-11.0951
▁спецодежд	-11.0951
▁съехал	-11.0951
▁телескоп	-11.0951
▁терентьев	-11.0951
▁удержани	-11.0951
▁упаковки	-11.0951
▁упомина	-11.0951
▁упраздн	-11.0951
▁устранены	-11.0951
▁хирург	-11.0951
▁церкви	-11.0951
▁цимлянск	-11.0951
▁черемушки	-11.0951
▁эпштейн	-11.0951
▁юртаев	-11.0951
фнпр	-11.0951
▁ассистент	-11.0951
▁дальнейши	-11.0951
▁капуст	-11.0951
▁кондитер	-11.0951
▁месторождени	-11.0951
▁напря	-11.0951
▁переименова	-11.0951
▁подросток	-11.0951
▁поражение	-11.0951
▁постановил	-11.0951
▁прибывши	-11.0951
▁приволжско	-11.0951
▁продвига	-11.0951
▁ресурсоснабжающ	-11.0951
▁самодельн	-11.0951
▁сдержан	-11.0951
▁сыворотк	-11.0951
▁ужасн	-11.0951
▁хулиганс	-11.0951
▁экскурси	-11.0951
▁ярмар	-11.0951
брошенн	-11.0951
▁covid	-11.0951
▁бумаг	-11.0951
▁варьирова	-11.0951
▁континентальн	-11.0951
▁отрабатыва	-11.0951
▁попытал	-11.0951
▁счастье	-11.0951
▁формы	-11.0951
мансийско	-11.0951
▁ахмед	-11.0951
▁изображение	-11.0951
▁карточк	-11.0951
▁наложил	-11.0951
▁патрон	-11.0951
▁почты	-11.0951
▁приложении	-11.0951
▁родители	-11.0951
▁рязанск	-11.0951
ach	-11.0951
bit	-11.0951
▁береж	-11.0951
▁обруши	-11.0951
▁петергоф	-11.0951
▁указывает	-11.0951
▁факторами	-11.0951
▁баграм	-11.0951
▁пересекал	-11.0951
гружен	-11.0951
хранилищам	-11.0951
▁гостевы	-11.0951
▁победительниц	-11.0951
▁сообщению	-11.0951
▁изменить	-11.0951
▁осенне	-11.0951
▁сахарн	-11.0951
▁шишкин	-11.0951
▁банкротом	-11.0951
▁призван	-11.0951
▁картофел	-11.0951
▁кластер	-11.0951
▁взорва	-11.0951
▁учителей	-11.0951
▁динамике	-11.0951
▁вошла	-11.0951
▁отразил	-11.0951
▁форму	-11.0951
▁егэ	-11.0951
▁книж	-11.0951
▁жилищны	-11.0951
▁наступательн	-11.0951
▁угарн	-11.0951
▁медведя	-11.0951
▁происходяще	-11.0951
▁дубровск	-11.0951
▁возникновени	-11.0951
▁фенев	-11.0951
▁каждая	-11.0951
▁маломерн	-11.0951
▁африк	-11.0951
▁налади	-11.0951
▁бабуш	-11.0951
▁бутик	-11.0951
▁продолжающе	-11.0951
▁раскрыт	-11.0951
▁расселен	-11.0951
▁esg	-11.0952
▁луганск	-11.0952
▁музее	-11.0952
мнадзор	-11.0952
▁теплосет	-11.0952
▁семян	-11.0952
▁канатн	-11.0952
▁мощностей	-11.0952
осадки	-11.0952
▁брачны	-11.0952
▁свеж	-11.0952
▁автоматизирован	-11.0952
строителей	-11.0952
viii	-11.0952
▁югры	-11.0952
▁достигнуты	-11.0952
▁избирателей	-11.0952
▁банкнот	-11.0953
▁кретов	-11.0953
▁учитывают	-11.0953
▁общепит	-11.0953
▁найма	-11.0953
▁iii	-11.0953
▁грузовика	-11.0953
▁возникает	-11.0953
▁прояви	-11.0953
▁шелков	-11.0953
▁маркса	-11.0953
▁жуков	-11.0953
▁вологд	-11.0953
▁урегулирование	-11.0953
▁получателе	-11.0954
▁флаг	-11.0954
▁избиени	-11.0954
▁петер	-11.0954
▁саммит	-11.0954
▁кисл	-11.0955
▁базковск	-11.0955
▁девочку	-11.0955
троицк	-11.0955
▁власть	-11.0955
▁гибель	-11.0955
▁коуч	-11.0955
▁изъяты	-11.0955
▁древ	-11.0956
▁тактик	-11.0956
▁спора	-11.0956
▁сельски	-11.0956
ute	-11.0956
▁джим	-11.0956
▁воздержа	-11.0956
▁аляск	-11.0956
▁доложить	-11.0956
tri	-11.0957
ложат	-11.0957
▁поселения	-11.0957
▁медве	-11.0957
ssi	-11.0957
ахмат	-11.0958
тфуд	-11.0958
▁газете	-11.0958
▁амур	-11.0959
▁нефтехимик	-11.0959
▁азат	-11.096
▁икон	-11.0961
▁драм	-11.0962
▁косн	-11.0962
▁объявля	-11.0963
язев	-11.0966
▁готовящи	-11.0966
шедши	-11.0966
повар	-11.0968
▁посла	-11.0968
▁критиковал	-11.0968
▁объектив	-11.0974
▁недоста	-11.0975
▁присяг	-11.0976
▁патри	-11.098
молчан	-11.098
▁госкомпани	-11.0981
▁bren	-11.0983
▁рекомендует	-11.0983
▁лыс	-11.0986
▁выставля	-11.0987
▁надежность	-11.0987
▁остатк	-11.0988
▁присутствовал	-11.0992
▁стоил	-11.0994
▁рейд	-11.0994
ящие	-11.0995
▁бед	-11.1006
ams	-11.1014
пользование	-11.1016
гуфссп	-11.1022
▁вкладыва	-11.1031
▁стратегическо	-11.1041
▁традициям	-11.1044
действительности	-11.1059
▁удмуртско	-11.1091
▁держа	-11.1091
▁конфисковал	-11.1107
гуля	-11.1121
▁исполняющ	-11.1124
нежило	-11.1152
сбалансированный	-11.1163
тяж	-11.1165
показы	-11.1172
остаточн	-11.118
▁привлек	-11.1185
▁качественно	-11.1191
▁касающи	-11.1203
нефтепродукт	-11.1261
▁парламентски	-11.1262
▁ускорени	-11.1296
▁доступност	-11.1337
▁прорыв	-11.1357
▁продуктивност	-11.1386
▁льговско	-11.1395
▁парижско	-11.1441
▁карантинны	-11.1462
▁участвующи	-11.1466
▁сообщник	-11.1475
езжаю	-11.1501
▁обладающи	-11.1528
▁общероссийск	-11.1532
▁датски	-11.1552
делить	-11.1577
ашкин	-11.1587
▁присоединил	-11.1597
▁вызва	-11.1603
▁волод	-11.1615
▁исковы	-11.1639
стоящи	-11.1673
▁употреблени	-11.1686
генераторов	-11.1693
▁yan	-11.1731
▁обрабатыва	-11.1756
▁заход	-11.1769
▁перестал	-11.1793
▁утвержденны	-11.1824
▁подобн	-11.1866
▁финляндск	-11.187
ice	-11.187
выезде	-11.1874
желание	-11.1924
▁розничн	-11.1933
▁возмож	-11.1956
▁правильн	-11.1972
▁занимавш	-11.1972
▁наибольш	-11.1993
▁исламск	-11.2008
качественн	-11.2024
▁конкурсно	-11.2047
▁кейс	-11.2133
▁формирует	-11.2185
▁выделенны	-11.2219
вакцины	-11.2229
▁москв	-11.2275
оставление	-11.2322
вшимся	-11.2349
▁крымск	-11.2366
▁париж	-11.2386
▁взрывны	-11.2396
компания	-11.2399
позиции	-11.2406
намеренно	-11.2424
групп	-11.2426
вирус	-11.2429
принадлеж	-11.2429
оборудования	-11.2431
сентябре	-11.2432
пакет	-11.2432
часа	-11.2432
новороссийск	-11.2435
▁льгов	-11.2436
▁продуктивн	-11.2447
▁вырази	-11.2484
▁полномоч	-11.2538
▁успе	-11.2571
▁нежела	-11.2642
коммуникационн	-11.265
полноценн	-11.2656
▁управляющ	-11.2672
▁пожела	-11.2713
▁люд	-11.2714
▁лидиру	-11.2725
▁заняти	-11.2762
▁награжден	-11.2766
льскохозяйственн	-11.2773
▁эффективно	-11.2783
▁квалифицир	-11.2794
▁незаконн	-11.2806
изированны	-11.281
▁ужесточ	-11.2821
▁памят	-11.2833
▁значимы	-11.2855
▁выступлени	-11.288
▁здравоохранени	-11.288
▁пензе	-11.2889
▁коммунальн	-11.2903
инспекции	-11.2911
▁прозрачн	-11.2914
▁продолжаю	-11.2921
▁говоря	-11.2922
внедрен	-11.2926
▁оставля	-11.2933
▁оборудован	-11.2934
▁перерабатыва	-11.294
rbu	-11.2943
▁закреп	-11.2945
▁поздн	-11.2945
кцией	-11.2947
▁высказыва	-11.2949
▁обслуж	-11.2949
▁взаим	-11.2949
режисс	-11.295
коррект	-11.2951
▁хранил	-11.2951
▁совладел	-11.2951
▁азиатско	-11.2951
▁недостоверн	-11.2951
▁подопечн	-11.2951
▁адаптирова	-11.2951
▁ближне	-11.2951
▁заведующ	-11.2951
▁необоснованн	-11.2951
▁оптимизирова	-11.2951
▁осуществи	-11.2951
▁передвиж	-11.2951
▁переориентаци	-11.2951
▁предотврати	-11.2951
▁реактор	-11.2951
▁стерлитамак	-11.2951
mobil	-11.2951
ournal	-11.2951
дискуссий	-11.2951
диспетчеры	-11.2951
инэкономразвития	-11.2951
компактн	-11.2951
навигационн	-11.2951
нобелевск	-11.2951
опользованию	-11.2951
посредника	-11.2951
прикамье	-11.2951
провайдер	-11.2951
симптом	-11.2951
▁airlines	-11.2951
▁apple	-11.2951
▁audi	-11.2951
▁business	-11.2951
▁cartier	-11.2951
▁mash	-11.2951
▁social	-11.2951
▁whatsapp	-11.2951
▁аксайско	-11.2951
▁аксессуар	-11.2951
▁архыз	-11.2951
▁байрактар	-11.2951
▁бегинин	-11.2951
▁безнадзорн	-11.2951
▁благополуч	-11.2951
▁брюссел	-11.2951
▁бузмаков	-11.2951
▁васильевско	-11.2951
▁ведомости	-11.2951
▁выдвинул	-11.2951
▁выращива	-11.2951
▁вэнс	-11.2951
▁гарантии	-11.2951
▁гарантийны	-11.2951
▁гектар	-11.2951
▁геолокации	-11.2951
▁главврач	-11.2951
▁голубым	-11.2951
▁горизонт	-11.2951
▁гостагаевской	-11.2951
▁джессик	-11.2951
▁джурич	-11.2951
▁диагностик	-11.2951
▁диагональ	-11.2951
▁дискуссии	-11.2951
▁дискуссия	-11.2951
▁добросовестно	-11.2951
▁доработ	-11.2951
▁достоинств	-11.2951
▁друзья	-11.2951
▁дуглас	-11.2951
▁ежемесячно	-11.2951
▁журавлев	-11.2951
▁забайкаль	-11.2951
▁загрузк	-11.2951
▁заканчива	-11.2951
▁замедления	-11.2951
▁защищен	-11.2951
▁значимость	-11.2951
▁издержки	-11.2951
▁инвентар	-11.2951
▁инициатор	-11.2951
▁инфраструктуре	-11.2951
▁казачинско	-11.2951
▁камамбер	-11.2951
▁картаполов	-11.2951
▁компетенци	-11.2951
▁конкуриру	-11.2951
▁консульск	-11.2951
▁контролирова	-11.2951
▁координат	-11.2951
▁коробецк	-11.2951
▁креативн	-11.2951
▁критери	-11.2951
▁кровля	-11.2951
▁курумоч	-11.2951
▁лагере	-11.2951
▁лейтенант	-11.2951
▁магритт	-11.2951
▁маскировочны	-11.2951
▁медучреждение	-11.2951
▁местонахождени	-11.2951
▁минимуществ	-11.2951
▁молодежь	-11.2951
▁мьянмы	-11.2951
▁накопленны	-11.2951
▁наоборот	-11.2951
▁напитков	-11.2951
▁напряженности	-11.2951
▁нацизма	-11.2951
▁неприязн	-11.2951
▁неработающе	-11.2951
▁нецензурн	-11.2951
▁новоселов	-11.2951
▁облсовет	-11.2951
▁овчинников	-11.2951
▁ожирения	-11.2951
▁оппонент	-11.2951
▁отстранени	-11.2951
▁охарактеризова	-11.2951
▁патрулировани	-11.2951
▁перевозок	-11.2951
▁перегородки	-11.2951
▁пересечени	-11.2951
▁петроградск	-11.2951
▁площадей	-11.2951
▁покупателей	-11.2951
▁покупателя	-11.2951
▁потребностей	-11.2951
▁поульсен	-11.2951
▁похищал	-11.2951
▁пошлинами	-11.2951
▁поэтапно	-11.2951
▁превентивн	-11.2951
▁предоплат	-11.2951
▁предписан	-11.2951
▁предусмотрел	-11.2951
▁президиум	-11.2951
▁преступление	-11.2951
▁приближа	-11.2951
▁приглашени	-11.2951
▁приготовлени	-11.2951
▁приграничь	-11.2951
▁принудительн	-11.2951
▁произойдет	-11.2951
▁происходил	-11.2951
▁происхождения	-11.2951
▁пропаганд	-11.2951
▁проработа	-11.2951
▁просрочк	-11.2951
▁профессор	-11.2951
▁процентов	-11.2951
▁психологически	-11.2951
▁путепровод	-11.2951
▁развожаев	-11.2951
▁развязк	-11.2951
▁разработок	-11.2951
▁раскаялся	-11.2951
▁распоряжа	-11.2951
▁расторжени	-11.2951
▁реагирования	-11.2951
▁регламент	-11.2951
▁рекомендаци	-11.2951
▁рельсов	-11.2951
▁рентабельност	-11.2951
▁республикой	-11.2951
▁ритейлер	-11.2951
▁росгосстрах	-11.2951
▁ростехнадзор	-11.2951
▁сбежавши	-11.2951
▁сговору	-11.2951
▁сеннерборге	-11.2951
▁ситуаций	-11.2951
▁соболезнования	-11.2951
▁согласовать	-11.2951
▁сосредоточ	-11.2951
▁софинансировани	-11.2951
▁сохранению	-11.2951
▁спартак	-11.2951
▁специфик	-11.2951
▁спокойствия	-11.2951
▁спортсменк	-11.2951
▁стипенди	-11.2951
▁тегеран	-11.2951
▁телевизионн	-11.2951
▁трезв	-11.2951
▁улучшил	-11.2951
▁универсальн	-11.2951
▁факультет	-11.2951
▁фармацевти	-11.2951
▁фиктивны	-11.2951
▁футболу	-11.2951
▁фьючерс	-11.2951
▁хабиров	-11.2951
▁хакаси	-11.2951
▁хлопок	-11.2951
▁чинават	-11.2951
▁экскаватор	-11.2951
▁энергоносителей	-11.2951
▁эсбьерге	-11.2951
бывают	-11.2951
регулируем	-11.2951
трейдинг	-11.2951
▁альметьевск	-11.2951
▁аттракцион	-11.2951
▁возводит	-11.2951
▁гайдара	-11.2951
▁горнолыжн	-11.2951
▁градоначальник	-11.2951
▁демографическ	-11.2951
▁заимствован	-11.2951
▁здоровье	-11.2951
▁инкриминир	-11.2951
▁интенсивн	-11.2951
▁исполнил	-11.2951
▁кишинев	-11.2951
▁компози	-11.2951
▁краеведческ	-11.2951
▁кремль	-11.2951
▁лондона	-11.2951
▁макрорегион	-11.2951
▁миллеровск	-11.2951
▁наставник	-11.2951
▁нейросет	-11.2951
▁неограниченно	-11.2951
▁опрокинул	-11.2951
▁офлайн	-11.2951
▁поясняет	-11.2951
▁предостережени	-11.2951
▁предусматриваю	-11.2951
▁прибавил	-11.2951
▁прорабатыва	-11.2951
▁развивается	-11.2951
▁развивают	-11.2951
▁самовыдвижен	-11.2951
▁северсталь	-11.2951
▁сенсор	-11.2951
▁сливочно	-11.2951
▁собянин	-11.2951
▁содеянно	-11.2951
▁трудоустро	-11.2951
▁ушаков	-11.2951
▁хвостов	-11.2951
▁шотландск	-11.2951
▁эксклюзивн	-11.2951
▁эпидеми	-11.2951
▁явление	-11.2951
▁японии	-11.2951
единоросс	-11.2951
компетентн	-11.2951
▁животные	-11.2951
▁минтруд	-11.2951
▁надежны	-11.2951
▁отложил	-11.2951
▁пищево	-11.2951
▁резюм	-11.2951
▁сгенерированн	-11.2951
▁сжиженн	-11.2951
▁фильтр	-11.2951
▁финансам	-11.2951
▁юбиле	-11.2951
▁администрирова	-11.2951
▁бороться	-11.2951
▁кровель	-11.2951
▁масел	-11.2951
▁немецки	-11.2951
▁отклонил	-11.2951
▁партспис	-11.2951
▁пищур	-11.2951
▁роберт	-11.2951
▁розниц	-11.2951
▁учебы	-11.2951
▁антироссийск	-11.2951
▁клячин	-11.2951
▁медскан	-11.2951
▁миграционн	-11.2951
▁напарник	-11.2951
▁патент	-11.2951
▁поджог	-11.2951
▁противоправны	-11.2951
▁радиостанци	-11.2951
▁сахалин	-11.2951
▁училищ	-11.2951
▁эскиз	-11.2951
hli	-11.2951
халатност	-11.2951
▁абортов	-11.2951
▁индию	-11.2951
▁расширяе	-11.2951
▁ссср	-11.2951
phi	-11.2951
▁нижнекамск	-11.2951
▁федор	-11.2951
диспле	-11.2951
легенд	-11.2951
▁зерновых	-11.2951
▁интерьер	-11.2951
▁историй	-11.2951
▁чехии	-11.2951
▁застави	-11.2951
▁проверочны	-11.2951
pri	-11.2951
разыскны	-11.2951
▁энергосистем	-11.2951
▁ввез	-11.2951
▁митвол	-11.2951
пластик	-11.2951
▁пахомов	-11.2951
▁служебны	-11.2951
▁среднероссийск	-11.2951
толкач	-11.2951
▁вектор	-11.2951
▁возможностей	-11.2951
▁начвин	-11.2951
▁дождь	-11.2951
▁питьево	-11.2951
пыток	-11.2951
▁наружн	-11.2951
▁поменя	-11.2951
▁вишнев	-11.2951
▁фермер	-11.2951
▁погибшего	-11.2951
▁доктор	-11.2951
▁сообщений	-11.2951
▁отобра	-11.2951
▁фанат	-11.2951
▁узнаваем	-11.2951
гордуму	-11.2951
▁бронзовы	-11.2951
▁подводн	-11.2951
▁утраченны	-11.2951
выгодно	-11.2951
▁взрывчатк	-11.2951
▁верхнедонск	-11.2951
горания	-11.2951
▁поддельн	-11.2951
железнодорожник	-11.2951
▁гороха	-11.2951
▁наметкин	-11.2951
▁табак	-11.2951
▁условны	-11.2951
▁алань	-11.2951
▁жюри	-11.2951
▁выгодны	-11.2952
▁атакован	-11.2952
▁сохранения	-11.2952
▁выбрать	-11.2952
▁субсидировани	-11.2952
▁эпох	-11.2952
▁меша	-11.2952
▁плохо	-11.2952
▁пензы	-11.2952
▁критическо	-11.2952
▁отверг	-11.2952
▁стикер	-11.2952
▁десятилети	-11.2952
▁постройка	-11.2952
▁партия	-11.2952
▁себя	-11.2952
▁указывал	-11.2952
▁данил	-11.2952
▁двоих	-11.2952
▁произвел	-11.2952
▁спецпроект	-11.2952
▁фишер	-11.2952
▁поступало	-11.2952
▁седан	-11.2952
▁сожител	-11.2952
▁концерт	-11.2952
нспк	-11.2952
▁покида	-11.2952
▁царск	-11.2952
▁людмил	-11.2952
▁meta	-11.2952
▁корабл	-11.2952
электрических	-11.2952
▁детьми	-11.2952
▁запер	-11.2952
▁боксер	-11.2952
суточно	-11.2952
▁растут	-11.2952
▁cam	-11.2952
одиноч	-11.2952
▁премию	-11.2952
▁форос	-11.2952
▁дешевле	-11.2952
▁натали	-11.2953
▁иммун	-11.2953
▁петон	-11.2953
▁провинци	-11.2953
жечь	-11.2953
▁запах	-11.2953
▁бдт	-11.2953
▁масян	-11.2953
▁сегодняшне	-11.2953
тографи	-11.2953
▁певц	-11.2953
▁родион	-11.2954
▁волжско	-11.2954
▁коробк	-11.2954
▁взаимодейству	-11.2954
▁мкд	-11.2954
▁занять	-11.2954
нбки	-11.2954
▁тульск	-11.2955
▁тайник	-11.2955
▁подписать	-11.2955
▁оптик	-11.2956
▁убит	-11.2956
▁номинальн	-11.2956
▁четко	-11.2956
▁поступивши	-11.2956
▁медленн	-11.2957
▁дэн	-11.2958
▁остановочн	-11.2958
смирнов	-11.2958
▁сочински	-11.2958
▁входящи	-11.2959
▁охраняем	-11.2959
▁коляд	-11.2959
▁тверско	-11.2959
▁гостя	-11.296
сырья	-11.296
▁сравнива	-11.296
▁положенны	-11.2961
▁стольк	-11.2962
▁увеличивают	-11.2962
▁пропал	-11.2963
▁продолжительно	-11.2965
▁трениров	-11.2965
▁казар	-11.2969
▁разгон	-11.2971
▁набрав	-11.2971
▁фигурист	-11.2972
▁мариинск	-11.2973
▁дочк	-11.2975
▁предельны	-11.2976
▁остры	-11.2977
▁драк	-11.2977
▁активирова	-11.298
▁сравнял	-11.2981
▁охватыва	-11.2984
▁кадастровы	-11.2985
▁тарасовск	-11.2988
▁инвестиру	-11.2988
днепр	-11.2993
рублев	-11.2993
▁периодическо	-11.2994
▁серийно	-11.3002
ованно	-11.3006
▁катани	-11.3007
▁карпен	-11.3013
▁ощущени	-11.3014
▁автопер	-11.3019
▁смес	-11.302
▁называемо	-11.3021
▁перегон	-11.3023
cor	-11.3031
▁разрыв	-11.3043
вооружение	-11.3045
тивно	-11.3058
▁кардинал	-11.3062
авшую	-11.3067
▁ухудшени	-11.308
ношен	-11.3083
▁залог	-11.3116
▁машинист	-11.3119
ирьяно	-11.3145
лебан	-11.315
▁уфим	-11.3172
▁медик	-11.3192
▁удовлетвор	-11.3235
▁существующи	-11.3278
развед	-11.3279
черном	-11.3286
▁стоящ	-11.33
пускают	-11.3488
▁отвечающ	-11.3516
▁располага	-11.3522
▁орле	-11.3551
дисциплинарны	-11.3633
действовать	-11.367
▁охват	-11.3706
▁исполня	-11.3839
▁кемеров	-11.3885
▁пятилетни	-11.3899
производственн	-11.3953
ступают	-11.3963
▁ислам	-11.3993
▁требовани	-11.4036
▁удобств	-11.4076
▁уступа	-11.4151
избрания	-11.4164
▁гражданств	-11.4226
▁стройк	-11.427
служб	-11.4277
аналитически	-11.4305
▁следовавш	-11.4336
▁яблок	-11.438
руководителе	-11.4416
ационной	-11.4463
программист	-11.4499
правоохранителей	-11.4564
▁возбуди	-11.461
тушения	-11.4641
местно	-11.4648
▁исполнит	-11.4695
▁курьер	-11.47
▁соответств	-11.4705
швейцария	-11.4768
▁утверди	-11.4799
▁вывес	-11.4802
▁эффективны	-11.4818
▁минэнерг	-11.485
▁движени	-11.486
пятигорск	-11.4886
рейтинга	-11.492
производителей	-11.4923
модели	-11.4925
индекс	-11.4927
бизнес	-11.4929
капитал	-11.493
интерес	-11.4934
контроль	-11.4934
председателя	-11.4936
рынка	-11.4938
(	-11.494
eum	-11.4955
алкогольн	-11.4964
родемонстрировал	-11.5023
▁золот	-11.5054
ированию	-11.5098
ступен	-11.5125
полнения	-11.5213
устанавливающи	-11.5215
движимо	-11.5245
▁отмеч	-11.5287
▁наступ	-11.534
оборон	-11.5344
▁сравн	-11.5351
служащих	-11.5368
▁экологичн	-11.5375
▁самоуправлени	-11.538
▁ключе	-11.5381
▁рождени	-11.5385
▁демократ	-11.5402
▁нарушен	-11.5411
оглашения	-11.542
▁девоч	-11.5423
саратов	-11.5429
банкротств	-11.5431
образовательны	-11.5434
метростроя	-11.5434
▁журнал	-11.5436
▁запесоцк	-11.5436
▁теннис	-11.5442
плательщиков	-11.5442
▁водоснабжени	-11.5449
▁дистанци	-11.5451
ляция	-11.5451
ничтож	-11.5451
▁литератур	-11.5451
расторгуев	-11.5451
▁вдохнов	-11.5451
▁заклад	-11.5451
▁несовместим	-11.5451
сосудист	-11.5451
черноземно	-11.5451
▁безвозмездн	-11.5451
▁кондицион	-11.5451
▁необычн	-11.5451
▁проанализирова	-11.5451
▁проинформирова	-11.5451
▁студенческ	-11.5451
award	-11.5451
fifa	-11.5451
moscow	-11.5451
over	-11.5451
аккредитаци	-11.5451
граунд	-11.5451
диспансер	-11.5451
ейскзернопродукт	-11.5451
коммуникациям	-11.5451
кустарников	-11.5451
лесоохран	-11.5451
льхозпредприятий	-11.5451
младший	-11.5451
национализирован	-11.5451
предшественник	-11.5451
просмотр	-11.5451
радиотелевизионн	-11.5451
ранхигс	-11.5451
финансируют	-11.5451
художник	-11.5451
▁aerospace	-11.5451
▁caterpillar	-11.5451
▁evervess	-11.5451
▁guardian	-11.5451
▁microsoft	-11.5451
▁notanotherone	-11.5451
▁porsche	-11.5451
▁post	-11.5451
▁tops	-11.5451
▁turenscape	-11.5451
▁value	-11.5451
▁автозаправок	-11.5451
▁автозаправочны	-11.5451
▁англии	-11.5451
▁апелляции	-11.5451
▁апраксин	-11.5451
▁архиепископ	-11.5451
▁асламов	-11.5451
▁аффилированны	-11.5451
▁бангкок	-11.5451
▁басилашвили	-11.5451
▁беларусь	-11.5451
▁бельгийск	-11.5451
▁березниковск	-11.5451
▁бесперебойн	-11.5451
▁биньямин	-11.5451
▁благотворительн	-11.5451
▁бронепоезд	-11.5451
▁ведерников	-11.5451
▁верблюда	-11.5451
▁внебюджетны	-11.5451
▁возражали	-11.5451
▁волгодонск	-11.5451
▁воспитыва	-11.5451
▁выдворени	-11.5451
▁вымогательств	-11.5451
▁гентингтона	-11.5451
▁госкорпораци	-11.5451
▁госуниверситет	-11.5451
▁градуса	-11.5451
▁григори	-11.5451
▁григорьянц	-11.5451
▁григорян	-11.5451
▁двадцат	-11.5451
▁демонстрирова	-11.5451
▁демпфер	-11.5451
▁диаспоры	-11.5451
▁дивизион	-11.5451
▁дихлофос	-11.5451
▁дошкольны	-11.5451
▁драгоценны	-11.5451
▁драматург	-11.5451
▁енисейлогистика	-11.5451
▁жаловань	-11.5451
▁заплатил	-11.5451
▁запчастей	-11.5451
▁заставля	-11.5451
▁застрелил	-11.5451
▁здорово	-11.5451
▁инвестициям	-11.5451
▁испытыва	-11.5451
▁исчезл	-11.5451
▁кибератак	-11.5451
▁килограмм	-11.5451
▁клепиков	-11.5451
▁комбинированн	-11.5451
▁комендант	-11.5451
▁комиссар	-11.5451
▁консультант	-11.5451
▁коронавирус	-11.5451
▁кровлю	-11.5451
▁крылья	-11.5451
▁ласточка	-11.5451
▁лебедев	-11.5451
▁легализаци	-11.5451
▁мартинес	-11.5451
▁махинаци	-11.5451
▁мебели	-11.5451
▁медпомощ	-11.5451
▁миннигулов	-11.5451
▁можгинк	-11.5451
▁моисеев	-11.5451
▁молдавию	-11.5451
▁морозова	-11.5451
▁мотоцикл	-11.5451
▁мошеннически	-11.5451
▁мюресов	-11.5451
▁набросил	-11.5451
▁надлежаще	-11.5451
▁написан	-11.5451
▁насаждени	-11.5451
▁наследие	-11.5451
▁начисля	-11.5451
▁недалеко	-11.5451
▁недобросовестн	-11.5451
▁неожиданн	-11.5451
▁неофициальны	-11.5451
▁нетаньяху	-11.5451
▁нефтегазов	-11.5451
▁новокольцовский	-11.5451
▁новорожденн	-11.5451
▁обусловлен	-11.5451
▁объединя	-11.5451
▁объезд	-11.5451
▁овсянников	-11.5451
▁одномандатны	-11.5451
▁ожидаемо	-11.5451
▁окрестн	-11.5451
▁онколитическ	-11.5451
▁опухоле	-11.5451
▁оркестр	-11.5451
▁осложнений	-11.5451
▁отвоевать	-11.5451
▁оценок	-11.5451
▁ошибочны	-11.5451
▁памфилов	-11.5451
▁пенсионны	-11.5451
▁перекрестк	-11.5451
▁перераспределен	-11.5451
▁пересматрива	-11.5451
▁першенков	-11.5451
▁планировании	-11.5451
▁плахотнюк	-11.5451
▁побольше	-11.5451
▁повседневн	-11.5451
▁погрузк	-11.5451
▁подвижн	-11.5451
▁пожаловал	-11.5451
▁полуфинал	-11.5451
▁посредником	-11.5451
▁потребность	-11.5451
▁похолодание	-11.5451
▁похоронно	-11.5451
▁пояснял	-11.5451
▁правительству	-11.5451
▁преврати	-11.5451
▁предназнача	-11.5451
▁преоблада	-11.5451
▁преподавателей	-11.5451
▁преступлении	-11.5451
▁преступны	-11.5451
▁претендова	-11.5451
▁приземли	-11.5451
▁прокопьевск	-11.5451
▁прохладн	-11.5451
▁радиоактивн	-11.5451
▁расторгнут	-11.5451
▁регулирующ	-11.5451
▁регулярны	-11.5451
▁редкоземельны	-11.5451
▁репутаци	-11.5451
▁респираторн	-11.5451
▁ройзман	-11.5451
▁росэнергоатом	-11.5451
▁сальмонелл	-11.5451
▁самозанятости	-11.5451
▁саудовск	-11.5451
▁сахабутдинова	-11.5451
▁сбермобайл	-11.5451
▁свадьбу	-11.5451
▁свердлова	-11.5451
▁светофор	-11.5451
▁сдержива	-11.5451
▁сигарет	-11.5451
▁симферопол	-11.5451
▁синтетическ	-11.5451
▁случаи	-11.5451
▁смягчи	-11.5451
▁соединений	-11.5451
▁соцсетей	-11.5451
▁спортсмены	-11.5451
▁справоросс	-11.5451
▁сэкономит	-11.5451
▁таврида	-11.5451
▁такиэддин	-11.5451
▁телевизор	-11.5451
▁телесуфлер	-11.5451
▁тепличны	-11.5451
▁туриндустри	-11.5451
▁уайатт	-11.5451
▁увольнени	-11.5451
▁удостоенны	-11.5451
▁урожен	-11.5451
▁условии	-11.5451
▁фабрик	-11.5451
▁франчайз	-11.5451
▁хабаровск	-11.5451
▁хайруллин	-11.5451
▁херсонск	-11.5451
▁хмелевского	-11.5451
▁хохлома	-11.5451
▁хроническ	-11.5451
▁экстремальны	-11.5451
▁электромотор	-11.5451
▁энергией	-11.5451
▁энергия	-11.5451
▁эскалатор	-11.5451
▁эскалации	-11.5451
▁эффективная	-11.5451
аутсорсинг	-11.5451
исполком	-11.5451
макроэкономическ	-11.5451
милиционер	-11.5451
персонаж	-11.5451
прослуш	-11.5451
трейдер	-11.5451
▁акцент	-11.5451
▁баллотирова	-11.5451
▁белорусско	-11.5451
▁бразильск	-11.5451
▁велосипедист	-11.5451
▁воскресен	-11.5451
▁вспомогательн	-11.5451
▁выкладыва	-11.5451
▁выравнива	-11.5451
▁гидроизоляци	-11.5451
▁декабрь	-11.5451
▁динозавр	-11.5451
▁животными	-11.5451
▁закупочн	-11.5451
▁замедля	-11.5451
▁инсцениров	-11.5451
▁исчерпан	-11.5451
▁квалификационн	-11.5451
▁криминальн	-11.5451
▁легендарн	-11.5451
▁немедленно	-11.5451
▁неправомерн	-11.5451
▁несогласованны	-11.5451
▁нестеренко	-11.5451
▁односторонн	-11.5451
▁озерной	-11.5451
▁онкологическ	-11.5451
▁оплачива	-11.5451
▁ориентиру	-11.5451
▁отрицал	-11.5451
▁отсыпа	-11.5451
▁очевидн	-11.5451
▁перенаправи	-11.5451
▁переславл	-11.5451
▁познаком	-11.5451
▁прекрасн	-11.5451
▁привокзальн	-11.5451
▁придержива	-11.5451
▁пропустит	-11.5451
▁просроченн	-11.5451
▁реализовывать	-11.5451
▁резолю	-11.5451
▁риторик	-11.5451
▁рюмкин	-11.5451
▁санкционн	-11.5451
▁сарапульцев	-11.5451
▁спасателям	-11.5451
▁спасибо	-11.5451
▁тейлор	-11.5451
▁трамвайн	-11.5451
▁тремасов	-11.5451
▁углеводород	-11.5451
▁угодий	-11.5451
▁целенаправленн	-11.5451
▁цокольн	-11.5451
▁цомартов	-11.5451
▁чемодан	-11.5451
▁шебекин	-11.5451
▁эвакуиру	-11.5451
▁электросамокат	-11.5451
▁юстиции	-11.5451
добровольчес	-11.5451
логотип	-11.5451
растущи	-11.5451
▁агидол	-11.5451
▁аграри	-11.5451
▁баррель	-11.5451
▁воспринимает	-11.5451
▁газохимическ	-11.5451
▁госпитал	-11.5451
▁гранит	-11.5451
▁драматическ	-11.5451
▁красот	-11.5451
▁круглогодичн	-11.5451
▁лизинг	-11.5451
▁полянский	-11.5451
▁понесен	-11.5451
▁связал	-11.5451
▁физкультур	-11.5451
марафон	-11.5451
▁мечел	-11.5451
▁проявлен	-11.5451
▁усынов	-11.5451
познава	-11.5451
продукцией	-11.5451
▁арендованно	-11.5451
▁наурская	-11.5451
▁овощи	-11.5451
▁отгруз	-11.5451
▁сбоев	-11.5451
▁аграрн	-11.5451
▁анонимно	-11.5451
▁глеб	-11.5451
▁коробок	-11.5451
▁латви	-11.5451
▁ливийск	-11.5451
▁сказать	-11.5451
▁зарубин	-11.5451
▁история	-11.5451
▁кнопк	-11.5451
▁крепк	-11.5451
▁навига	-11.5451
▁рудских	-11.5451
▁сердечн	-11.5451
▁встретят	-11.5451
▁документация	-11.5451
▁дошкольно	-11.5451
▁котиров	-11.5451
▁письма	-11.5451
▁трамвае	-11.5451
▁транза	-11.5451
▁величин	-11.5451
▁внезапн	-11.5451
▁кочеров	-11.5451
▁наделил	-11.5451
▁никулин	-11.5451
▁воспринимают	-11.5451
▁инвестпроект	-11.5451
▁лэп	-11.5451
▁погибшими	-11.5451
▁замкну	-11.5451
▁земства	-11.5451
▁осипов	-11.5451
▁особей	-11.5451
▁переписк	-11.5451
▁уваров	-11.5451
▁тщательн	-11.5451
▁умерших	-11.5451
модифицированн	-11.5451
▁гряз	-11.5451
▁запечатле	-11.5451
▁копытны	-11.5451
▁куликов	-11.5451
▁облцентре	-11.5451
▁пенсию	-11.5451
▁храма	-11.5451
▁пьес	-11.5451
▁увеличиваться	-11.5451
sci	-11.5451
камчатк	-11.5451
▁канады	-11.5451
▁наводн	-11.5451
▁страхованию	-11.5451
▁проверок	-11.5451
▁чкалов	-11.5451
▁авторитет	-11.5451
▁брикс	-11.5451
▁митинг	-11.5451
▁путев	-11.5451
▁бывает	-11.5451
▁ребят	-11.5451
▁учитывая	-11.5451
▁клеток	-11.5451
▁нулю	-11.5451
ite	-11.5451
▁унита	-11.5451
▁олви	-11.5451
▁редак	-11.5451
▁складыва	-11.5451
разгруз	-11.5451
▁иначе	-11.5451
▁позициониру	-11.5451
▁свеза	-11.5451
занятых	-11.5451
▁стекло	-11.5451
▁маневр	-11.5451
▁наезд	-11.5451
▁яцкин	-11.5451
▁майкопско	-11.5452
литровы	-11.5452
▁торжественно	-11.5452
▁рутинны	-11.5452
▁возглавит	-11.5452
▁знаменитост	-11.5452
▁поклон	-11.5452
▁ритуал	-11.5452
▁орден	-11.5452
▁легально	-11.5452
возможностями	-11.5452
▁гимн	-11.5452
▁куваев	-11.5452
▁новочеркасск	-11.5452
▁предельно	-11.5452
▁селекци	-11.5452
▁арсен	-11.5452
▁купюр	-11.5452
▁мозаик	-11.5452
▁насосн	-11.5452
▁орлан	-11.5452
шаттл	-11.5452
▁дистанционно	-11.5452
▁выпал	-11.5452
▁ходоровско	-11.5452
▁наземн	-11.5452
шлема	-11.5452
▁достойн	-11.5452
▁швейн	-11.5452
▁передовы	-11.5452
▁цитиру	-11.5452
▁организуе	-11.5452
▁осудил	-11.5452
glo	-11.5452
терпение	-11.5452
▁башен	-11.5452
полосн	-11.5452
▁отправят	-11.5453
лексик	-11.5453
▁зерно	-11.5453
▁слитк	-11.5453
▁выгул	-11.5453
паллет	-11.5453
▁массированно	-11.5453
▁духовно	-11.5453
▁яковлев	-11.5453
▁изменя	-11.5453
▁суверенн	-11.5453
▁халид	-11.5453
bab	-11.5453
▁груст	-11.5453
когда	-11.5453
▁покровск	-11.5453
derm	-11.5453
▁идеальны	-11.5454
▁пометк	-11.5454
▁резин	-11.5454
▁смольн	-11.5454
▁орбита	-11.5455
▁губерн	-11.5455
точку	-11.5455
▁дипломатическо	-11.5456
▁принципиальн	-11.5456
▁пятиэтажно	-11.5456
▁благоустро	-11.5456
▁очкам	-11.5457
▁трансформаци	-11.5458
▁разбойн	-11.5458
▁броск	-11.5459
▁почувствовал	-11.546
налогоплательщик	-11.546
▁возникающи	-11.5462
скандал	-11.5466
▁освоени	-11.5466
влажн	-11.547
▁ручно	-11.547
▁одноименн	-11.5471
▁элитн	-11.5471
отрез	-11.5472
▁потенциально	-11.5475
▁верующи	-11.5475
прыг	-11.5482
▁формальн	-11.5485
▁мешк	-11.5492
держащих	-11.5494
ssa	-11.5497
суверенитета	-11.5498
прозрачность	-11.5499
▁случивше	-11.55
казны	-11.5507
▁автоматизир	-11.5516
являют	-11.5519
электроснабжения	-11.5522
действующим	-11.5529
учтен	-11.5533
▁трехкомнатн	-11.5533
▁госслужащи	-11.5534
оотечественников	-11.5546
киринско	-11.557
▁электродвигател	-11.5575
▁старинн	-11.5583
ami	-11.5585
▁активаци	-11.5606
▁гармони	-11.5659
награждения	-11.5666
лаборатории	-11.5673
▁ориентиро	-11.5674
▁доверител	-11.57
▁просвещени	-11.5701
менюк	-11.5715
▁имеюще	-11.5731
▁петровско	-11.5756
разум	-11.5762
видетельствовани	-11.5765
консультационн	-11.5778
▁утвержда	-11.578
безопас	-11.5782
анимационно	-11.5793
агентов	-11.5895
платформа	-11.5902
▁выступающи	-11.5904
ивановск	-11.6014
владимиров	-11.6072
визовы	-11.6073
▁задействова	-11.6267
time	-11.6382
ликвидировано	-11.6407
▁античн	-11.6466
▁представляющ	-11.6474
резиденты	-11.6508
▁фигуриру	-11.6576
кейсов	-11.6611
▁совместн	-11.6633
ключения	-11.6695
▁отключ	-11.6713
▁переизбран	-11.6848
программирования	-11.7028
удобства	-11.7044
энергетики	-11.7158
▁программировани	-11.7247
▁населенн	-11.7247
хождения	-11.7376
навыков	-11.7409
▁бывш	-11.7419
▁имуществ	-11.7449
▁резидент	-11.7459
перевозчиков	-11.7529
▁ликвидирован	-11.7589
агентом	-11.7659
▁дисциплинарн	-11.7672
▁карантин	-11.7753
rol	-11.7853
▁бумажн	-11.786
комплектов	-11.7995
▁снижен	-11.8012
▁добывающ	-11.8055
▁заседани	-11.811
обеспечения	-11.8133
▁следстви	-11.8139
▁госавтоинспекци	-11.8142
влечения	-11.8163
▁согласован	-11.8168
▁прокуратур	-11.8203
результат	-11.8232
пассажир	-11.8256
российско	-11.8258
европейск	-11.8258
института	-11.8261
пространство	-11.8261
продукции	-11.8264
памятник	-11.8265
физически	-11.8265
октябре	-11.8266
агентство	-11.8267
гендиректор	-11.8267
организация	-11.8268
размер	-11.827
сигнал	-11.827
▁стабилиз	-11.8294
▁реанимаци	-11.8328
идетельствования	-11.8363
▁практическ	-11.842
террористическ	-11.8447
▁оригинал	-11.8471
▁удмурт	-11.8483
▁ухудш	-11.8558
▁возведе	-11.856
▁электроэнерги	-11.8561
крепления	-11.8562
выполнял	-11.8565
▁освобожд	-11.8588
есанкционированн	-11.8621
пригород	-11.8637
▁локализ	-11.8638
складско	-11.8648
▁импортозамещ	-11.8651
публичн	-11.8664
▁ощущ	-11.8673
▁муниципал	-11.8696
▁пресечени	-11.8714
▁нейтрал	-11.8718
▁суверенитет	-11.872
▁объяв	-11.8729
▁запорожск	-11.8735
▁респондент	-11.8736
разрушен	-11.8746
автодор	-11.8753
▁продолжае	-11.8755
▁магистра	-11.8758
высшим	-11.8762
классник	-11.8771
топления	-11.8773
ценивает	-11.8773
гласил	-11.8782
ключите	-11.8784
екционн	-11.8784
▁происходя	-11.8784
▁восприн	-11.8784
предсказуем	-11.8784
▁мультиплика	-11.8784
lette	-11.8784
▁ethernet	-11.8784
▁изоляци	-11.8784
▁неконтролируемо	-11.8784
▁осажденно	-11.8784
▁посредническ	-11.8784
▁прививочн	-11.8784
▁хромированн	-11.8784
▁централизованно	-11.8784
abot	-11.8784
daily	-11.8784
holding	-11.8784
oved	-11.8784
slop	-11.8784
агрессивны	-11.8784
английски	-11.8784
батальон	-11.8784
беспрепятственно	-11.8784
вспышк	-11.8784
габарит	-11.8784
довольстви	-11.8784
ельхозкооператив	-11.8784
калифорния	-11.8784
катастрофе	-11.8784
критичны	-11.8784
молекулярн	-11.8784
овоалександровск	-11.8784
пермаркета	-11.8784
провокация	-11.8784
сопоставимы	-11.8784
тягивани	-11.8784
шатдауна	-11.8784
▁accor	-11.8784
▁bosch	-11.8784
▁capital	-11.8784
▁chatgpt	-11.8784
▁company	-11.8784
▁connect	-11.8784
▁evolute	-11.8784
▁ferrari	-11.8784
▁hayom	-11.8784
▁libere	-11.8784
▁media	-11.8784
▁natur	-11.8784
▁space	-11.8784
▁tenet	-11.8784
▁watch	-11.8784
▁world	-11.8784
▁автомобилю	-11.8784
▁адекватн	-11.8784
▁азимут	-11.8784
▁акварель	-11.8784
▁акциями	-11.8784
▁алгоритм	-11.8784
▁андромед	-11.8784
▁анклав	-11.8784
▁антиоксидант	-11.8784
▁армавир	-11.8784
▁армейц	-11.8784
▁архипенко	-11.8784
▁атаманченко	-11.8784
▁аттестаци	-11.8784
▁аудиообъявления	-11.8784
▁аэрозольн	-11.8784
▁баскетбол	-11.8784
▁батарей	-11.8784
▁батарею	-11.8784
▁батарея	-11.8784
▁беглов	-11.8784
▁бездейств	-11.8784
▁беременности	-11.8784
▁биатлонистк	-11.8784
▁богодистов	-11.8784
▁богоматери	-11.8784
▁брусчатк	-11.8784
▁бублик	-11.8784
▁буденновск	-11.8784
▁вгтрк	-11.8784
▁вдыхани	-11.8784
▁вежлив	-11.8784
▁величайш	-11.8784
▁венесуэлы	-11.8784
▁взяткодател	-11.8784
▁владлен	-11.8784
▁вмеша	-11.8784
▁военнопленных	-11.8784
▁возобновляем	-11.8784
▁вопиющ	-11.8784
▁воробьев	-11.8784
▁восемнадцат	-11.8784
▁воспитанник	-11.8784
▁восприяти	-11.8784
▁вручную	-11.8784
▁выдвинуты	-11.8784
▁выпущен	-11.8784
▁высоковольтн	-11.8784
▁вычислительн	-11.8784
▁вышеуказанн	-11.8784
▁газотурбинны	-11.8784
▁галицкий	-11.8784
▁генподрядчик	-11.8784
▁голдобин	-11.8784
▁госбюджет	-11.8784
▁госоргана	-11.8784
▁грубиян	-11.8784
▁гуменник	-11.8784
▁гутерриш	-11.8784
▁дежурств	-11.8784
▁дезинфляционный	-11.8784
▁деревьев	-11.8784
▁деревья	-11.8784
▁деревянны	-11.8784
▁дефолт	-11.8784
▁дивизии	-11.8784
▁диспансеризаци	-11.8784
▁добросовестны	-11.8784
▁документооборот	-11.8784
▁доцент	-11.8784
▁единоборств	-11.8784
▁епархии	-11.8784
▁епископ	-11.8784
▁ефименко	-11.8784
▁жаловаться	-11.8784
▁жалуются	-11.8784
▁жестоко	-11.8784
▁заблуждение	-11.8784
▁забросил	-11.8784
▁заграничны	-11.8784
▁задекларирова	-11.8784
▁запрашивал	-11.8784
▁запугивани	-11.8784
▁заслужива	-11.8784
▁зачислен	-11.8784
▁злоумышленниц	-11.8784
▁игнорирова	-11.8784
▁избыточн	-11.8784
▁излучени	-11.8784
▁ильтюзион	-11.8784
▁инвалидность	-11.8784
▁инвестициях	-11.8784
▁ингибитор	-11.8784
▁ингушетии	-11.8784
▁инициированн	-11.8784
▁инструкци	-11.8784
▁информировани	-11.8784
▁инфраструктурны	-11.8784
▁инфраструктурой	-11.8784
▁исчезновени	-11.8784
▁исчислен	-11.8784
▁каддафи	-11.8784
▁каладзе	-11.8784
▁калашников	-11.8784
▁квадроцикл	-11.8784
▁комментирова	-11.8784
▁коммуникации	-11.8784
▁компаньон	-11.8784
▁компонент	-11.8784
▁консолидаци	-11.8784
▁контролю	-11.8784
▁конышевско	-11.8784
▁кооперации	-11.8784
▁космодром	-11.8784
▁косухина	-11.8784
▁кочубеевско	-11.8784
▁красносулинском	-11.8784
▁кречет	-11.8784
▁кудерметова	-11.8784
▁кудымкар	-11.8784
▁кумпилов	-11.8784
▁лагеря	-11.8784
▁ладейщиков	-11.8784
▁лайнера	-11.8784
▁ликвидности	-11.8784
▁литийионны	-11.8784
▁люксовы	-11.8784
▁майсурадзе	-11.8784
▁маникюр	-11.8784
▁марихуаны	-11.8784
▁матвеева	-11.8784
▁матвиенко	-11.8784
▁махонин	-11.8784
▁медицине	-11.8784
▁мемориал	-11.8784
▁метропаркинг	-11.8784
▁музыки	-11.8784
▁наркотическ	-11.8784
▁некоммерческ	-11.8784
▁немаркированн	-11.8784
▁неналоговы	-11.8784
▁ненефтегазовы	-11.8784
▁ненормативн	-11.8784
▁неработающи	-11.8784
▁несостоятельн	-11.8784
▁несправедливо	-11.8784
▁нетворкинг	-11.8784
▁нетрезвы	-11.8784
▁нижневартовск	-11.8784
▁никотин	-11.8784
▁норвеги	-11.8784
▁норвежск	-11.8784
▁норильск	-11.8784
▁нубийски	-11.8784
▁обвинений	-11.8784
▁объединит	-11.8784
▁одинаков	-11.8784
▁озвучен	-11.8784
▁оказывал	-11.8784
▁оптхимэкспорт	-11.8784
▁опухоли	-11.8784
▁оскорбительны	-11.8784
▁осложня	-11.8784
▁оспарива	-11.8784
▁осуществлявш	-11.8784
▁отработан	-11.8784
▁офицер	-11.8784
▁охотоведы	-11.8784
▁очищенны	-11.8784
▁оштрафован	-11.8784
▁паралимпи	-11.8784
▁пассивн	-11.8784
▁пгниу	-11.8784
▁пезешкиан	-11.8784
▁перекрыти	-11.8784
▁перекрыты	-11.8784
▁переоборудова	-11.8784
▁перехвачен	-11.8784
▁перечислен	-11.8784
▁побуждений	-11.8784
▁подавляющ	-11.8784
▁подешевев	-11.8784
▁подмосковь	-11.8784
▁подразумевает	-11.8784
▁подчеркнув	-11.8784
▁пожалуй	-11.8784
▁показывают	-11.8784
▁политсовет	-11.8784
▁пономаренко	-11.8784
▁порнографически	-11.8784
▁послужил	-11.8784
▁посоветовал	-11.8784
▁потуральски	-11.8784
▁похищенны	-11.8784
▁пошивай	-11.8784
▁пошутил	-11.8784
▁правозащиты	-11.8784
▁превзой	-11.8784
▁предоставят	-11.8784
▁предпочита	-11.8784
▁преобразован	-11.8784
▁преследовани	-11.8784
▁приближени	-11.8784
▁привязк	-11.8784
▁приглаша	-11.8784
▁приглашенны	-11.8784
▁приграничн	-11.8784
▁прикрытие	-11.8784
▁приспособи	-11.8784
▁проветри	-11.8784
▁провокационны	-11.8784
▁прогулочн	-11.8784
▁проигнорировал	-11.8784
▁промежуточны	-11.8784
▁пропустил	-11.8784
▁противостояни	-11.8784
▁прошедше	-11.8784
▁пурпурн	-11.8784
w	-13.3355
