{
  "version": "1.0",
  "truncation": null,
  "padding": null,
  "added_tokens": [
    {
      "id": 0,
      "content": "<UNK>",
      "single_word": false,
      "lstrip": false,
      "rstrip": false,
      "normalized": false,
      "special": true
    },
    {
      "id": 1,
      "content": "<PAD>",
      "single_word": false,
      "lstrip": false,
      "rstrip": false,
      "normalized": false,
      "special": true
    },
    {
      "id": 2,
      "content": "<BOS>",
      "single_word": false,
      "lstrip": false,
      "rstrip": false,
      "normalized": false,
      "special": true
    },
    {
      "id": 3,
      "content": "<EOS>",
      "single_word": false,
      "lstrip": false,
      "rstrip": false,
      "normalized": false,
      "special": true
    }
  ],
  "normalizer": {
    "type": "Sequence",
    "normalizers": [
      {
        "type": "NFD"
      },
      {
        "type": "Lowercase"
      }
    ]
  },
  "pre_tokenizer": {
    "type": "Whitespace"
  },
  "post_processor": null,
  "decoder": null,
  "model": {
    "type": "WordPiece",
    "unk_token": "[UNK]",
    "continuing_subword_prefix": "##",
    "max_input_chars_per_word": 100,
    "vocab": {
      "<UNK>": 0,
      "<PAD>": 1,
      "<BOS>": 2,
      "<EOS>": 3,
      "!": 4,
      "(": 5,
      ")": 6,
      ",": 7,
      "-": 8,
      ".": 9,
      ":": 10,
      ";": 11,
      "<": 12,
      ">": 13,
      "?": 14,
      "_": 15,
      "a": 16,
      "b": 17,
      "c": 18,
      "d": 19,
      "e": 20,
      "f": 21,
      "g": 22,
      "h": 23,
      "i": 24,
      "j": 25,
      "k": 26,
      "l": 27,
      "m": 28,
      "n": 29,
      "o": 30,
      "p": 31,
      "q": 32,
      "r": 33,
      "s": 34,
      "t": 35,
      "u": 36,
      "v": 37,
      "w": 38,
      "x": 39,
      "y": 40,
      "z": 41,
      "́": 42,
      "̆": 43,
      "̈": 44,
      "а": 45,
      "б": 46,
      "в": 47,
      "г": 48,
      "д": 49,
      "е": 50,
      "ж": 51,
      "з": 52,
      "и": 53,
      "к": 54,
      "л": 55,
      "м": 56,
      "н": 57,
      "о": 58,
      "п": 59,
      "р": 60,
      "с": 61,
      "т": 62,
      "у": 63,
      "ф": 64,
      "х": 65,
      "ц": 66,
      "ч": 67,
      "ш": 68,
      "щ": 69,
      "ъ": 70,
      "ы": 71,
      "ь": 72,
      "э": 73,
      "ю": 74,
      "я": 75,
      "##а": 76,
      "##с": 77,
      "##т": 78,
      "##о": 79,
      "##р": 80,
      "##г": 81,
      "##н": 82,
      "##у": 83,
      "##и": 84,
      "##̆": 85,
      "##ц": 86,
      "##м": 87,
      "##е": 88,
      "##д": 89,
      "##л": 90,
      "##в": 91,
      "##ы": 92,
      "##ф": 93,
      "##e": 94,
      "##r": 95,
      "##a": 96,
      "##п": 97,
      "##к": 98,
      "##ч": 99,
      "##ж": 100,
      "##з": 101,
      "##x": 102,
      "##o": 103,
      "##n": 104,
      "##ь": 105,
      "##ш": 106,
      "##х": 107,
      "##ю": 108,
      "##б": 109,
      "##я": 110,
      "##щ": 111,
      "##t": 112,
      "##y": 113,
      "##э": 114,
      "##d": 115,
      "##u": 116,
      "##l": 117,
      "##c": 118,
      "##h": 119,
      "##w": 120,
      "##g": 121,
      "##i": 122,
      "##m": 123,
      "##s": 124,
      "##v": 125,
      "##̈": 126,
      "##,": 127,
      "##k": 128,
      "##p": 129,
      "##b": 130,
      "##ъ": 131,
      "##f": 132,
      "##;": 133,
      "##<": 134,
      "##.": 135,
      "##q": 136,
      "##-": 137,
      "##z": 138,
      "##j": 139,
      "##:": 140,
      "##(": 141,
      "##)": 142,
      "##_": 143,
      "##́": 144,
      "##!": 145,
      "##ст": 146,
      "##ен": 147,
      "##й": 148,
      "##ов": 149,
      "##ра": 150,
      "##но": 151,
      "##ро": 152,
      "##ан": 153,
      "##ре": 154,
      "##ал": 155,
      "##um": 156,
      "num": 157,
      "##од": 158,
      "##ет": 159,
      "##ер": 160,
      "##то": 161,
      "##ны": 162,
      "##ел": 163,
      "##ск": 164,
      "##ит": 165,
      "##ол": 166,
      "##ени": 167,
      "##го": 168,
      "##ат": 169,
      "##ил": 170,
      "##ом": 171,
      "##ри": 172,
      "##ни": 173,
      "##ств": 174,
      "##он": 175,
      "##ци": 176,
      "по": 177,
      "##ин": 178,
      "##ла": 179,
      "про": 180,
      "об": 181,
      "##ка": 182,
      "##ем": 183,
      "##ани": 184,
      "##ся": 185,
      "за": 186,
      "##ор": 187,
      "со": 188,
      "ра": 189,
      "##ед": 190,
      "на": 191,
      "##ос": 192,
      "##ми": 193,
      "##ек": 194,
      "##ей": 195,
      "##ру": 196,
      "##ото": 197,
      "##сти": 198,
      "##ар": 199,
      "##ред": 200,
      "##ель": 201,
      "##ти": 202,
      "##ки": 203,
      "##ой": 204,
      "##та": 205,
      "##на": 206,
      "##ли": 207,
      "год": 208,
      "##ров": 209,
      "##ных": 210,
      "##об": 211,
      "ре": 212,
      "##ения": 213,
      "##си": 214,
      "от": 215,
      "##ной": 216,
      "при": 217,
      "##ав": 218,
      "##че": 219,
      "ст": 220,
      "##ва": 221,
      "##ного": 222,
      "вы": 223,
      "##сп": 224,
      "##ски": 225,
      "##ого": 226,
      "##аль": 227,
      "##от": 228,
      "##ги": 229,
      "##ент": 230,
      "ком": 231,
      "##уб": 232,
      "##ры": 233,
      "фото": 234,
      "##али": 235,
      "##уд": 236,
      "##ам": 237,
      "##ать": 238,
      "##ков": 239,
      "##ку": 240,
      "##ев": 241,
      "##ный": 242,
      "##ение": 243,
      "##ные": 244,
      "пред": 245,
      "##рав": 246,
      "##ют": 247,
      "##оро": 248,
      "##ции": 249,
      "под": 250,
      "##да": 251,
      "пол": 252,
      "##или": 253,
      "##не": 254,
      "сл": 255,
      "##ль": 256,
      "##сть": 257,
      "##ко": 258,
      "##сс": 259,
      "ин": 260,
      "##ак": 261,
      "##ля": 262,
      "пре": 263,
      "##им": 264,
      "##зв": 265,
      "##ить": 266,
      "##итель": 267,
      "##ут": 268,
      "года": 269,
      "во": 270,
      "##став": 271,
      "##ча": 272,
      "##ую": 273,
      "##ест": 274,
      "##ож": 275,
      "рос": 276,
      "##оль": 277,
      "##ере": 278,
      "##ской": 279,
      "сп": 280,
      "##за": 281,
      "##сл": 282,
      "##ят": 283,
      "##ран": 284,
      "##ход": 285,
      "##ном": 286,
      "не": 287,
      "##ид": 288,
      "кон": 289,
      "св": 290,
      "кото": 291,
      "росси": 292,
      "##ется": 293,
      "##ным": 294,
      "##ера": 295,
      "##мен": 296,
      "##ще": 297,
      "##ствен": 298,
      "##ания": 299,
      "##ства": 300,
      "##ского": 301,
      "##ря": 302,
      "до": 303,
      "##ма": 304,
      "##ство": 305,
      "##щи": 306,
      "##га": 307,
      "##жд": 308,
      "руб": 309,
      "##ди": 310,
      "##ас": 311,
      "пер": 312,
      "##чи": 313,
      "##ур": 314,
      "##же": 315,
      "комп": 316,
      "##ности": 317,
      "##уп": 318,
      "##гра": 319,
      "##сто": 320,
      "##мер": 321,
      "##овы": 322,
      "##кт": 323,
      "##ши": 324,
      "##каз": 325,
      "гос": 326,
      "##тив": 327,
      "оп": 328,
      "##ность": 329,
      "##лек": 330,
      "##ное": 331,
      "##рат": 332,
      "из": 333,
      "ми": 334,
      "ка": 335,
      "##из": 336,
      "##ке": 337,
      "##ис": 338,
      "##нов": 339,
      "##уж": 340,
      "кра": 341,
      "##ска": 342,
      "сооб": 343,
      "##лен": 344,
      "##яб": 345,
      "мл": 346,
      "##ло": 347,
      "##ели": 348,
      "раз": 349,
      "##ала": 350,
      "##яв": 351,
      "##лю": 352,
      "мо": 353,
      "сообщ": 354,
      "##ме": 355,
      "##ня": 356,
      "это": 357,
      "##ез": 358,
      "году": 359,
      "так": 360,
      "##ина": 361,
      "ав": 362,
      "де": 363,
      "##рос": 364,
      "обла": 365,
      "##ении": 366,
      "##ании": 367,
      "раб": 368,
      "##вы": 369,
      "##прав": 370,
      "ос": 371,
      "##уч": 372,
      "##том": 373,
      "##ду": 374,
      "которы": 375,
      "##ле": 376,
      "воз": 377,
      "дол": 378,
      "##атель": 379,
      "суд": 380,
      "##ост": 381,
      "##ский": 382,
      ">-": 383,
      "##чен": 384,
      "объ": 385,
      "##ект": 386,
      "##ок": 387,
      "##ив": 388,
      "##ная": 389,
      "##ше": 390,
      "##ия": 391,
      "##сь": 392,
      "##гу": 393,
      "##мы": 394,
      "од": 395,
      "##цион": 396,
      "ты": 397,
      "##вер": 398,
      "##сан": 399,
      "##зов": 400,
      "##иль": 401,
      "##ание": 402,
      "##ила": 403,
      "эк": 404,
      "также": 405,
      "ли": 406,
      "##ром": 407,
      "реги": 408,
      "##оп": 409,
      "##вет": 410,
      "##са": 411,
      "сред": 412,
      "##er": 413,
      "##ября": 414,
      "##анов": 415,
      "ма": 416,
      "##ция": 417,
      "тыс": 418,
      "пере": 419,
      "##ител": 420,
      "##ступ": 421,
      "россии": 422,
      "те": 423,
      "##тор": 424,
      "ан": 425,
      "##гов": 426,
      "##па": 427,
      "##ик": 428,
      "##ских": 429,
      "ме": 430,
      "ак": 431,
      "регион": 432,
      "ар": 433,
      "ор": 434,
      "##стра": 435,
      "дан": 436,
      "##оз": 437,
      "##ает": 438,
      "##лав": 439,
      "нов": 440,
      "сент": 441,
      "##ета": 442,
      "##му": 443,
      "##рем": 444,
      "##ых": 445,
      "горо": 446,
      "та": 447,
      "области": 448,
      "##ерж": 449,
      "сто": 450,
      "##ную": 451,
      "уча": 452,
      "##при": 453,
      ",-": 454,
      "сов": 455,
      "млн": 456,
      "вла": 457,
      "прав": 458,
      "дел": 459,
      "##ском": 460,
      "##ало": 461,
      "лет": 462,
      "госп": 463,
      "##ений": 464,
      "##ве": 465,
      "зак": 466,
      "##рой": 467,
      "##фор": 468,
      "пл": 469,
      "##реб": 470,
      "сам": 471,
      "##зы": 472,
      "##ое": 473,
      "##ес": 474,
      "##ити": 475,
      "работ": 476,
      "##зу": 477,
      "нач": 478,
      "сентября": 479,
      "##ша": 480,
      "##род": 481,
      "##жи": 482,
      "##ления": 483,
      "##ников": 484,
      "сер": 485,
      "коммер": 486,
      "##ению": 487,
      "орг": 488,
      "##дел": 489,
      "##имо": 490,
      "##ним": 491,
      "ди": 492,
      "бан": 493,
      "исп": 494,
      "пров": 495,
      "обще": 496,
      "ча": 497,
      "заяв": 498,
      "соб": 499,
      "состав": 500,
      "##це": 501,
      "##але": 502,
      "##ус": 503,
      "##зи": 504,
      "##ща": 505,
      "зап": 506,
      "крас": 507,
      "##ви": 508,
      "реш": 509,
      "##ана": 510,
      "ок": 511,
      "##оло": 512,
      "през": 513,
      "##раб": 514,
      "##коно": 515,
      "получ": 516,
      "служ": 517,
      "##цию": 518,
      "##руп": 519,
      "##гла": 520,
      "##фи": 521,
      "презид": 522,
      "ук": 523,
      "##держ": 524,
      "##пол": 525,
      "разв": 526,
      "##тори": 527,
      "##ца": 528,
      "##ее": 529,
      "##ются": 530,
      "рф": 531,
      "##ист": 532,
      "рост": 533,
      "##ком": 534,
      "##ными": 535,
      "служб": 536,
      "ры": 537,
      "##ена": 538,
      "врем": 539,
      "##ай": 540,
      "мест": 541,
      "##оч": 542,
      "рас": 543,
      "су": 544,
      "##льт": 545,
      "россий": 546,
      "##ова": 547,
      "##ника": 548,
      "##год": 549,
      "след": 550,
      "господ": 551,
      "##ось": 552,
      "сво": 553,
      "##сант": 554,
      ">.": 555,
      "коммерсант": 556,
      "коммерсантъ": 557,
      "па": 558,
      "##ится": 559,
      "ста": 560,
      "нед": 561,
      "##есп": 562,
      "чел": 563,
      ").": 564,
      "##мет": 565,
      "##ющи": 566,
      "##ста": 567,
      "##изв": 568,
      "компании": 569,
      "алек": 570,
      "##ора": 571,
      "##те": 572,
      "стра": 573,
      "пом": 574,
      "##ены": 575,
      "долж": 576,
      "##ател": 577,
      "##вар": 578,
      "пресс": 579,
      "эксп": 580,
      "##яти": 581,
      "дом": 582,
      "цент": 583,
      "##ейств": 584,
      "##де": 585,
      "пар": 586,
      "уст": 587,
      "тер": 588,
      "##зд": 589,
      "ран": 590,
      "##ut": 591,
      "##ские": 592,
      "##пу": 593,
      "##сов": 594,
      "##про": 595,
      "##ну": 596,
      "тра": 597,
      "##ата": 598,
      "время": 599,
      "гра": 600,
      "##еч": 601,
      "##орт": 602,
      "кол": 603,
      "ответ": 604,
      "##аты": 605,
      "##грани": 606,
      "##ть": 607,
      "##рен": 608,
      "прод": 609,
      "##рд": 610,
      "##убли": 611,
      "га": 612,
      "##чит": 613,
      ">,": 614,
      "##ери": 615,
      "##ник": 616,
      "представ": 617,
      "стро": 618,
      "органи": 619,
      "##стве": 620,
      "##ники": 621,
      "##она": 622,
      "боль": 623,
      "##дар": 624,
      "произв": 625,
      "##ень": 626,
      "инт": 627,
      "re": 628,
      "##жа": 629,
      "вер": 630,
      "##нес": 631,
      "##след": 632,
      "##an": 633,
      "челов": 634,
      "##мест": 635,
      "ск": 636,
      "##рек": 637,
      "##би": 638,
      "##тора": 639,
      "ру": 640,
      "##сед": 641,
      "##ением": 642,
      "##циаль": 643,
      "##юд": 644,
      "ограни": 645,
      "##ностью": 646,
      "млрд": 647,
      "##тов": 648,
      "##ций": 649,
      "##ление": 650,
      "##руд": 651,
      "##ers": 652,
      "##вает": 653,
      "мар": 654,
      "##es": 655,
      "##ская": 656,
      "##ять": 657,
      "кар": 658,
      "##ar": 659,
      "##роп": 660,
      "ген": 661,
      "##яз": 662,
      "бы": 663,
      "тех": 664,
      "дру": 665,
      "фед": 666,
      "основ": 667,
      "##мож": 668,
      "##рован": 669,
      "проект": 670,
      "обра": 671,
      "##нач": 672,
      "приз": 673,
      "##ента": 674,
      "##стоя": 675,
      "ку": 676,
      "управ": 677,
      "##ате": 678,
      "мини": 679,
      "##ге": 680,
      "буд": 681,
      "##ью": 682,
      "фор": 683,
      "##се": 684,
      "##чет": 685,
      "производ": 686,
      "##мп": 687,
      "##мент": 688,
      "##ней": 689,
      "##аний": 690,
      "##uters": 691,
      "reuters": 692,
      "##истем": 693,
      "вед": 694,
      "прив": 695,
      "которые": 696,
      "прош": 697,
      "##иче": 698,
      "красно": 699,
      "гла": 700,
      "пов": 701,
      "##стру": 702,
      "пот": 703,
      "опера": 704,
      "##пл": 705,
      "##кой": 706,
      "##зации": 707,
      "рай": 708,
      "##ась": 709,
      "усл": 710,
      "расс": 711,
      "согла": 712,
      "новы": 713,
      "господин": 714,
      "систем": 715,
      "##бур": 716,
      "общество": 717,
      "##люч": 718,
      "ад": 719,
      "##шения": 720,
      "##ональ": 721,
      "се": 722,
      "биз": 723,
      "участ": 724,
      "##лож": 725,
      "(<": 726,
      "конт": 727,
      "##екта": 728,
      "уг": 729,
      "##ших": 730,
      "чи": 731,
      "##ках": 732,
      "рын": 733,
      "##ился": 734,
      "перв": 735,
      "ба": 736,
      "##бы": 737,
      "##ному": 738,
      "моск": 739,
      "ув": 740,
      "##лов": 741,
      "действ": 742,
      "мат": 743,
      "##су": 744,
      "деп": 745,
      "##ритори": 746,
      "территори": 747,
      "спе": 748,
      "##ителей": 749,
      "данным": 750,
      "ев": 751,
      "который": 752,
      "##ителя": 753,
      "##мот": 754,
      "направ": 755,
      "##аться": 756,
      "##ты": 757,
      "предпри": 758,
      "пе": 759,
      "му": 760,
      "##говор": 761,
      "##нер": 762,
      "выс": 763,
      "##форма": 764,
      "дв": 765,
      "##иту": 766,
      "##ило": 767,
      "##ераль": 768,
      "##ды": 769,
      "##шен": 770,
      "##удар": 771,
      "##сколь": 772,
      "сот": 773,
      "числ": 774,
      "##on": 775,
      "##кономи": 776,
      "без": 777,
      "пу": 778,
      "иск": 779,
      "##оне": 780,
      "показ": 781,
      "слов": 782,
      ">-<": 783,
      "вид": 784,
      "треб": 785,
      "##уча": 786,
      "фин": 787,
      "государ": 788,
      "послед": 789,
      "##дов": 790,
      "ранее": 791,
      "##вин": 792,
      "президент": 793,
      "вк": 794,
      "ту": 795,
      "##ования": 796,
      "##рий": 797,
      "ответствен": 798,
      "##работ": 799,
      "##ые": 800,
      "##гор": 801,
      "возмож": 802,
      "мин": 803,
      "рабо": 804,
      "##санд": 805,
      "),": 806,
      "кан": 807,
      "строитель": 808,
      "##прос": 809,
      "##еры": 810,
      "александ": 811,
      "пост": 812,
      "##виж": 813,
      "тран": 814,
      "ни": 815,
      "##вод": 816,
      "##ност": 817,
      "##мо": 818,
      "ва": 819,
      "исто": 820,
      "пло": 821,
      "##грам": 822,
      "одна": 823,
      "ки": 824,
      "##вести": 825,
      "ию": 826,
      "##ий": 827,
      "##ян": 828,
      "##ремен": 829,
      "отно": 830,
      "став": 831,
      "##in": 832,
      "гов": 833,
      "зд": 834,
      "отк": 835,
      ">)": 836,
      "ap": 837,
      "пет": 838,
      "##ству": 839,
      "##el": 840,
      "резу": 841,
      "дет": 842,
      "сотруд": 843,
      "кор": 844,
      "таки": 845,
      "##яс": 846,
      "дирек": 847,
      "##уры": 848,
      "города": 849,
      "сем": 850,
      "словам": 851,
      "##цы": 852,
      "отмет": 853,
      "созд": 854,
      "призн": 855,
      "##стре": 856,
      "##ским": 857,
      "служба": 858,
      "экономи": 859,
      "авгу": 860,
      "говор": 861,
      "результ": 862,
      "сни": 863,
      "тре": 864,
      "региона": 865,
      "##мат": 866,
      "пра": 867,
      "информа": 868,
      "ап": 869,
      "наход": 870,
      "##ался": 871,
      "##сси": 872,
      "##ятель": 873,
      "актив": 874,
      "##ковод": 875,
      "поддерж": 876,
      "исполь": 877,
      "##ый": 878,
      "##ший": 879,
      "банк": 880,
      "влади": 881,
      "гражд": 882,
      "глав": 883,
      "мод": 884,
      "други": 885,
      "площа": 886,
      "рек": 887,
      "яв": 888,
      "##ии": 889,
      "##цен": 890,
      "доб": 891,
      "##хран": 892,
      "автом": 893,
      "програм": 894,
      "##ита": 895,
      "##раж": 896,
      "##юдж": 897,
      ".,": 898,
      "куп": 899,
      "граждан": 900,
      "то": 901,
      "компания": 902,
      "правитель": 903,
      "##еты": 904,
      "руковод": 905,
      "финан": 906,
      "##ального": 907,
      "сша": 908,
      "##куп": 909,
      "пос": 910,
      "против": 911,
      "го": 912,
      "соот": 913,
      "мед": 914,
      "первы": 915,
      "##еров": 916,
      "##сии": 917,
      "расска": 918,
      "##ести": 919,
      "##щения": 920,
      "укра": 921,
      "##ниче": 922,
      "обвин": 923,
      "##мини": 924,
      "##полн": 925,
      "вод": 926,
      "са": 927,
      "##цев": 928,
      "сб": 929,
      "##ура": 930,
      "помо": 931,
      "бюдж": 932,
      "вопрос": 933,
      "##en": 934,
      "сообщает": 935,
      "##нут": 936,
      "##or": 937,
      "круп": 938,
      "##вают": 939,
      "кред": 940,
      "краснодар": 941,
      "##ха": 942,
      "минист": 943,
      "депут": 944,
      "ле": 945,
      "##стан": 946,
      "увели": 947,
      "владими": 948,
      "соответ": 949,
      "##ляет": 950,
      "ограничен": 951,
      "ви": 952,
      "##олов": 953,
      "необ": 954,
      "##твер": 955,
      "обесп": 956,
      "##лем": 957,
      "##ях": 958,
      "##иться": 959,
      "##ряд": 960,
      "вз": 961,
      "##мента": 962,
      "бизнес": 963,
      "##рей": 964,
      "##рии": 965,
      "расп": 966,
      "края": 967,
      "##сы": 968,
      "ведом": 969,
      "-<": 970,
      "установ": 971,
      "проду": 972,
      "предлож": 973,
      "город": 974,
      "##имость": 975,
      "человек": 976,
      "##рет": 977,
      "##олж": 978,
      "экспер": 979,
      "того": 980,
      "##щей": 981,
      "##шего": 982,
      "явля": 983,
      "уров": 984,
      "несколь": 985,
      "##енных": 986,
      "##ровать": 987,
      "реали": 988,
      "меся": 989,
      "##министра": 990,
      "доро": 991,
      "##al": 992,
      "нап": 993,
      "однако": 994,
      "##сте": 995,
      "##лект": 996,
      "бесп": 997,
      "груп": 998,
      "##ым": 999,
      "работа": 1000,
      "##дин": 1001,
      "##ске": 1002,
      "объект": 1003,
      "вос": 1004,
      "кв": 1005,
      "##нет": 1006,
      "##нее": 1007,
      "сан": 1008,
      "##точ": 1009,
      "работы": 1010,
      "мет": 1011,
      "ве": 1012,
      "кла": 1013,
      "кры": 1014,
      "##ину": 1015,
      "случа": 1016,
      "мог": 1017,
      "##нии": 1018,
      "##анию": 1019,
      "##ались": 1020,
      "##овых": 1021,
      "##аны": 1022,
      "позв": 1023,
      "##ему": 1024,
      "сум": 1025,
      "##ние": 1026,
      "законо": 1027,
      "##иб": 1028,
      "кро": 1029,
      "##ний": 1030,
      "##ие": 1031,
      "##шлен": 1032,
      "матери": 1033,
      "##стов": 1034,
      "##ерна": 1035,
      "##мышлен": 1036,
      "##ух": 1037,
      "##шение": 1038,
      "##шении": 1039,
      "площад": 1040,
      "##лед": 1041,
      "##ители": 1042,
      "выступ": 1043,
      "перед": 1044,
      "респ": 1045,
      "фи": 1046,
      "ал": 1047,
      "ко": 1048,
      "числе": 1049,
      "купить": 1050,
      "счит": 1051,
      "##орта": 1052,
      "инвести": 1053,
      "необход": 1054,
      "зани": 1055,
      "##кол": 1056,
      "больш": 1057,
      "петер": 1058,
      "лю": 1059,
      "уд": 1060,
      "##ници": 1061,
      "##гиче": 1062,
      "администра": 1063,
      "мак": 1064,
      "откры": 1065,
      "ата": 1066,
      "##ая": 1067,
      "объем": 1068,
      "около": 1069,
      "##ороне": 1070,
      "сообщил": 1071,
      "глава": 1072,
      "трансп": 1073,
      "позвол": 1074,
      "##et": 1075,
      "##еж": 1076,
      "##режд": 1077,
      "##рует": 1078,
      "губ": 1079,
      "дев": 1080,
      "##алось": 1081,
      "федераль": 1082,
      "##строй": 1083,
      "сек": 1084,
      "##иод": 1085,
      "заявил": 1086,
      "##курат": 1087,
      "филь": 1088,
      "##рт": 1089,
      "##лет": 1090,
      "##пы": 1091,
      "##бу": 1092,
      "петербур": 1093,
      "кли": 1094,
      "##am": 1095,
      "##еле": 1096,
      "комплек": 1097,
      "##ателя": 1098,
      "чер": 1099,
      "прошл": 1100,
      "ответственностью": 1101,
      "александр": 1102,
      "период": 1103,
      "##опас": 1104,
      "ограниченной": 1105,
      "вс": 1106,
      "мен": 1107,
      "полити": 1108,
      "бел": 1109,
      "уч": 1110,
      "##вед": 1111,
      "отме": 1112,
      "аэ": 1113,
      "ито": 1114,
      "прода": 1115,
      "приня": 1116,
      "доку": 1117,
      "гот": 1118,
      "сдел": 1119,
      "тор": 1120,
      "##во": 1121,
      "##ено": 1122,
      "наб": 1123,
      "но": 1124,
      "ян": 1125,
      "##слав": 1126,
      "##уна": 1127,
      "плани": 1128,
      "губерна": 1129,
      "##ье": 1130,
      "##ья": 1131,
      "использов": 1132,
      "банкро": 1133,
      "том": 1134,
      "##скую": 1135,
      "##щего": 1136,
      "территории": 1137,
      "предприяти": 1138,
      "акт": 1139,
      "##вать": 1140,
      "##вис": 1141,
      "##ине": 1142,
      "собствен": 1143,
      "услов": 1144,
      "оказ": 1145,
      "стал": 1146,
      "##хов": 1147,
      "интер": 1148,
      "среди": 1149,
      "рассказ": 1150,
      "##мит": 1151,
      "##стро": 1152,
      "##емон": 1153,
      "инф": 1154,
      "дома": 1155,
      "нару": 1156,
      "центра": 1157,
      "будут": 1158,
      "ситу": 1159,
      "авто": 1160,
      "автомоб": 1161,
      "увелич": 1162,
      "элект": 1163,
      "председ": 1164,
      "##ились": 1165,
      "организа": 1166,
      "республи": 1167,
      "окт": 1168,
      "сказ": 1169,
      "сторо": 1170,
      "ситуа": 1171,
      "##пи": 1172,
      "##альной": 1173,
      "сро": 1174,
      "выб": 1175,
      "анд": 1176,
      "##варти": 1177,
      "особ": 1178,
      "быв": 1179,
      "поб": 1180,
      "рам": 1181,
      "проф": 1182,
      "пут": 1183,
      "##нем": 1184,
      "##ума": 1185,
      "##стри": 1186,
      "##ующи": 1187,
      "безопас": 1188,
      "обяз": 1189,
      "встре": 1190,
      "##цу": 1191,
      "межд": 1192,
      "##имости": 1193,
      "специ": 1194,
      "##ясн": 1195,
      "день": 1196,
      "##оров": 1197,
      "развити": 1198,
      "уголов": 1199,
      "##ународ": 1200,
      "международ": 1201,
      "шт": 1202,
      "##дет": 1203,
      "##страд": 1204,
      "част": 1205,
      "##дель": 1206,
      "##ум": 1207,
      "свя": 1208,
      "повы": 1209,
      "пострад": 1210,
      "мом": 1211,
      "##ития": 1212,
      "##ати": 1213,
      "##ительно": 1214,
      "##ское": 1215,
      "промышлен": 1216,
      "##особ": 1217,
      "##шие": 1218,
      "##ющих": 1219,
      "вороне": 1220,
      "знач": 1221,
      "мол": 1222,
      "##крат": 1223,
      "##илась": 1224,
      "данных": 1225,
      "дмит": 1226,
      "ост": 1227,
      "##ун": 1228,
      "##ба": 1229,
      "деятель": 1230,
      "вто": 1231,
      "ри": 1232,
      "тем": 1233,
      "##редел": 1234,
      "измен": 1235,
      "бо": 1236,
      "##ких": 1237,
      "пи": 1238,
      "сил": 1239,
      "##инов": 1240,
      "завер": 1241,
      "отмеча": 1242,
      "эта": 1243,
      "##гей": 1244,
      "##ния": 1245,
      "состоя": 1246,
      "решение": 1247,
      "несколько": 1248,
      "бла": 1249,
      "##ma": 1250,
      "##итета": 1251,
      "##илось": 1252,
      "##ками": 1253,
      "##ентов": 1254,
      "зна": 1255,
      "##вал": 1256,
      "##чер": 1257,
      "сообщили": 1258,
      "##гии": 1259,
      "##цесс": 1260,
      "потреб": 1261,
      "##кта": 1262,
      "##альных": 1263,
      "сергей": 1264,
      "аг": 1265,
      "проб": 1266,
      "##него": 1267,
      "каче": 1268,
      "испол": 1269,
      "##ством": 1270,
      "доход": 1271,
      "специали": 1272,
      "кур": 1273,
      "##анием": 1274,
      "##вается": 1275,
      "поль": 1276,
      "развития": 1277,
      "##годня": 1278,
      "сегодня": 1279,
      "является": 1280,
      "рамках": 1281,
      "##ракт": 1282,
      "##ствов": 1283,
      "власти": 1284,
      "вол": 1285,
      "##сно": 1286,
      "##енно": 1287,
      "участи": 1288,
      "##илот": 1289,
      "##город": 1290,
      "##ноло": 1291,
      "##готов": 1292,
      "##ец": 1293,
      "##рая": 1294,
      "##ствия": 1295,
      "спрос": 1296,
      "трамп": 1297,
      "зем": 1298,
      "сет": 1299,
      "##жим": 1300,
      "##итет": 1301,
      "процесс": 1302,
      "##чень": 1303,
      "кроме": 1304,
      "##ует": 1305,
      "##торов": 1306,
      "постав": 1307,
      "##ожд": 1308,
      "акцион": 1309,
      "##шей": 1310,
      "зам": 1311,
      "засед": 1312,
      "##альный": 1313,
      "которых": 1314,
      "топ": 1315,
      "##тиров": 1316,
      "ход": 1317,
      "##ук": 1318,
      "ник": 1319,
      "фак": 1320,
      "цел": 1321,
      "##тиче": 1322,
      "##ятся": 1323,
      "государствен": 1324,
      "##ссий": 1325,
      "род": 1326,
      "##овской": 1327,
      "##люча": 1328,
      "дональ": 1329,
      "##вор": 1330,
      "президента": 1331,
      "##ош": 1332,
      "##атив": 1333,
      "объяв": 1334,
      "новоро": 1335,
      "высо": 1336,
      "##жен": 1337,
      "##ющий": 1338,
      "##ателей": 1339,
      "##датель": 1340,
      "режим": 1341,
      "##ro": 1342,
      "конф": 1343,
      "закон": 1344,
      "макси": 1345,
      "##их": 1346,
      "наз": 1347,
      "##тии": 1348,
      "конку": 1349,
      "нало": 1350,
      "##овые": 1351,
      "дело": 1352,
      "еди": 1353,
      "##тин": 1354,
      "окру": 1355,
      "директор": 1356,
      "вмест": 1357,
      "рей": 1358,
      "##яче": 1359,
      "##енд": 1360,
      "отра": 1361,
      "##ходит": 1362,
      "амер": 1363,
      "##аг": 1364,
      "##лены": 1365,
      "новороссий": 1366,
      "ци": 1367,
      "стан": 1368,
      "задерж": 1369,
      "которая": 1370,
      "беспилот": 1371,
      "цен": 1372,
      "##ах": 1373,
      "средств": 1374,
      "результате": 1375,
      "соответств": 1376,
      "дмитрий": 1377,
      "им": 1378,
      "##стран": 1379,
      "##ектив": 1380,
      "недвиж": 1381,
      "кредит": 1382,
      "обеспеч": 1383,
      "кам": 1384,
      "##кции": 1385,
      "##служ": 1386,
      "заключ": 1387,
      "провер": 1388,
      "меди": 1389,
      "сочи": 1390,
      "перс": 1391,
      "изв": 1392,
      "вяче": 1393,
      "гол": 1394,
      "##гам": 1395,
      "##чных": 1396,
      "##бит": 1397,
      "##руют": 1398,
      "коман": 1399,
      "часть": 1400,
      "могут": 1401,
      "нуж": 1402,
      "школ": 1403,
      "##остав": 1404,
      "связ": 1405,
      "образов": 1406,
      "жиз": 1407,
      "клю": 1408,
      "ули": 1409,
      "защ": 1410,
      "которо": 1411,
      "##ябре": 1412,
      "техноло": 1413,
      "##уще": 1414,
      "##фф": 1415,
      "##алась": 1416,
      "контро": 1417,
      "бюджет": 1418,
      "егор": 1419,
      "##ту": 1420,
      "##цией": 1421,
      "краснодарского": 1422,
      "##зе": 1423,
      "##щим": 1424,
      "##ческих": 1425,
      "интере": 1426,
      "огранич": 1427,
      "тури": 1428,
      "акционер": 1429,
      "ключе": 1430,
      "фон": 1431,
      "##нению": 1432,
      "сохран": 1433,
      "стоимость": 1434,
      "дела": 1435,
      "##ех": 1436,
      "##рия": 1437,
      "отказ": 1438,
      "сниж": 1439,
      "##ано": 1440,
      "##кин": 1441,
      "дости": 1442,
      "страны": 1443,
      "##структ": 1444,
      "##таб": 1445,
      "компаний": 1446,
      "##исал": 1447,
      "рынка": 1448,
      "двух": 1449,
      "законодатель": 1450,
      "гор": 1451,
      "##сков": 1452,
      "вячеслав": 1453,
      "куб": 1454,
      "эти": 1455,
      "прог": 1456,
      "социаль": 1457,
      "прин": 1458,
      "прак": 1459,
      "иг": 1460,
      "очень": 1461,
      "счет": 1462,
      "четы": 1463,
      "##ева": 1464,
      "##чной": 1465,
      "##енные": 1466,
      "плат": 1467,
      "проблем": 1468,
      "##кам": 1469,
      "культ": 1470,
      "отметил": 1471,
      "побед": 1472,
      "суб": 1473,
      "##кра": 1474,
      "проекта": 1475,
      "##обод": 1476,
      "нез": 1477,
      "арт": 1478,
      "количе": 1479,
      "оператив": 1480,
      "услу": 1481,
      "добав": 1482,
      "он": 1483,
      "##пад": 1484,
      "оцен": 1485,
      "пал": 1486,
      "пока": 1487,
      "продолж": 1488,
      "акционерное": 1489,
      "снет": 1490,
      "##eg": 1491,
      "##кат": 1492,
      "##ческой": 1493,
      "##ческого": 1494,
      "совет": 1495,
      "важ": 1496,
      "банкрот": 1497,
      "безопасности": 1498,
      "снетков": 1499,
      "зат": 1500,
      "прокурат": 1501,
      "назв": 1502,
      "изра": 1503,
      "##есси": 1504,
      "августе": 1505,
      "владимир": 1506,
      "ит": 1507,
      "име": 1508,
      "произ": 1509,
      "##над": 1510,
      "##рования": 1511,
      "управления": 1512,
      "рынке": 1513,
      "##рь": 1514,
      "челове": 1515,
      "отношении": 1516,
      "ло": 1517,
      "оон": 1518,
      "##них": 1519,
      "##кие": 1520,
      "##еб": 1521,
      "##is": 1522,
      "##роб": 1523,
      "кад": 1524,
      "кварти": 1525,
      "ря": 1526,
      "усп": 1527,
      "##вид": 1528,
      "##яет": 1529,
      "способ": 1530,
      "документ": 1531,
      "си": 1532,
      "област": 1533,
      "сервис": 1534,
      "##it": 1535,
      "##альные": 1536,
      "инв": 1537,
      "разработ": 1538,
      "##щая": 1539,
      "утвер": 1540,
      "##атов": 1541,
      "проц": 1542,
      "##вая": 1543,
      "выпу": 1544,
      "##ственного": 1545,
      "##муще": 1546,
      "других": 1547,
      "фран": 1548,
      "слож": 1549,
      "воронеж": 1550,
      "жен": 1551,
      "##рал": 1552,
      "нас": 1553,
      "арбит": 1554,
      "циф": 1555,
      "много": 1556,
      "сы": 1557,
      "уни": 1558,
      "##ями": 1559,
      "##енной": 1560,
      "подчер": 1561,
      "определ": 1562,
      "##икан": 1563,
      "фигу": 1564,
      "исполн": 1565,
      "вним": 1566,
      "##яж": 1567,
      "покуп": 1568,
      "неф": 1569,
      "публи": 1570,
      "тур": 1571,
      "появ": 1572,
      "##сса": 1573,
      "доступ": 1574,
      "организации": 1575,
      "бал": 1576,
      "оче": 1577,
      "сев": 1578,
      "##щение": 1579,
      "##ствие": 1580,
      "поступ": 1581,
      "аэроп": 1582,
      "##нок": 1583,
      "раст": 1584,
      "нес": 1585,
      "бли": 1586,
      "й": 1587,
      "энер": 1588,
      "##раз": 1589,
      "##атели": 1590,
      "замест": 1591,
      "##руется": 1592,
      "изб": 1593,
      "суда": 1594,
      "включа": 1595,
      "##ur": 1596,
      "##раструкт": 1597,
      "предостав": 1598,
      "конц": 1599,
      "##рате": 1600,
      "сф": 1601,
      "##оре": 1602,
      "##уст": 1603,
      "##ям": 1604,
      "##алов": 1605,
      "россия": 1606,
      "деся": 1607,
      "системы": 1608,
      "инфраструкт": 1609,
      "андрей": 1610,
      "##ерин": 1611,
      "нек": 1612,
      "час": 1613,
      "люд": 1614,
      "мэ": 1615,
      "мно": 1616,
      "поли": 1617,
      "##жисс": 1618,
      "четыре": 1619,
      "##шим": 1620,
      "подготов": 1621,
      "##ляр": 1622,
      "##щих": 1623,
      "условия": 1624,
      "сез": 1625,
      "тел": 1626,
      "##чно": 1627,
      "##ol": 1628,
      "совер": 1629,
      "максим": 1630,
      "срав": 1631,
      "##суд": 1632,
      "##лей": 1633,
      "##ram": 1634,
      "##пит": 1635,
      "##орож": 1636,
      "свер": 1637,
      "виде": 1638,
      "времен": 1639,
      "гу": 1640,
      "##ага": 1641,
      "приговор": 1642,
      "##матри": 1643,
      "имуще": 1644,
      "лид": 1645,
      "готов": 1646,
      "американ": 1647,
      "вп": 1648,
      "зв": 1649,
      "##еро": 1650,
      "##лу": 1651,
      "кажд": 1652,
      "согласно": 1653,
      "извест": 1654,
      "арбитраж": 1655,
      "вой": 1656,
      "##ами": 1657,
      "режисс": 1658,
      "дополн": 1659,
      "ави": 1660,
      "провод": 1661,
      "произош": 1662,
      "##ально": 1663,
      "##чив": 1664,
      "возду": 1665,
      "начала": 1666,
      "транспорт": 1667,
      "##ыт": 1668,
      "##амб": 1669,
      "источ": 1670,
      "сказал": 1671,
      "поэ": 1672,
      "##тия": 1673,
      "##ственно": 1674,
      "аль": 1675,
      "жил": 1676,
      "жителей": 1677,
      "##енный": 1678,
      "обрат": 1679,
      "напри": 1680,
      "##ницип": 1681,
      "человека": 1682,
      "инвест": 1683,
      "например": 1684,
      "tel": 1685,
      "мор": 1686,
      "офи": 1687,
      "##чь": 1688,
      "##бо": 1689,
      "##руж": 1690,
      "##гиб": 1691,
      "свобод": 1692,
      "дека": 1693,
      "провед": 1694,
      "иност": 1695,
      "ха": 1696,
      "##ман": 1697,
      "##един": 1698,
      "##прияти": 1699,
      "министр": 1700,
      "люб": 1701,
      "связи": 1702,
      "teleg": 1703,
      "иностран": 1704,
      "дж": 1705,
      "оста": 1706,
      "##сли": 1707,
      "##лении": 1708,
      "##кну": 1709,
      "екат": 1710,
      "погиб": 1711,
      "##кий": 1712,
      "муницип": 1713,
      "декаб": 1714,
      "жиль": 1715,
      "хот": 1716,
      "зад": 1717,
      "##ваем": 1718,
      "составляет": 1719,
      "цифров": 1720,
      "telegram": 1721,
      "##рил": 1722,
      "проис": 1723,
      "прич": 1724,
      "стали": 1725,
      "газ": 1726,
      "молод": 1727,
      "медици": 1728,
      "рез": 1729,
      "##дает": 1730,
      "которой": 1731,
      "требования": 1732,
      "кино": 1733,
      "фильма": 1734,
      "момент": 1735,
      "жел": 1736,
      "отдел": 1737,
      "конце": 1738,
      "средства": 1739,
      "##озя": 1740,
      "предприним": 1741,
      "##ледов": 1742,
      "рассказал": 1743,
      "##ровали": 1744,
      "##щий": 1745,
      "арх": 1746,
      "считает": 1747,
      "##сей": 1748,
      "##луб": 1749,
      "##ec": 1750,
      "##лад": 1751,
      "прибы": 1752,
      "помощ": 1753,
      "деятельности": 1754,
      "вал": 1755,
      "коро": 1756,
      "нор": 1757,
      "##пла": 1758,
      "##шли": 1759,
      "##овой": 1760,
      "##раф": 1761,
      "поряд": 1762,
      "##град": 1763,
      "итогам": 1764,
      "нев": 1765,
      "точ": 1766,
      "ул": 1767,
      "чет": 1768,
      "экс": 1769,
      "лиш": 1770,
      "информации": 1771,
      "дональд": 1772,
      "официаль": 1773,
      "уточ": 1774,
      "совета": 1775,
      "европ": 1776,
      "крылов": 1777,
      "январ": 1778,
      "##инг": 1779,
      "стар": 1780,
      "##тому": 1781,
      "новых": 1782,
      ">),": 1783,
      "защит": 1784,
      "движ": 1785,
      "##мь": 1786,
      "##шел": 1787,
      "порт": 1788,
      "регу": 1789,
      "выполн": 1790,
      "арен": 1791,
      "части": 1792,
      "##читы": 1793,
      "районе": 1794,
      "##мотр": 1795,
      "занима": 1796,
      "республики": 1797,
      "октября": 1798,
      "конкур": 1799,
      "ром": 1800,
      "управля": 1801,
      "новые": 1802,
      "корп": 1803,
      "ведомства": 1804,
      "губернатор": 1805,
      "автомобил": 1806,
      "фигуран": 1807,
      "зан": 1808,
      "##чение": 1809,
      "##шая": 1810,
      "решения": 1811,
      "санкт": 1812,
      "##mag": 1813,
      "персональ": 1814,
      "сай": 1815,
      "##еш": 1816,
      "##лся": 1817,
      "##ic": 1818,
      "##тором": 1819,
      "заб": 1820,
      "завод": 1821,
      "господина": 1822,
      "федера": 1823,
      "требов": 1824,
      "апре": 1825,
      "брен": 1826,
      "имен": 1827,
      "##ич": 1828,
      "выход": 1829,
      "возв": 1830,
      "анало": 1831,
      "место": 1832,
      "прогно": 1833,
      "очеред": 1834,
      "см": 1835,
      "ярос": 1836,
      "##рор": 1837,
      "трам": 1838,
      "остав": 1839,
      "##роприяти": 1840,
      "##неса": 1841,
      "котором": 1842,
      "мероприяти": 1843,
      "евг": 1844,
      "правительства": 1845,
      "объектов": 1846,
      "централь": 1847,
      "недвижимости": 1848,
      "исс": 1849,
      "##цени": 1850,
      "##ещ": 1851,
      "##ентом": 1852,
      "##ань": 1853,
      "пож": 1854,
      "##кая": 1855,
      "##дается": 1856,
      "##лена": 1857,
      "суще": 1858,
      "генпро": 1859,
      "случае": 1860,
      "ярослав": 1861,
      "эфф": 1862,
      "пок": 1863,
      "наиб": 1864,
      "право": 1865,
      "такие": 1866,
      "лег": 1867,
      "сверд": 1868,
      "нем": 1869,
      "##чные": 1870,
      "##йти": 1871,
      "предла": 1872,
      "разм": 1873,
      "российских": 1874,
      "пун": 1875,
      "поэтому": 1876,
      "##ости": 1877,
      "##уш": 1878,
      "##сты": 1879,
      "поясн": 1880,
      "##руз": 1881,
      "подтвер": 1882,
      "инди": 1883,
      "##рать": 1884,
      "##люд": 1885,
      "получил": 1886,
      "рынок": 1887,
      "коллек": 1888,
      "заним": 1889,
      "пострадав": 1890,
      "вместе": 1891,
      "st": 1892,
      "все": 1893,
      "мил": 1894,
      "сод": 1895,
      "##щем": 1896,
      "##ваются": 1897,
      "парла": 1898,
      "поврежд": 1899,
      "бизнеса": 1900,
      "администрации": 1901,
      "комплекс": 1902,
      "мас": 1903,
      "##ают": 1904,
      "##еп": 1905,
      "##енного": 1906,
      "##анд": 1907,
      "##ерт": 1908,
      "##лив": 1909,
      "##кова": 1910,
      "полу": 1911,
      "##щее": 1912,
      "##инами": 1913,
      "самол": 1914,
      "##ющие": 1915,
      "должен": 1916,
      "проектов": 1917,
      "обязатель": 1918,
      "свердлов": 1919,
      "ох": 1920,
      "##чный": 1921,
      "##анных": 1922,
      "##ница": 1923,
      "оборо": 1924,
      "##руч": 1925,
      "##лись": 1926,
      "##ительных": 1927,
      "спор": 1928,
      "миха": 1929,
      "##нова": 1930,
      "##лено": 1931,
      "разме": 1932,
      "района": 1933,
      "первый": 1934,
      "торгов": 1935,
      "тат": 1936,
      "указ": 1937,
      "вырос": 1938,
      "подроб": 1939,
      "преступ": 1940,
      "##рабаты": 1941,
      "##ett": 1942,
      "конфли": 1943,
      "##озяй": 1944,
      "##пис": 1945,
      "##аров": 1946,
      "стало": 1947,
      "превы": 1948,
      "каз": 1949,
      "главы": 1950,
      "правительство": 1951,
      "заседании": 1952,
      "жив": 1953,
      "##реги": 1954,
      "##урн": 1955,
      "парт": 1956,
      "imag": 1957,
      "аре": 1958,
      "ремон": 1959,
      "##кан": 1960,
      "##онов": 1961,
      "национ": 1962,
      "настоя": 1963,
      "##дают": 1964,
      "лиц": 1965,
      "современ": 1966,
      "генераль": 1967,
      "угро": 1968,
      "канале": 1969,
      "находится": 1970,
      "внимание": 1971,
      "аб": 1972,
      "внут": 1973,
      "даль": 1974,
      "пять": 1975,
      "тру": 1976,
      "##at": 1977,
      "договор": 1978,
      "миров": 1979,
      "банков": 1980,
      "буду": 1981,
      "нужно": 1982,
      "##еринбур": 1983,
      "екатеринбур": 1984,
      "кри": 1985,
      "муж": 1986,
      "ут": 1987,
      "мир": 1988,
      "роста": 1989,
      "##ess": 1990,
      "специаль": 1991,
      "трех": 1992,
      "электро": 1993,
      "images": 1994,
      "нет": 1995,
      "тек": 1996,
      "##лия": 1997,
      "отправ": 1998,
      "##скими": 1999,
      "##мун": 2000,
      "##скому": 2001,
      "службе": 2002,
      "алексей": 2003,
      "образ": 2004,
      "новый": 2005,
      "действия": 2006,
      "гости": 2007,
      "стороны": 2008,
      "журн": 2009,
      "##ереж": 2010,
      "необходим": 2011,
      "##сут": 2012,
      "##рев": 2013,
      "##ону": 2014,
      "одной": 2015,
      "составила": 2016,
      "центре": 2017,
      "сниз": 2018,
      "министер": 2019,
      "месяцев": 2020,
      "группы": 2021,
      "ава": 2022,
      "##ционной": 2023,
      "своем": 2024,
      "развитие": 2025,
      "ожи": 2026,
      "##ете": 2027,
      "##ому": 2028,
      "##ниц": 2029,
      "##ческий": 2030,
      "сообщила": 2031,
      "обвиня": 2032,
      "жизни": 2033,
      "дов": 2034,
      "ис": 2035,
      "##il": 2036,
      "##ерб": 2037,
      "просто": 2038,
      "##арь": 2039,
      "стала": 2040,
      "строительство": 2041,
      "финансов": 2042,
      "бюджета": 2043,
      "продаж": 2044,
      "бло": 2045,
      "иници": 2046,
      "##лять": 2047,
      "##езд": 2048,
      "своей": 2049,
      "клауд": 2050,
      "ден": 2051,
      "##уру": 2052,
      "##ины": 2053,
      "##рания": 2054,
      "##оруд": 2055,
      "опубли": 2056,
      "анал": 2057,
      "##икси": 2058,
      "регионального": 2059,
      "отмечает": 2060,
      "которого": 2061,
      "подчеркну": 2062,
      "людей": 2063,
      "именно": 2064,
      "опубликов": 2065,
      "##сур": 2066,
      "##станов": 2067,
      "##елоп": 2068,
      "инстру": 2069,
      "##ктов": 2070,
      "заверш": 2071,
      "размере": 2072,
      "ду": 2073,
      "##гли": 2074,
      "##лась": 2075,
      "сократ": 2076,
      "комитета": 2077,
      "предус": 2078,
      "##ствует": 2079,
      "семь": 2080,
      "атаки": 2081,
      "благо": 2082,
      "вне": 2083,
      "##охран": 2084,
      "##дид": 2085,
      "стран": 2086,
      "страте": 2087,
      "премь": 2088,
      "годах": 2089,
      "##аса": 2090,
      "течение": 2091,
      "закры": 2092,
      "запре": 2093,
      "искус": 2094,
      "кандид": 2095,
      "строительства": 2096,
      "агент": 2097,
      "аналоги": 2098,
      "татар": 2099,
      "gett": 2100,
      "кр": 2101,
      "ла": 2102,
      "оф": 2103,
      "##лон": 2104,
      "##бе": 2105,
      "##la": 2106,
      "соп": 2107,
      "над": 2108,
      "##вые": 2109,
      "банка": 2110,
      "напом": 2111,
      "количество": 2112,
      "getty": 2113,
      "ус": 2114,
      "##пот": 2115,
      "##олее": 2116,
      "москвы": 2117,
      "##горь": 2118,
      "программы": 2119,
      "финанси": 2120,
      "сумму": 2121,
      "персональных": 2122,
      "сель": 2123,
      "фун": 2124,
      "##вали": 2125,
      "##рую": 2126,
      "##ави": 2127,
      "полном": 2128,
      "капит": 2129,
      "объекта": 2130,
      "материале": 2131,
      "многи": 2132,
      "an": 2133,
      "би": 2134,
      "км": 2135,
      "кре": 2136,
      "меры": 2137,
      "юж": 2138,
      "##ером": 2139,
      "##боль": 2140,
      "поз": 2141,
      "пример": 2142,
      "предпол": 2143,
      "расход": 2144,
      "свои": 2145,
      "возможность": 2146,
      "бпла": 2147,
      "гри": 2148,
      "луч": 2149,
      "##дом": 2150,
      "##нима": 2151,
      "нового": 2152,
      "треть": 2153,
      "штраф": 2154,
      "имп": 2155,
      "кру": 2156,
      "##лин": 2157,
      "##чного": 2158,
      "##di": 2159,
      "зада": 2160,
      "приоб": 2161,
      "выстав": 2162,
      "доля": 2163,
      "судеб": 2164,
      "##ченко": 2165,
      "центр": 2166,
      "прошлого": 2167,
      ".-": 2168,
      "тю": 2169,
      "штаб": 2170,
      "##еру": 2171,
      "городе": 2172,
      "ростовской": 2173,
      "производства": 2174,
      "истори": 2175,
      ">).": 2176,
      "ходе": 2177,
      "назнач": 2178,
      "атом": 2179,
      "##оны": 2180,
      "##лением": 2181,
      "##ток": 2182,
      "пози": 2183,
      "застрой": 2184,
      "годы": 2185,
      "##стоятель": 2186,
      "привле": 2187,
      "распол": 2188,
      "земель": 2189,
      "зел": 2190,
      "роз": 2191,
      "силь": 2192,
      "тон": 2193,
      "##итай": 2194,
      "оборуд": 2195,
      "##аря": 2196,
      "примен": 2197,
      "свое": 2198,
      "##овый": 2199,
      "работу": 2200,
      "артем": 2201,
      "процед": 2202,
      "федерации": 2203,
      "трампа": 2204,
      "дав": 2205,
      "оцени": 2206,
      "тро": 2207,
      "##енко": 2208,
      "обна": 2209,
      "госду": 2210,
      "##фиц": 2211,
      "##проект": 2212,
      "государства": 2213,
      "ниже": 2214,
      "другие": 2215,
      "професси": 2216,
      "ограничения": 2217,
      "некото": 2218,
      "роман": 2219,
      "аналити": 2220,
      "вв": 2221,
      "кат": 2222,
      "лени": 2223,
      "труд": 2224,
      "##ват": 2225,
      "обл": 2226,
      "теат": 2227,
      "июле": 2228,
      "признал": 2229,
      "уровне": 2230,
      "частности": 2231,
      "палест": 2232,
      "чем": 2233,
      "##ган": 2234,
      "##бор": 2235,
      "##арта": 2236,
      "##евра": 2237,
      "подход": 2238,
      "месте": 2239,
      "августа": 2240,
      "всем": 2241,
      "голос": 2242,
      "##кет": 2243,
      "раза": 2244,
      "##ровано": 2245,
      "##ственный": 2246,
      "##ози": 2247,
      "##форм": 2248,
      "российского": 2249,
      "форума": 2250,
      "контракт": 2251,
      "первом": 2252,
      "девелоп": 2253,
      "менее": 2254,
      "включая": 2255,
      "января": 2256,
      "фили": 2257,
      "##есть": 2258,
      "##op": 2259,
      "##ницы": 2260,
      "попу": 2261,
      "##ственных": 2262,
      "рублей": 2263,
      "##лючен": 2264,
      "госпож": 2265,
      "##ологиче": 2266,
      "кардин": 2267,
      "деньги": 2268,
      "воздуш": 2269,
      "корпора": 2270,
      "лу": 2271,
      "мал": 2272,
      "##мени": 2273,
      "##щие": 2274,
      "постро": 2275,
      "говорит": 2276,
      "председатель": 2277,
      "уголовное": 2278,
      "израиль": 2279,
      "##регистри": 2280,
      "вн": 2281,
      "игорь": 2282,
      "ссы": 2283,
      "ущ": 2284,
      "##груз": 2285,
      "##st": 2286,
      "##онч": 2287,
      "зарегистри": 2288,
      "##орд": 2289,
      "##начен": 2290,
      "##альная": 2291,
      "спб": 2292,
      "перм": 2293,
      "службы": 2294,
      "##уществ": 2295,
      "эффектив": 2296,
      "идет": 2297,
      "ог": 2298,
      "февра": 2299,
      "разре": 2300,
      "##окой": 2301,
      "##ивать": 2302,
      "регионе": 2303,
      "форми": 2304,
      "число": 2305,
      "таких": 2306,
      "##нуть": 2307,
      "участие": 2308,
      "медицин": 2309,
      "четвер": 2310,
      "гиб": 2311,
      "##рения": 2312,
      "##лений": 2313,
      "##вой": 2314,
      "##раль": 2315,
      "##ети": 2316,
      "##олжа": 2317,
      "##онд": 2318,
      "запад": 2319,
      "соз": 2320,
      "отд": 2321,
      "подряд": 2322,
      "##ственной": 2323,
      "##няя": 2324,
      "продолжа": 2325,
      "участников": 2326,
      "обеспе": 2327,
      "аэропорт": 2328,
      ".)": 2329,
      "фут": 2330,
      "хозяй": 2331,
      "##лев": 2332,
      "##чное": 2333,
      "##ско": 2334,
      "##тий": 2335,
      "дефиц": 2336,
      "одного": 2337,
      "тасс": 2338,
      "гаран": 2339,
      "включ": 2340,
      "пользов": 2341,
      "внес": 2342,
      "введ": 2343,
      "##ющей": 2344,
      "простран": 2345,
      "конс": 2346,
      "изд": 2347,
      "расши": 2348,
      "должность": 2349,
      "рассматри": 2350,
      "##ностей": 2351,
      "##ent": 2352,
      "##тически": 2353,
      "свободы": 2354,
      "ru": 2355,
      "ана": 2356,
      "клуб": 2357,
      "ти": 2358,
      "тов": 2359,
      "уби": 2360,
      "реб": 2361,
      "##зация": 2362,
      "данные": 2363,
      "музы": 2364,
      "эксперт": 2365,
      "наиболее": 2366,
      "предлага": 2367,
      "бол": 2368,
      "смо": 2369,
      "хи": 2370,
      "##лению": 2371,
      "##энер": 2372,
      "полож": 2373,
      "##акон": 2374,
      "спас": 2375,
      "осуществ": 2376,
      "##верс": 2377,
      "##ессии": 2378,
      "пуга": 2379,
      "креди": 2380,
      "предприятия": 2381,
      "изменения": 2382,
      "отрасли": 2383,
      "арбитражный": 2384,
      "свердловской": 2385,
      "некоторы": 2386,
      "вступ": 2387,
      "дня": 2388,
      "жителя": 2389,
      "##шений": 2390,
      "##ъем": 2391,
      "##торы": 2392,
      "##ником": 2393,
      "##оры": 2394,
      "##ческие": 2395,
      "##ительный": 2396,
      "консу": 2397,
      "##овым": 2398,
      "совмест": 2399,
      "владель": 2400,
      "##фици": 2401,
      "должны": 2402,
      "детей": 2403,
      "учрежд": 2404,
      "кардинале": 2405,
      "един": 2406,
      "##ню": 2407,
      "##дут": 2408,
      "ради": 2409,
      "##рукт": 2410,
      "##сий": 2411,
      "##рыв": 2412,
      "неп": 2413,
      "следует": 2414,
      "тради": 2415,
      "ставки": 2416,
      "срок": 2417,
      "благод": 2418,
      "содерж": 2419,
      "гру": 2420,
      "оле": 2421,
      "##нь": 2422,
      "##нин": 2423,
      "##наб": 2424,
      "##сия": 2425,
      "план": 2426,
      "июля": 2427,
      "сотрудников": 2428,
      "экономики": 2429,
      "реализации": 2430,
      "переда": 2431,
      "председателя": 2432,
      "качестве": 2433,
      "##городской": 2434,
      "обнаруж": 2435,
      "пяти": 2436,
      "трен": 2437,
      "ши": 2438,
      "##сб": 2439,
      "##фа": 2440,
      "##кого": 2441,
      "намер": 2442,
      "##ительной": 2443,
      "##ительные": 2444,
      "мощ": 2445,
      "ноября": 2446,
      "сети": 2447,
      "целом": 2448,
      "практи": 2449,
      "незакон": 2450,
      "бере": 2451,
      "вес": 2452,
      "пав": 2453,
      "##нев": 2454,
      "##пр": 2455,
      "##пе": 2456,
      "##зор": 2457,
      "##ot": 2458,
      "##un": 2459,
      "##ig": 2460,
      "##гос": 2461,
      "##рование": 2462,
      "##дирек": 2463,
      "тай": 2464,
      "ближ": 2465,
      "пугаче": 2466,
      "ив": 2467,
      "ль": 2468,
      "##ыше": 2469,
      "##щен": 2470,
      "##рана": 2471,
      "прос": 2472,
      "стать": 2473,
      "страна": 2474,
      "депутаты": 2475,
      "метал": 2476,
      "никол": 2477,
      "прокуратура": 2478,
      "михаил": 2479,
      "бен": 2480,
      "демон": 2481,
      "##гля": 2482,
      "##фе": 2483,
      "##ела": 2484,
      "структ": 2485,
      "##альном": 2486,
      "полностью": 2487,
      "преми": 2488,
      "возра": 2489,
      "делу": 2490,
      "заявление": 2491,
      "версии": 2492,
      "##and": 2493,
      "москве": 2494,
      "##ясня": 2495,
      "депутат": 2496,
      "актри": 2497,
      "женщ": 2498,
      "универс": 2499,
      "сравнению": 2500,
      "лишь": 2501,
      "вик": 2502,
      "динами": 2503,
      "##лы": 2504,
      "##чу": 2505,
      "##жения": 2506,
      "##шки": 2507,
      "свыше": 2508,
      "времени": 2509,
      "марш": 2510,
      "привлек": 2511,
      "сег": 2512,
      "говорится": 2513,
      "модель": 2514,
      "петербург": 2515,
      "второй": 2516,
      "теку": 2517,
      "al": 2518,
      "бор": 2519,
      "ноч": 2520,
      "пон": 2521,
      "##уре": 2522,
      "##мин": 2523,
      "##пов": 2524,
      "##хи": 2525,
      "обслуж": 2526,
      "выпл": 2527,
      "объедин": 2528,
      "##шее": 2529,
      "выпуск": 2530,
      "кос": 2531,
      "сми": 2532,
      "тр": 2533,
      "фести": 2534,
      "##со": 2535,
      "##воз": 2536,
      "##разу": 2537,
      "российской": 2538,
      "гендирек": 2539,
      "район": 2540,
      "восстанов": 2541,
      "рейтин": 2542,
      "субъ": 2543,
      "популяр": 2544,
      "убий": 2545,
      "китай": 2546,
      "суп": 2547,
      "юри": 2548,
      "проход": 2549,
      "обы": 2550,
      "обнов": 2551,
      "ресур": 2552,
      "принад": 2553,
      "##ссамб": 2554,
      "##жды": 2555,
      "мира": 2556,
      "само": 2557,
      "получили": 2558,
      "домов": 2559,
      "скоро": 2560,
      "использу": 2561,
      "архит": 2562,
      "живот": 2563,
      "ленин": 2564,
      "ссыл": 2565,
      "принадле": 2566,
      "##вд": 2567,
      "##щую": 2568,
      "##he": 2569,
      "##ницу": 2570,
      "сокра": 2571,
      "##зацию": 2572,
      "область": 2573,
      "ростов": 2574,
      "эксплу": 2575,
      "техниче": 2576,
      "рассмотр": 2577,
      "финанс": 2578,
      "крупней": 2579,
      "остается": 2580,
      "офис": 2581,
      "##ссамбле": 2582,
      "иде": 2583,
      "кате": 2584,
      "##лат": 2585,
      "##шин": 2586,
      "##ul": 2587,
      "##анные": 2588,
      "##кации": 2589,
      "заказ": 2590,
      "##енты": 2591,
      "##ког": 2592,
      "##лял": 2593,
      "спис": 2594,
      "запрос": 2595,
      "##струк": 2596,
      "права": 2597,
      "эксперты": 2598,
      "необходимо": 2599,
      "внед": 2600,
      "маршру": 2601,
      "катего": 2602,
      "вход": 2603,
      "пев": 2604,
      "##енции": 2605,
      "##нос": 2606,
      "##оруж": 2607,
      "##ровал": 2608,
      "выдел": 2609,
      "##ждения": 2610,
      "##графи": 2611,
      "край": 2612,
      "одним": 2613,
      "плате": 2614,
      "колле": 2615,
      "оперативный": 2616,
      "насел": 2617,
      "сфере": 2618,
      "внутрен": 2619,
      "дро": 2620,
      "дней": 2621,
      "мень": 2622,
      "ном": 2623,
      "удар": 2624,
      "##оси": 2625,
      "##зад": 2626,
      "##ителем": 2627,
      "анто": 2628,
      "##никам": 2629,
      "##рополь": 2630,
      "##мотря": 2631,
      "здания": 2632,
      "украине": 2633,
      "городской": 2634,
      "уровень": 2635,
      "позволяет": 2636,
      "бывший": 2637,
      "гост": 2638,
      "учет": 2639,
      "отдель": 2640,
      "##евой": 2641,
      "разли": 2642,
      "своих": 2643,
      "скр": 2644,
      "последние": 2645,
      "бизнесмен": 2646,
      "ситуация": 2647,
      "силу": 2648,
      "парламента": 2649,
      "винов": 2650,
      "писал": 2651,
      "рус": 2652,
      "ска": 2653,
      "##ьез": 2654,
      "##рид": 2655,
      "лишения": 2656,
      "масс": 2657,
      "газа": 2658,
      "возможности": 2659,
      "восем": 2660,
      "снижение": 2661,
      "несмотря": 2662,
      "евгений": 2663,
      "исследов": 2664,
      "располож": 2665,
      "ат": 2666,
      "взы": 2667,
      "пам": 2668,
      "##мур": 2669,
      "##етов": 2670,
      "##еля": 2671,
      "годам": 2672,
      "выше": 2673,
      "мошен": 2674,
      "переговор": 2675,
      "##форми": 2676,
      "сумма": 2677,
      "губернатора": 2678,
      "технологи": 2679,
      "культур": 2680,
      "партнер": 2681,
      "образом": 2682,
      "да": 2683,
      "##as": 2684,
      "##чном": 2685,
      "##жных": 2686,
      "##бин": 2687,
      "обсу": 2688,
      "закуп": 2689,
      "комис": 2690,
      "инст": 2691,
      "достав": 2692,
      "получила": 2693,
      "неделе": 2694,
      "представитель": 2695,
      "потен": 2696,
      "сотрудники": 2697,
      "таким": 2698,
      "прошлом": 2699,
      "налог": 2700,
      "беспилотников": 2701,
      "условиях": 2702,
      "клаудия": 2703,
      "мнению": 2704,
      "цены": 2705,
      "##ег": 2706,
      "##ed": 2707,
      "##риан": 2708,
      "##едж": 2709,
      "##тива": 2710,
      "##ким": 2711,
      "годом": 2712,
      "студ": 2713,
      "станов": 2714,
      "##ственные": 2715,
      "начина": 2716,
      "постанов": 2717,
      "ставрополь": 2718,
      "украин": 2719,
      "продукции": 2720,
      "спроса": 2721,
      "банкротства": 2722,
      "север": 2723,
      "заня": 2724,
      "оль": 2725,
      "##рит": 2726,
      "##ac": 2727,
      "выд": 2728,
      "спорт": 2729,
      "##зано": 2730,
      "свой": 2731,
      "крае": 2732,
      "серьез": 2733,
      "##никами": 2734,
      "следствия": 2735,
      "карт": 2736,
      "первую": 2737,
      "алла": 2738,
      "алког": 2739,
      "организаций": 2740,
      "интерес": 2741,
      "заместитель": 2742,
      "уточн": 2743,
      "европей": 2744,
      "конфликта": 2745,
      "застройщи": 2746,
      "палестин": 2747,
      "ссылкой": 2748,
      "вели": 2749,
      "игра": 2750,
      "сим": 2751,
      "уп": 2752,
      "эп": 2753,
      "##ации": 2754,
      "##цов": 2755,
      "##зма": 2756,
      "##ion": 2757,
      "##той": 2758,
      "назад": 2759,
      "речь": 2760,
      "подпис": 2761,
      "допу": 2762,
      "##дии": 2763,
      "##сток": 2764,
      "начале": 2765,
      "составил": 2766,
      "интерв": 2767,
      "интернет": 2768,
      "специалистов": 2769,
      "характ": 2770,
      "зелен": 2771,
      "консуль": 2772,
      "эксплуата": 2773,
      "вд": 2774,
      "ввод": 2775,
      "нд": 2776,
      "##очи": 2777,
      "##коб": 2778,
      "##ервые": 2779,
      "поч": 2780,
      "назы": 2781,
      "##кое": 2782,
      "опас": 2783,
      "организов": 2784,
      "##бир": 2785,
      "затем": 2786,
      "впервые": 2787,
      "милли": 2788,
      "масш": 2789,
      "подчеркнул": 2790,
      "благодаря": 2791,
      "вра": 2792,
      "прил": 2793,
      "тяж": 2794,
      "##ап": 2795,
      "##жей": 2796,
      "##бол": 2797,
      "нам": 2798,
      "природ": 2799,
      "выяв": 2800,
      "полов": 2801,
      "каза": 2802,
      "##ционных": 2803,
      "либо": 2804,
      "руководитель": 2805,
      "законопроект": 2806,
      "этих": 2807,
      "спортив": 2808,
      "взыск": 2809,
      "три": 2810,
      "##глав": 2811,
      "##ече": 2812,
      "##дер": 2813,
      "##зем": 2814,
      "##шев": 2815,
      "обуч": 2816,
      "обработ": 2817,
      "##емых": 2818,
      "##рова": 2819,
      "сообщал": 2820,
      "сентябре": 2821,
      "пара": 2822,
      "потер": 2823,
      "месяц": 2824,
      "объекты": 2825,
      "##точно": 2826,
      "люди": 2827,
      "удмур": 2828,
      "##бужд": 2829,
      "политики": 2830,
      "улице": 2831,
      "услуг": 2832,
      "##виду": 2833,
      "подробнее": 2834,
      "позже": 2835,
      "чемпи": 2836,
      "коло": 2837,
      "пат": 2838,
      "сол": 2839,
      "##яется": 2840,
      "сою": 2841,
      "стаб": 2842,
      "алексе": 2843,
      "проекты": 2844,
      "участники": 2845,
      "действий": 2846,
      "##мотре": 2847,
      "исключ": 2848,
      "рабочи": 2849,
      "украины": 2850,
      "вице": 2851,
      "предложения": 2852,
      "##alo": 2853,
      "фильм": 2854,
      "##ующих": 2855,
      "движения": 2856,
      "восемь": 2857,
      "интервью": 2858,
      "ож": 2859,
      "член": 2860,
      "##чей": 2861,
      "##om": 2862,
      "##ющим": 2863,
      "##яна": 2864,
      "##ование": 2865,
      "##омен": 2866,
      "##рин": 2867,
      "соц": 2868,
      "наде": 2869,
      "##евых": 2870,
      "конца": 2871,
      "одно": 2872,
      "регионов": 2873,
      "самых": 2874,
      "обращ": 2875,
      "ниж": 2876,
      "помощи": 2877,
      "##ссажи": 2878,
      "жилья": 2879,
      "апреле": 2880,
      "очередь": 2881,
      "ближай": 2882,
      "ге": 2883,
      "дра": 2884,
      "пен": 2885,
      "уф": 2886,
      "удов": 2887,
      "хол": 2888,
      "что": 2889,
      "##ерн": 2890,
      "##гом": 2891,
      "посколь": 2892,
      "зар": 2893,
      "отчет": 2894,
      "##альян": 2895,
      "##кую": 2896,
      "осв": 2897,
      "лик": 2898,
      "##зыв": 2899,
      "следую": 2900,
      "направления": 2901,
      "директора": 2902,
      "площадью": 2903,
      "назначен": 2904,
      "игро": 2905,
      "инфраструктуры": 2906,
      "прибыль": 2907,
      "сайте": 2908,
      "поскольку": 2909,
      "ch": 2910,
      "ман": 2911,
      "пят": 2912,
      "ред": 2913,
      "уче": 2914,
      "урал": 2915,
      "##чин": 2916,
      "##йн": 2917,
      "наш": 2918,
      "наказ": 2919,
      "##альным": 2920,
      "##альное": 2921,
      "комитет": 2922,
      "подоб": 2923,
      "спи": 2924,
      "персп": 2925,
      "возглав": 2926,
      "возбужд": 2927,
      "##ционный": 2928,
      "##ечения": 2929,
      "представители": 2930,
      "дорож": 2931,
      "удалось": 2932,
      "транспорта": 2933,
      "##летвор": 2934,
      "петербурга": 2935,
      "планируется": 2936,
      "##ующий": 2937,
      "##ождения": 2938,
      "образователь": 2939,
      "полномочи": 2940,
      "вак": 2941,
      "зол": 2942,
      "теле": 2943,
      "##оци": 2944,
      "##гар": 2945,
      "##чным": 2946,
      "##ноб": 2947,
      "##атиче": 2948,
      "##рина": 2949,
      "замет": 2950,
      "##кипа": 2951,
      "приор": 2952,
      "##ляют": 2953,
      "прекра": 2954,
      "##ительного": 2955,
      "##ябрь": 2956,
      "работе": 2957,
      "пассажи": 2958,
      "устой": 2959,
      "карто": 2960,
      "##рованных": 2961,
      "транс": 2962,
      "программ": 2963,
      "большин": 2964,
      "ситуации": 2965,
      "бывшего": 2966,
      "пострадали": 2967,
      "генпрокурат": 2968,
      "предполага": 2969,
      "пугачева": 2970,
      "аз": 2971,
      "увер": 2972,
      "шк": 2973,
      "##сек": 2974,
      "##устрой": 2975,
      "##стреб": 2976,
      "##ане": 2977,
      "отли": 2978,
      "инжен": 2979,
      "свет": 2980,
      "доста": 2981,
      "анти": 2982,
      "департа": 2983,
      "истории": 2984,
      "первым": 2985,
      "набереж": 2986,
      "этим": 2987,
      "имеет": 2988,
      "функ": 2989,
      "зарпл": 2990,
      "бра": 2991,
      "две": 2992,
      "мвд": 2993,
      "нат": 2994,
      "оформ": 2995,
      "пла": 2996,
      "физ": 2997,
      "шесть": 2998,
      "##зм": 2999,
      "##oc": 3000,
      "##ющего": 3001,
      "##буд": 3002,
      "##рава": 3003,
      "##ело": 3004,
      "попы": 3005,
      "рав": 3006,
      "##лимп": 3007,
      "приход": 3008,
      "степ": 3009,
      "которую": 3010,
      "судов": 3011,
      "началь": 3012,
      "страхов": 3013,
      "призна": 3014,
      "первого": 3015,
      "здание": 3016,
      "аппа": 3017,
      "##ледования": 3018,
      "секрет": 3019,
      "##ующие": 3020,
      "ключевы": 3021,
      "итальян": 3022,
      "успеш": 3023,
      "декабря": 3024,
      "хотя": 3025,
      "желез": 3026,
      "индивиду": 3027,
      "пострадавших": 3028,
      "тонн": 3029,
      "госпожа": 3030,
      "бу": 3031,
      "гл": 3032,
      "сессии": 3033,
      "##ув": 3034,
      "##чс": 3035,
      "##овать": 3036,
      "##анной": 3037,
      "##лья": 3038,
      "неболь": 3039,
      "##езда": 3040,
      "##ционного": 3041,
      "участвов": 3042,
      "запас": 3043,
      "получить": 3044,
      "##ателем": 3045,
      "устрой": 3046,
      "##рованы": 3047,
      "курор": 3048,
      "александра": 3049,
      "gr": 3050,
      "бар": 3051,
      "вас": 3052,
      "влия": 3053,
      "лав": 3054,
      "смер": 3055,
      "сразу": 3056,
      "хоро": 3057,
      "чинов": 3058,
      "##ывает": 3059,
      "##что": 3060,
      "##йдет": 3061,
      "отече": 3062,
      "##варе": 3063,
      "подоз": 3064,
      "арм": 3065,
      "деле": 3066,
      "запу": 3067,
      "##овая": 3068,
      "пад": 3069,
      "краснода": 3070,
      "отметили": 3071,
      "работают": 3072,
      "топли": 3073,
      "которое": 3074,
      "израил": 3075,
      "имущества": 3076,
      "крити": 3077,
      "профессиональ": 3078,
      "##энерго": 3079,
      "уб": 3080,
      "цель": 3081,
      "##дек": 3082,
      "##хани": 3083,
      "##енным": 3084,
      "##рост": 3085,
      "##анс": 3086,
      "##онт": 3087,
      "отсут": 3088,
      "прием": 3089,
      "предвар": 3090,
      "##част": 3091,
      "##сад": 3092,
      "работать": 3093,
      "места": 3094,
      "помимо": 3095,
      "больше": 3096,
      "министра": 3097,
      "производство": 3098,
      "москов": 3099,
      "поддержки": 3100,
      "рекомен": 3101,
      "документа": 3102,
      "особенно": 3103,
      "пиш": 3104,
      "кадров": 3105,
      "инструмент": 3106,
      "премьер": 3107,
      "многие": 3108,
      "сц": 3109,
      "тать": 3110,
      "цена": 3111,
      "чист": 3112,
      "##ещения": 3113,
      "##ad": 3114,
      "##of": 3115,
      "поп": 3116,
      "##едения": 3117,
      "стат": 3118,
      "##отов": 3119,
      "##гули": 3120,
      "новости": 3121,
      "стоит": 3122,
      "серге": 3123,
      "запрет": 3124,
      "работает": 3125,
      "менедж": 3126,
      "режима": 3127,
      "округа": 3128,
      "услуги": 3129,
      "отдых": 3130,
      "перспектив": 3131,
      "гена": 3132,
      "##ыми": 3133,
      "##фикси": 3134,
      "##оли": 3135,
      "поправ": 3136,
      "зафикси": 3137,
      "раск": 3138,
      "получа": 3139,
      "начал": 3140,
      "##тории": 3141,
      "##орах": 3142,
      "ответственности": 3143,
      "новороссийск": 3144,
      "новороссийске": 3145,
      "автомобилей": 3146,
      "пояснил": 3147,
      "дальней": 3148,
      "обеспечи": 3149,
      "мошенниче": 3150,
      "in": 3151,
      "дени": 3152,
      "мчс": 3153,
      "нью": 3154,
      "##яют": 3155,
      "##анный": 3156,
      "##таж": 3157,
      "##ороны": 3158,
      "##числ": 3159,
      "опыт": 3160,
      "изъ": 3161,
      "верхов": 3162,
      "##стоян": 3163,
      "первой": 3164,
      "сарат": 3165,
      "крупных": 3166,
      "федерального": 3167,
      "январе": 3168,
      "путин": 3169,
      "обеспечения": 3170,
      "турни": 3171,
      "требований": 3172,
      "бренда": 3173,
      "своего": 3174,
      "архитект": 3175,
      "принадлеж": 3176,
      "ндс": 3177,
      "удовлетвор": 3178,
      "br": 3179,
      "вет": 3180,
      "вза": 3181,
      "низ": 3182,
      "пит": 3183,
      "син": 3184,
      "##шает": 3185,
      "##яли": 3186,
      "##стана": 3187,
      "##овал": 3188,
      "##анка": 3189,
      "##цид": 3190,
      "прот": 3191,
      "общей": 3192,
      "##руем": 3193,
      "отмен": 3194,
      "предуп": 3195,
      "справ": 3196,
      "миноб": 3197,
      "переход": 3198,
      "общего": 3199,
      "составит": 3200,
      "российские": 3201,
      "##ектак": 3202,
      "вариан": 3203,
      "июне": 3204,
      "продукт": 3205,
      "инвестиций": 3206,
      "##вартир": 3207,
      "промышленности": 3208,
      "##валя": 3209,
      "часов": 3210,
      "погибли": 3211,
      "декабре": 3212,
      "помощь": 3213,
      "труда": 3214,
      "обслужив": 3215,
      "чемпион": 3216,
      "генассамбле": 3217,
      "ипот": 3218,
      "там": 3219,
      "##соб": 3220,
      "##вя": 3221,
      "##ерни": 3222,
      "науч": 3223,
      "наслед": 3224,
      "выруч": 3225,
      "##ализи": 3226,
      "военно": 3227,
      "##ябин": 3228,
      "сообщении": 3229,
      "тыся": 3230,
      "##анова": 3231,
      "чаще": 3232,
      "челябин": 3233,
      "##бират": 3234,
      "вино": 3235,
      "административ": 3236,
      "бори": 3237,
      "логи": 3238,
      "десят": 3239,
      "совершен": 3240,
      "возвра": 3241,
      "ремонт": 3242,
      "примерно": 3243,
      "подрядчи": 3244,
      "сегмент": 3245,
      "mar": 3246,
      "зал": 3247,
      "пря": 3248,
      "ско": 3249,
      "учиты": 3250,
      "##фо": 3251,
      "##ph": 3252,
      "##рах": 3253,
      "##реп": 3254,
      "##сло": 3255,
      "россию": 3256,
      "##зыва": 3257,
      "составе": 3258,
      "следствие": 3259,
      "стране": 3260,
      "привод": 3261,
      "здоров": 3262,
      "находятся": 3263,
      "вопросы": 3264,
      "владимира": 3265,
      "итоге": 3266,
      "обязан": 3267,
      "состоянии": 3268,
      "известно": 3269,
      "кандидат": 3270,
      "меньше": 3271,
      "учетом": 3272,
      "памят": 3273,
      "житель": 3274,
      "олимп": 3275,
      "пля": 3276,
      "##жу": 3277,
      "##лады": 3278,
      "##отой": 3279,
      "отход": 3280,
      "слева": 3281,
      "##остро": 3282,
      "закона": 3283,
      "президентом": 3284,
      "управление": 3285,
      "активно": 3286,
      "посет": 3287,
      "сбор": 3288,
      "ведомство": 3289,
      "позволит": 3290,
      "комплекса": 3291,
      "продажи": 3292,
      "нарушения": 3293,
      "отмечают": 3294,
      "пользу": 3295,
      "контроль": 3296,
      "добавил": 3297,
      "нефте": 3298,
      "режиссер": 3299,
      "иностранных": 3300,
      "защиты": 3301,
      "ярославской": 3302,
      "журнали": 3303,
      "инициатив": 3304,
      "смог": 3305,
      "попыт": 3306,
      "минобороны": 3307,
      "вину": 3308,
      "ото": 3309,
      "пис": 3310,
      "цере": 3311,
      "##уют": 3312,
      "##пании": 3313,
      "##кина": 3314,
      "##идет": 3315,
      "сотрудниче": 3316,
      "август": 3317,
      "посел": 3318,
      "уровня": 3319,
      "санк": 3320,
      "риа": 3321,
      "вместо": 3322,
      "имени": 3323,
      "технологиче": 3324,
      "утвержд": 3325,
      "уничто": 3326,
      "моря": 3327,
      "##градской": 3328,
      "татарстан": 3329,
      "дефицит": 3330,
      "ребен": 3331,
      "льго": 3332,
      "вред": 3333,
      "как": 3334,
      "съем": 3335,
      "худ": 3336,
      "##ию": 3337,
      "##os": 3338,
      "##uc": 3339,
      "##енности": 3340,
      "##одейств": 3341,
      "постоян": 3342,
      "приб": 3343,
      "##авать": 3344,
      "##уда": 3345,
      "спектак": 3346,
      "стол": 3347,
      "органа": 3348,
      "решений": 3349,
      "следов": 3350,
      "экспози": 3351,
      "показе": 3352,
      "отношения": 3353,
      "депутатов": 3354,
      "распро": 3355,
      "организация": 3356,
      "октябре": 3357,
      "школы": 3358,
      "францу": 3359,
      "воронежской": 3360,
      "энерг": 3361,
      "надзор": 3362,
      "бенз": 3363,
      "ауд": 3364,
      "мер": 3365,
      "нали": 3366,
      "оз": 3367,
      "ого": 3368,
      "ро": 3369,
      "роль": 3370,
      "уз": 3371,
      "цб": 3372,
      "##ицы": 3373,
      "##лан": 3374,
      "##фин": 3375,
      "##эн": 3376,
      "пои": 3377,
      "##лам": 3378,
      "##основ": 3379,
      "##ары": 3380,
      "ресто": 3381,
      "комфор": 3382,
      "инцид": 3383,
      "прев": 3384,
      "спорта": 3385,
      "##ерами": 3386,
      "маг": 3387,
      "май": 3388,
      "столи": 3389,
      "пари": 3390,
      "операции": 3391,
      "пути": 3392,
      "руководителя": 3393,
      "наблюд": 3394,
      "достиг": 3395,
      "практически": 3396,
      "происше": 3397,
      "преступления": 3398,
      "соцс": 3399,
      "взаим": 3400,
      "ам": 3401,
      "бак": 3402,
      "сн": 3403,
      "хам": 3404,
      "##смен": 3405,
      "##уне": 3406,
      "##лось": 3407,
      "##ясь": 3408,
      "##эк": 3409,
      "##рон": 3410,
      "##сят": 3411,
      "##тие": 3412,
      "##тами": 3413,
      "призв": 3414,
      "вок": 3415,
      "справа": 3416,
      "##щиков": 3417,
      "механи": 3418,
      "заксоб": 3419,
      "##виг": 3420,
      "показатель": 3421,
      "создание": 3422,
      "дороги": 3423,
      "большой": 3424,
      "банкротом": 3425,
      "дональда": 3426,
      "конфер": 3427,
      "правоохран": 3428,
      "денеж": 3429,
      "колонии": 3430,
      "алексея": 3431,
      "приоритет": 3432,
      ">:": 3433,
      "асс": 3434,
      "бук": 3435,
      "геро": 3436,
      "жк": 3437,
      "лит": 3438,
      "ом": 3439,
      "сх": 3440,
      "твор": 3441,
      "##ики": 3442,
      "##ra": 3443,
      "##чета": 3444,
      "##ier": 3445,
      "##анк": 3446,
      "##скор": 3447,
      "##кар": 3448,
      "накан": 3449,
      "какие": 3450,
      "##ленных": 3451,
      "среду": 3452,
      "##ard": 3453,
      "евро": 3454,
      "семей": 3455,
      "нескольких": 3456,
      "месяца": 3457,
      "всей": 3458,
      "наблю": 3459,
      "развитию": 3460,
      "соответствую": 3461,
      "образования": 3462,
      "платфор": 3463,
      "йор": 3464,
      "пожар": 3465,
      "коллекции": 3466,
      "госдумы": 3467,
      "достаточно": 3468,
      "накануне": 3469,
      "влож": 3470,
      "тенд": 3471,
      "фоне": 3472,
      "ша": 3473,
      "эва": 3474,
      "##ость": 3475,
      "##елей": 3476,
      "##рус": 3477,
      "##там": 3478,
      "##курор": 3479,
      "спуст": 3480,
      "доказ": 3481,
      "перевоз": 3482,
      "англи": 3483,
      "новоси": 3484,
      "страх": 3485,
      "техники": 3486,
      "площади": 3487,
      "соответственно": 3488,
      "ведомстве": 3489,
      "реализов": 3490,
      "веро": 3491,
      "сделать": 3492,
      "предприятий": 3493,
      "повышение": 3494,
      "ключевой": 3495,
      "квартир": 3496,
      "причин": 3497,
      "сопров": 3498,
      "феврале": 3499,
      "##гляд": 3500,
      "актриса": 3501,
      "церемо": 3502,
      "распростран": 3503,
      "француз": 3504,
      "дере": 3505,
      "лок": 3506,
      "##гин": 3507,
      "##пп": 3508,
      "##чем": 3509,
      "##хоз": 3510,
      "##ъяв": 3511,
      "##итик": 3512,
      "зах": 3513,
      "состо": 3514,
      "выра": 3515,
      "##ительным": 3516,
      "возник": 3517,
      "регистра": 3518,
      "мая": 3519,
      "участок": 3520,
      "##зывает": 3521,
      "##ерий": 3522,
      "расследов": 3523,
      "экономического": 3524,
      "модерни": 3525,
      "продук": 3526,
      "материал": 3527,
      "петербурге": 3528,
      "автомобиль": 3529,
      "уголовного": 3530,
      "промышленного": 3531,
      "замед": 3532,
      "задержали": 3533,
      "кадр": 3534,
      "екатеринбурга": 3535,
      "мужч": 3536,
      "думы": 3537,
      "стратегиче": 3538,
      "футбол": 3539,
      "борь": 3540,
      "стабиль": 3541,
      "ес": 3542,
      "##они": 3543,
      "##лн": 3544,
      "##жев": 3545,
      "##ждает": 3546,
      "##того": 3547,
      "##ите": 3548,
      "нато": 3549,
      "##ссов": 3550,
      "инду": 3551,
      "##уть": 3552,
      "лица": 3553,
      "##говора": 3554,
      "##есед": 3555,
      "быстро": 3556,
      "система": 3557,
      "признан": 3558,
      "празд": 3559,
      "депутата": 3560,
      "фир": 3561,
      "станет": 3562,
      "соответствии": 3563,
      "назвал": 3564,
      "задолж": 3565,
      "пункт": 3566,
      "обвиняем": 3567,
      "трлн": 3568,
      "супру": 3569,
      "обсужд": 3570,
      "удмуртии": 3571,
      "пишет": 3572,
      "новосибир": 3573,
      "ben": 3574,
      "ну": 3575,
      "трав": 3576,
      "уре": 3577,
      "##уме": 3578,
      "##фести": 3579,
      "##яр": 3580,
      "##стер": 3581,
      "##торе": 3582,
      "##оля": 3583,
      "пох": 3584,
      "##оснаб": 3585,
      "слова": 3586,
      "долгос": 3587,
      "##ционные": 3588,
      "тепл": 3589,
      "часто": 3590,
      "##ang": 3591,
      "форм": 3592,
      "черно": 3593,
      "международного": 3594,
      "проблемы": 3595,
      "каждый": 3596,
      "кинофести": 3597,
      "приобрет": 3598,
      "худож": 3599,
      "эваку": 3600,
      "долгосро": 3601,
      "the": 3602,
      "астра": 3603,
      "боб": 3604,
      "дрей": 3605,
      "кров": 3606,
      "моб": 3607,
      "ори": 3608,
      "пак": 3609,
      "сена": 3610,
      "умер": 3611,
      "##жение": 3612,
      "##щении": 3613,
      "##le": 3614,
      "##кад": 3615,
      "замен": 3616,
      "восто": 3617,
      "##гами": 3618,
      "компен": 3619,
      "опти": 3620,
      "одном": 3621,
      "##сах": 3622,
      "среднем": 3623,
      "краснов": 3624,
      "оконч": 3625,
      "доме": 3626,
      "москва": 3627,
      "регионах": 3628,
      "вече": 3629,
      "считают": 3630,
      "налогов": 3631,
      "туристи": 3632,
      "культуры": 3633,
      "незави": 3634,
      "воронежского": 3635,
      "порядка": 3636,
      "невоз": 3637,
      "уточня": 3638,
      "расшир": 3639,
      "заказчи": 3640,
      "масштаб": 3641,
      "ауди": 3642,
      "жители": 3643,
      "лев": 3644,
      "фа": 3645,
      "хок": 3646,
      "##гн": 3647,
      "##вок": 3648,
      "##re": 3649,
      "##ik": 3650,
      "##енная": 3651,
      "проек": 3652,
      "предъяв": 3653,
      "лип": 3654,
      "перес": 3655,
      "заявили": 3656,
      "собой": 3657,
      "##варт": 3658,
      "интел": 3659,
      "карь": 3660,
      "согласов": 3661,
      "баз": 3662,
      "башки": 3663,
      "##матов": 3664,
      "взят": 3665,
      "ситуацию": 3666,
      "андре": 3667,
      "встречи": 3668,
      "ряд": 3669,
      "четырех": 3670,
      "телек": 3671,
      "тюрь": 3672,
      "субъект": 3673,
      "учеб": 3674,
      "урегули": 3675,
      "сня": 3676,
      "##ори": 3677,
      "##усл": 3678,
      "##ден": 3679,
      "##ску": 3680,
      "##риф": 3681,
      "нагруз": 3682,
      "##симо": 3683,
      "коммун": 3684,
      "мире": 3685,
      "краев": 3686,
      "этому": 3687,
      "российский": 3688,
      "партии": 3689,
      "##мотрен": 3690,
      "песков": 3691,
      "минут": 3692,
      "моды": 3693,
      "рекон": 3694,
      "программа": 3695,
      "второ": 3696,
      "знаком": 3697,
      "конкурен": 3698,
      "единой": 3699,
      "агентства": 3700,
      "ожид": 3701,
      "школь": 3702,
      "сцена": 3703,
      "вов": 3704,
      "вось": 3705,
      "днем": 3706,
      "мид": 3707,
      "пан": 3708,
      "яр": 3709,
      "##цей": 3710,
      "##ыне": 3711,
      "##квартир": 3712,
      "##овали": 3713,
      "пор": 3714,
      "позд": 3715,
      "##лайн": 3716,
      "вывод": 3717,
      "констан": 3718,
      "##гах": 3719,
      "летний": 3720,
      "диза": 3721,
      "испан": 3722,
      "##зии": 3723,
      "должна": 3724,
      "вернуть": 3725,
      "маркет": 3726,
      "июня": 3727,
      "написал": 3728,
      "площадь": 3729,
      "черного": 3730,
      "специалисты": 3731,
      "команды": 3732,
      "фонда": 3733,
      "принци": 3734,
      "документы": 3735,
      "аэропорта": 3736,
      "энерго": 3737,
      "сезон": 3738,
      "имущество": 3739,
      "подтверд": 3740,
      "корпоратив": 3741,
      "ущерб": 3742,
      "##биратель": 3743,
      "ассоци": 3744,
      "дл": 3745,
      "нан": 3746,
      "чис": 3747,
      "##цент": 3748,
      "##ву": 3749,
      "##шем": 3750,
      "##ie": 3751,
      "##ствий": 3752,
      "обсуд": 3753,
      "##авший": 3754,
      "подк": 3755,
      "##ленные": 3756,
      "власт": 3757,
      "провести": 3758,
      "разви": 3759,
      "парк": 3760,
      "основной": 3761,
      "соглас": 3762,
      "адвок": 3763,
      "спец": 3764,
      "прокуратуры": 3765,
      "рядом": 3766,
      "многоквартир": 3767,
      "близ": 3768,
      "мэр": 3769,
      "забол": 3770,
      "животных": 3771,
      "тяжел": 3772,
      "невозмож": 3773,
      "дем": 3774,
      "жал": 3775,
      "кварт": 3776,
      "шу": 3777,
      "##ира": 3778,
      "##кс": 3779,
      "##udi": 3780,
      "##раны": 3781,
      "##рошен": 3782,
      "##тое": 3783,
      "##нику": 3784,
      "##нице": 3785,
      "народ": 3786,
      "напад": 3787,
      "##вад": 3788,
      "вызв": 3789,
      "##куро": 3790,
      "##имуще": 3791,
      "конструк": 3792,
      "##мень": 3793,
      "##изи": 3794,
      "возбуд": 3795,
      "экспорт": 3796,
      "контра": 3797,
      "##ing": 3798,
      "результат": 3799,
      "информация": 3800,
      "метро": 3801,
      "могли": 3802,
      "рассказали": 3803,
      "путе": 3804,
      "волго": 3805,
      "факту": 3806,
      "важно": 3807,
      "областной": 3808,
      "остаются": 3809,
      "валерий": 3810,
      "улуч": 3811,
      "арестов": 3812,
      "##essand": 3813,
      "alessand": 3814,
      "ольга": 3815,
      "курорта": 3816,
      "топлива": 3817,
      "комфорт": 3818,
      "mer": 3819,
      "бе": 3820,
      "смен": 3821,
      "эл": 3822,
      "якоб": 3823,
      "##сом": 3824,
      "##мод": 3825,
      "##ыду": 3826,
      "##ене": 3827,
      "##енность": 3828,
      "##енное": 3829,
      "##итар": 3830,
      "##ровод": 3831,
      "реа": 3832,
      "стре": 3833,
      "выска": 3834,
      "предыду": 3835,
      "перми": 3836,
      "долгов": 3837,
      "новой": 3838,
      "стоимости": 3839,
      "летнего": 3840,
      "запл": 3841,
      "##нужд": 3842,
      "верх": 3843,
      "марте": 3844,
      "систему": 3845,
      "возможно": 3846,
      "директоров": 3847,
      "посвя": 3848,
      "группа": 3849,
      "тому": 3850,
      "домаш": 3851,
      "деятельность": 3852,
      "стандар": 3853,
      "недвижимость": 3854,
      "субси": 3855,
      "северо": 3856,
      "произошел": 3857,
      "жилых": 3858,
      "помощью": 3859,
      "аренды": 3860,
      "внеш": 3861,
      "##нюю": 3862,
      "якобы": 3863,
      "gar": 3864,
      "бума": 3865,
      "гер": 3866,
      "сти": 3867,
      "фра": 3868,
      "хран": 3869,
      "##ается": 3870,
      "##лом": 3871,
      "##кон": 3872,
      "##шую": 3873,
      "##up": 3874,
      "##im": 3875,
      "реест": 3876,
      "##коп": 3877,
      "##мум": 3878,
      "дипл": 3879,
      "своим": 3880,
      "продл": 3881,
      "##яться": 3882,
      "##рованный": 3883,
      "высок": 3884,
      "последний": 3885,
      "семи": 3886,
      "первых": 3887,
      "приняли": 3888,
      "инфля": 3889,
      "особо": 3890,
      "курской": 3891,
      "квартиры": 3892,
      "франции": 3893,
      "занимает": 3894,
      "расходы": 3895,
      "оборудования": 3896,
      "зарегистрировано": 3897,
      "казах": 3898,
      "освоб": 3899,
      "##декс": 3900,
      "##ofalo": 3901,
      "числа": 3902,
      "alessandro": 3903,
      "garofalo": 3904,
      "диплом": 3905,
      "внов": 3906,
      "входит": 3907,
      "кита": 3908,
      "каса": 3909,
      "плен": 3910,
      "##тп": 3911,
      "##ыск": 3912,
      "##зора": 3913,
      "##бер": 3914,
      "##lo": 3915,
      "##тору": 3916,
      "##илет": 3917,
      "проходит": 3918,
      "награ": 3919,
      "годов": 3920,
      "##альную": 3921,
      "##ительное": 3922,
      "свидет": 3923,
      "##ственным": 3924,
      "##овыми": 3925,
      "сообще": 3926,
      "госпит": 3927,
      "органов": 3928,
      "собы": 3929,
      "соблюд": 3930,
      "недав": 3931,
      "недост": 3932,
      "##бира": 3933,
      "##ременно": 3934,
      "относ": 3935,
      "активов": 3936,
      "медвед": 3937,
      "садов": 3938,
      "##ождение": 3939,
      "туристов": 3940,
      "##раздел": 3941,
      "заместителя": 3942,
      "лидер": 3943,
      "инвесторов": 3944,
      "концеп": 3945,
      "предприниматель": 3946,
      "размещения": 3947,
      "запрещ": 3948,
      "приобре": 3949,
      "катеров": 3950,
      "тысяч": 3951,
      "чернозем": 3952,
      "путеше": 3953,
      "merc": 3954,
      "заплани": 3955,
      "вновь": 3956,
      "ma": 3957,
      "ву": 3958,
      "виз": 3959,
      "всу": 3960,
      "гал": 3961,
      "еже": 3962,
      "лес": 3963,
      "мож": 3964,
      "уж": 3965,
      "убы": 3966,
      "юрий": 3967,
      "##ад": 3968,
      "##ох": 3969,
      "##чная": 3970,
      "##беж": 3971,
      "##анного": 3972,
      "##алом": 3973,
      "##ерба": 3974,
      "обстоятель": 3975,
      "##орус": 3976,
      "##ениями": 3977,
      "приост": 3978,
      "##чески": 3979,
      "вызов": 3980,
      "прес": 3981,
      "вооруж": 3982,
      "спик": 3983,
      "##чие": 3984,
      "##россий": 3985,
      "повтор": 3986,
      "ника": 3987,
      "информацию": 3988,
      "реализу": 3989,
      "белорус": 3990,
      "торг": 3991,
      "республике": 3992,
      "останов": 3993,
      "команд": 3994,
      "фонд": 3995,
      "законодательства": 3996,
      "избран": 3997,
      "портф": 3998,
      "конкурс": 3999,
      "фигурант": 4000,
      "полугод": 4001,
      "электрон": 4002,
      "аналитики": 4003,
      "виновным": 4004,
      "отдыха": 4005,
      ">:<": 4006,
      "дерев": 4007,
      "ежегод": 4008,
      "for": 4009,
      "дос": 4010,
      "остан": 4011,
      "пес": 4012,
      "##тен": 4013,
      "##цам": 4014,
      "##мов": 4015,
      "##дорож": 4016,
      "##вол": 4017,
      "##ющая": 4018,
      "##экипа": 4019,
      "##id": 4020,
      "##елю": 4021,
      "посе": 4022,
      "##сив": 4023,
      "подраздел": 4024,
      "полага": 4025,
      "конеч": 4026,
      "маши": 4027,
      "аква": 4028,
      "акции": 4029,
      "местного": 4030,
      "устран": 4031,
      "ответчи": 4032,
      "рассчиты": 4033,
      "безэкипа": 4034,
      "главный": 4035,
      "первые": 4036,
      "групп": 4037,
      "белгородской": 4038,
      "планирует": 4039,
      "государственных": 4040,
      "едино": 4041,
      "контроля": 4042,
      "публичное": 4043,
      "авиа": 4044,
      "произошло": 4045,
      "мероприятий": 4046,
      "обороны": 4047,
      "список": 4048,
      "начинается": 4049,
      "спортсмен": 4050,
      "департамента": 4051,
      "смогут": 4052,
      "конференции": 4053,
      "вероят": 4054,
      "ада": 4055,
      "бой": 4056,
      "вт": 4057,
      "див": 4058,
      "сформи": 4059,
      "уда": 4060,
      "фикси": 4061,
      "цит": 4062,
      "шести": 4063,
      "язы": 4064,
      "##ота": 4065,
      "##рю": 4066,
      "##ex": 4067,
      "##зам": 4068,
      "##онти": 4069,
      "##кими": 4070,
      "##ровала": 4071,
      "принима": 4072,
      "##ческом": 4073,
      "вынужд": 4074,
      "подс": 4075,
      "##ляется": 4076,
      "##чай": 4077,
      "док": 4078,
      "##газ": 4079,
      "размер": 4080,
      "которым": 4081,
      "мае": 4082,
      "такая": 4083,
      "собра": 4084,
      "соглашения": 4085,
      "соглашение": 4086,
      "первое": 4087,
      "предложение": 4088,
      "принято": 4089,
      "наруш": 4090,
      "встреча": 4091,
      "участия": 4092,
      "онлайн": 4093,
      "десять": 4094,
      "видео": 4095,
      "арест": 4096,
      "настоящее": 4097,
      "денег": 4098,
      "некоторые": 4099,
      "совместно": 4100,
      "женщин": 4101,
      "алкоголь": 4102,
      "прилож": 4103,
      "физиче": 4104,
      "сергея": 4105,
      "no": 4106,
      "впро": 4107,
      "гк": 4108,
      "голов": 4109,
      "зр": 4110,
      "кост": 4111,
      "ныне": 4112,
      "пале": 4113,
      "сме": 4114,
      "элем": 4115,
      "##уется": 4116,
      "##ee": 4117,
      "##ch": 4118,
      "пройдет": 4119,
      "общая": 4120,
      "зави": 4121,
      "##осф": 4122,
      "##ард": 4123,
      "присут": 4124,
      "##ческую": 4125,
      "стрем": 4126,
      "##купа": 4127,
      "конк": 4128,
      "##шись": 4129,
      "миним": 4130,
      "суде": 4131,
      "объясн": 4132,
      "##ционно": 4133,
      "##циях": 4134,
      "анна": 4135,
      "тариф": 4136,
      "владел": 4137,
      "органы": 4138,
      "веду": 4139,
      "краснояр": 4140,
      "участков": 4141,
      "использовать": 4142,
      "молд": 4143,
      "потребитель": 4144,
      "соверш": 4145,
      "порядке": 4146,
      "регули": 4147,
      "аварий": 4148,
      "усили": 4149,
      "хозяйства": 4150,
      "учреждения": 4151,
      "широ": 4152,
      "демонстри": 4153,
      "фестиваля": 4154,
      "гендиректор": 4155,
      "певи": 4156,
      "секретарь": 4157,
      "татьяна": 4158,
      "спустя": 4159,
      "впрочем": 4160,
      "cla": 4161,
      "ас": 4162,
      "зло": 4163,
      "ии": 4164,
      "ид": 4165,
      "коп": 4166,
      "нал": 4167,
      "пы": 4168,
      "умень": 4169,
      "##пера": 4170,
      "##ял": 4171,
      "##экономи": 4172,
      "##алан": 4173,
      "##гого": 4174,
      "попрос": 4175,
      "отве": 4176,
      "вынес": 4177,
      "##альными": 4178,
      "##оты": 4179,
      "##евич": 4180,
      "слу": 4181,
      "военной": 4182,
      "востреб": 4183,
      "конст": 4184,
      "сведения": 4185,
      "мик": 4186,
      "такого": 4187,
      "меж": 4188,
      "акций": 4189,
      "заключен": 4190,
      "помещения": 4191,
      "должности": 4192,
      "представителей": 4193,
      "повод": 4194,
      "оператор": 4195,
      "зданий": 4196,
      "поддержку": 4197,
      "метод": 4198,
      "весь": 4199,
      "кораб": 4200,
      "ноябре": 4201,
      "новороссийска": 4202,
      "проверку": 4203,
      "подчерки": 4204,
      "регуляр": 4205,
      "управляющий": 4206,
      "апреля": 4207,
      "прогнози": 4208,
      "которому": 4209,
      "аэропорту": 4210,
      "пространства": 4211,
      "олег": 4212,
      "населения": 4213,
      "статус": 4214,
      "pr": 4215,
      "дтп": 4216,
      "ер": 4217,
      "жили": 4218,
      "ино": 4219,
      "кни": 4220,
      "крем": 4221,
      "ору": 4222,
      "тамб": 4223,
      "шо": 4224,
      "эн": 4225,
      "##ием": 4226,
      "##игра": 4227,
      "##ивает": 4228,
      "##поль": 4229,
      "##хл": 4230,
      "##бой": 4231,
      "##us": 4232,
      "##енти": 4233,
      "пожа": 4234,
      "зав": 4235,
      "##лиз": 4236,
      "##ровании": 4237,
      "причи": 4238,
      "##спек": 4239,
      "##стью": 4240,
      "##шими": 4241,
      "##ательно": 4242,
      "##ологии": 4243,
      "недели": 4244,
      "человеч": 4245,
      "##ara": 4246,
      "музе": 4247,
      "двое": 4248,
      "##ствуют": 4249,
      "активы": 4250,
      "являются": 4251,
      "случаев": 4252,
      "удоб": 4253,
      "сектора": 4254,
      "принял": 4255,
      "документов": 4256,
      "войны": 4257,
      "жилье": 4258,
      "официальный": 4259,
      "выросла": 4260,
      "превыс": 4261,
      "министерство": 4262,
      "предусмотрен": 4263,
      "пермского": 4264,
      "музык": 4265,
      "внедр": 4266,
      "подозре": 4267,
      "цитата": 4268,
      "палести": 4269,
      "иноаг": 4270,
      "альт": 4271,
      "втори": 4272,
      "дуб": 4273,
      "ску": 4274,
      "##нр": 4275,
      "##дд": 4276,
      "##чную": 4277,
      "##жем": 4278,
      "##og": 4279,
      "##ьше": 4280,
      "##ton": 4281,
      "##енг": 4282,
      "##роз": 4283,
      "##рее": 4284,
      "##етиче": 4285,
      "##тон": 4286,
      "##инт": 4287,
      "обрабаты": 4288,
      "зару": 4289,
      "##еки": 4290,
      "##ровки": 4291,
      "##рованию": 4292,
      "##обра": 4293,
      "##авли": 4294,
      "руби": 4295,
      "##раты": 4296,
      "маск": 4297,
      "мария": 4298,
      "##фика": 4299,
      "раньше": 4300,
      "высокой": 4301,
      "требует": 4302,
      "программе": 4303,
      "водитель": 4304,
      "класси": 4305,
      "инвестиции": 4306,
      "клиентов": 4307,
      "аэс": 4308,
      "использованием": 4309,
      "акту": 4310,
      "обеспечить": 4311,
      "заключения": 4312,
      "проверки": 4313,
      "кубань": 4314,
      "исследования": 4315,
      "авак": 4316,
      "ann": 4317,
      "ущерба": 4318,
      "огром": 4319,
      "иван": 4320,
      "районный": 4321,
      "эксплуатацию": 4322,
      "взаимодейств": 4323,
      "нанес": 4324,
      "адап": 4325,
      "востребов": 4326,
      "кав": 4327,
      "кот": 4328,
      "кали": 4329,
      "пси": 4330,
      "роб": 4331,
      "сла": 4332,
      "сцен": 4333,
      "удел": 4334,
      "цвет": 4335,
      "##шла": 4336,
      "##бус": 4337,
      "##ii": 4338,
      "##ового": 4339,
      "##рорт": 4340,
      "##одно": 4341,
      "##елев": 4342,
      "##елля": 4343,
      "##еда": 4344,
      "##арх": 4345,
      "##спект": 4346,
      "полно": 4347,
      "преж": 4348,
      "россиян": 4349,
      "##гает": 4350,
      "перен": 4351,
      "каб": 4352,
      "##думы": 4353,
      "долга": 4354,
      "однов": 4355,
      "плана": 4356,
      "сери": 4357,
      "верну": 4358,
      "курорт": 4359,
      "участке": 4360,
      "последствия": 4361,
      "апелля": 4362,
      "вопросам": 4363,
      "оказы": 4364,
      "автомобили": 4365,
      "втором": 4366,
      "##ствовать": 4367,
      "режиме": 4368,
      "продолжает": 4369,
      "имеют": 4370,
      "сигн": 4371,
      "размещ": 4372,
      "утром": 4373,
      "ожидается": 4374,
      "инициати": 4375,
      "виктор": 4376,
      "юриди": 4377,
      "становится": 4378,
      "наталь": 4379,
      "глоб": 4380,
      "поправки": 4381,
      "липец": 4382,
      "пресечения": 4383,
      "конкрет": 4384,
      "wang": 4385,
      "бон": 4386,
      "гон": 4387,
      "жерт": 4388,
      "зн": 4389,
      "юр": 4390,
      "##нения": 4391,
      "##нему": 4392,
      "##иной": 4393,
      "##ежи": 4394,
      "##фак": 4395,
      "##av": 4396,
      "##пром": 4397,
      "##рец": 4398,
      "##итут": 4399,
      "##илов": 4400,
      "##тах": 4401,
      "##ческим": 4402,
      "выда": 4403,
      "комму": 4404,
      "политик": 4405,
      "##чает": 4406,
      "спокой": 4407,
      "##шиб": 4408,
      "опл": 4409,
      "одоб": 4410,
      "экологиче": 4411,
      "средней": 4412,
      "делает": 4413,
      "начали": 4414,
      "диск": 4415,
      "участка": 4416,
      "базе": 4417,
      "рекорд": 4418,
      "секторе": 4419,
      "готовы": 4420,
      "оказался": 4421,
      "повышения": 4422,
      "изменений": 4423,
      "доходов": 4424,
      "сервиса": 4425,
      "поступило": 4426,
      "растет": 4427,
      "концерт": 4428,
      "сезона": 4429,
      "муниципал": 4430,
      "регуля": 4431,
      "мероприятия": 4432,
      "угроза": 4433,
      "предусматри": 4434,
      "позиции": 4435,
      "нижегородской": 4436,
      "жителям": 4437,
      "выплат": 4438,
      "технологий": 4439,
      "потенциаль": 4440,
      "телеф": 4441,
      "лавров": 4442,
      "логисти": 4443,
      "жкх": 4444,
      "мобиль": 4445,
      "##кадем": 4446,
      "приостанов": 4447,
      "tr": 4448,
      "мск": 4449,
      "хоч": 4450,
      "ядер": 4451,
      "##цем": 4452,
      "##вале": 4453,
      "##for": 4454,
      "##рами": 4455,
      "##нодорож": 4456,
      "##анской": 4457,
      "##омо": 4458,
      "понима": 4459,
      "нар": 4460,
      "##тации": 4461,
      "приним": 4462,
      "##ческая": 4463,
      "##вающих": 4464,
      "выясн": 4465,
      "##способ": 4466,
      "подал": 4467,
      "##коном": 4468,
      "нег": 4469,
      "##ментиров": 4470,
      "разных": 4471,
      "российском": 4472,
      "форуме": 4473,
      "прошли": 4474,
      "оператора": 4475,
      "адре": 4476,
      "двум": 4477,
      "##one": 4478,
      "результаты": 4479,
      "продуктов": 4480,
      "планируют": 4481,
      "собственности": 4482,
      "автоном": 4483,
      "социальных": 4484,
      "банкротстве": 4485,
      "происходит": 4486,
      "завода": 4487,
      "усил": 4488,
      "атомной": 4489,
      "облком": 4490,
      "##igh": 4491,
      "гостей": 4492,
      "железнодорож": 4493,
      "скорее": 4494,
      "льгот": 4495,
      "компенса": 4496,
      "контракта": 4497,
      "академ": 4498,
      "ед": 4499,
      "зим": 4500,
      "манд": 4501,
      "оно": 4502,
      "ускор": 4503,
      "##гда": 4504,
      "##кевич": 4505,
      "##шт": 4506,
      "##анным": 4507,
      "##алу": 4508,
      "поро": 4509,
      "проком": 4510,
      "обли": 4511,
      "##анией": 4512,
      "##лий": 4513,
      "предел": 4514,
      "пода": 4515,
      "##аком": 4516,
      "##менти": 4517,
      "провел": 4518,
      "собрания": 4519,
      "представителя": 4520,
      "было": 4521,
      "основе": 4522,
      "прошел": 4523,
      "серед": 4524,
      "обвинения": 4525,
      "краснодарском": 4526,
      "предприятие": 4527,
      "сроки": 4528,
      "связано": 4529,
      "поставки": 4530,
      "округе": 4531,
      "жизнь": 4532,
      "принят": 4533,
      "победы": 4534,
      "приговорен": 4535,
      "готовности": 4536,
      "##eco": 4537,
      "парламент": 4538,
      "самолет": 4539,
      "##мунэнерго": 4540,
      "семьи": 4541,
      "благоустрой": 4542,
      "напомним": 4543,
      "финансирования": 4544,
      "импорт": 4545,
      "крупнейших": 4546,
      "комиссии": 4547,
      "институт": 4548,
      "ликвид": 4549,
      "картоф": 4550,
      "большинство": 4551,
      "greco": 4552,
      "васили": 4553,
      "санкций": 4554,
      "уничтож": 4555,
      "вечером": 4556,
      "независи": 4557,
      "телекан": 4558,
      "##udia": 4559,
      "claudia": 4560,
      "рубио": 4561,
      "облкоммунэнерго": 4562,
      "sa": 4563,
      "аи": 4564,
      "бро": 4565,
      "жд": 4566,
      "ирина": 4567,
      "кпр": 4568,
      "плав": 4569,
      "роли": 4570,
      "ур": 4571,
      "уро": 4572,
      "фла": 4573,
      "##гал": 4574,
      "##ул": 4575,
      "##бил": 4576,
      "##этаж": 4577,
      "обо": 4578,
      "ракет": 4579,
      "##еди": 4580,
      "##руются": 4581,
      "##обнов": 4582,
      "##гия": 4583,
      "##орон": 4584,
      "инте": 4585,
      "##ляла": 4586,
      "неодно": 4587,
      "##жде": 4588,
      "##ждение": 4589,
      "##изод": 4590,
      "##циям": 4591,
      "перек": 4592,
      "данный": 4593,
      "самого": 4594,
      "получения": 4595,
      "##полня": 4596,
      "неделю": 4597,
      "##атах": 4598,
      "марта": 4599,
      "основном": 4600,
      "основатель": 4601,
      "повест": 4602,
      "действительно": 4603,
      "говорят": 4604,
      "установлен": 4605,
      "квали": 4606,
      "администрация": 4607,
      "приняла": 4608,
      "сделок": 4609,
      "нарушение": 4610,
      "воронеже": 4611,
      "значим": 4612,
      "значительно": 4613,
      "силы": 4614,
      "отрас": 4615,
      "##служа": 4616,
      "команда": 4617,
      "контроли": 4618,
      "снижения": 4619,
      "оценки": 4620,
      "##надзора": 4621,
      "источник": 4622,
      "##потреб": 4623,
      "анато": 4624,
      "грузов": 4625,
      "премии": 4626,
      "набережной": 4627,
      "краснодара": 4628,
      "хамас": 4629,
      "мужчина": 4630,
      "зависимо": 4631,
      "альтерн": 4632,
      "кпрф": 4633,
      "гран": 4634,
      "дал": 4635,
      "жест": 4636,
      "плю": 4637,
      "сал": 4638,
      "смож": 4639,
      "ураль": 4640,
      "яров": 4641,
      "##мут": 4642,
      "##em": 4643,
      "##ппа": 4644,
      "##шению": 4645,
      "##хо": 4646,
      "##стам": 4647,
      "##рори": 4648,
      "##ерв": 4649,
      "##ершен": 4650,
      "##руг": 4651,
      "рестав": 4652,
      "##ализации": 4653,
      "##даем": 4654,
      "преимуще": 4655,
      "измени": 4656,
      "долги": 4657,
      "судь": 4658,
      "судей": 4659,
      "средняя": 4660,
      "собесед": 4661,
      "маргар": 4662,
      "##ardi": 4663,
      "##рованные": 4664,
      "райсуд": 4665,
      "распор": 4666,
      "напря": 4667,
      "состояние": 4668,
      "специализи": 4669,
      "объявлен": 4670,
      "персон": 4671,
      "технологии": 4672,
      "источники": 4673,
      "проведения": 4674,
      "покры": 4675,
      "татарстана": 4676,
      "привлеч": 4677,
      "театра": 4678,
      "университета": 4679,
      "дронов": 4680,
      "различных": 4681,
      "эпизод": 4682,
      "##мотреть": 4683,
      "рабочих": 4684,
      "приходится": 4685,
      "израиля": 4686,
      "отоп": 4687,
      "##услов": 4688,
      "жалоб": 4689,
      "нынеш": 4690,
      "певица": 4691,
      "зарубеж": 4692,
      "of": 4693,
      "араб": 4694,
      "вск": 4695,
      "вся": 4696,
      "зрения": 4697,
      "лд": 4698,
      "мя": 4699,
      "снач": 4700,
      "тера": 4701,
      "уход": 4702,
      "чар": 4703,
      "##сер": 4704,
      "##тя": 4705,
      "##твор": 4706,
      "##ографи": 4707,
      "##нат": 4708,
      "##мом": 4709,
      "##кор": 4710,
      "##oy": 4711,
      "##еть": 4712,
      "##циони": 4713,
      "обоз": 4714,
      "заг": 4715,
      "прикам": 4716,
      "прекрат": 4717,
      "##ерах": 4718,
      "##ряз": 4719,
      "##лок": 4720,
      "линии": 4721,
      "##опровод": 4722,
      "арти": 4723,
      "летом": 4724,
      "самар": 4725,
      "##главы": 4726,
      "##проду": 4727,
      "##ентам": 4728,
      "##станции": 4729,
      "девять": 4730,
      "использования": 4731,
      "использование": 4732,
      "выборы": 4733,
      "риски": 4734,
      "замглавы": 4735,
      "законодательного": 4736,
      "полицей": 4737,
      "авиаком": 4738,
      "причем": 4739,
      "точки": 4740,
      "автомобиля": 4741,
      "ste": 4742,
      "обязательств": 4743,
      "генеральный": 4744,
      "продажу": 4745,
      ".).": 4746,
      "товаров": 4747,
      "обнаружили": 4748,
      "##ясняет": 4749,
      "привлекатель": 4750,
      "переговоров": 4751,
      "культурного": 4752,
      "патри": 4753,
      "заксобрания": 4754,
      "субсиди": 4755,
      "жилищ": 4756,
      "маргарита": 4757,
      "сначала": 4758,
      "la": 4759,
      "бри": 4760,
      "ги": 4761,
      "двиг": 4762,
      "лаг": 4763,
      "мы": 4764,
      "ошиб": 4765,
      "пво": 4766,
      "цели": 4767,
      "чт": 4768,
      "##оохран": 4769,
      "##писал": 4770,
      "##чат": 4771,
      "##ois": 4772,
      "##шему": 4773,
      "##ter": 4774,
      "##эс": 4775,
      "##ub": 4776,
      "##рам": 4777,
      "##нию": 4778,
      "прось": 4779,
      "##еке": 4780,
      "##арт": 4781,
      "##тию": 4782,
      "##тая": 4783,
      "отраж": 4784,
      "приступ": 4785,
      "стил": 4786,
      "вылет": 4787,
      "##оте": 4788,
      "подрост": 4789,
      "иннова": 4790,
      "##ительную": 4791,
      "возобнов": 4792,
      "маш": 4793,
      "такое": 4794,
      "правил": 4795,
      "самый": 4796,
      "самым": 4797,
      "##года": 4798,
      "парков": 4799,
      "термин": 4800,
      "##совершен": 4801,
      "признали": 4802,
      "модели": 4803,
      "сами": 4804,
      "взрыв": 4805,
      "бесплат": 4806,
      "суммы": 4807,
      "девуш": 4808,
      "периода": 4809,
      "сторону": 4810,
      "выборах": 4811,
      "профиль": 4812,
      "повыс": 4813,
      "ограничений": 4814,
      "социальной": 4815,
      "мировой": 4816,
      "екатеринбурге": 4817,
      "круг": 4818,
      "возрасте": 4819,
      "потенци": 4820,
      "вакан": 4821,
      "золотой": 4822,
      "устойчи": 4823,
      "генпрокуратуры": 4824,
      "инженер": 4825,
      "синкевич": 4826,
      "олимпий": 4827,
      "происшествия": 4828,
      "заболев": 4829,
      "конечно": 4830,
      "безэкипажных": 4831,
      "втб": 4832,
      "одновременно": 4833,
      "негатив": 4834,
      "per": 4835,
      "xv": 4836,
      "ир": 4837,
      "ижев": 4838,
      "крав": 4839,
      "сд": 4840,
      "##сла": 4841,
      "##ою": 4842,
      "##ay": 4843,
      "##жив": 4844,
      "##анное": 4845,
      "##анными": 4846,
      "поруч": 4847,
      "прост": 4848,
      "зай": 4849,
      "сосед": 4850,
      "##сию": 4851,
      "подвер": 4852,
      "##ительная": 4853,
      "##ующего": 4854,
      "коню": 4855,
      "##мысл": 4856,
      "перевод": 4857,
      "арми": 4858,
      "испыт": 4859,
      "##щается": 4860,
      "террори": 4861,
      "##торами": 4862,
      "обращения": 4863,
      "корруп": 4864,
      "автобус": 4865,
      "##кратно": 4866,
      "единиц": 4867,
      "проверка": 4868,
      "оперативно": 4869,
      "отдела": 4870,
      "занимается": 4871,
      "конфликт": 4872,
      "расходов": 4873,
      "самостоятель": 4874,
      "антон": 4875,
      "обработки": 4876,
      "союз": 4877,
      "холдин": 4878,
      "возбуждено": 4879,
      "наследия": 4880,
      "сегменте": 4881,
      "залож": 4882,
      "ребенка": 4883,
      "наблюдается": 4884,
      "расследование": 4885,
      "константин": 4886,
      "дизай": 4887,
      "молдав": 4888,
      "прокомментиров": 4889,
      "лдпр": 4890,
      "ано": 4891,
      "золо": 4892,
      "кин": 4893,
      "мус": 4894,
      "оч": 4895,
      "улья": 4896,
      "##иков": 4897,
      "##мар": 4898,
      "##ьев": 4899,
      "##бора": 4900,
      "##ящих": 4901,
      "##анавли": 4902,
      "##итин": 4903,
      "##олют": 4904,
      "##гой": 4905,
      "поним": 4906,
      "##каза": 4907,
      "завед": 4908,
      "завис": 4909,
      "приш": 4910,
      "стэн": 4911,
      "предна": 4912,
      "##дации": 4913,
      "вооб": 4914,
      "##ольно": 4915,
      "госсек": 4916,
      "мих": 4917,
      "##иная": 4918,
      "##ционную": 4919,
      "диа": 4920,
      "заявила": 4921,
      "большая": 4922,
      "больницу": 4923,
      "ставка": 4924,
      "здрав": 4925,
      "городах": 4926,
      "поддержке": 4927,
      "реклам": 4928,
      "экспертов": 4929,
      "##ьева": 4930,
      "##атисти": 4931,
      "поставок": 4932,
      "государственной": 4933,
      "высокий": 4934,
      "процент": 4935,
      "корот": 4936,
      "движение": 4937,
      "генпрокурор": 4938,
      "повреждены": 4939,
      "партне": 4940,
      "генерального": 4941,
      "абс": 4942,
      "министерства": 4943,
      "оборудование": 4944,
      "трибу": 4945,
      "надеж": 4946,
      "наказание": 4947,
      "зарплат": 4948,
      "отсутствие": 4949,
      "денис": 4950,
      "военнослужа": 4951,
      "##ицын": 4952,
      "схем": 4953,
      "эвакуи": 4954,
      "реестр": 4955,
      "владелец": 4956,
      "яровицын": 4957,
      "аук": 4958,
      "вин": 4959,
      "гел": 4960,
      "держ": 4961,
      "дону": 4962,
      "зоны": 4963,
      "сей": 4964,
      "снова": 4965,
      "уник": 4966,
      "##сен": 4967,
      "##тк": 4968,
      "##тод": 4969,
      "##мой": 4970,
      "##еред": 4971,
      "##лана": 4972,
      "##пли": 4973,
      "##зис": 4974,
      "##ci": 4975,
      "##орг": 4976,
      "созыва": 4977,
      "##сион": 4978,
      "##чев": 4979,
      "стен": 4980,
      "статисти": 4981,
      "##орот": 4982,
      "подвод": 4983,
      "##ляются": 4984,
      "##час": 4985,
      "##ственное": 4986,
      "компанию": 4987,
      "экст": 4988,
      "новов": 4989,
      "сама": 4990,
      "работод": 4991,
      "собира": 4992,
      "запуст": 4993,
      "##цами": 4994,
      "##никах": 4995,
      "скры": 4996,
      "отметила": 4997,
      "экономика": 4998,
      "говорил": 4999,
      "главного": 5000,
      "сберб": 5001,
      "предложил": 5002,
      "интерфак": 5003,
      "встрече": 5004,
      "качества": 5005,
      "##городе": 5006,
      "процесса": 5007,
      "стоимостью": 5008,
      "итали": 5009,
      "казани": 5010,
      "внутри": 5011,
      "журнала": 5012,
      "аналогичный": 5013,
      "февраля": 5014,
      "кредиторов": 5015,
      "переговоры": 5016,
      "энергети": 5017,
      "субъектов": 5018,
      "властей": 5019,
      "недавно": 5020,
      "пожара": 5021,
      "реставра": 5022,
      "вообще": 5023,
      "абсолют": 5024,
      "геленд": 5025,
      "bo": 5026,
      "it": 5027,
      "ne": 5028,
      "бур": 5029,
      "биб": 5030,
      "всп": 5031,
      "веч": 5032,
      "ким": 5033,
      "лен": 5034,
      "сз": 5035,
      "тя": 5036,
      "хват": 5037,
      "цик": 5038,
      "##ov": 5039,
      "##росло": 5040,
      "пооб": 5041,
      "проспект": 5042,
      "обход": 5043,
      "сорев": 5044,
      "нац": 5045,
      "нашего": 5046,
      "отстав": 5047,
      "предп": 5048,
      "подписал": 5049,
      "пресли": 5050,
      "прежде": 5051,
      "неж": 5052,
      "##ментом": 5053,
      "##ственная": 5054,
      "разру": 5055,
      "раздел": 5056,
      "мари": 5057,
      "правила": 5058,
      "##шается": 5059,
      "заявки": 5060,
      "решил": 5061,
      "следственного": 5062,
      "марко": 5063,
      "увид": 5064,
      "территорию": 5065,
      "территорий": 5066,
      "включен": 5067,
      "них": 5068,
      "крупном": 5069,
      "объеме": 5070,
      "политике": 5071,
      "условий": 5072,
      "электри": 5073,
      "октябрь": 5074,
      "путь": 5075,
      "встрет": 5076,
      "боев": 5077,
      "частью": 5078,
      "концер": 5079,
      "подготовки": 5080,
      "пункта": 5081,
      "девелопер": 5082,
      "дефицита": 5083,
      "гарантии": 5084,
      "некоторых": 5085,
      "берегу": 5086,
      "институ": 5087,
      "членов": 5088,
      "принадлежит": 5089,
      "обязанности": 5090,
      "вокруг": 5091,
      "астрах": 5092,
      "оптими": 5093,
      "невозможно": 5094,
      "посвящ": 5095,
      "пленар": 5096,
      "обстоятельства": 5097,
      "микро": 5098,
      "палестины": 5099,
      "чарль": 5100,
      "steph": 5101,
      "gro": 5102,
      "pro": 5103,
      "war": 5104,
      "бер": 5105,
      "борт": 5106,
      "ввести": 5107,
      "дума": 5108,
      "мел": 5109,
      "ней": 5110,
      "оск": 5111,
      "сар": 5112,
      "чув": 5113,
      "##мого": 5114,
      "##лина": 5115,
      "##вания": 5116,
      "##ah": 5117,
      "##чными": 5118,
      "##жал": 5119,
      "##бло": 5120,
      "##щему": 5121,
      "##енную": 5122,
      "##енбур": 5123,
      "##рата": 5124,
      "##рали": 5125,
      "##ствием": 5126,
      "покол": 5127,
      "прох": 5128,
      "наших": 5129,
      "стани": 5130,
      "строй": 5131,
      "выраж": 5132,
      "вошли": 5133,
      "##естра": 5134,
      "##олько": 5135,
      "конд": 5136,
      "договора": 5137,
      "##дино": 5138,
      "изнач": 5139,
      "кабин": 5140,
      "размест": 5141,
      "машин": 5142,
      "оренбур": 5143,
      "новая": 5144,
      "городов": 5145,
      "провели": 5146,
      "должност": 5147,
      "##ечат": 5148,
      "друг": 5149,
      "будем": 5150,
      "себ": 5151,
      "показатели": 5152,
      "ними": 5153,
      "создания": 5154,
      "объема": 5155,
      "сектор": 5156,
      "##ателям": 5157,
      "##воев": 5158,
      "рассказала": 5159,
      "увеличение": 5160,
      "увеличился": 5161,
      "развитии": 5162,
      "земли": 5163,
      "утверд": 5164,
      "покупателей": 5165,
      "полиции": 5166,
      "дополнительные": 5167,
      "жилой": 5168,
      "аренду": 5169,
      "прогноз": 5170,
      "существ": 5171,
      "обязательства": 5172,
      "михаила": 5173,
      "агентство": 5174,
      "розни": 5175,
      "спасатель": 5176,
      "олега": 5177,
      "ночью": 5178,
      "вакци": 5179,
      "устойчив": 5180,
      "обеспечивает": 5181,
      "тамож": 5182,
      "выручка": 5183,
      "взятки": 5184,
      "убыт": 5185,
      "василий": 5186,
      "зависимости": 5187,
      "вскоре": 5188,
      "кравченко": 5189,
      "стэнли": 5190,
      "соревнов": 5191,
      "nardi": 5192,
      "yara": 5193,
      "вит": 5194,
      "втор": 5195,
      "сид": 5196,
      "сним": 5197,
      "уступ": 5198,
      "##нется": 5199,
      "##мую": 5200,
      "##жской": 5201,
      "##яются": 5202,
      "##енном": 5203,
      "##ерия": 5204,
      "##итов": 5205,
      "##горе": 5206,
      "поезд": 5207,
      "навер": 5208,
      "найти": 5209,
      "##мист": 5210,
      "прис": 5211,
      "##авших": 5212,
      "выраз": 5213,
      "выросло": 5214,
      "##льп": 5215,
      "спа": 5216,
      "неизв": 5217,
      "##чиков": 5218,
      "опрос": 5219,
      "возго": 5220,
      "экстре": 5221,
      "среднего": 5222,
      "анали": 5223,
      "##пада": 5224,
      "ново": 5225,
      "заявления": 5226,
      "должно": 5227,
      "устанавли": 5228,
      "трасс": 5229,
      "направлены": 5230,
      "иску": 5231,
      "##ini": 5232,
      "корре": 5233,
      "создать": 5234,
      "автоматиче": 5235,
      "воды": 5236,
      "помог": 5237,
      "крупные": 5238,
      "городского": 5239,
      "века": 5240,
      "материалов": 5241,
      "необходимость": 5242,
      "транспор": 5243,
      "федеральной": 5244,
      "федеральном": 5245,
      "увеличилось": 5246,
      "момента": 5247,
      "боевых": 5248,
      "исполня": 5249,
      "сетей": 5250,
      "заседания": 5251,
      "заседание": 5252,
      "кампании": 5253,
      "отказался": 5254,
      "социально": 5255,
      "сыгра": 5256,
      "телев": 5257,
      "транспортной": 5258,
      "альфа": 5259,
      "##раться": 5260,
      "превышает": 5261,
      "национального": 5262,
      "национальной": 5263,
      "труб": 5264,
      "финансовой": 5265,
      "процедуру": 5266,
      "павел": 5267,
      "странах": 5268,
      "проходят": 5269,
      "ресурсов": 5270,
      "пассажиров": 5271,
      "предполагает": 5272,
      "степени": 5273,
      "ключевых": 5274,
      "устройства": 5275,
      "целью": 5276,
      "приводит": 5277,
      "озна": 5278,
      "адвокат": 5279,
      "##ight": 5280,
      "неоднократно": 5281,
      "плюс": 5282,
      "распоряж": 5283,
      "ульянов": 5284,
      "пообещ": 5285,
      "hul": 5286,
      "дале": 5287,
      "его": 5288,
      "ист": 5289,
      "иска": 5290,
      "кг": 5291,
      "лин": 5292,
      "мон": 5293,
      "пыт": 5294,
      "твер": 5295,
      "ум": 5296,
      "чре": 5297,
      "##гер": 5298,
      "##ика": 5299,
      "##вели": 5300,
      "##вое": 5301,
      "##жан": 5302,
      "##зра": 5303,
      "##енному": 5304,
      "##рание": 5305,
      "заработ": 5306,
      "##едет": 5307,
      "##едение": 5308,
      "нашей": 5309,
      "прид": 5310,
      "подсуд": 5311,
      "##нё": 5312,
      "##ранов": 5313,
      "несовершен": 5314,
      "##ерам": 5315,
      "опп": 5316,
      "опрошен": 5317,
      "##ратов": 5318,
      "##алах": 5319,
      "##росою": 5320,
      "доли": 5321,
      "региональном": 5322,
      "самое": 5323,
      "генера": 5324,
      "федор": 5325,
      "##струкции": 5326,
      "евросою": 5327,
      "муз": 5328,
      "ваш": 5329,
      "информационной": 5330,
      "реки": 5331,
      "программу": 5332,
      "правительстве": 5333,
      "атак": 5334,
      "атаке": 5335,
      "оказались": 5336,
      "электром": 5337,
      "сторон": 5338,
      "встреч": 5339,
      "международный": 5340,
      "темпера": 5341,
      "топлив": 5342,
      "добавляет": 5343,
      "оценке": 5344,
      "нефти": 5345,
      "нефть": 5346,
      "сферы": 5347,
      "сезоне": 5348,
      "валент": 5349,
      "наиболь": 5350,
      "выросли": 5351,
      "подробности": 5352,
      "розыск": 5353,
      "сильно": 5354,
      "раскры": 5355,
      "brun": 5356,
      "англий": 5357,
      "башкирии": 5358,
      "позднее": 5359,
      "пыта": 5360,
      "причиной": 5361,
      "подозреваем": 5362,
      "скульп": 5363,
      "##интере": 5364,
      "единая": 5365,
      "анатолий": 5366,
      "здравоохран": 5367,
      "сейчас": 5368,
      "неизвест": 5369,
      "подсудим": 5370,
      "бок": 5371,
      "вел": 5372,
      "дек": 5373,
      "диз": 5374,
      "квад": 5375,
      "ктк": 5376,
      "лиз": 5377,
      "сор": 5378,
      "ссс": 5379,
      "##фер": 5380,
      "##ri": 5381,
      "##пар": 5382,
      "##пред": 5383,
      "##пев": 5384,
      "##чность": 5385,
      "##ьет": 5386,
      "##ber": 5387,
      "##рай": 5388,
      "##ране": 5389,
      "обе": 5390,
      "общий": 5391,
      "наша": 5392,
      "##ейн": 5393,
      "##такт": 5394,
      "##ковых": 5395,
      "##коти": 5396,
      "##управ": 5397,
      "изготов": 5398,
      "краю": 5399,
      "могу": 5400,
      "##леб": 5401,
      "мастер": 5402,
      "магаз": 5403,
      "##циями": 5404,
      "##говой": 5405,
      "меч": 5406,
      "новое": 5407,
      "окон": 5408,
      "##ателю": 5409,
      "основных": 5410,
      "##рованной": 5411,
      "минимум": 5412,
      "прошла": 5413,
      "москву": 5414,
      "##ong": 5415,
      "##ностями": 5416,
      "говорить": 5417,
      "другими": 5418,
      "распредел": 5419,
      "продукта": 5420,
      "дорог": 5421,
      "площадки": 5422,
      "яндекс": 5423,
      "актером": 5424,
      "выборов": 5425,
      "штат": 5426,
      "частных": 5427,
      "отмечается": 5428,
      "агро": 5429,
      "сегодняш": 5430,
      "участием": 5431,
      "сеть": 5432,
      "беспилотных": 5433,
      "утверждает": 5434,
      "часа": 5435,
      "американский": 5436,
      "каждого": 5437,
      "обратился": 5438,
      "молодых": 5439,
      "предпринимателей": 5440,
      "порядок": 5441,
      "сайт": 5442,
      "ремонта": 5443,
      "блоки": 5444,
      "##ляться": 5445,
      "искусства": 5446,
      "сельхоз": 5447,
      "процедуры": 5448,
      "ввели": 5449,
      "продолжается": 5450,
      "футболь": 5451,
      "тайф": 5452,
      "динамика": 5453,
      "категории": 5454,
      "характер": 5455,
      "успешно": 5456,
      "небольш": 5457,
      "верховный": 5458,
      "татарстане": 5459,
      "черноземье": 5460,
      "ежегодно": 5461,
      "##экономики": 5462,
      "полноцен": 5463,
      "двумя": 5464,
      "group": 5465,
      "ссср": 5466,
      "бай": 5467,
      "брит": 5468,
      "вести": 5469,
      "дон": 5470,
      "два": 5471,
      "сом": 5472,
      "сиз": 5473,
      "тан": 5474,
      "удерж": 5475,
      "упл": 5476,
      "чу": 5477,
      "##сон": 5478,
      "##гры": 5479,
      "##ури": 5480,
      "##урой": 5481,
      "##ивают": 5482,
      "##по": 5483,
      "##чки": 5484,
      "##oit": 5485,
      "##эль": 5486,
      "##ir": 5487,
      "##анского": 5488,
      "##атай": 5489,
      "пропу": 5490,
      "обмен": 5491,
      "общую": 5492,
      "рад": 5493,
      "наши": 5494,
      "##нах": 5495,
      "##обла": 5496,
      "##ава": 5497,
      "##авшие": 5498,
      "##ческое": 5499,
      "вышел": 5500,
      "##ительности": 5501,
      "##ереб": 5502,
      "##защ": 5503,
      "дост": 5504,
      "##урные": 5505,
      "опы": 5506,
      "изоб": 5507,
      "изуч": 5508,
      "мони": 5509,
      "лицен": 5510,
      "##ителю": 5511,
      "##мули": 5512,
      "##шают": 5513,
      "общества": 5514,
      "запи": 5515,
      "должника": 5516,
      "##нул": 5517,
      "град": 5518,
      "гастро": 5519,
      "основные": 5520,
      "##рованного": 5521,
      "куз": 5522,
      "производителей": 5523,
      "действует": 5524,
      "турец": 5525,
      "минэкономики": 5526,
      "кирил": 5527,
      "активности": 5528,
      "добы": 5529,
      "рассказывает": 5530,
      "класс": 5531,
      "случаях": 5532,
      "площадке": 5533,
      "удал": 5534,
      "атаков": 5535,
      "актер": 5536,
      "нарушений": 5537,
      "##атизации": 5538,
      "этап": 5539,
      "государственного": 5540,
      "улицы": 5541,
      "##ущее": 5542,
      "туризма": 5543,
      "успех": 5544,
      "областного": 5545,
      "публикации": 5546,
      "десяти": 5547,
      "мэра": 5548,
      "январь": 5549,
      "исход": 5550,
      "благотвор": 5551,
      "импор": 5552,
      "всеми": 5553,
      "##opard": 5554,
      "клуба": 5555,
      "университет": 5556,
      "ночь": 5557,
      "##ash": 5558,
      "ликви": 5559,
      "chopard": 5560,
      "полномочия": 5561,
      "трансформа": 5562,
      "смерти": 5563,
      "продукты": 5564,
      "борис": 5565,
      "спектакль": 5566,
      "соцсет": 5567,
      "призвал": 5568,
      "йорке": 5569,
      "индустри": 5570,
      "второго": 5571,
      "псих": 5572,
      "бондар": 5573,
      "коммуника": 5574,
      "альтернатив": 5575,
      "чарльз": 5576,
      "hulu": 5577,
      "kin": 5578,
      "luc": 5579,
      "tess": 5580,
      "win": 5581,
      "бил": 5582,
      "гус": 5583,
      "зону": 5584,
      "код": 5585,
      "мало": 5586,
      "нос": 5587,
      "сел": 5588,
      "тен": 5589,
      "тих": 5590,
      "ура": 5591,
      "устав": 5592,
      "учен": 5593,
      "##очен": 5594,
      "##цкий": 5595,
      "##пло": 5596,
      "##жной": 5597,
      "##бк": 5598,
      "##щению": 5599,
      "##io": 5600,
      "##нолет": 5601,
      "##анский": 5602,
      "##нина": 5603,
      "покин": 5604,
      "проп": 5605,
      "прокуро": 5606,
      "прозра": 5607,
      "заем": 5608,
      "##арова": 5609,
      "##ельно": 5610,
      "##лиц": 5611,
      "##ениях": 5612,
      "отр": 5613,
      "фотоарх": 5614,
      "подорож": 5615,
      "претен": 5616,
      "избиратель": 5617,
      "миш": 5618,
      "море": 5619,
      "сообщалось": 5620,
      "##езде": 5621,
      "##чены": 5622,
      "##шеход": 5623,
      "##ционная": 5624,
      "региональных": 5625,
      "сентябрь": 5626,
      "столь": 5627,
      "самой": 5628,
      "работал": 5629,
      "собак": 5630,
      "решением": 5631,
      "службу": 5632,
      "местах": 5633,
      "паци": 5634,
      "##тех": 5635,
      "помещ": 5636,
      "##uth": 5637,
      "форум": 5638,
      "рассчит": 5639,
      "ответственность": 5640,
      "минфин": 5641,
      "постеп": 5642,
      "история": 5643,
      "ставок": 5644,
      "обвинение": 5645,
      "владимиром": 5646,
      "случай": 5647,
      "позволя": 5648,
      "клиент": 5649,
      "периодом": 5650,
      "политика": 5651,
      "родствен": 5652,
      "объявил": 5653,
      "налога": 5654,
      "отрасл": 5655,
      "станции": 5656,
      "заключение": 5657,
      "достижения": 5658,
      "выпуска": 5659,
      "концесси": 5660,
      "хотят": 5661,
      "корпус": 5662,
      "пунктов": 5663,
      "всего": 5664,
      "получив": 5665,
      "самолета": 5666,
      "оборон": 5667,
      "необходимые": 5668,
      "сельского": 5669,
      "капитал": 5670,
      "применения": 5671,
      "артемий": 5672,
      "ввп": 5673,
      "##opois": 5674,
      "консал": 5675,
      "возраст": 5676,
      "гендиректора": 5677,
      "уточнил": 5678,
      "допуст": 5679,
      "обучение": 5680,
      "полномочий": 5681,
      "падение": 5682,
      "саратовской": 5683,
      "огонё": 5684,
      "платформы": 5685,
      "церемонии": 5686,
      "материалы": 5687,
      "benoit": 5688,
      "кинофестивале": 5689,
      "боброва": 5690,
      "пакет": 5691,
      "проектиров": 5692,
      "тюрьмы": 5693,
      "реконструк": 5694,
      "ассоциации": 5695,
      "подключ": 5696,
      "шуматов": 5697,
      "китая": 5698,
      "касается": 5699,
      "машины": 5700,
      "музея": 5701,
      "авакян": 5702,
      "сериала": 5703,
      "аукцион": 5704,
      "библи": 5705,
      "stephan": 5706,
      "несовершеннолет": 5707,
      "bruno": 5708,
      "##интересов": 5709,
      "kinopois": 5710,
      "luca": 5711,
      "tessier": 5712,
      "фотоархив": 5713,
      "огонёк": 5714,
      "kinopoisk": 5715,
      "fr": 5716,
      "али": 5717,
      "елена": 5718,
      "зоне": 5719,
      "фер": 5720,
      "фил": 5721,
      "эм": 5722,
      "##ато": 5723,
      "##тран": 5724,
      "##ужд": 5725,
      "##дам": 5726,
      "##валь": 5727,
      "##бли": 5728,
      "##стры": 5729,
      "##анная": 5730,
      "защи": 5731,
      "най": 5732,
      "наступ": 5733,
      "нашли": 5734,
      "##тай": 5735,
      "##нам": 5736,
      "комменти": 5737,
      "полос": 5738,
      "##кози": 5739,
      "препа": 5740,
      "##утся": 5741,
      "##еста": 5742,
      "росре": 5743,
      "непри": 5744,
      "первая": 5745,
      "##стоит": 5746,
      "сообщило": 5747,
      "долю": 5748,
      "долго": 5749,
      "среды": 5750,
      "таган": 5751,
      "##зывают": 5752,
      "##никова": 5753,
      "коммерческой": 5754,
      "диаг": 5755,
      "общественного": 5756,
      "##торин": 5757,
      "##цах": 5758,
      "##комнат": 5759,
      "следующий": 5760,
      "##ющими": 5761,
      "проекте": 5762,
      "##мпред": 5763,
      "ведет": 5764,
      "##шихся": 5765,
      "действовать": 5766,
      "##ителям": 5767,
      "##тый": 5768,
      "пешеход": 5769,
      "государств": 5770,
      "здании": 5771,
      "находился": 5772,
      "поддержка": 5773,
      "главой": 5774,
      "главное": 5775,
      "установили": 5776,
      "выступления": 5777,
      "передает": 5778,
      "клиниче": 5779,
      "сказать": 5780,
      "выбор": 5781,
      "международном": 5782,
      "момотов": 5783,
      "бог": 5784,
      "качество": 5785,
      "доходы": 5786,
      "поставщи": 5787,
      "родился": 5788,
      "высоко": 5789,
      "защиту": 5790,
      "отказы": 5791,
      "проблема": 5792,
      "##ury": 5793,
      "мэрии": 5794,
      "полиция": 5795,
      "режиссера": 5796,
      "источников": 5797,
      "погибших": 5798,
      "цифровых": 5799,
      "происход": 5800,
      "##ict": 5801,
      "настоящий": 5802,
      "угрозы": 5803,
      "кризис": 5804,
      "стратегии": 5805,
      "напомина": 5806,
      "бир": 5807,
      "задачи": 5808,
      "голосов": 5809,
      "пространство": 5810,
      "товар": 5811,
      "николай": 5812,
      "северной": 5813,
      "застройщик": 5814,
      "союза": 5815,
      "армении": 5816,
      "генассамблее": 5817,
      "отходов": 5818,
      "экспозиция": 5819,
      "состоится": 5820,
      "задолженности": 5821,
      "художе": 5822,
      "интеллект": 5823,
      "андрея": 5824,
      "восьми": 5825,
      "госпитализи": 5826,
      "##eek": 5827,
      "дискус": 5828,
      "##forma": 5829,
      "наркоти": 5830,
      "самарской": 5831,
      "performa": 5832,
      "экстрен": 5833,
      "геленджи": 5834,
      "саркози": 5835,
      "далее": 5836,
      "mor": 5837,
      "гум": 5838,
      "глуб": 5839,
      "жи": 5840,
      "зен": 5841,
      "кал": 5842,
      "коль": 5843,
      "мере": 5844,
      "пик": 5845,
      "сут": 5846,
      "той": 5847,
      "##оти": 5848,
      "##нение": 5849,
      "##фей": 5850,
      "##ждают": 5851,
      "##our": 5852,
      "##омет": 5853,
      "похи": 5854,
      "обещ": 5855,
      "##тировать": 5856,
      "##спонд": 5857,
      "предстоит": 5858,
      "полный": 5859,
      "##уты": 5860,
      "военных": 5861,
      "конфи": 5862,
      "миг": 5863,
      "разно": 5864,
      "сообщается": 5865,
      "одну": 5866,
      "##опар": 5867,
      "##опера": 5868,
      "совла": 5869,
      "правления": 5870,
      "банки": 5871,
      "##работа": 5872,
      "получении": 5873,
      "##фикации": 5874,
      "укреп": 5875,
      "ростом": 5876,
      "пару": 5877,
      "стражу": 5878,
      "##совета": 5879,
      "##онач": 5880,
      "##ann": 5881,
      "новым": 5882,
      "##сколько": 5883,
      "гражданина": 5884,
      "виск": 5885,
      "взя": 5886,
      "воспит": 5887,
      "коап": 5888,
      "ходатай": 5889,
      "сохранять": 5890,
      "платить": 5891,
      "сложности": 5892,
      "исполнения": 5893,
      "несо": 5894,
      "избеж": 5895,
      "альмод": 5896,
      "цифровой": 5897,
      "молодеж": 5898,
      "покину": 5899,
      "районах": 5900,
      "договоров": 5901,
      "##ill": 5902,
      "напомн": 5903,
      ".),": 5904,
      "радио": 5905,
      "выплаты": 5906,
      "ленинградской": 5907,
      "пенсион": 5908,
      "равно": 5909,
      "начальник": 5910,
      "инструменты": 5911,
      "новосибирской": 5912,
      "недоста": 5913,
      "ужест": 5914,
      "акватории": 5915,
      "шоу": 5916,
      "калинин": 5917,
      "сможет": 5918,
      "самостоятельно": 5919,
      "нововороне": 5920,
      "изначально": 5921,
      "sh": 5922,
      "гар": 5923,
      "охран": 5924,
      "рбк": 5925,
      "сесси": 5926,
      "сереб": 5927,
      "эль": 5928,
      "##тура": 5929,
      "##уг": 5930,
      "##ини": 5931,
      "##еха": 5932,
      "##ыш": 5933,
      "##чук": 5934,
      "##xi": 5935,
      "##хим": 5936,
      "##хват": 5937,
      "##ti": 5938,
      "##оволь": 5939,
      "##рода": 5940,
      "посад": 5941,
      "завоев": 5942,
      "соедин": 5943,
      "наста": 5944,
      "насколько": 5945,
      "##татом": 5946,
      "##образ": 5947,
      "призыв": 5948,
      "выигра": 5949,
      "##ором": 5950,
      "непро": 5951,
      "касп": 5952,
      "краси": 5953,
      "разные": 5954,
      "сообщение": 5955,
      "тести": 5956,
      "начало": 5957,
      "получат": 5958,
      "пасл": 5959,
      "##извод": 5960,
      "ранения": 5961,
      "направлен": 5962,
      "безуслов": 5963,
      "##int": 5964,
      "детских": 5965,
      "коррек": 5966,
      "семья": 5967,
      "главе": 5968,
      "посред": 5969,
      "##ураль": 5970,
      "эксперти": 5971,
      "реализацию": 5972,
      "класса": 5973,
      "респонд": 5974,
      "открытия": 5975,
      "черных": 5976,
      "сделки": 5977,
      "нарушении": 5978,
      "рисков": 5979,
      "дохода": 5980,
      "фактически": 5981,
      "целях": 5982,
      "закону": 5983,
      "очевид": 5984,
      "газета": 5985,
      "норм": 5986,
      "европы": 5987,
      "евгения": 5988,
      "существенно": 5989,
      "самолеты": 5990,
      "##ation": 5991,
      "снизить": 5992,
      "малого": 5993,
      "продолжают": 5994,
      "предлагают": 5995,
      "металли": 5996,
      "сокращение": 5997,
      "атм": 5998,
      "уточнили": 5999,
      "эксплуатации": 6000,
      "нижнем": 6001,
      "игроков": 6002,
      "убед": 6003,
      "питания": 6004,
      "справед": 6005,
      "генассамблеи": 6006,
      "челябинской": 6007,
      "инцидент": 6008,
      "соцсети": 6009,
      "доказатель": 6010,
      "хокке": 6011,
      "казахстан": 6012,
      "свидетель": 6013,
      "относительно": 6014,
      "наталья": 6015,
      "гонкон": 6016,
      "корреспонд": 6017,
      "росреестра": 6018,
      "таганро": 6019,
      "висконти": 6020,
      "ужесточ": 6021,
      "ex": 6022,
      "lec": 6023,
      "pict": 6024,
      "век": 6025,
      "зо": 6026,
      "зале": 6027,
      "крат": 6028,
      "крт": 6029,
      "лонд": 6030,
      "млад": 6031,
      "нен": 6032,
      "сда": 6033,
      "ху": 6034,
      "##сель": 6035,
      "##тра": 6036,
      "##гской": 6037,
      "##вей": 6038,
      "##вался": 6039,
      "##ag": 6040,
      "##под": 6041,
      "##od": 6042,
      "##щу": 6043,
      "##эф": 6044,
      "##йдут": 6045,
      "##рел": 6046,
      "##одол": 6047,
      "##риев": 6048,
      "##нист": 6049,
      "##ствии": 6050,
      "##онных": 6051,
      "пото": 6052,
      "оба": 6053,
      "зампред": 6054,
      "расти": 6055,
      "накоп": 6056,
      "отре": 6057,
      "отск": 6058,
      "##ваю": 6059,
      "выполня": 6060,
      "##гип": 6061,
      "коммента": 6062,
      "##илища": 6063,
      "##звы": 6064,
      "концу": 6065,
      "##дия": 6066,
      "компанией": 6067,
      "##инах": 6068,
      "##росов": 6069,
      "рабоч": 6070,
      "осужд": 6071,
      "объясня": 6072,
      "перечень": 6073,
      "региону": 6074,
      "самом": 6075,
      "##щают": 6076,
      "##вига": 6077,
      "решению": 6078,
      "получение": 6079,
      "развер": 6080,
      "##тория": 6081,
      "местные": 6082,
      "российским": 6083,
      "##жается": 6084,
      "верит": 6085,
      "карти": 6086,
      "прошло": 6087,
      "системе": 6088,
      "##ителями": 6089,
      "двор": 6090,
      "показы": 6091,
      "канал": 6092,
      "противо": 6093,
      "краснодарский": 6094,
      "соответствует": 6095,
      "реализация": 6096,
      "выступает": 6097,
      "федеральный": 6098,
      "##ателями": 6099,
      "собственность": 6100,
      "увеличить": 6101,
      "председателем": 6102,
      "путем": 6103,
      "деятельностью": 6104,
      "##тировки": 6105,
      "задержан": 6106,
      "законодательство": 6107,
      "кубани": 6108,
      "оценкам": 6109,
      "банкротство": 6110,
      "сиби": 6111,
      "предоставлено": 6112,
      "американского": 6113,
      "транспортных": 6114,
      "точно": 6115,
      "официально": 6116,
      "занимал": 6117,
      "охраны": 6118,
      "дальше": 6119,
      "специальной": 6120,
      "многих": 6121,
      "креатив": 6122,
      "третьем": 6123,
      "задач": 6124,
      "задача": 6125,
      "историю": 6126,
      "разреш": 6127,
      "гибдд": 6128,
      "вступил": 6129,
      "##фё": 6130,
      "субъекта": 6131,
      "самоуправ": 6132,
      "миллиар": 6133,
      "обучения": 6134,
      "ближайшие": 6135,
      "уфсб": 6136,
      "##ocq": 6137,
      "краснодаре": 6138,
      "ипотеч": 6139,
      "съемках": 6140,
      "постоянно": 6141,
      "органах": 6142,
      "бензин": 6143,
      "бензина": 6144,
      "огонь": 6145,
      "травмы": 6146,
      "похож": 6147,
      "ожидания": 6148,
      "элвис": 6149,
      "костю": 6150,
      "демонстрирует": 6151,
      "кавказ": 6152,
      "облига": 6153,
      "отрасль": 6154,
      "подверг": 6155,
      "экстремист": 6156,
      "здравоохранения": 6157,
      "##защит": 6158,
      "мониторин": 6159,
      "соцсетях": 6160,
      "stephanie": 6161,
      "lecocq": 6162,
      "pictur": 6163,
      "hong": 6164,
      "po": 6165,
      "груз": 6166,
      "двер": 6167,
      "есте": 6168,
      "егип": 6169,
      "же": 6170,
      "иль": 6171,
      "лы": 6172,
      "лод": 6173,
      "ов": 6174,
      "сдерж": 6175,
      "упол": 6176,
      "честь": 6177,
      "шай": 6178,
      "эфи": 6179,
      "##ари": 6180,
      "##син": 6181,
      "##ген": 6182,
      "##уль": 6183,
      "##до": 6184,
      "##дж": 6185,
      "##ваться": 6186,
      "##чку": 6187,
      "##жется": 6188,
      "##жалов": 6189,
      "##зовы": 6190,
      "##na": 6191,
      "##ьян": 6192,
      "##шта": 6193,
      "##po": 6194,
      "##тости": 6195,
      "##нике": 6196,
      "##инспек": 6197,
      "прото": 6198,
      "обоснов": 6199,
      "обжалов": 6200,
      "заслуж": 6201,
      "привы": 6202,
      "##рыва": 6203,
      "подстав": 6204,
      "##даются": 6205,
      "##ляем": 6206,
      "##номочен": 6207,
      "перви": 6208,
      "компет": 6209,
      "##шив": 6210,
      "кафе": 6211,
      "##езж": 6212,
      "аван": 6213,
      "##вых": 6214,
      "осна": 6215,
      "долла": 6216,
      "##ционным": 6217,
      "##муля": 6218,
      "коммерческий": 6219,
      "росту": 6220,
      "местных": 6221,
      "российская": 6222,
      "российское": 6223,
      "парал": 6224,
      "стадии": 6225,
      "##стами": 6226,
      "верто": 6227,
      "сконч": 6228,
      "##art": 6229,
      "управлением": 6230,
      "форме": 6231,
      "##менты": 6232,
      "расследования": 6233,
      "московской": 6234,
      "матч": 6235,
      "показывает": 6236,
      "видим": 6237,
      "последних": 6238,
      "кир": 6239,
      "сотрудника": 6240,
      "руководством": 6241,
      "увеличи": 6242,
      "вида": 6243,
      "крым": 6244,
      "сталки": 6245,
      "срока": 6246,
      "особое": 6247,
      "значения": 6248,
      "остальные": 6249,
      "земле": 6250,
      "процессов": 6251,
      "никто": 6252,
      "кредитной": 6253,
      "игры": 6254,
      "палаты": 6255,
      "затрат": 6256,
      "сложно": 6257,
      "включает": 6258,
      "сравн": 6259,
      "временного": 6260,
      "звуч": 6261,
      "произошед": 6262,
      "источника": 6263,
      "молодежи": 6264,
      "прибыли": 6265,
      "валют": 6266,
      "нормат": 6267,
      "оставаться": 6268,
      "##ратьев": 6269,
      "##ницей": 6270,
      "довольно": 6271,
      "финансового": 6272,
      "сократилось": 6273,
      "выставки": 6274,
      "назначения": 6275,
      "позицию": 6276,
      "трое": 6277,
      "пользователей": 6278,
      "издели": 6279,
      "металл": 6280,
      "динамику": 6281,
      "понят": 6282,
      "убийства": 6283,
      "убийстве": 6284,
      "рассмотрение": 6285,
      "входят": 6286,
      "европейских": 6287,
      "вдвое": 6288,
      "почему": 6289,
      "начальника": 6290,
      "барс": 6291,
      "запуск": 6292,
      "документации": 6293,
      "пись": 6294,
      "механизм": 6295,
      "теплоснаб": 6296,
      "ориенти": 6297,
      "вуза": 6298,
      "полагает": 6299,
      "поводу": 6300,
      "середине": 6301,
      "new": 6302,
      "предпоч": 6303,
      "покинуть": 6304,
      "уполномочен": 6305,
      "паралл": 6306,
      "ar": 6307,
      "fu": 6308,
      "fm": 6309,
      "вина": 6310,
      "воло": 6311,
      "гид": 6312,
      "елиз": 6313,
      "нол": 6314,
      "оке": 6315,
      "сед": 6316,
      "селе": 6317,
      "титу": 6318,
      "шест": 6319,
      "##ация": 6320,
      "##чка": 6321,
      "##шкина": 6322,
      "##бом": 6323,
      "##bes": 6324,
      "##fa": 6325,
      "##-<": 6326,
      "##ола": 6327,
      "пога": 6328,
      "запа": 6329,
      "сооруж": 6330,
      "нак": 6331,
      "##еку": 6332,
      "##ейл": 6333,
      "##рована": 6334,
      "привести": 6335,
      "пришел": 6336,
      "стек": 6337,
      "выгод": 6338,
      "выйти": 6339,
      "предмет": 6340,
      "слез": 6341,
      "##ующим": 6342,
      "росави": 6343,
      "##чист": 6344,
      "оплат": 6345,
      "разрабаты": 6346,
      "мотива": 6347,
      "судом": 6348,
      "##опол": 6349,
      "региональный": 6350,
      "##алог": 6351,
      "самая": 6352,
      "работников": 6353,
      "орган": 6354,
      "##поле": 6355,
      "парфё": 6356,
      "##против": 6357,
      "##енью": 6358,
      "##anc": 6359,
      "##ентами": 6360,
      "производству": 6361,
      "ведется": 6362,
      "##ического": 6363,
      "показали": 6364,
      "видов": 6365,
      "требуется": 6366,
      "третий": 6367,
      "другим": 6368,
      "граждане": 6369,
      "вопросов": 6370,
      "лекар": 6371,
      "##шегося": 6372,
      "группе": 6373,
      "кроссов": 6374,
      "необходимости": 6375,
      "макро": 6376,
      "федеральных": 6377,
      "готова": 6378,
      "этапе": 6379,
      "окружа": 6380,
      "кредитов": 6381,
      "камер": 6382,
      "показа": 6383,
      "женщи": 6384,
      "вперед": 6385,
      "воздуха": 6386,
      "муниципального": 6387,
      "требованиям": 6388,
      "центрального": 6389,
      "центральном": 6390,
      "будущего": 6391,
      "гостиницы": 6392,
      "капитала": 6393,
      "ang": 6394,
      "креп": 6395,
      "гриппа": 6396,
      "третье": 6397,
      "артема": 6398,
      "воздушных": 6399,
      "воздушного": 6400,
      "намерен": 6401,
      "##сою": 6402,
      "супер": 6403,
      "платежей": 6404,
      "половиной": 6405,
      "потерпев": 6406,
      "рабочие": 6407,
      "отчетности": 6408,
      "светлана": 6409,
      "чиновник": 6410,
      "получают": 6411,
      "сотрудничества": 6412,
      "соответствующее": 6413,
      "выраст": 6414,
      "индуст": 6415,
      "реаги": 6416,
      "высказыв": 6417,
      "mercury": 6418,
      "белоруссии": 6419,
      "forbes": 6420,
      "прикамье": 6421,
      "конюхов": 6422,
      "зависит": 6423,
      "абсолютно": 6424,
      "тяже": 6425,
      "линей": 6426,
      "чрезвы": 6427,
      "придется": 6428,
      "сизо": 6429,
      "парфёнов": 6430,
      "чрезвычай": 6431,
      "(-<": 6432,
      ".<": 6433,
      "de": 6434,
      "pol": 6435,
      "tim": 6436,
      "гроз": 6437,
      "ил": 6438,
      "ирана": 6439,
      "илья": 6440,
      "коз": 6441,
      "мам": 6442,
      "она": 6443,
      "оруж": 6444,
      "тол": 6445,
      "това": 6446,
      "талан": 6447,
      "фз": 6448,
      "ях": 6449,
      "##туры": 6450,
      "##оку": 6451,
      "##окуп": 6452,
      "##нс": 6453,
      "##умышлен": 6454,
      "##лот": 6455,
      "##ab": 6456,
      "##пания": 6457,
      "##ющую": 6458,
      "##щать": 6459,
      "##sp": 6460,
      "##ерл": 6461,
      "прояв": 6462,
      "пройти": 6463,
      "##казано": 6464,
      "##емато": 6465,
      "заинтересов": 6466,
      "напада": 6467,
      "##ельных": 6468,
      "##кино": 6469,
      "выбира": 6470,
      "##оту": 6471,
      "##гию": 6472,
      "полез": 6473,
      "##лях": 6474,
      "россией": 6475,
      "кап": 6476,
      "каких": 6477,
      "##инации": 6478,
      "маги": 6479,
      "маска": 6480,
      "акку": 6481,
      "новгороде": 6482,
      "совокуп": 6483,
      "самые": 6484,
      "начать": 6485,
      "начнут": 6486,
      "запис": 6487,
      "запорож": 6488,
      "решет": 6489,
      "решили": 6490,
      "получит": 6491,
      "сути": 6492,
      "##проекта": 6493,
      "продав": 6494,
      "строгого": 6495,
      "генпл": 6496,
      "друга": 6497,
      "основная": 6498,
      "формат": 6499,
      "соглашений": 6500,
      "баш": 6501,
      "последнее": 6502,
      "строительстве": 6503,
      "отношений": 6504,
      "главным": 6505,
      "компаниям": 6506,
      "руководителей": 6507,
      "##end": 6508,
      "установил": 6509,
      "напит": 6510,
      "метров": 6511,
      "белого": 6512,
      "аэрод": 6513,
      "продаже": 6514,
      "сказала": 6515,
      "путина": 6516,
      "завершения": 6517,
      "##ождении": 6518,
      "законч": 6519,
      "рейсов": 6520,
      "интересов": 6521,
      "достигла": 6522,
      "название": 6523,
      "ряда": 6524,
      "турции": 6525,
      "лидера": 6526,
      "режиссеры": 6527,
      "##ваемых": 6528,
      "цифрови": 6529,
      "##ech": 6530,
      "европе": 6531,
      "портале": 6532,
      "конкурса": 6533,
      "довери": 6534,
      "гибели": 6535,
      "товары": 6536,
      "предлагает": 6537,
      "хими": 6538,
      "текущего": 6539,
      "рейтинг": 6540,
      "крайне": 6541,
      "студентов": 6542,
      "картот": 6543,
      "генпрокуратура": 6544,
      "ключевым": 6545,
      "рекомендов": 6546,
      "энергетиче": 6547,
      "наличи": 6548,
      "тенден": 6549,
      "дрейк": 6550,
      "волгоградской": 6551,
      "реабил": 6552,
      "портфель": 6553,
      "##волю": 6554,
      "дивер": 6555,
      "злоумышлен": 6556,
      "констати": 6557,
      "оплаты": 6558,
      "ликвиди": 6559,
      "независимы": 6560,
      "квалифици": 6561,
      "кинемато": 6562,
      "ленобла": 6563,
      "трубопровод": 6564,
      "диагности": 6565,
      "сутки": 6566,
      "каспий": 6567,
      "##росовест": 6568,
      "тяжести": 6569,
      "sp": 6570,
      "боро": 6571,
      "вени": 6572,
      "илон": 6573,
      "идут": 6574,
      "мм": 6575,
      "съ": 6576,
      "упро": 6577,
      "эд": 6578,
      "юго": 6579,
      "##гель": 6580,
      "##ланова": 6581,
      "##жов": 6582,
      "##жда": 6583,
      "##щев": 6584,
      "##iv": 6585,
      "##стом": 6586,
      "##рию": 6587,
      "##кает": 6588,
      "##ческими": 6589,
      "выгляд": 6590,
      "##альности": 6591,
      "##альность": 6592,
      "##ляли": 6593,
      "преодол": 6594,
      "##ственную": 6595,
      "дочер": 6596,
      "##новения": 6597,
      "этого": 6598,
      "автор": 6599,
      "долг": 6600,
      "долей": 6601,
      "судостро": 6602,
      "##чено": 6603,
      "##ильм": 6604,
      "лично": 6605,
      "регионы": 6606,
      "новом": 6607,
      "новую": 6608,
      "горожан": 6609,
      "##природ": 6610,
      "правило": 6611,
      "##зировать": 6612,
      "##меть": 6613,
      "парка": 6614,
      "продемон": 6615,
      "##ant": 6616,
      "сколько": 6617,
      "марченко": 6618,
      "прошу": 6619,
      "оператором": 6620,
      "последствий": 6621,
      "ставку": 6622,
      "созданию": 6623,
      "главных": 6624,
      "рекла": 6625,
      "бизнесом": 6626,
      "предложений": 6627,
      "веще": 6628,
      "крыжов": 6629,
      "атаку": 6630,
      "республикан": 6631,
      "профсою": 6632,
      "международной": 6633,
      "повышен": 6634,
      "объявлена": 6635,
      "беспилотники": 6636,
      "цене": 6637,
      "связанных": 6638,
      "интересы": 6639,
      "кубка": 6640,
      "##ital": 6641,
      "разработки": 6642,
      "балета": 6643,
      "гуц": 6644,
      "авито": 6645,
      "резю": 6646,
      "##ect": 6647,
      "выхода": 6648,
      "подтвержд": 6649,
      "повреждения": 6650,
      "гостини": 6651,
      "завершить": 6652,
      "сопер": 6653,
      "театр": 6654,
      "филиала": 6655,
      "созда": 6656,
      "весной": 6657,
      "женщина": 6658,
      "финансовых": 6659,
      "занял": 6660,
      "взыскании": 6661,
      "ближайшее": 6662,
      "функцион": 6663,
      "участвовать": 6664,
      "влияние": 6665,
      "рекоменду": 6666,
      "верховного": 6667,
      "турнир": 6668,
      "архитектуры": 6669,
      "предупред": 6670,
      "десятки": 6671,
      "здоровья": 6672,
      "следователи": 6673,
      "надзорного": 6674,
      "превра": 6675,
      "продукцию": 6676,
      "асв": 6677,
      "##едаго": 6678,
      "сигнал": 6679,
      "муниципалитета": 6680,
      "адрес": 6681,
      "стиле": 6682,
      "повысить": 6683,
      "потенциал": 6684,
      "предназ": 6685,
      "сбербанка": 6686,
      "проспекте": 6687,
      "института": 6688,
      "тенни": 6689,
      "постепенно": 6690,
      "респондентов": 6691,
      "картины": 6692,
      "елизав": 6693,
      "слезам": 6694,
      "аккумуля": 6695,
      "реабилита": 6696,
      "вениам": 6697,
      "продемонстри": 6698,
      "крыжовников": 6699,
      "le": 6700,
      "аф": 6701,
      "вме": 6702,
      "гай": 6703,
      "дз": 6704,
      "дает": 6705,
      "даг": 6706,
      "иметь": 6707,
      "кого": 6708,
      "лив": 6709,
      "леч": 6710,
      "мото": 6711,
      "нхл": 6712,
      "педаго": 6713,
      "убор": 6714,
      "фаса": 6715,
      "шах": 6716,
      "экипа": 6717,
      "##гри": 6718,
      "##мс": 6719,
      "##мон": 6720,
      "##мек": 6721,
      "##лета": 6722,
      "##ap": 6723,
      "##ob": 6724,
      "##ьми": 6725,
      "##шать": 6726,
      "##эт": 6727,
      "##der": 6728,
      "##iz": 6729,
      "##анитар": 6730,
      "##олос": 6731,
      "##горя": 6732,
      "##инской": 6733,
      "##лаб": 6734,
      "застав": 6735,
      "##орци": 6736,
      "##едом": 6737,
      "##арной": 6738,
      "отпу": 6739,
      "отмени": 6740,
      "принес": 6741,
      "подня": 6742,
      "##зами": 6743,
      "##вым": 6744,
      "оде": 6745,
      "##ционное": 6746,
      "переработ": 6747,
      "новост": 6748,
      "##есо": 6749,
      "составили": 6750,
      "красные": 6751,
      "получать": 6752,
      "расчет": 6753,
      "будущее": 6754,
      "повли": 6755,
      "операций": 6756,
      "территория": 6757,
      "муль": 6758,
      "высоте": 6759,
      "туап": 6760,
      "минув": 6761,
      "поддержали": 6762,
      "гражданам": 6763,
      "установить": 6764,
      "коор": 6765,
      "инвестиционной": 6766,
      "увеличилась": 6767,
      "международных": 6768,
      "промышленной": 6769,
      "##ющихся": 6770,
      "потребителей": 6771,
      "##шейся": 6772,
      "никита": 6773,
      "факт": 6774,
      "объявили": 6775,
      "бюджетных": 6776,
      "##ехать": 6777,
      "проголос": 6778,
      "важным": 6779,
      "сервисов": 6780,
      "выпуст": 6781,
      "сыр": 6782,
      "сын": 6783,
      "публика": 6784,
      "американской": 6785,
      "дополнительно": 6786,
      "дополнительных": 6787,
      "инвестор": 6788,
      "фигурантом": 6789,
      "существует": 6790,
      "эффект": 6791,
      "современного": 6792,
      "будущем": 6793,
      "гостиница": 6794,
      "снизилась": 6795,
      "##ile": 6796,
      "премьера": 6797,
      "финансирование": 6798,
      "назначили": 6799,
      "процедура": 6800,
      "контрактов": 6801,
      "гарантий": 6802,
      "консорци": 6803,
      "владельцев": 6804,
      "традиционно": 6805,
      "никола": 6806,
      "петербургского": 6807,
      "правам": 6808,
      "маршрут": 6809,
      "обсуждения": 6810,
      "освобод": 6811,
      "менеджеров": 6812,
      "предупрежд": 6813,
      "обслуживание": 6814,
      "чемпионата": 6815,
      "виноград": 6816,
      "учитывая": 6817,
      "столк": 6818,
      "столкну": 6819,
      "ресторана": 6820,
      "правоохранительных": 6821,
      "букмек": 6822,
      "интеллек": 6823,
      "многоквартирных": 6824,
      "сообщества": 6825,
      "налого": 6826,
      "регулярно": 6827,
      "сцене": 6828,
      "прежнему": 6829,
      "инициатива": 6830,
      "напрямую": 6831,
      "пришлось": 6832,
      "италии": 6833,
      "витали": 6834,
      "пообещал": 6835,
      "библиот": 6836,
      "гуманитар": 6837,
      "безусловно": 6838,
      "angel": 6839,
      "магистра": 6840,
      "ленобласти": 6841,
      "col": 6842,
      "gon": 6843,
      "ай": 6844,
      "буты": 6845,
      "дат": 6846,
      "жан": 6847,
      "жора": 6848,
      "ина": 6849,
      "лета": 6850,
      "мосф": 6851,
      "ух": 6852,
      "чс": 6853,
      "чест": 6854,
      "##ака": 6855,
      "##оф": 6856,
      "##уса": 6857,
      "##мана": 6858,
      "##лер": 6859,
      "##лова": 6860,
      "##фу": 6861,
      "##кей": 6862,
      "##чал": 6863,
      "##ok": 6864,
      "##шло": 6865,
      "##юн": 6866,
      "##яков": 6867,
      "##ящего": 6868,
      "##ust": 6869,
      "##ss": 6870,
      "##qi": 6871,
      "##zalo": 6872,
      "##рок": 6873,
      "##ресси": 6874,
      "##тозам": 6875,
      "##иты": 6876,
      "##нив": 6877,
      "поку": 6878,
      "посл": 6879,
      "##инга": 6880,
      "##ладов": 6881,
      "прогу": 6882,
      "заме": 6883,
      "заряд": 6884,
      "сожал": 6885,
      "настро": 6886,
      "##лиш": 6887,
      "привет": 6888,
      "прирост": 6889,
      "##вай": 6890,
      "##гий": 6891,
      "полетов": 6892,
      "преслед": 6893,
      "##гают": 6894,
      "##дини": 6895,
      "пермь": 6896,
      "##чик": 6897,
      "госза": 6898,
      "мисси": 6899,
      "краевой": 6900,
      "разбиратель": 6901,
      "одному": 6902,
      "перебо": 6903,
      "##паз": 6904,
      "месс": 6905,
      "новому": 6906,
      "планов": 6907,
      "начался": 6908,
      "банком": 6909,
      "заявлял": 6910,
      "##гласно": 6911,
      "##истов": 6912,
      "##очных": 6913,
      "##очной": 6914,
      "сух": 6915,
      "следствием": 6916,
      "экспеди": 6917,
      "##производ": 6918,
      "приволж": 6919,
      "господину": 6920,
      "направлений": 6921,
      "строительной": 6922,
      "однажды": 6923,
      "добров": 6924,
      "гражданство": 6925,
      "сбора": 6926,
      "крупного": 6927,
      "вирт": 6928,
      "взгляд": 6929,
      "крон": 6930,
      "большое": 6931,
      "открытое": 6932,
      "фильме": 6933,
      "черном": 6934,
      "учета": 6935,
      "вторы": 6936,
      "##ендж": 6937,
      "заключил": 6938,
      "школе": 6939,
      "связан": 6940,
      "##ехал": 6941,
      "гордумы": 6942,
      "кубок": 6943,
      "практиче": 6944,
      "областей": 6945,
      "исполнении": 6946,
      "##urent": 6947,
      "множе": 6948,
      "подготовке": 6949,
      "временем": 6950,
      "приговорил": 6951,
      "приговорили": 6952,
      "впечат": 6953,
      "звон": 6954,
      "звезд": 6955,
      "газпром": 6956,
      "отделения": 6957,
      "королев": 6958,
      "конкурент": 6959,
      "мероприятие": 6960,
      "ярославль": 6961,
      "предлаг": 6962,
      "заниматься": 6963,
      "указы": 6964,
      "утра": 6965,
      "блока": 6966,
      "искусственного": 6967,
      "объектах": 6968,
      "кмч": 6969,
      "выставке": 6970,
      "земельных": 6971,
      "голосования": 6972,
      "госпожи": 6973,
      "корпорации": 6974,
      "создает": 6975,
      "##entes": 6976,
      "практики": 6977,
      "фестиваль": 6978,
      "рейтинга": 6979,
      "скорость": 6980,
      "ростове": 6981,
      "отдельных": 6982,
      "постановление": 6983,
      "алкоголя": 6984,
      "взыскать": 6985,
      "исключительно": 6986,
      "возглавил": 6987,
      "азс": 6988,
      "азаров": 6989,
      "уверен": 6990,
      "департамент": 6991,
      "пласти": 6992,
      "чистая": 6993,
      "попал": 6994,
      "перспективе": 6995,
      "протяж": 6996,
      "бориса": 6997,
      "подрядчик": 6998,
      "сборной": 6999,
      "расширение": 7000,
      "левитин": 7001,
      "хоккей": 7002,
      "возбудили": 7003,
      "результатам": 7004,
      "полугодии": 7005,
      "останется": 7006,
      "единогласно": 7007,
      "вынуждены": 7008,
      "подчеркивает": 7009,
      "оружи": 7010,
      "иноагентом": 7011,
      "спокойствие": 7012,
      "одобр": 7013,
      "хочет": 7014,
      "saint": 7015,
      "laurent": 7016,
      "устойчиво": 7017,
      "коррупции": 7018,
      "прокомментировал": 7019,
      "госсекрет": 7020,
      "диапаз": 7021,
      "энергетики": 7022,
      "электромоб": 7023,
      "квадрат": 7024,
      "небольшой": 7025,
      "уплаты": 7026,
      "изображ": 7027,
      "градостро": 7028,
      "кирилл": 7029,
      "импортозам": 7030,
      "консалтин": 7031,
      "избежать": 7032,
      "корреспондент": 7033,
      "hongqi": 7034,
      "fuentes": 7035,
      "женщины": 7036,
      "оружия": 7037,
      "дагест": 7038,
      "gonzalo": 7039,
      "мосфильм": 7040,
      "вирту": 7041,
      "com": 7042,
      "di": 7043,
      "dav": 7044,
      "li": 7045,
      "впол": 7046,
      "где": 7047,
      "дил": 7048,
      "длин": 7049,
      "ини": 7050,
      "истреб": 7051,
      "кто": 7052,
      "кем": 7053,
      "кнр": 7054,
      "лоб": 7055,
      "пя": 7056,
      "упа": 7057,
      "фас": 7058,
      "чере": 7059,
      "##тной": 7060,
      "##оном": 7061,
      "##рити": 7062,
      "##гре": 7063,
      "##иа": 7064,
      "##хозяй": 7065,
      "##хождения": 7066,
      "##бри": 7067,
      "##банк": 7068,
      "##ia": 7069,
      "##qu": 7070,
      "##енс": 7071,
      "##овар": 7072,
      "##ump": 7073,
      "##ними": 7074,
      "почет": 7075,
      "поток": 7076,
      "поясняет": 7077,
      "прокурор": 7078,
      "##емость": 7079,
      "##осистем": 7080,
      "##ектом": 7081,
      "##тап": 7082,
      "##нами": 7083,
      "реак": 7084,
      "отца": 7085,
      "отстран": 7086,
      "##чего": 7087,
      "##вающей": 7088,
      "##кут": 7089,
      "##неф": 7090,
      "инстанции": 7091,
      "##ительному": 7092,
      "вошел": 7093,
      "##дий": 7094,
      "этом": 7095,
      "##езды": 7096,
      "##дум": 7097,
      "лиги": 7098,
      "средний": 7099,
      "тепло": 7100,
      "рыно": 7101,
      "следственный": 7102,
      "падел": 7103,
      "партию": 7104,
      "устро": 7105,
      "##ться": 7106,
      "произвед": 7107,
      "##товой": 7108,
      "производитель": 7109,
      "приведет": 7110,
      "прошед": 7111,
      "глад": 7112,
      "первонач": 7113,
      "базы": 7114,
      "депоз": 7115,
      "вклад": 7116,
      "июль": 7117,
      "находились": 7118,
      "активность": 7119,
      "владислав": 7120,
      "добиться": 7121,
      "водоснаб": 7122,
      "вирус": 7123,
      "предложили": 7124,
      "алтай": 7125,
      "большого": 7126,
      "большую": 7127,
      "прошлой": 7128,
      "всему": 7129,
      "торже": 7130,
      "значение": 7131,
      "темы": 7132,
      "потребов": 7133,
      "процессу": 7134,
      "соответствующий": 7135,
      "соответствующие": 7136,
      "школа": 7137,
      "связаны": 7138,
      "социальные": 7139,
      "##надзор": 7140,
      "сир": 7141,
      "многочисл": 7142,
      "поступления": 7143,
      "инфраструктура": 7144,
      "временно": 7145,
      "проводится": 7146,
      "требованиями": 7147,
      "##ешь": 7148,
      "##ice": 7149,
      "центральный": 7150,
      "пояснили": 7151,
      "охла": 7152,
      "банковских": 7153,
      "будучи": 7154,
      "обвиняется": 7155,
      "лучших": 7156,
      "филипп": 7157,
      "лукино": 7158,
      "разрешения": 7159,
      "типа": 7160,
      "содержание": 7161,
      "тренд": 7162,
      "статье": 7163,
      "обновление": 7164,
      "рассмотрения": 7165,
      "финансовый": 7166,
      "категорий": 7167,
      "ударов": 7168,
      "##ридонов": 7169,
      "##edes": 7170,
      "ставропольского": 7171,
      "символ": 7172,
      "характера": 7173,
      "масшта": 7174,
      "дорожного": 7175,
      "образовательных": 7176,
      "зарплаты": 7177,
      "падения": 7178,
      "московского": 7179,
      "мошенничество": 7180,
      "дениса": 7181,
      "памятник": 7182,
      "париже": 7183,
      "денежно": 7184,
      "борьбе": 7185,
      "фирмы": 7186,
      "обвиняемый": 7187,
      "дрейка": 7188,
      "подтвердил": 7189,
      "квартале": 7190,
      "стимули": 7191,
      "инфляции": 7192,
      "дипломат": 7193,
      "путешествен": 7194,
      "mercedes": 7195,
      "спикер": 7196,
      "вероятно": 7197,
      "подсчит": 7198,
      "trump": 7199,
      "интегра": 7200,
      "значимых": 7201,
      "лагер": 7202,
      "чтении": 7203,
      "присво": 7204,
      "дизель": 7205,
      "совладель": 7206,
      "зоопар": 7207,
      "сибирь": 7208,
      "##штад": 7209,
      "металлур": 7210,
      "параллельно": 7211,
      "times": 7212,
      "мульти": 7213,
      "сожалению": 7214,
      "мессендж": 7215,
      "вполне": 7216,
      "иниции": 7217,
      "агра": 7218,
      "асси": 7219,
      "бю": 7220,
      "гав": 7221,
      "гром": 7222,
      "дис": 7223,
      "мать": 7224,
      "осп": 7225,
      "псб": 7226,
      "рел": 7227,
      "сне": 7228,
      "усад": 7229,
      "указано": 7230,
      "фло": 7231,
      "##тер": 7232,
      "##устро": 7233,
      "##дена": 7234,
      "##лоб": 7235,
      "##вра": 7236,
      "##фим": 7237,
      "##фина": 7238,
      "##фик": 7239,
      "##чел": 7240,
      "##знач": 7241,
      "##ner": 7242,
      "##ьют": 7243,
      "##юс": 7244,
      "##бар": 7245,
      "##яг": 7246,
      "##енов": 7247,
      "##ове": 7248,
      "##скова": 7249,
      "##атизи": 7250,
      "пог": 7251,
      "нара": 7252,
      "револю": 7253,
      "прик": 7254,
      "присо": 7255,
      "фотографи": 7256,
      "##удеб": 7257,
      "##ковал": 7258,
      "##культ": 7259,
      "предот": 7260,
      "##илии": 7261,
      "военный": 7262,
      "доно": 7263,
      "##мах": 7264,
      "##див": 7265,
      "##града": 7266,
      "кац": 7267,
      "кара": 7268,
      "разум": 7269,
      "мост": 7270,
      "облад": 7271,
      "долматов": 7272,
      "##зова": 7273,
      "экск": 7274,
      "##орами": 7275,
      "экспорта": 7276,
      "центром": 7277,
      "русл": 7278,
      "марки": 7279,
      "показателя": 7280,
      "строительству": 7281,
      "##ine": 7282,
      "##ell": 7283,
      "апарта": 7284,
      "руководители": 7285,
      "рассказы": 7286,
      "украина": 7287,
      "городскую": 7288,
      "напис": 7289,
      "большом": 7290,
      "открыт": 7291,
      "объемов": 7292,
      "девоч": 7293,
      "петербургу": 7294,
      "учред": 7295,
      "принятия": 7296,
      "собственных": 7297,
      "собственного": 7298,
      "оказалась": 7299,
      "электрос": 7300,
      "уголовному": 7301,
      "риска": 7302,
      "темпы": 7303,
      "этапа": 7304,
      "участии": 7305,
      "##тироваться": 7306,
      "высоким": 7307,
      "рейсы": 7308,
      "школу": 7309,
      "связанные": 7310,
      "ключевые": 7311,
      "сохраняется": 7312,
      "достиж": 7313,
      "принять": 7314,
      "проектах": 7315,
      "количества": 7316,
      "совете": 7317,
      "назвали": 7318,
      "кадры": 7319,
      "внимания": 7320,
      "инфраструктуру": 7321,
      "временные": 7322,
      "лидером": 7323,
      "войну": 7324,
      "любим": 7325,
      "муниципальных": 7326,
      "задейств": 7327,
      "нормы": 7328,
      "невы": 7329,
      "аренда": 7330,
      "конкурсе": 7331,
      "требованием": 7332,
      "центральной": 7333,
      "всероссий": 7334,
      "мирных": 7335,
      "довер": 7336,
      "сократить": 7337,
      "запрете": 7338,
      "кандидатов": 7339,
      "сельско": 7340,
      "назначил": 7341,
      "оценивается": 7342,
      "облом": 7343,
      "лука": 7344,
      "западной": 7345,
      "ребя": 7346,
      "передаче": 7347,
      "передачи": 7348,
      "иванов": 7349,
      "сегмента": 7350,
      "трени": 7351,
      "комиссия": 7352,
      "упом": 7353,
      "зеленский": 7354,
      "консульта": 7355,
      "следующем": 7356,
      "золото": 7357,
      "татья": 7358,
      "мошенничестве": 7359,
      "архитектур": 7360,
      "инициативу": 7361,
      "вреда": 7362,
      "какой": 7363,
      "экспозиции": 7364,
      "столицы": 7365,
      "регистраций": 7366,
      "модернизации": 7367,
      "долгосрочной": 7368,
      "сенатора": 7369,
      "карьеры": 7370,
      "нагрузки": 7371,
      "второе": 7372,
      "развивается": 7373,
      "тяжелом": 7374,
      "стрель": 7375,
      "можем": 7376,
      "усилия": 7377,
      "идти": 7378,
      "тамбовской": 7379,
      "выяснилось": 7380,
      "ждать": 7381,
      "off": 7382,
      "армии": 7383,
      "золотая": 7384,
      "интерфакс": 7385,
      "возгорания": 7386,
      "мишуст": 7387,
      "атмосф": 7388,
      "##сельхоз": 7389,
      "самоуправления": 7390,
      "pictures": 7391,
      "кронштад": 7392,
      "релиз": 7393,
      "усадь": 7394,
      "долматовская": 7395,
      "сельскохозяй": 7396,
      "wor": 7397,
      "ассамбле": 7398,
      "вли": 7399,
      "воль": 7400,
      "вруч": 7401,
      "игоря": 7402,
      "кож": 7403,
      "кала": 7404,
      "мос": 7405,
      "мера": 7406,
      "нест": 7407,
      "ощу": 7408,
      "рок": 7409,
      "сест": 7410,
      "тест": 7411,
      "трат": 7412,
      "фар": 7413,
      "эко": 7414,
      "юлия": 7415,
      "##око": 7416,
      "##ега": 7417,
      "##валось": 7418,
      "##кос": 7419,
      "##шов": 7420,
      "##юсь": 7421,
      "##ящие": 7422,
      "##ian": 7423,
      "##раши": 7424,
      "##ресур": 7425,
      "##толо": 7426,
      "##скоп": 7427,
      "обстанов": 7428,
      "законом": 7429,
      "##руя": 7430,
      "##арк": 7431,
      "отрем": 7432,
      "##огом": 7433,
      "комн": 7434,
      "##ево": 7435,
      "подмо": 7436,
      "подъем": 7437,
      "##ительном": 7438,
      "##ующей": 7439,
      "##щики": 7440,
      "##тиви": 7441,
      "оправ": 7442,
      "##изн": 7443,
      "такси": 7444,
      "##душ": 7445,
      "##ательных": 7446,
      "экологии": 7447,
      "марина": 7448,
      "актива": 7449,
      "испании": 7450,
      "сувер": 7451,
      "##вард": 7452,
      "##ятия": 7453,
      "больницы": 7454,
      "рука": 7455,
      "основу": 7456,
      "участки": 7457,
      "сотни": 7458,
      "киб": 7459,
      "app": 7460,
      "дети": 7461,
      "создании": 7462,
      "признании": 7463,
      "экономике": 7464,
      "автоматизации": 7465,
      "установлено": 7466,
      "эксперим": 7467,
      "дорого": 7468,
      "крыму": 7469,
      "выступил": 7470,
      "политику": 7471,
      "авторы": 7472,
      "безопасность": 7473,
      "промышленных": 7474,
      "##унд": 7475,
      "риск": 7476,
      "силов": 7477,
      "состоялась": 7478,
      "знак": 7479,
      "государственный": 7480,
      "кредитных": 7481,
      "связь": 7482,
      "сохранить": 7483,
      "отказались": 7484,
      "принц": 7485,
      "расту": 7486,
      "##устой": 7487,
      "условиям": 7488,
      "альян": 7489,
      "инвесторы": 7490,
      "морской": 7491,
      "любов": 7492,
      "джо": 7493,
      "хотел": 7494,
      "медицины": 7495,
      "норве": 7496,
      "стартов": 7497,
      "частично": 7498,
      "пожизн": 7499,
      "генпрокуро": 7500,
      "коллекция": 7501,
      "торговли": 7502,
      "казань": 7503,
      "современные": 7504,
      "крист": 7505,
      "ожидают": 7506,
      "опубликован": 7507,
      "опубликовал": 7508,
      "аналогичным": 7509,
      "судебного": 7510,
      "эффективность": 7511,
      "введен": 7512,
      "положение": 7513,
      "единственный": 7514,
      "николя": 7515,
      "структура": 7516,
      "виктора": 7517,
      "архитек": 7518,
      "принадлежа": 7519,
      "бизнесмена": 7520,
      "симон": 7521,
      "допуска": 7522,
      "пассажир": 7523,
      "функциони": 7524,
      "страхование": 7525,
      "предварительным": 7526,
      "зафиксировано": 7527,
      "удовлетворил": 7528,
      "ветер": 7529,
      "вариант": 7530,
      "научно": 7531,
      "олимпиа": 7532,
      "прибли": 7533,
      "локомо": 7534,
      "герм": 7535,
      "подразделения": 7536,
      "отвеча": 7537,
      "конститу": 7538,
      "помещениях": 7539,
      "##пользов": 7540,
      "перенес": 7541,
      "принимать": 7542,
      "мандата": 7543,
      "привлечения": 7544,
      "просьбой": 7545,
      "террористи": 7546,
      "очков": 7547,
      "астрахань": 7548,
      "поколения": 7549,
      "выражении": 7550,
      "кондратьев": 7551,
      "себя": 7552,
      "выразил": 7553,
      "опрошенных": 7554,
      "валентина": 7555,
      "ликвидации": 7556,
      "бондарчук": 7557,
      "геленджика": 7558,
      "##инспекции": 7559,
      "высказывания": 7560,
      "генплана": 7561,
      "доверие": 7562,
      "выглядит": 7563,
      "предназначен": 7564,
      "координи": 7565,
      "интеллекта": 7566,
      "упаков": 7567,
      "бюро": 7568,
      "присоедин": 7569,
      "подмосков": 7570,
      "ac": 7571,
      "con": 7572,
      "ii": 7573,
      "ipo": 7574,
      "tes": 7575,
      "voy": 7576,
      "ах": 7577,
      "бом": 7578,
      "ват": 7579,
      "вмен": 7580,
      "дже": 7581,
      "дожд": 7582,
      "зона": 7583,
      "исте": 7584,
      "ков": 7585,
      "кил": 7586,
      "кана": 7587,
      "лим": 7588,
      "моло": 7589,
      "меру": 7590,
      "нему": 7591,
      "неле": 7592,
      "одино": 7593,
      "пс": 7594,
      "смысл": 7595,
      "тему": 7596,
      "фрон": 7597,
      "цем": 7598,
      "члены": 7599,
      "шев": 7600,
      "##ара": 7601,
      "##гуп": 7602,
      "##уэ": 7603,
      "##еф": 7604,
      "##действ": 7605,
      "##ывать": 7606,
      "##фон": 7607,
      "##чан": 7608,
      "##чности": 7609,
      "##жные": 7610,
      "##ne": 7611,
      "##бель": 7612,
      "##яд": 7613,
      "##ug": 7614,
      "##итив": 7615,
      "##ствам": 7616,
      "##онс": 7617,
      "пораж": 7618,
      "##инского": 7619,
      "наст": 7620,
      "##роваться": 7621,
      "реп": 7622,
      "отелей": 7623,
      "пригла": 7624,
      "##чера": 7625,
      "##спорт": 7626,
      "##альному": 7627,
      "##ковой": 7628,
      "поле": 7629,
      "случ": 7630,
      "слуш": 7631,
      "##лян": 7632,
      "##звуч": 7633,
      "##зацией": 7634,
      "##ятых": 7635,
      "нео": 7636,
      "конец": 7637,
      "##щими": 7638,
      "##чики": 7639,
      "компози": 7640,
      "осен": 7641,
      "осенью": 7642,
      "##лежа": 7643,
      "возме": 7644,
      "возника": 7645,
      "суды": 7646,
      "##иваться": 7647,
      "##ивший": 7648,
      "эколо": 7649,
      "маст": 7650,
      "региональной": 7651,
      "региональные": 7652,
      "совещ": 7653,
      "заключа": 7654,
      "началась": 7655,
      "начнется": 7656,
      "серии": 7657,
      "заявлений": 7658,
      "составило": 7659,
      "составляла": 7660,
      "уклон": 7661,
      "##комп": 7662,
      "пано": 7663,
      "представил": 7664,
      "представила": 7665,
      "склад": 7666,
      "техно": 7667,
      "друго": 7668,
      "##ентации": 7669,
      "производители": 7670,
      "привело": 7671,
      "матче": 7672,
      "матча": 7673,
      "направили": 7674,
      "направить": 7675,
      "иске": 7676,
      "возможных": 7677,
      "киев": 7678,
      "ставро": 7679,
      "создан": 7680,
      "признать": 7681,
      "гражданской": 7682,
      "водителя": 7683,
      "группу": 7684,
      "выступая": 7685,
      "инвестиционных": 7686,
      "большей": 7687,
      "домах": 7688,
      "организацию": 7689,
      "пино": 7690,
      "значит": 7691,
      "факторов": 7692,
      "фактором": 7693,
      "высокая": 7694,
      "высокую": 7695,
      "америки": 7696,
      "обеспечение": 7697,
      "образование": 7698,
      "улицах": 7699,
      "проблему": 7700,
      "продолжит": 7701,
      "сервисы": 7702,
      "разработка": 7703,
      "появилась": 7704,
      "энергии": 7705,
      "предоставить": 7706,
      "лидеров": 7707,
      "бренд": 7708,
      "смяг": 7709,
      "коллектив": 7710,
      "масси": 7711,
      "##андем": 7712,
      "##ницах": 7713,
      "оборот": 7714,
      "торговле": 7715,
      "снизился": 7716,
      "инструмента": 7717,
      "лабора": 7718,
      "предполож": 7719,
      "григор": 7720,
      "давно": 7721,
      "давление": 7722,
      "построить": 7723,
      "огня": 7724,
      "разрешение": 7725,
      "медицинских": 7726,
      "гаранти": 7727,
      "издание": 7728,
      "рассматривает": 7729,
      "предлагается": 7730,
      "болез": 7731,
      "смогли": 7732,
      "владельцем": 7733,
      "практика": 7734,
      "павлов": 7735,
      "структур": 7736,
      "понять": 7737,
      "популярность": 7738,
      "убийство": 7739,
      "обычно": 7740,
      "ресурс": 7741,
      "ленинский": 7742,
      "внутреннего": 7743,
      "исследователь": 7744,
      "налоговых": 7745,
      "украинского": 7746,
      "выдвин": 7747,
      "великоб": 7748,
      "консультации": 7749,
      "половины": 7750,
      "##мотрели": 7751,
      "драй": 7752,
      "списке": 7753,
      "индивидуальный": 7754,
      "смерть": 7755,
      "подозр": 7756,
      "изъяли": 7757,
      "административной": 7758,
      "прямо": 7759,
      "здоровью": 7760,
      "кандидатуру": 7761,
      "сотрудничество": 7762,
      "каком": 7763,
      "наличие": 7764,
      "узн": 7765,
      "парижской": 7766,
      "бакланова": 7767,
      "замедление": 7768,
      "футболист": 7769,
      "урегулирования": 7770,
      "согласился": 7771,
      "улучш": 7772,
      "фракции": 7773,
      "группой": 7774,
      "уменьш": 7775,
      "случив": 7776,
      "предусмотрено": 7777,
      "инициативы": 7778,
      "предусматривает": 7779,
      "салав": 7780,
      "авиакомпании": 7781,
      "##ube": 7782,
      "вакансий": 7783,
      "вашинг": 7784,
      "сегодняшний": 7785,
      "wink": 7786,
      "напомнил": 7787,
      "норматив": 7788,
      "запорожской": 7789,
      "ухуд": 7790,
      "протяжении": 7791,
      "voyah": 7792,
      "великобрит": 7793,
      ".:": 7794,
      "cor": 7795,
      "vol": 7796,
      "бель": 7797,
      "брос": 7798,
      "браз": 7799,
      "бэк": 7800,
      "вчера": 7801,
      "гре": 7802,
      "дни": 7803,
      "дании": 7804,
      "дух": 7805,
      "есть": 7806,
      "жю": 7807,
      "иран": 7808,
      "кок": 7809,
      "кхл": 7810,
      "лед": 7811,
      "пр": 7812,
      "пур": 7813,
      "рем": 7814,
      "рождения": 7815,
      "снаб": 7816,
      "употреб": 7817,
      "фан": 7818,
      "эсто": 7819,
      "##гатель": 7820,
      "##исп": 7821,
      "##джи": 7822,
      "##зал": 7823,
      "##шк": 7824,
      "##шед": 7825,
      "##ющее": 7826,
      "##яль": 7827,
      "##щает": 7828,
      "##ld": 7829,
      "##her": 7830,
      "##ks": 7831,
      "##bc": 7832,
      "##йте": 7833,
      "##овом": 7834,
      "##рот": 7835,
      "##росл": 7836,
      "##анно": 7837,
      "##иля": 7838,
      "##риз": 7839,
      "попа": 7840,
      "погод": 7841,
      "прожив": 7842,
      "обслед": 7843,
      "обстре": 7844,
      "##емые": 7845,
      "##емости": 7846,
      "зачаст": 7847,
      "напротив": 7848,
      "##осред": 7849,
      "##рур": 7850,
      "##тием": 7851,
      "реструкт": 7852,
      "пристав": 7853,
      "причаст": 7854,
      "стс": 7855,
      "вышли": 7856,
      "##отех": 7857,
      "подним": 7858,
      "полпред": 7859,
      "военные": 7860,
      "роспотреб": 7861,
      "конструкции": 7862,
      "дочь": 7863,
      "##щика": 7864,
      "##гад": 7865,
      "##асо": 7866,
      "мигра": 7867,
      "таком": 7868,
      "##гун": 7869,
      "##мыв": 7870,
      "##сами": 7871,
      "мад": 7872,
      "##иком": 7873,
      "региональное": 7874,
      "владе": 7875,
      "начин": 7876,
      "серий": 7877,
      "провин": 7878,
      "общественных": 7879,
      "развивать": 7880,
      "##енаправ": 7881,
      "##очь": 7882,
      "следственные": 7883,
      "паро": 7884,
      "помочь": 7885,
      "##здо": 7886,
      "границы": 7887,
      "представляет": 7888,
      "управлению": 7889,
      "производственных": 7890,
      "базов": 7891,
      "уведом": 7892,
      "направлено": 7893,
      "показателей": 7894,
      "государство": 7895,
      "посту": 7896,
      "отклон": 7897,
      "главной": 7898,
      "главная": 7899,
      "руководства": 7900,
      "руководство": 7901,
      "обвинен": 7902,
      "распис": 7903,
      "установка": 7904,
      "крыма": 7905,
      "выступление": 7906,
      "позволило": 7907,
      "климат": 7908,
      "прошлым": 7909,
      "условно": 7910,
      "оказалось": 7911,
      "организацией": 7912,
      "уголовных": 7913,
      "остались": 7914,
      "состоялся": 7915,
      "знамени": 7916,
      "доходность": 7917,
      "процессе": 7918,
      "объявила": 7919,
      "имя": 7920,
      "кредитования": 7921,
      "жизн": 7922,
      "игру": 7923,
      "количеству": 7924,
      "добавили": 7925,
      "##рался": 7926,
      "покупки": 7927,
      "покупке": 7928,
      "появились": 7929,
      "баланс": 7930,
      "полиго": 7931,
      "подготовку": 7932,
      "арбитражных": 7933,
      "проводит": 7934,
      "иностранным": 7935,
      "муниципальной": 7936,
      "короб": 7937,
      "выполнение": 7938,
      "##ющиеся": 7939,
      "генеральной": 7940,
      "мирового": 7941,
      "электроэнер": 7942,
      "министерстве": 7943,
      "ожидаем": 7944,
      "блог": 7945,
      "сократился": 7946,
      "кандидата": 7947,
      "крит": 7948,
      "фундам": 7949,
      "располага": 7950,
      "израильских": 7951,
      "осуществляет": 7952,
      "учреждение": 7953,
      "традиций": 7954,
      "##ota": 7955,
      "косми": 7956,
      "восстановление": 7957,
      "исследований": 7958,
      "становятся": 7959,
      "зеленского": 7960,
      "называют": 7961,
      "парамет": 7962,
      "холод": 7963,
      "подобные": 7964,
      "участвовали": 7965,
      "влияния": 7966,
      "израилем": 7967,
      "инструментов": 7968,
      "раскрити": 7969,
      "подрядчика": 7970,
      "поисков": 7971,
      "наблюдения": 7972,
      "французский": 7973,
      "супруги": 7974,
      "уточняется": 7975,
      "краевого": 7976,
      "демок": 7977,
      "казахстана": 7978,
      "награду": 7979,
      "##образов": 7980,
      "компенсации": 7981,
      "картофеля": 7982,
      "теракт": 7983,
      "артист": 7984,
      "иркут": 7985,
      "молдавии": 7986,
      "нежил": 7987,
      "борту": 7988,
      "нейт": 7989,
      "устойчивого": 7990,
      "евросоюза": 7991,
      "достой": 7992,
      "столько": 7993,
      "комментирует": 7994,
      "экстремистской": 7995,
      "египта": 7996,
      "титул": 7997,
      "вырастет": 7998,
      "резюми": 7999,
      "госзакуп": 8000,
      "tesla": 8001,
      "нелег": 8002,
      "пурп": 8003,
      "зачастую": 8004,
      "реструктури": 8005,
      "bro": 8006,
      "me": 8007,
      "бед": 8008,
      "бес": 8009,
      "ищ": 8010,
      "ими": 8011,
      "нож": 8012,
      "пна": 8013,
      "пьет": 8014,
      "фсб": 8015,
      "хер": 8016,
      "щел": 8017,
      "эт": 8018,
      "эмо": 8019,
      "юг": 8020,
      "##сил": 8021,
      "##гтя": 8022,
      "##ггер": 8023,
      "##цкая": 8024,
      "##ё": 8025,
      "##еся": 8026,
      "##ris": 8027,
      "##жным": 8028,
      "##ьер": 8029,
      "##ce": 8030,
      "##bor": 8031,
      "##енство": 8032,
      "##енными": 8033,
      "##рад": 8034,
      "##номи": 8035,
      "##омер": 8036,
      "##риц": 8037,
      "##нич": 8038,
      "просят": 8039,
      "соав": 8040,
      "рак": 8041,
      "нау": 8042,
      "##еко": 8043,
      "##екси": 8044,
      "отлож": 8045,
      "прим": 8046,
      "##авто": 8047,
      "##чества": 8048,
      "##васто": 8049,
      "##отреб": 8050,
      "##ково": 8051,
      "подел": 8052,
      "полгода": 8053,
      "инк": 8054,
      "индекс": 8055,
      "##есто": 8056,
      "росприрод": 8057,
      "нехват": 8058,
      "##аниях": 8059,
      "рубеж": 8060,
      "##чика": 8061,
      "компьют": 8062,
      "##граде": 8063,
      "опров": 8064,
      "миридонов": 8065,
      "##ленный": 8066,
      "моз": 8067,
      "сообщения": 8068,
      "##езопас": 8069,
      "депу": 8070,
      "дегтя": 8071,
      "##леч": 8072,
      "##лева": 8073,
      "экстра": 8074,
      "экосистем": 8075,
      "личные": 8076,
      "перешел": 8077,
      "мега": 8078,
      "аренд": 8079,
      "правда": 8080,
      "##зыве": 8081,
      "общее": 8082,
      "общественной": 8083,
      "##зий": 8084,
      "решить": 8085,
      "##держки": 8086,
      "##поля": 8087,
      "развед": 8088,
      "центроб": 8089,
      "продавать": 8090,
      "##еристи": 8091,
      "марк": 8092,
      "основании": 8093,
      "привел": 8094,
      "привели": 8095,
      "повер": 8096,
      "севасто": 8097,
      "территорией": 8098,
      "##мотра": 8099,
      "направлении": 8100,
      "двой": 8101,
      "требуют": 8102,
      "каннах": 8103,
      "находиться": 8104,
      "компаниях": 8105,
      "руководителем": 8106,
      "обвинению": 8107,
      "водо": 8108,
      "сад": 8109,
      "сбеж": 8110,
      "помогает": 8111,
      "помогают": 8112,
      "министров": 8113,
      "взять": 8114,
      "квт": 8115,
      "санкции": 8116,
      "выступают": 8117,
      "открыли": 8118,
      "девяти": 8119,
      "клиенты": 8120,
      "комплексы": 8121,
      "учени": 8122,
      "итоги": 8123,
      "сделали": 8124,
      "планиров": 8125,
      "бывших": 8126,
      "знамен": 8127,
      "волга": 8128,
      "целей": 8129,
      "рейс": 8130,
      "иммун": 8131,
      "заключили": 8132,
      "защита": 8133,
      "оперативных": 8134,
      "##iss": 8135,
      "##ity": 8136,
      "разработке": 8137,
      "многом": 8138,
      "исполнение": 8139,
      "балан": 8140,
      "растрате": 8141,
      "звезды": 8142,
      "войска": 8143,
      "проводить": 8144,
      "резерв": 8145,
      "желание": 8146,
      "фигурантов": 8147,
      "оставил": 8148,
      "современных": 8149,
      "исче": 8150,
      "инструментом": 8151,
      "##lay": 8152,
      "судебных": 8153,
      "тюмен": 8154,
      "застройки": 8155,
      "привлечен": 8156,
      "земельного": 8157,
      "госдума": 8158,
      "трудо": 8159,
      "театраль": 8160,
      "девелопера": 8161,
      "девелопмент": 8162,
      "эффективности": 8163,
      "рассматривают": 8164,
      "тиг": 8165,
      "музыкан": 8166,
      "непосред": 8167,
      "намерены": 8168,
      "мощностей": 8169,
      "возраста": 8170,
      "восстановления": 8171,
      "ресурсы": 8172,
      "финансовые": 8173,
      "удары": 8174,
      "студии": 8175,
      "постановления": 8176,
      "ставрополье": 8177,
      "характеристи": 8178,
      "опасность": 8179,
      "выявили": 8180,
      "обработку": 8181,
      "редко": 8182,
      "ind": 8183,
      "протя": 8184,
      "протест": 8185,
      "десятилет": 8186,
      "учитывать": 8187,
      "нефтепроду": 8188,
      "поселке": 8189,
      "шари": 8190,
      "сопровожд": 8191,
      "материалам": 8192,
      "кинофестиваля": 8193,
      "уточняет": 8194,
      "##ika": 8195,
      "проектом": 8196,
      "вовсе": 8197,
      "нападения": 8198,
      "никаких": 8199,
      "торговых": 8200,
      "совершил": 8201,
      "попросил": 8202,
      "внедрение": 8203,
      "вторичном": 8204,
      "благоустройство": 8205,
      "холдинга": 8206,
      "анон": 8207,
      "кимерл": 8208,
      "думаю": 8209,
      "убытки": 8210,
      "вторник": 8211,
      "означает": 8212,
      "##такте": 8213,
      "дважды": 8214,
      "кузне": 8215,
      "атаковали": 8216,
      "интеллекту": 8217,
      "ходатайство": 8218,
      "авангар": 8219,
      "западе": 8220,
      "росавиации": 8221,
      "нападающий": 8222,
      "прошунин": 8223,
      "километ": 8224,
      "депутатом": 8225,
      "кимерлинг": 8226,
      "am": 8227,
      "car": 8228,
      "gl": 8229,
      "hh": 8230,
      "iph": 8231,
      "tech": 8232,
      "бег": 8233,
      "врод": 8234,
      "вене": 8235,
      "венг": 8236,
      "глеб": 8237,
      "дар": 8238,
      "дне": 8239,
      "лечения": 8240,
      "рож": 8241,
      "сю": 8242,
      "сбы": 8243,
      "счета": 8244,
      "убе": 8245,
      "удив": 8246,
      "фик": 8247,
      "чек": 8248,
      "чили": 8249,
      "читай": 8250,
      "шел": 8251,
      "шап": 8252,
      "эск": 8253,
      "ям": 8254,
      "##суж": 8255,
      "##троп": 8256,
      "##ип": 8257,
      "##мед": 8258,
      "##еев": 8259,
      "##вез": 8260,
      "##ваты": 8261,
      "##вались": 8262,
      "##eed": 8263,
      "##ктив": 8264,
      "##жет": 8265,
      "##жит": 8266,
      "##жного": 8267,
      "##шкин": 8268,
      "##хова": 8269,
      "##щением": 8270,
      "##ta": 8271,
      "##стата": 8272,
      "##ову": 8273,
      "##рании": 8274,
      "##рио": 8275,
      "##низ": 8276,
      "пошли": 8277,
      "прожи": 8278,
      "обустрой": 8279,
      "обсуж": 8280,
      "##емся": 8281,
      "##сян": 8282,
      "зара": 8283,
      "загород": 8284,
      "##ельной": 8285,
      "##тики": 8286,
      "отс": 8287,
      "отриц": 8288,
      "##авшего": 8289,
      "##вающие": 8290,
      "вышла": 8291,
      "##евого": 8292,
      "предстоя": 8293,
      "полной": 8294,
      "##илия": 8295,
      "##илизацию": 8296,
      "##чины": 8297,
      "госавто": 8298,
      "сообщают": 8299,
      "деб": 8300,
      "личных": 8301,
      "анс": 8302,
      "данными": 8303,
      "городу": 8304,
      "влад": 8305,
      "##ройки": 8306,
      "##шади": 8307,
      "##цева": 8308,
      "решении": 8309,
      "укры": 8310,
      "ранены": 8311,
      "колес": 8312,
      "##ерии": 8313,
      "большие": 8314,
      "сканд": 8315,
      "##торам": 8316,
      "карты": 8317,
      "генна": 8318,
      "##рованную": 8319,
      "управлении": 8320,
      "формы": 8321,
      "производстве": 8322,
      "потрат": 8323,
      "участниками": 8324,
      "басс": 8325,
      "евра": 8326,
      "##онец": 8327,
      "детской": 8328,
      "детские": 8329,
      "создавать": 8330,
      "признана": 8331,
      "##стрее": 8332,
      "экономических": 8333,
      "экономической": 8334,
      "компаниями": 8335,
      "взросл": 8336,
      "установки": 8337,
      "##all": 8338,
      "счита": 8339,
      "объемы": 8340,
      "политических": 8341,
      "электроп": 8342,
      "сроком": 8343,
      "##деть": 8344,
      "остров": 8345,
      "замминистра": 8346,
      "максимум": 8347,
      "голлив": 8348,
      "контроле": 8349,
      "делают": 8350,
      "отказаться": 8351,
      "этими": 8352,
      "счету": 8353,
      "счетом": 8354,
      "победу": 8355,
      "оценку": 8356,
      "палат": 8357,
      "прокуратуре": 8358,
      "лояль": 8359,
      "лошади": 8360,
      "подготовка": 8361,
      "готовность": 8362,
      "арбитражного": 8363,
      "проводят": 8364,
      "жилые": 8365,
      "проведет": 8366,
      "любой": 8367,
      "предприниматели": 8368,
      "защите": 8369,
      "выполнения": 8370,
      "фигуранта": 8371,
      "##шаяся": 8372,
      "очередной": 8373,
      "немец": 8374,
      "занимался": 8375,
      "пострадавшим": 8376,
      "самолетов": 8377,
      "договору": 8378,
      "предусмотр": 8379,
      "страну": 8380,
      "лучшим": 8381,
      "штрафа": 8382,
      "корпорация": 8383,
      "малень": 8384,
      "спбгуп": 8385,
      "западном": 8386,
      "включил": 8387,
      "спасатели": 8388,
      "учреждений": 8389,
      "##ott": 8390,
      "текущем": 8391,
      "используют": 8392,
      "сокращения": 8393,
      "идея": 8394,
      "коллегии": 8395,
      "закупок": 8396,
      "налоговые": 8397,
      "опасности": 8398,
      "спортивные": 8399,
      "обращении": 8400,
      "наказания": 8401,
      "подобных": 8402,
      "отлича": 8403,
      "отличие": 8404,
      "зафиксирован": 8405,
      "предупре": 8406,
      "варианты": 8407,
      "льготы": 8408,
      "амми": 8409,
      "платформе": 8410,
      "йорк": 8411,
      "задолженность": 8412,
      "benz": 8413,
      "бобров": 8414,
      "окончания": 8415,
      "тюрьме": 8416,
      "школьников": 8417,
      "обсудили": 8418,
      "обсудить": 8419,
      "квартал": 8420,
      "конструктив": 8421,
      "высокого": 8422,
      "китае": 8423,
      "событий": 8424,
      "объяснил": 8425,
      "ведущих": 8426,
      "потребительского": 8427,
      "кремля": 8428,
      "планах": 8429,
      "юридических": 8430,
      "липецкой": 8431,
      "##способности": 8432,
      "##штейн": 8433,
      "интегри": 8434,
      "зарубежных": 8435,
      "дизайнер": 8436,
      "хватает": 8437,
      "оппози": 8438,
      "помещений": 8439,
      "реконструкцию": 8440,
      "franc": 8441,
      "exeed": 8442,
      "эфире": 8443,
      "вертолет": 8444,
      "изделий": 8445,
      "нолан": 8446,
      "госсекретарь": 8447,
      "дисци": 8448,
      "разумный": 8449,
      "истец": 8450,
      "исчез": 8451,
      "iphone": 8452,
      "вроде": 8453,
      "читайте": 8454,
      "hr": 8455,
      "vig": 8456,
      "брат": 8457,
      "бесед": 8458,
      "ени": 8459,
      "кей": 8460,
      "куд": 8461,
      "мит": 8462,
      "мур": 8463,
      "пм": 8464,
      "прит": 8465,
      "пандем": 8466,
      "ров": 8467,
      "рол": 8468,
      "сила": 8469,
      "слиш": 8470,
      "троп": 8471,
      "фоку": 8472,
      "хай": 8473,
      "че": 8474,
      "шла": 8475,
      "шаг": 8476,
      "швей": 8477,
      "##тс": 8478,
      "##тина": 8479,
      "##уро": 8480,
      "##ивается": 8481,
      "##игры": 8482,
      "##зму": 8483,
      "##бек": 8484,
      "##ялись": 8485,
      "##gh": 8486,
      "##muth": 8487,
      "##нополь": 8488,
      "##онова": 8489,
      "проезд": 8490,
      "пройдут": 8491,
      "общем": 8492,
      "заоч": 8493,
      "сочин": 8494,
      "нав": 8495,
      "навы": 8496,
      "нашим": 8497,
      "##оток": 8498,
      "##тика": 8499,
      "##ливая": 8500,
      "##рованием": 8501,
      "##оборот": 8502,
      "##сист": 8503,
      "##сировать": 8504,
      "отказа": 8505,
      "принос": 8506,
      "##чева": 8507,
      "##отно": 8508,
      "##гией": 8509,
      "##амен": 8510,
      "##ковым": 8511,
      "##равтод": 8512,
      "полеты": 8513,
      "спонс": 8514,
      "неоп": 8515,
      "##иди": 8516,
      "##мами": 8517,
      "рубля": 8518,
      "##жеб": 8519,
      "##граф": 8520,
      "опов": 8521,
      "##новод": 8522,
      "##ленного": 8523,
      "моей": 8524,
      "дешев": 8525,
      "осве": 8526,
      "которыми": 8527,
      "возле": 8528,
      "средне": 8529,
      "мах": 8530,
      "перемен": 8531,
      "##озан": 8532,
      "такую": 8533,
      "участвует": 8534,
      "правиль": 8535,
      "планы": 8536,
      "самозан": 8537,
      "обществен": 8538,
      "окна": 8539,
      "##очного": 8540,
      "российскими": 8541,
      "недейств": 8542,
      "##нули": 8543,
      "границе": 8544,
      "коллед": 8545,
      ">,<": 8546,
      "представили": 8547,
      "представля": 8548,
      "##жах": 8549,
      "##жая": 8550,
      "##жают": 8551,
      "##ana": 8552,
      "карта": 8553,
      "быстрее": 8554,
      "технику": 8555,
      "управлен": 8556,
      "повред": 8557,
      "согласия": 8558,
      "рынки": 8559,
      "матчей": 8560,
      "искать": 8561,
      "видом": 8562,
      "президенты": 8563,
      "##работки": 8564,
      "минпром": 8565,
      "канала": 8566,
      "александру": 8567,
      "##монополь": 8568,
      "детьми": 8569,
      "семье": 8570,
      "создав": 8571,
      "сбалан": 8572,
      "##урал": 8573,
      "вопросу": 8574,
      "краснодарскому": 8575,
      "дороге": 8576,
      "группи": 8577,
      "площадок": 8578,
      "коопера": 8579,
      "макрон": 8580,
      "позволяют": 8581,
      "клиентам": 8582,
      "сделал": 8583,
      "увеличения": 8584,
      "профил": 8585,
      "штук": 8586,
      "заверил": 8587,
      "##валась": 8588,
      "специалист": 8589,
      "##ствовали": 8590,
      "сетях": 8591,
      "рейса": 8592,
      "амери": 8593,
      "бюджете": 8594,
      "интереса": 8595,
      "горя": 8596,
      "франко": 8597,
      "покупку": 8598,
      "нефтя": 8599,
      "поступил": 8600,
      "людям": 8601,
      "тело": 8602,
      "режиссером": 8603,
      "воздух": 8604,
      "жилого": 8605,
      "обратиться": 8606,
      "хаб": 8607,
      "любых": 8608,
      "защитник": 8609,
      "выполнить": 8610,
      "пояснительной": 8611,
      "stone": 8612,
      "содейств": 8613,
      "охране": 8614,
      "подчеркнула": 8615,
      "креггер": 8616,
      "южурал": 8617,
      "примеру": 8618,
      "предполаг": 8619,
      "штрафы": 8620,
      "земельный": 8621,
      "розы": 8622,
      "аналитиков": 8623,
      "медицинского": 8624,
      "созн": 8625,
      "расширения": 8626,
      "анаста": 8627,
      "тими": 8628,
      "хищения": 8629,
      "хирур": 8630,
      "плане": 8631,
      "структуры": 8632,
      "##хими": 8633,
      "скорости": 8634,
      "платежи": 8635,
      "расположен": 8636,
      "картина": 8637,
      "великой": 8638,
      "вдоль": 8639,
      "возглавлял": 8640,
      "антимонополь": 8641,
      "аппарат": 8642,
      "аппарата": 8643,
      "отечественного": 8644,
      "запуска": 8645,
      "обслуживания": 8646,
      "столице": 8647,
      "героя": 8648,
      "страховых": 8649,
      "регистрации": 8650,
      "##ley": 8651,
      "предъявили": 8652,
      "башкиравтод": 8653,
      "нагрузку": 8654,
      "панам": 8655,
      "энергоресур": 8656,
      "медведь": 8657,
      "физических": 8658,
      "элементы": 8659,
      "орудия": 8660,
      "завтра": 8661,
      "компенсацию": 8662,
      "подачи": 8663,
      "обога": 8664,
      "мяг": 8665,
      "обозрев": 8666,
      "полицейские": 8667,
      "кругл": 8668,
      "испытания": 8669,
      "боевые": 8670,
      "warmuth": 8671,
      "оренбургской": 8672,
      "анализа": 8673,
      "температура": 8674,
      "эмман": 8675,
      "напоминает": 8676,
      "##anni": 8677,
      "окружающей": 8678,
      "решетников": 8679,
      "веществ": 8680,
      "вениамин": 8681,
      "вмеш": 8682,
      "лечение": 8683,
      "туапсе": 8684,
      "проголосовали": 8685,
      "консорциума": 8686,
      "angelika": 8687,
      "приволжье": 8688,
      "доброволь": 8689,
      "водоснабжения": 8690,
      "мишустин": 8691,
      "рукава": 8692,
      "германии": 8693,
      "григорьева": 8694,
      "пурпурные": 8695,
      "слишком": 8696,
      "минпромтор": 8697,
      "cat": 8698,
      "dig": 8699,
      "is": 8700,
      "jac": 8701,
      "lam": 8702,
      "бата": 8703,
      "волж": 8704,
      "греб": 8705,
      "гора": 8706,
      "дать": 8707,
      "дум": 8708,
      "зер": 8709,
      "зон": 8710,
      "зали": 8711,
      "кст": 8712,
      "лож": 8713,
      "нере": 8714,
      "огра": 8715,
      "ооп": 8716,
      "оха": 8717,
      "ово": 8718,
      "очист": 8719,
      "рит": 8720,
      "трем": 8721,
      "хозя": 8722,
      "эр": 8723,
      "юге": 8724,
      "##тера": 8725,
      "##гат": 8726,
      "##нений": 8727,
      "##дим": 8728,
      "##вание": 8729,
      "##вший": 8730,
      "##пом": 8731,
      "##кред": 8732,
      "##чек": 8733,
      "##зой": 8734,
      "##ьма": 8735,
      "##шек": 8736,
      "##ud": 8737,
      "##se": 8738,
      "##йм": 8739,
      "##овского": 8740,
      "##носят": 8741,
      "##тона": 8742,
      "##елл": 8743,
      "##атэ": 8744,
      "##рист": 8745,
      "##циф": 8746,
      "##инский": 8747,
      "обру": 8748,
      "загоре": 8749,
      "##мисс": 8750,
      "##еком": 8751,
      "##рующий": 8752,
      "##ойдет": 8753,
      "годовых": 8754,
      "регла": 8755,
      "примут": 8756,
      "##вающий": 8757,
      "вып": 8758,
      "##дами": 8759,
      "полет": 8760,
      "инспек": 8761,
      "##ерей": 8762,
      "спу": 8763,
      "спут": 8764,
      "##аниями": 8765,
      "##ждений": 8766,
      "##диров": 8767,
      "##употреб": 8768,
      "миро": 8769,
      "##ленной": 8770,
      "могла": 8771,
      "мотиви": 8772,
      "автод": 8773,
      "##вый": 8774,
      "##выбор": 8775,
      "осет": 8776,
      "судья": 8777,
      "##ивал": 8778,
      "##ивших": 8779,
      "##зовского": 8780,
      "линия": 8781,
      "##ery": 8782,
      "орк": 8783,
      "##страхов": 8784,
      "деловой": 8785,
      "##веро": 8786,
      "плод": 8787,
      "начальная": 8788,
      "красных": 8789,
      "решать": 8790,
      "##исты": 8791,
      "стара": 8792,
      "##вардии": 8793,
      "центров": 8794,
      "центры": 8795,
      "терм": 8796,
      "##пуса": 8797,
      "продать": 8798,
      "представлены": 8799,
      "больших": 8800,
      "##рованным": 8801,
      "##рованное": 8802,
      "миними": 8803,
      "##ментов": 8804,
      "##плей": 8805,
      "базу": 8806,
      "дворе": 8807,
      "виды": 8808,
      "последним": 8809,
      "возможностей": 8810,
      "детского": 8811,
      "детям": 8812,
      "сотрудниками": 8813,
      "тогда": 8814,
      "посчит": 8815,
      "противодейств": 8816,
      "горе": 8817,
      "обвинил": 8818,
      "водителей": 8819,
      "леп": 8820,
      "увеличив": 8821,
      "городских": 8822,
      "дорогах": 8823,
      "воспользов": 8824,
      "санитар": 8825,
      "клад": 8826,
      "инвестиционный": 8827,
      "большим": 8828,
      "любы": 8829,
      "##eta": 8830,
      "федеральными": 8831,
      "белгород": 8832,
      "бывшей": 8833,
      "профессии": 8834,
      "развитием": 8835,
      "международные": 8836,
      "пострадал": 8837,
      "воронежа": 8838,
      "изменение": 8839,
      "потребности": 8840,
      "волонт": 8841,
      "поставщиков": 8842,
      "замуж": 8843,
      "высоких": 8844,
      "высокие": 8845,
      "станут": 8846,
      "горно": 8847,
      "принуд": 8848,
      "четырем": 8849,
      "платформа": 8850,
      "победителем": 8851,
      "добавила": 8852,
      "оценить": 8853,
      "советского": 8854,
      "затраты": 8855,
      "квартире": 8856,
      "сири": 8857,
      "разработку": 8858,
      "исполнительный": 8859,
      "доступны": 8860,
      "тела": 8861,
      "максимальная": 8862,
      "произошла": 8863,
      "джон": 8864,
      "джорд": 8865,
      "королева": 8866,
      "выполнены": 8867,
      "управляющего": 8868,
      "брендов": 8869,
      "подтверждает": 8870,
      "индии": 8871,
      "кристо": 8872,
      "кримин": 8873,
      "исма": 8874,
      "блок": 8875,
      "сократилась": 8876,
      "закрыты": 8877,
      "южной": 8878,
      "южного": 8879,
      "позиция": 8880,
      "пользоваться": 8881,
      "введение": 8882,
      "содержания": 8883,
      "тренер": 8884,
      "мощность": 8885,
      "пугачевой": 8886,
      "странами": 8887,
      "металло": 8888,
      "рейтинге": 8889,
      "популярных": 8890,
      "проходил": 8891,
      "идею": 8892,
      "запросы": 8893,
      "внутренних": 8894,
      "различные": 8895,
      "доставили": 8896,
      "палестинского": 8897,
      "эпид": 8898,
      "интернете": 8899,
      "ввода": 8900,
      "природы": 8901,
      "природных": 8902,
      "солд": 8903,
      "драмат": 8904,
      "пятилет": 8905,
      "заметно": 8906,
      "признает": 8907,
      "аппаратов": 8908,
      "участвовал": 8909,
      "устройств": 8910,
      "топливо": 8911,
      "перспективы": 8912,
      "отходы": 8913,
      "пользуются": 8914,
      "ребенок": 8915,
      "снят": 8916,
      "страхования": 8917,
      "причинам": 8918,
      "формате": 8919,
      "оптим": 8920,
      "дизайн": 8921,
      "маркетинг": 8922,
      "маркетплей": 8923,
      "арестован": 8924,
      "безв": 8925,
      "дипломатиче": 8926,
      "события": 8927,
      "соблюдать": 8928,
      "соблюдение": 8929,
      "приобрести": 8930,
      "вооруженных": 8931,
      "спортсменов": 8932,
      "принимает": 8933,
      "смеш": 8934,
      "асф": 8935,
      "злоупотреб": 8936,
      "служеб": 8937,
      "взаимодействия": 8938,
      "юрлиц": 8939,
      "ядерной": 8940,
      "брони": 8941,
      "повестки": 8942,
      "собеседник": 8943,
      "##слава": 8944,
      "мусор": 8945,
      "##ящихся": 8946,
      "трибуны": 8947,
      "схемы": 8948,
      "вечер": 8949,
      "отставку": 8950,
      "включены": 8951,
      "микрорай": 8952,
      "станислав": 8953,
      "пытался": 8954,
      "тайфун": 8955,
      "чува": 8956,
      "отраслей": 8957,
      "##комнатные": 8958,
      "зенит": 8959,
      "альмодовар": 8960,
      "покинул": 8961,
      "паслер": 8962,
      "подвергся": 8963,
      "теплоснабжа": 8964,
      "оплату": 8965,
      "грозит": 8966,
      "мамед": 8967,
      "картотеке": 8968,
      "наличии": 8969,
      "диверси": 8970,
      "бутылок": 8971,
      "масштаби": 8972,
      "ассист": 8973,
      "ребята": 8974,
      "world": 8975,
      "отремонти": 8976,
      "оправд": 8977,
      "генпрокурора": 8978,
      "шевченко": 8979,
      "нейтраль": 8980,
      "реструктуризации": 8981,
      "госавтоинспекции": 8982,
      "голливуд": 8983,
      "сбаланси": 8984,
      "digital": 8985,
      "кстати": 8986,
      ">;": 8987,
      "co": 8988,
      "cal": 8989,
      "es": 8990,
      "fi": 8991,
      "or": 8992,
      "su": 8993,
      "soc": 8994,
      "week": 8995,
      "бре": 8996,
      "бух": 8997,
      "воро": 8998,
      "врио": 8999,
      "др": 9000,
      "дю": 9001,
      "дер": 9002,
      "жени": 9003,
      "или": 9004,
      "кля": 9005,
      "мсп": 9006,
      "нп": 9007,
      "пил": 9008,
      "пас": 9009,
      "сих": 9010,
      "хан": 9011,
      "хин": 9012,
      "хоре": 9013,
      "шан": 9014,
      "шоло": 9015,
      "эст": 9016,
      "эрд": 9017,
      "юла": 9018,
      "##нк": 9019,
      "##цом": 9020,
      "##цкого": 9021,
      "##ыл": 9022,
      "##ea": 9023,
      "##пед": 9024,
      "##кцион": 9025,
      "##жный": 9026,
      "##зя": 9027,
      "##зоре": 9028,
      "##out": 9029,
      "##шков": 9030,
      "##яем": 9031,
      "##pill": 9032,
      "##ендар": 9033,
      "##ово": 9034,
      "##ант": 9035,
      "##анду": 9036,
      "##алы": 9037,
      "##ериз": 9038,
      "##ерина": 9039,
      "##атся": 9040,
      "пош": 9041,
      "обост": 9042,
      "сос": 9043,
      "рага": 9044,
      "наби": 9045,
      "##армо": 9046,
      "отбы": 9047,
      "отец": 9048,
      "отмыв": 9049,
      "призы": 9050,
      "##спорта": 9051,
      "комбин": 9052,
      "##евым": 9053,
      "предвыбор": 9054,
[...]
